{
  "version": "1.0",
  "truncation": {
    "direction": "Right",
    "max_length": 512,
    "strategy": "LongestFirst",
    "stride": 0
  },
  "padding": {
    "strategy": "BatchLongest",
    "direction": "Right",
    "pad_to_multiple_of": null,
    "pad_id": 0,
    "pad_type_id": 0,
    "pad_token": "[PAD]"
  },
  "added_tokens": [
    {
      "id": 0,
      "content": "[PAD]",
      "single_word": false,
      "lstrip": false,
      "rstrip": false,
      "normalized": false,
      "special": true
    },
    {
      "id": 1,
      "content": "[UNK]",
      "single_word": false,
      "lstrip": false,
      "rstrip": false,
      "normalized": false,
      "special": true
    },
    {
      "id": 2,
      "content": "[CLS]",
      "single_word": false,
      "lstrip": false,
      "rstrip": false,
      "normalized": false,
      "special": true
    },
    {
      "id": 3,
      "content": "[SEP]",
      "single_word": false,
      "lstrip": false,
      "rstrip": false,
      "normalized": false,
      "special": true
    },
    {
      "id": 4,
      "content": "[MASK]",
      "single_word": false,
      "lstrip": false,
      "rstrip": false,
      "normalized": false,
      "special": true
    }
  ],
  "normalizer": {
    "type": "BertNormalizer",
    "clean_text": true,
    "handle_chinese_chars": true,
    "strip_accents": null,
    "lowercase": false
  },
  "pre_tokenizer": {
    "type": "BertPreTokenizer"
  },
  "post_processor": {
    "type": "TemplateProcessing",
    "single": [
      {
        "SpecialToken": {
          "id": "[CLS]",
          "type_id": 0
        }
      },
      {
        "Sequence": {
          "id": "A",
          "type_id": 0
        }
      },
      {
        "SpecialToken": {
          "id": "[SEP]",
          "type_id": 0
        }
      }
    ],
    "pair": [
      {
        "SpecialToken": {
          "id": "[CLS]",
          "type_id": 0
        }
      },
      {
        "Sequence": {
          "id": "A",
          "type_id": 0
        }
      },
      {
        "SpecialToken": {
          "id": "[SEP]",
          "type_id": 0
        }
      },
      {
        "Sequence": {
          "id": "B",
          "type_id": 1
        }
      },
      {
        "SpecialToken": {
          "id": "[SEP]",
          "type_id": 1
        }
      }
    ],
    "special_tokens": {
      "[CLS]": {
        "id": "[CLS]",
        "ids": [
          2
        ],
        "tokens": [
          "[CLS]"
        ]
      },
      "[SEP]": {
        "id": "[SEP]",
        "ids": [
          3
        ],
        "tokens": [
          "[SEP]"
        ]
      }
    }
  },
  "decoder": {
    "type": "WordPiece",
    "prefix": "##",
    "cleanup": true
  },
  "model": {
    "type": "WordPiece",
    "unk_token": "[UNK]",
    "continuing_subword_prefix": "##",
    "max_input_chars_per_word": 100,
    "vocab": {
      "[PAD]": 0,
      "[UNK]": 1,
      "[CLS]": 2,
      "[SEP]": 3,
      "[MASK]": 4,
      "!": 5,
      "\"": 6,
      "%": 7,
      "'": 8,
      "(": 9,
      ")": 10,
      "*": 11,
      "+": 12,
      ",": 13,
      "-": 14,
      ".": 15,
      "/": 16,
      "0": 17,
      "1": 18,
      "2": 19,
      "3": 20,
      "4": 21,
      "5": 22,
      "6": 23,
      "7": 24,
      "8": 25,
      "9": 26,
      ":": 27,
      ";": 28,
      "<": 29,
      "=": 30,
      "A": 31,
      "B": 32,
      "C": 33,
      "D": 34,
      "E": 35,
      "F": 36,
      "G": 37,
      "H": 38,
      "I": 39,
      "J": 40,
      "K": 41,
      "L": 42,
      "M": 43,
      "N": 44,
      "O": 45,
      "P": 46,
      "Q": 47,
      "R": 48,
      "S": 49,
      "T": 50,
      "U": 51,
      "V": 52,
      "W": 53,
      "X": 54,
      "Y": 55,
      "Z": 56,
      "\\": 57,
      "a": 58,
      "b": 59,
      "c": 60,
      "d": 61,
      "e": 62,
      "g": 63,
      "h": 64,
      "i": 65,
      "k": 66,
      "l": 67,
      "m": 68,
      "n": 69,
      "o": 70,
      "p": 71,
      "q": 72,
      "r": 73,
      "s": 74,
      "t": 75,
      "u": 76,
      "v": 77,
      "w": 78,
      "x": 79,
      "y": 80,
      "z": 81,
      "«": 82,
      "°": 83,
      "±": 84,
      "³": 85,
      "·": 86,
      "»": 87,
      "×": 88,
      "˚": 89,
      "·": 90,
      "А": 91,
      "Б": 92,
      "В": 93,
      "Г": 94,
      "Д": 95,
      "Е": 96,
      "Ж": 97,
      "З": 98,
      "И": 99,
      "Й": 100,
      "К": 101,
      "Л": 102,
      "М": 103,
      "Н": 104,
      "О": 105,
      "П": 106,
      "Р": 107,
      "С": 108,
      "Т": 109,
      "У": 110,
      "Ф": 111,
      "Х": 112,
      "Ц": 113,
      "Ч": 114,
      "Ш": 115,
      "Щ": 116,
      "Ы": 117,
      "Ь": 118,
      "Э": 119,
      "Ю": 120,
      "Я": 121,
      "а": 122,
      "б": 123,
      "в": 124,
      "г": 125,
      "д": 126,
      "е": 127,
      "ж": 128,
      "з": 129,
      "и": 130,
      "й": 131,
      "к": 132,
      "л": 133,
      "м": 134,
      "н": 135,
      "о": 136,
      "п": 137,
      "р": 138,
      "с": 139,
      "т": 140,
      "у": 141,
      "ф": 142,
      "х": 143,
      "ц": 144,
      "ч": 145,
      "ш": 146,
      "щ": 147,
      "ъ": 148,
      "ы": 149,
      "ь": 150,
      "э": 151,
      "ю": 152,
      "я": 153,
      "ё": 154,
      "–": 155,
      "№": 156,
      "∙": 157,
      "√": 158,
      "##о": 159,
      "##1": 160,
      "##а": 161,
      "##т": 162,
      "##и": 163,
      "##н": 164,
      "##р": 165,
      "##в": 166,
      "##й": 167,
      "##у": 168,
      "##х": 169,
      "##с": 170,
      "##ч": 171,
      "##е": 172,
      "##л": 173,
      "##д": 174,
      "##ы": 175,
      "##0": 176,
      "##6": 177,
      "##4": 178,
      "##к": 179,
      "##я": 180,
      "##з": 181,
      "##ш": 182,
      "##м": 183,
      "##Ф": 184,
      "##Ч": 185,
      "##г": 186,
      "##п": 187,
      "##ь": 188,
      "##3": 189,
      "##5": 190,
      "##В": 191,
      "##8": 192,
      "##9": 193,
      "##7": 194,
      "##С": 195,
      "##Б": 196,
      "##Ш": 197,
      "##2": 198,
      "##Г": 199,
      "##К": 200,
      "##щ": 201,
      "##б": 202,
      "##Р": 203,
      "##ю": 204,
      "##Е": 205,
      "##x": 206,
      "##П": 207,
      "##ц": 208,
      "##М": 209,
      "##И": 210,
      "##Т": 211,
      "##А": 212,
      "##ж": 213,
      "##О": 214,
      "##Н": 215,
      "##У": 216,
      "##ф": 217,
      "##Щ": 218,
      "##Х": 219,
      "##Д": 220,
      "##э": 221,
      "##T": 222,
      "##P": 223,
      "##Э": 224,
      "##Л": 225,
      "##F": 226,
      "##I": 227,
      "##ё": 228,
      "##G": 229,
      "##b": 230,
      "##D": 231,
      "##M": 232,
      "##C": 233,
      "##S": 234,
      "##˚": 235,
      "##Я": 236,
      "##З": 237,
      "##V": 238,
      "##U": 239,
      "##×": 240,
      "##Ж": 241,
      "##Ц": 242,
      "##ъ": 243,
      "##H": 244,
      "##°": 245,
      "##±": 246,
      "##u": 247,
      "##r": 248,
      "##o": 249,
      "##N": 250,
      "##y": 251,
      "##L": 252,
      "##B": 253,
      "##E": 254,
      "##Ы": 255,
      "##Й": 256,
      "##R": 257,
      "##p": 258,
      "##X": 259,
      "##i": 260,
      "##n": 261,
      "##e": 262,
      "##W": 263,
      "##J": 264,
      "##a": 265,
      "##s": 266,
      "##t": 267,
      "##c": 268,
      "##A": 269,
      "##w": 270,
      "##O": 271,
      "##d": 272,
      "##Ь": 273,
      "##Z": 274,
      "##K": 275,
      "##l": 276,
      "##v": 277,
      "##Y": 278,
      "##№": 279,
      "##∙": 280,
      "##q": 281,
      "##g": 282,
      "##Ю": 283,
      "##h": 284,
      "##k": 285,
      "##Q": 286,
      "##³": 287,
      "##ны": 288,
      "##но": 289,
      "##на": 290,
      "##ов": 291,
      "##ст": 292,
      "мм": 293,
      "##ль": 294,
      "##ни": 295,
      "##ер": 296,
      "##ет": 297,
      "##ол": 298,
      "##00": 299,
      "##ор": 300,
      "##ный": 301,
      "##та": 302,
      "##ам": 303,
      "##ой": 304,
      "##ли": 305,
      "##он": 306,
      "##ом": 307,
      "##од": 308,
      "##ле": 309,
      "##ас": 310,
      "##ная": 311,
      "##ки": 312,
      "##ен": 313,
      "##ру": 314,
      "##ной": 315,
      "##ан": 316,
      "##ина": 317,
      "##ка": 318,
      "##ные": 319,
      "ди": 320,
      "##етр": 321,
      "##ля": 322,
      "##аметр": 323,
      "диаметр": 324,
      "на": 325,
      "##ат": 326,
      "##ем": 327,
      "из": 328,
      "##оп": 329,
      "##ель": 330,
      "##сти": 331,
      "##ар": 332,
      "##аз": 333,
      "ста": 334,
      "##ени": 335,
      "пр": 336,
      "для": 337,
      "##ок": 338,
      "##го": 339,
      "##аб": 340,
      "##ес": 341,
      "##ци": 342,
      "##ез": 343,
      "##ров": 344,
      "тол": 345,
      "толщ": 346,
      "##ра": 347,
      "##мер": 348,
      "##ей": 349,
      "##ми": 350,
      "##асс": 351,
      "##от": 352,
      "ст": 353,
      "толщина": 354,
      "##ла": 355,
      "##ры": 356,
      "раз": 357,
      "##ных": 358,
      "##оч": 359,
      "кл": 360,
      "класс": 361,
      "без": 362,
      "##ит": 363,
      "##ост": 364,
      "##ед": 365,
      "##нов": 366,
      "размер": 367,
      "##об": 368,
      "##ков": 369,
      "##ин": 370,
      "##ти": 371,
      "##тр": 372,
      "##ев": 373,
      "##ав": 374,
      "##ного": 375,
      "##лени": 376,
      "##абель": 377,
      "##оли": 378,
      "##50": 379,
      "##ност": 380,
      "##еп": 381,
      "##руб": 382,
      "##ая": 383,
      "##ности": 384,
      "ном": 385,
      "##чес": 386,
      "об": 387,
      "##иналь": 388,
      "номиналь": 389,
      "##ным": 390,
      "##ло": 391,
      "##ность": 392,
      "сталь": 393,
      "безоп": 394,
      "100": 395,
      "##ко": 396,
      "##лов": 397,
      "##пор": 398,
      "##асности": 399,
      "безопасности": 400,
      "си": 401,
      "##етон": 402,
      "##ющ": 403,
      "стали": 404,
      "##ение": 405,
      "##ения": 406,
      "##еле": 407,
      "##ив": 408,
      "##ек": 409,
      "от": 410,
      "##аль": 411,
      "##рован": 412,
      "##ал": 413,
      "вы": 414,
      "##ход": 415,
      "##ро": 416,
      "##ное": 417,
      "кг": 418,
      "10": 419,
      "12": 420,
      "до": 421,
      "вн": 422,
      "##овы": 423,
      "св": 424,
      "##остой": 425,
      "поли": 426,
      "##руж": 427,
      "##из": 428,
      "кон": 429,
      "##мостой": 430,
      "за": 431,
      "##ату": 432,
      "м3": 433,
      "##Па": 434,
      "МПа": 435,
      "мар": 436,
      "наруж": 437,
      "##ление": 438,
      "##ух": 439,
      "##ами": 440,
      "дав": 441,
      "##со": 442,
      "теп": 443,
      "##ний": 444,
      "##ком": 445,
      "Кабель": 446,
      "со": 447,
      "##ест": 448,
      "##чески": 449,
      "номинальный": 450,
      "##лю": 451,
      "дв": 452,
      "размеры": 453,
      "под": 454,
      "давление": 455,
      "##нит": 456,
      "##лек": 457,
      "##им": 458,
      "##нков": 459,
      "##ож": 460,
      "##цинков": 461,
      "##цинкован": 462,
      "##00х": 463,
      "дли": 464,
      "труб": 465,
      "##ейс": 466,
      "##ад": 467,
      "ос": 468,
      "сейс": 469,
      "сейсмостой": 470,
      "кабель": 471,
      "##утр": 472,
      "тр": 473,
      "внутр": 474,
      "рас": 475,
      "##ег": 476,
      "##кой": 477,
      "внутрен": 478,
      "длина": 479,
      "##пол": 480,
      "##рыти": 481,
      "##ип": 482,
      "##оля": 483,
      "##нд": 484,
      "50": 485,
      "##фи": 486,
      "пер": 487,
      "##ент": 488,
      "##онный": 489,
      "##оль": 490,
      "##20": 491,
      "##10": 492,
      "кор": 493,
      "гор": 494,
      "##ый": 495,
      "бетон": 496,
      "стен": 497,
      "##ани": 498,
      "##яж": 499,
      "20": 500,
      "##еч": 501,
      "##ые": 502,
      "##ерж": 503,
      "##ными": 504,
      "##шен": 505,
      "основ": 506,
      "##ирован": 507,
      "##кости": 508,
      "##оляци": 509,
      "##ровод": 510,
      "тип": 511,
      "оцинкован": 512,
      "##ус": 513,
      "##пр": 514,
      "##елез": 515,
      "желез": 516,
      "25": 517,
      "##лой": 518,
      "стенки": 519,
      "°C": 520,
      "##ос": 521,
      "Труб": 522,
      "##оз": 523,
      "##етал": 524,
      "##ее": 525,
      "пок": 526,
      "##ист": 527,
      "##обетон": 528,
      "15": 529,
      "не": 530,
      "##итель": 531,
      "про": 532,
      "##ил": 533,
      "##полн": 534,
      "##ъем": 535,
      "покрыти": 536,
      "од": 537,
      "ис": 538,
      "##ловой": 539,
      "40": 540,
      "##цев": 541,
      "алю": 542,
      "метал": 543,
      "16": 544,
      "ши": 545,
      "алюми": 546,
      "железобетон": 547,
      "##уч": 548,
      "алюмини": 549,
      "##ети": 550,
      "Пли": 551,
      "##ления": 552,
      "##ак": 553,
      "##х1": 554,
      "##лот": 555,
      "##опровод": 556,
      "при": 557,
      "##ым": 558,
      "исполн": 559,
      "ар": 560,
      "##рав": 561,
      "##порный": 562,
      "алюминиев": 563,
      "наружный": 564,
      "00": 565,
      "жил": 566,
      "##альной": 567,
      "##лад": 568,
      "Ст": 569,
      "##аве": 570,
      "номинальное": 571,
      "##000": 572,
      "мин": 573,
      "##вод": 574,
      "высо": 575,
      "##ия": 576,
      "##нг": 577,
      "высота": 578,
      "##лап": 579,
      "##анов": 580,
      "1000": 581,
      "зам": 582,
      "14": 583,
      "ок": 584,
      "##атуры": 585,
      "##ого": 586,
      "кр": 587,
      "стек": 588,
      "кВ": 589,
      "##или": 590,
      "##егор": 591,
      "нерж": 592,
      "##итный": 593,
      "##авеющ": 594,
      "нержавеющ": 595,
      "плот": 596,
      "##не": 597,
      "##80": 598,
      "##абар": 599,
      "объем": 600,
      "##иж": 601,
      "##кая": 602,
      "##ном": 603,
      "##абаритный": 604,
      "##ели": 605,
      "Клап": 606,
      "##уф": 607,
      "##вер": 608,
      "сейсмостойкости": 609,
      "расход": 610,
      "арм": 611,
      "##гл": 612,
      "внутренний": 613,
      "##очная": 614,
      "##тор": 615,
      "Клапан": 616,
      "##лектр": 617,
      "Плита": 618,
      "замком": 619,
      "##егория": 620,
      "##ел": 621,
      "плотность": 622,
      "двух": 623,
      "##ерм": 624,
      "Трубы": 625,
      "уст": 626,
      "##пер": 627,
      "##един": 628,
      "ог": 629,
      "тепло": 630,
      "кат": 631,
      "##вет": 632,
      "##ид": 633,
      "##орож": 634,
      "##руп": 635,
      "сп": 636,
      "арматуры": 637,
      "см": 638,
      "##яч": 639,
      "мед": 640,
      "габаритный": 641,
      "##лан": 642,
      "электр": 643,
      "тем": 644,
      "исполнение": 645,
      "##аты": 646,
      "минер": 647,
      "марка": 648,
      "500": 649,
      "темпер": 650,
      "##она": 651,
      "##фонный": 652,
      "горяч": 653,
      "основе": 654,
      "силовой": 655,
      "##ник": 656,
      "марки": 657,
      "##ех": 658,
      "ка": 659,
      "30": 660,
      "##x1": 661,
      "##ых": 662,
      "стальные": 663,
      "руч": 664,
      "категория": 665,
      "жилами": 666,
      "##так": 667,
      "пов": 668,
      "##лок": 669,
      "##25": 670,
      "##рашен": 671,
      "пор": 672,
      "##пряж": 673,
      "90": 674,
      "##илинд": 675,
      "##прав": 676,
      "ком": 677,
      "##ери": 678,
      "##ческий": 679,
      "пло": 680,
      "13": 681,
      "##ноп": 682,
      "полиэ": 683,
      "##па": 684,
      "##ением": 685,
      "##ям": 686,
      "##цов": 687,
      "шир": 688,
      "##лоп": 689,
      "##ания": 690,
      "##ур": 691,
      "##ое": 692,
      "прям": 693,
      "##60": 694,
      "##лит": 695,
      "##аст": 696,
      "##ции": 697,
      "150": 698,
      "стальной": 699,
      "м2": 700,
      "нержавеющей": 701,
      "##льный": 702,
      "покрытием": 703,
      "полимер": 704,
      "установ": 705,
      "##овой": 706,
      "гра": 707,
      "ваты": 708,
      "200": 709,
      "##онные": 710,
      "##лем": 711,
      "обли": 712,
      "облицов": 713,
      "##изоляци": 714,
      "Кор": 715,
      "400": 716,
      "слой": 717,
      "45": 718,
      "##ость": 719,
      "горяче": 720,
      "запорный": 721,
      "##уг": 722,
      "##еш": 723,
      "силь": 724,
      "свар": 725,
      "##нитель": 726,
      "сильфонный": 727,
      "250": 728,
      "минеральной": 729,
      "напряж": 730,
      "Вт": 731,
      "##x2": 732,
      "##ва": 733,
      "##озд": 734,
      "баз": 735,
      "##30": 736,
      "11": 737,
      "стеклоп": 738,
      "##кат": 739,
      "пол": 740,
      "##кий": 741,
      "##онта": 742,
      "##инт": 743,
      "Короб": 744,
      "##иной": 745,
      "рез": 746,
      "70": 747,
      "ширина": 748,
      "##600": 749,
      "температу": 750,
      "80": 751,
      "##фор": 752,
      "##иб": 753,
      "одно": 754,
      "##40": 755,
      "диаметром": 756,
      "установки": 757,
      "##еб": 758,
      "60": 759,
      "Блок": 760,
      "##кость": 761,
      "##си": 762,
      "по": 763,
      "вод": 764,
      "раб": 765,
      "железобетонная": 766,
      "##ласти": 767,
      "##кое": 768,
      "##ран": 769,
      "Стой": 770,
      "##еля": 771,
      "##неу": 772,
      "##еход": 773,
      "трубопровод": 774,
      "огнеу": 775,
      "##пус": 776,
      "##вор": 777,
      "Муф": 778,
      "##рыш": 779,
      "##атери": 780,
      "мо": 781,
      "окрашен": 782,
      "сеч": 783,
      "##ностью": 784,
      "##зи": 785,
      "опор": 786,
      "##рой": 787,
      "управ": 788,
      "флан": 789,
      "возд": 790,
      "ручной": 791,
      "##дение": 792,
      "##еси": 793,
      "##тиле": 794,
      "облицовочная": 795,
      "толщиной": 796,
      "пров": 797,
      "##люч": 798,
      "##олок": 799,
      "##рующ": 800,
      "##70": 801,
      "##слой": 802,
      "ков": 803,
      "32": 804,
      "##ключ": 805,
      "металли": 806,
      "ПВ": 807,
      "Стойка": 808,
      "##еди": 809,
      "полиэтиле": 810,
      "##альт": 811,
      "оцинкованной": 812,
      "повы": 813,
      "бол": 814,
      "##ча": 815,
      "Св": 816,
      "корпус": 817,
      "повышен": 818,
      "##ут": 819,
      "##уш": 820,
      "теплоизоляци": 821,
      "##ати": 822,
      "медными": 823,
      "##щад": 824,
      "##ированные": 825,
      "мощ": 826,
      "##стру": 827,
      "гранит": 828,
      "##атор": 829,
      "напряжение": 830,
      "##виж": 831,
      "##овых": 832,
      "ко": 833,
      "площад": 834,
      "##единитель": 835,
      "##ВГ": 836,
      "##рез": 837,
      "бет": 838,
      "##ред": 839,
      "рабоч": 840,
      "комп": 841,
      "##х2": 842,
      "присо": 843,
      "300": 844,
      "Про": 845,
      "мощность": 846,
      "##овый": 847,
      "пород": 848,
      "лот": 849,
      "##ней": 850,
      "герм": 851,
      "груп": 852,
      "мест": 853,
      "##кер": 854,
      "300х": 855,
      "##15": 856,
      "отвер": 857,
      "##елем": 858,
      "базальт": 859,
      "##жим": 860,
      "металла": 861,
      "##Х1": 862,
      "##ты": 863,
      "##ул": 864,
      "профи": 865,
      "присоедин": 866,
      "отверсти": 867,
      "Цилинд": 868,
      "Цилиндры": 869,
      "температура": 870,
      "110": 871,
      "##очных": 872,
      "более": 873,
      "бетона": 874,
      "теплов": 875,
      "сам": 876,
      "##ция": 877,
      "сред": 878,
      "##ним": 879,
      "месторож": 880,
      "месторождение": 881,
      "теплоизоляционные": 882,
      "Из": 883,
      "##опр": 884,
      "См": 885,
      "35": 886,
      "матери": 887,
      "##ота": 888,
      "площадь": 889,
      "##щит": 890,
      "кли": 891,
      "##лив": 892,
      "##ока": 893,
      "##ладки": 894,
      "угл": 895,
      "контак": 896,
      "КЗ": 897,
      "каб": 898,
      "оп": 899,
      "##шов": 900,
      "изоляци": 901,
      "##струк": 902,
      "##ированная": 903,
      "##х3": 904,
      "бес": 905,
      "КЗС": 906,
      "ан": 907,
      "##ис": 908,
      "кгс": 909,
      "мм2": 910,
      "фланцев": 911,
      "03": 912,
      "##ива": 913,
      "Муфта": 914,
      "стой": 915,
      "120": 916,
      "прив": 917,
      "##лер": 918,
      "раст": 919,
      "пе": 920,
      "типа": 921,
      "см2": 922,
      "##очный": 923,
      "короб": 924,
      "##овая": 925,
      "стальная": 926,
      "##иль": 927,
      "18": 928,
      "##ик": 929,
      "гранитная": 930,
      "##ум": 931,
      "ус": 932,
      "##шированные": 933,
      "ли": 934,
      "контр": 935,
      "##ьб": 936,
      "ток": 937,
      "резьб": 938,
      "переход": 939,
      "вер": 940,
      "##ся": 941,
      "##90": 942,
      "кол": 943,
      "##вар": 944,
      "проч": 945,
      "свя": 946,
      "волок": 947,
      "контакт": 948,
      "соединитель": 949,
      "Смеси": 950,
      "##еств": 951,
      "##ками": 952,
      "##нополи": 953,
      "креп": 954,
      "зат": 955,
      "27": 956,
      "##цион": 957,
      "##гна": 958,
      "сигна": 959,
      "выс": 960,
      "##300": 961,
      "17": 962,
      "отверстия": 963,
      "кру": 964,
      "##ыми": 965,
      "##ерных": 966,
      "пенополи": 967,
      "От": 968,
      "##ческие": 969,
      "LS": 970,
      "ниж": 971,
      "защит": 972,
      "уг": 973,
      "тер": 974,
      "##кого": 975,
      "ск": 976,
      "##СТ": 977,
      "кВт": 978,
      "гориз": 979,
      "горизонта": 980,
      "##емент": 981,
      "гид": 982,
      "цвет": 983,
      "##амер": 984,
      "ковш": 985,
      "##рующим": 986,
      "полиэтиленов": 987,
      "##нич": 988,
      "повышенной": 989,
      "пан": 990,
      "##оток": 991,
      "##ентр": 992,
      "##ластиков": 993,
      "75": 994,
      "##гр": 995,
      "шар": 996,
      "##ади": 997,
      "95": 998,
      "##арк": 999,
      "Кон": 1000,
      "##8Н": 1001,
      "##Х18Н": 1002,
      "крыш": 1003,
      "трех": 1004,
      "##ца": 1005,
      "термостой": 1006,
      "##ката": 1007,
      "тепловым": 1008,
      "само": 1009,
      "группа": 1010,
      "##вес": 1011,
      "внеш": 1012,
      "повор": 1013,
      "01": 1014,
      "кабельный": 1015,
      "##иле": 1016,
      "синт": 1017,
      "##угу": 1018,
      "синтети": 1019,
      "чугу": 1020,
      "##Х18Н10": 1021,
      "##унд": 1022,
      "##порные": 1023,
      "##ещ": 1024,
      "600": 1025,
      "вырез": 1026,
      "синтетичес": 1027,
      "воздух": 1028,
      "24": 1029,
      "##лект": 1030,
      "##лен": 1031,
      "конструк": 1032,
      "прок": 1033,
      "##стем": 1034,
      "систем": 1035,
      "##воров": 1036,
      "##акет": 1037,
      "##да": 1038,
      "ковшей": 1039,
      "##ана": 1040,
      "##100": 1041,
      "кабельная": 1042,
      "##ливочных": 1043,
      "##азливочных": 1044,
      "сталер": 1045,
      "сталеразливочных": 1046,
      "##ВГнг": 1047,
      "##сирующим": 1048,
      "шиб": 1049,
      "##ветв": 1050,
      "##есс": 1051,
      "##лемм": 1052,
      "затворов": 1053,
      "шиберных": 1054,
      "##гой": 1055,
      "управления": 1056,
      "##шовные": 1057,
      "##фик": 1058,
      "##камер": 1059,
      "самофик": 1060,
      "##сирующимся": 1061,
      "самофиксирующимся": 1062,
      "##рованная": 1063,
      "##рози": 1064,
      "нак": 1065,
      "соедин": 1066,
      "##Х18Н10Т": 1067,
      "фоль": 1068,
      "##ень": 1069,
      "стеклопакет": 1070,
      "##иф": 1071,
      "##ходной": 1072,
      "эк": 1073,
      "подключ": 1074,
      "##анс": 1075,
      "##ован": 1076,
      "ПВХ": 1077,
      "Отвод": 1078,
      "шп": 1079,
      "опти": 1080,
      "II": 1081,
      "##елей": 1082,
      "горячеката": 1083,
      "##17": 1084,
      "##ующ": 1085,
      "гиб": 1086,
      "##особ": 1087,
      "лист": 1088,
      "##руз": 1089,
      "соединительная": 1090,
      "IP": 1091,
      "обр": 1092,
      "##сим": 1093,
      "##енти": 1094,
      "##ожар": 1095,
      "покрытия": 1096,
      "огнеупорный": 1097,
      "материал": 1098,
      "##ян": 1099,
      "##ше": 1100,
      "##ви": 1101,
      "##аг": 1102,
      "##очного": 1103,
      "##уб": 1104,
      "##лением": 1105,
      "##рус": 1106,
      "связ": 1107,
      "внешний": 1108,
      "линий": 1109,
      "##том": 1110,
      "кана": 1111,
      "мак": 1112,
      "##ня": 1113,
      "максим": 1114,
      "стро": 1115,
      "##оцинкован": 1116,
      "терм": 1117,
      "##розион": 1118,
      "способ": 1119,
      "##цевая": 1120,
      "72": 1121,
      "фольгой": 1122,
      "контроль": 1123,
      "центр": 1124,
      "##енным": 1125,
      "профиля": 1126,
      "##ие": 1127,
      "полимерная": 1128,
      "базальтовых": 1129,
      "алюминиевой": 1130,
      "Трой": 1131,
      "##дели": 1132,
      "пред": 1133,
      "##кры": 1134,
      "мул": 1135,
      "##оду": 1136,
      "муллит": 1137,
      "##рованные": 1138,
      "##500": 1139,
      "660": 1140,
      "анкер": 1141,
      "тепл": 1142,
      "Прокат": 1143,
      "##урет": 1144,
      "##асти": 1145,
      "##чат": 1146,
      "##ожух": 1147,
      "связующ": 1148,
      "бетонные": 1149,
      "кН": 1150,
      "железобетонные": 1151,
      "кожух": 1152,
      "трубопроводов": 1153,
      "##ассы": 1154,
      "##ования": 1155,
      "фас": 1156,
      "90°": 1157,
      "кашированные": 1158,
      "Коробка": 1159,
      "##сп": 1160,
      "##уст": 1161,
      "трассы": 1162,
      "провол": 1163,
      "связующем": 1164,
      "##честв": 1165,
      "Стак": 1166,
      "высок": 1167,
      "Стакан": 1168,
      "синтетическом": 1169,
      "220": 1170,
      "22": 1171,
      "горизонталь": 1172,
      "##ческое": 1173,
      "прокладки": 1174,
      "класса": 1175,
      "пар": 1176,
      "##ий": 1177,
      "опоры": 1178,
      "SN": 1179,
      "цемент": 1180,
      "Пер": 1181,
      "##кие": 1182,
      "глад": 1183,
      "горячекатаный": 1184,
      "среды": 1185,
      "двой": 1186,
      "крас": 1187,
      "##65": 1188,
      "цилинд": 1189,
      "##лектор": 1190,
      "стеклопакетом": 1191,
      "оптический": 1192,
      "19": 1193,
      "вст": 1194,
      "горячеоцинкован": 1195,
      "##ай": 1196,
      "##ивной": 1197,
      "сейсмостойкая": 1198,
      "перек": 1199,
      "За": 1200,
      "##камерным": 1201,
      "##ковым": 1202,
      "##еж": 1203,
      "стеклопластиков": 1204,
      "##лого": 1205,
      "##400": 1206,
      "муф": 1207,
      "комплект": 1208,
      "круп": 1209,
      "##етка": 1210,
      "##овые": 1211,
      "##оки": 1212,
      "##лом": 1213,
      "08": 1214,
      "##ерод": 1215,
      "классу": 1216,
      "ав": 1217,
      "коли": 1218,
      "##орм": 1219,
      "коррозион": 1220,
      "##мати": 1221,
      "количеств": 1222,
      "##ог": 1223,
      "##слойная": 1224,
      "##етич": 1225,
      "##раж": 1226,
      "количество": 1227,
      "проволоки": 1228,
      "трубы": 1229,
      "##ации": 1230,
      "теплопровод": 1231,
      "##еродист": 1232,
      "мен": 1233,
      "менее": 1234,
      "21": 1235,
      "теплопроводность": 1236,
      "герметич": 1237,
      "02": 1238,
      "оцинкованная": 1239,
      "##ифуг": 1240,
      "центрифуг": 1241,
      "Труба": 1242,
      "коллектор": 1243,
      "строитель": 1244,
      "400х": 1245,
      "##крыт": 1246,
      "##ское": 1247,
      "##х0": 1248,
      "услов": 1249,
      "центрифугированная": 1250,
      "76": 1251,
      "клемм": 1252,
      "##ческим": 1253,
      "климати": 1254,
      "термостойкость": 1255,
      "кабельной": 1256,
      "наружным": 1257,
      "##ового": 1258,
      "##тика": 1259,
      "вертика": 1260,
      "климатическое": 1261,
      "##нж": 1262,
      "##ентиля": 1263,
      "##егу": 1264,
      "##енного": 1265,
      "свет": 1266,
      "Свая": 1267,
      "##ветвитель": 1268,
      "подключением": 1269,
      "кабельных": 1270,
      "зажим": 1271,
      "углеродист": 1272,
      "дорож": 1273,
      "##жения": 1274,
      "Кран": 1275,
      "алюминиевыми": 1276,
      "##ческих": 1277,
      "##ита": 1278,
      "внутренней": 1279,
      "корпуса": 1280,
      "муллиток": 1281,
      "##оны": 1282,
      "винт": 1283,
      "##етиль": 1284,
      "##х4": 1285,
      "##очные": 1286,
      "прямой": 1287,
      "кабеля": 1288,
      "##ств": 1289,
      "##локи": 1290,
      "##ивающ": 1291,
      "автом": 1292,
      "##орт": 1293,
      "##ерев": 1294,
      "конич": 1295,
      "коничностью": 1296,
      "##ец": 1297,
      "рабочее": 1298,
      "перекрыти": 1299,
      "пес": 1300,
      "экра": 1301,
      "41": 1302,
      "соединения": 1303,
      "щеб": 1304,
      "##етиз": 1305,
      "##азный": 1306,
      "поворота": 1307,
      "##бор": 1308,
      "##мин": 1309,
      "Кр": 1310,
      "гладкая": 1311,
      "корпусом": 1312,
      "##x0": 1313,
      "плос": 1314,
      "Тройник": 1315,
      "##орон": 1316,
      "##яг": 1317,
      "##олод": 1318,
      "изоляции": 1319,
      "пожар": 1320,
      "##усти": 1321,
      "окрашенный": 1322,
      "##аркас": 1323,
      "65": 1324,
      "МК": 1325,
      "герметичной": 1326,
      "лотков": 1327,
      "волокон": 1328,
      "##ир": 1329,
      "кругл": 1330,
      "шаровой": 1331,
      "##ческая": 1332,
      "FR": 1333,
      "шт": 1334,
      "нержавеющая": 1335,
      "HF": 1336,
      "силов": 1337,
      "Светиль": 1338,
      "бесшовные": 1339,
      "красный": 1340,
      "каркас": 1341,
      "SD": 1342,
      "тяж": 1343,
      "##ах": 1344,
      "##фици": 1345,
      "##ства": 1346,
      "##нная": 1347,
      "сейсмостойкий": 1348,
      "отоп": 1349,
      "##ола": 1350,
      "газ": 1351,
      "160": 1352,
      "окрашенная": 1353,
      "##обр": 1354,
      "##ефор": 1355,
      "##ованная": 1356,
      "др": 1357,
      "##ении": 1358,
      "общ": 1359,
      "марок": 1360,
      "##енных": 1361,
      "Лоток": 1362,
      "уд": 1363,
      "°С": 1364,
      "##лав": 1365,
      "резьбой": 1366,
      "##ыше": 1367,
      "##нос": 1368,
      "свыше": 1369,
      "присоединения": 1370,
      "##рованный": 1371,
      "Ст3": 1372,
      "В15": 1373,
      "##нт": 1374,
      "фланцевое": 1375,
      "##ковая": 1376,
      "панель": 1377,
      "##делия": 1378,
      "##ап": 1379,
      "##гол": 1380,
      "провод": 1381,
      "угловой": 1382,
      "##елого": 1383,
      "##осту": 1384,
      "##ечни": 1385,
      "присоединение": 1386,
      "лотка": 1387,
      "##груз": 1388,
      "двер": 1389,
      "##ному": 1390,
      "##одуль": 1391,
      "ВВГнг": 1392,
      "##извод": 1393,
      "##нопро": 1394,
      "##чет": 1395,
      "##нод": 1396,
      "сигнальный": 1397,
      "зоны": 1398,
      "герметиз": 1399,
      "досту": 1400,
      "доступа": 1401,
      "##ций": 1402,
      "##96": 1403,
      "##енный": 1404,
      "наружного": 1405,
      "108": 1406,
      "вне": 1407,
      "сечение": 1408,
      "##мированные": 1409,
      "##ерх": 1410,
      "Изделия": 1411,
      "пенополиурет": 1412,
      "##опиле": 1413,
      "транс": 1414,
      "площадью": 1415,
      "45°": 1416,
      "##енты": 1417,
      "##пропиле": 1418,
      "##движ": 1419,
      "##обод": 1420,
      "свобод": 1421,
      "##лей": 1422,
      "трубопроводу": 1423,
      "полипропиле": 1424,
      "##новая": 1425,
      "вырезному": 1426,
      "цилиндру": 1427,
      "Опор": 1428,
      "тяжелого": 1429,
      "##ента": 1430,
      "нагруз": 1431,
      "##овым": 1432,
      "##онная": 1433,
      "SDR": 1434,
      "800": 1435,
      "##олоч": 1436,
      "##12": 1437,
      "Светильник": 1438,
      "поверх": 1439,
      "песча": 1440,
      "вентиля": 1441,
      "##альная": 1442,
      "63": 1443,
      "##ке": 1444,
      "##адиатор": 1445,
      "плит": 1446,
      "конструкции": 1447,
      "Отводы": 1448,
      "сер": 1449,
      "сорт": 1450,
      "комплекте": 1451,
      "036": 1452,
      "тока": 1453,
      "концевая": 1454,
      "оцинкованный": 1455,
      "прочность": 1456,
      "Крыш": 1457,
      "##омп": 1458,
      "##ентом": 1459,
      "мно": 1460,
      "проход": 1461,
      "БСТ": 1462,
      "бал": 1463,
      "Г1": 1464,
      "холод": 1465,
      "##уж": 1466,
      "##22": 1467,
      "##x3": 1468,
      "##арт": 1469,
      "##освар": 1470,
      "изоляцией": 1471,
      "##±5": 1472,
      "25±5": 1473,
      "Крышка": 1474,
      "125": 1475,
      "электросвар": 1476,
      "элем": 1477,
      "1200": 1478,
      "##весной": 1479,
      "##амп": 1480,
      "##онтаж": 1481,
      "##егули": 1482,
      "300х300": 1483,
      "##атель": 1484,
      "##ообр": 1485,
      "масс": 1486,
      "углеродистой": 1487,
      "станд": 1488,
      "2000": 1489,
      "##цеп": 1490,
      "фасад": 1491,
      "монтаж": 1492,
      "жест": 1493,
      "##ектор": 1494,
      "##рак": 1495,
      "внутренним": 1496,
      "##верд": 1497,
      "углом": 1498,
      "08Х18Н10Т": 1499,
      "##нопроходной": 1500,
      "сло": 1501,
      "##ард": 1502,
      "неок": 1503,
      "##кан": 1504,
      "сечения": 1505,
      "88": 1506,
      "##еформированные": 1507,
      "##рут": 1508,
      "прямо": 1509,
      "стандарт": 1510,
      "Кана": 1511,
      "бок": 1512,
      "изоли": 1513,
      "Радиатор": 1514,
      "##его": 1515,
      "57": 1516,
      "##опер": 1517,
      "оболоч": 1518,
      "##ений": 1519,
      "неокрашен": 1520,
      "производ": 1521,
      "вид": 1522,
      "регули": 1523,
      "чис": 1524,
      "##ровочная": 1525,
      "##енные": 1526,
      "основной": 1527,
      "крепления": 1528,
      "зажимов": 1529,
      "свободного": 1530,
      "42": 1531,
      "ПЭ": 1532,
      "отд": 1533,
      "неокрашенный": 1534,
      "щебне": 1535,
      "3000": 1536,
      "37": 1537,
      "Угол": 1538,
      "В25": 1539,
      "Канат": 1540,
      "цементно": 1541,
      "14нж": 1542,
      "гл": 1543,
      "коль": 1544,
      "##рос": 1545,
      "450": 1546,
      "открыт": 1547,
      "##тей": 1548,
      "маркировочная": 1549,
      "максимальной": 1550,
      "##ости": 1551,
      "##лиф": 1552,
      "##ивки": 1553,
      "##устот": 1554,
      "##ехни": 1555,
      "ввод": 1556,
      "##вещ": 1557,
      "##екция": 1558,
      "раструб": 1559,
      "воздуха": 1560,
      "##руем": 1561,
      "прим": 1562,
      "350": 1563,
      "##ош": 1564,
      "крупностью": 1565,
      "##иваем": 1566,
      "300х600": 1567,
      "ак": 1568,
      "герметизации": 1569,
      "##дения": 1570,
      "привар": 1571,
      "СТ": 1572,
      "направ": 1573,
      "кв": 1574,
      "яч": 1575,
      "##45": 1576,
      "##алов": 1577,
      "контрольный": 1578,
      "свивки": 1579,
      "##анием": 1580,
      "Зад": 1581,
      "Задвиж": 1582,
      "##емы": 1583,
      "Задвижка": 1584,
      "Секция": 1585,
      "гидро": 1586,
      "##раль": 1587,
      "4180": 1588,
      "мног": 1589,
      "##ительность": 1590,
      "короба": 1591,
      "ла": 1592,
      "примен": 1593,
      "или": 1594,
      "контактных": 1595,
      "КВ": 1596,
      "##елый": 1597,
      "волокна": 1598,
      "двойной": 1599,
      "##теп": 1600,
      "цель": 1601,
      "цок": 1602,
      "кабелей": 1603,
      "33": 1604,
      "##альный": 1605,
      "Плиты": 1606,
      "СБ": 1607,
      "ламп": 1608,
      "перекрытия": 1609,
      "прот": 1610,
      "##x500": 1611,
      "135": 1612,
      "дерев": 1613,
      "лату": 1614,
      "##II": 1615,
      "##ающ": 1616,
      "##ния": 1617,
      "##инд": 1618,
      "применения": 1619,
      "ниже": 1620,
      "##штей": 1621,
      "##онштей": 1622,
      "муфт": 1623,
      "##КЗ": 1624,
      "##зем": 1625,
      "140": 1626,
      "температуры": 1627,
      "##ярус": 1628,
      "##ание": 1629,
      "Комп": 1630,
      "крышкой": 1631,
      "400х600": 1632,
      "##ивод": 1633,
      "сети": 1634,
      "ств": 1635,
      "высокопр": 1636,
      "##гресс": 1637,
      "##х6": 1638,
      "шпинд": 1639,
      "шпинделем": 1640,
      "##95": 1641,
      "##коль": 1642,
      "##движным": 1643,
      "##алуб": 1644,
      "контактной": 1645,
      "##рутки": 1646,
      "шлиф": 1647,
      "##опривод": 1648,
      "огнеупорные": 1649,
      "чугуна": 1650,
      "200х": 1651,
      "жилы": 1652,
      "##грессивной": 1653,
      "ради": 1654,
      "тверд": 1655,
      "##ук": 1656,
      "доп": 1657,
      "##эф": 1658,
      "##соль": 1659,
      "##нный": 1660,
      "огн": 1661,
      "##ниж": 1662,
      "након": 1663,
      "отопитель": 1664,
      "числом": 1665,
      "пониж": 1666,
      "##ПК": 1667,
      "##тая": 1668,
      "##акт": 1669,
      "горячеоцинкованный": 1670,
      "освещ": 1671,
      "##х50": 1672,
      "рези": 1673,
      "исполнения": 1674,
      "БКЗ": 1675,
      "фрак": 1676,
      "##ма": 1677,
      "минус": 1678,
      "##ителем": 1679,
      "коэф": 1680,
      "коэффици": 1681,
      "180": 1682,
      "Флан": 1683,
      "ЭП": 1684,
      "вентиляцион": 1685,
      "##ундам": 1686,
      "трехслойная": 1687,
      "ЛК": 1688,
      "электропривод": 1689,
      "квад": 1690,
      "прохода": 1691,
      "ствола": 1692,
      "##35": 1693,
      "фракция": 1694,
      "##ую": 1695,
      "сечением": 1696,
      "##амот": 1697,
      "коробки": 1698,
      "##ционный": 1699,
      "##иг": 1700,
      "##рем": 1701,
      "автомати": 1702,
      "##ини": 1703,
      "пот": 1704,
      "58": 1705,
      "сек": 1706,
      "многоп": 1707,
      "ПБ": 1708,
      "##поль": 1709,
      "кожухом": 1710,
      "пита": 1711,
      "теле": 1712,
      "отдел": 1713,
      "PE": 1714,
      "##орунд": 1715,
      "перем": 1716,
      "##еты": 1717,
      "муллитокорунд": 1718,
      "##рат": 1719,
      "##лиз": 1720,
      "транспор": 1721,
      "##исковая": 1722,
      "порош": 1723,
      "Опора": 1724,
      "##ехани": 1725,
      "винтовая": 1726,
      "##голь": 1727,
      "производительность": 1728,
      "агрессивной": 1729,
      "Зажим": 1730,
      "встро": 1731,
      "##ечником": 1732,
      "прямых": 1733,
      "стальным": 1734,
      "наружная": 1735,
      "ма": 1736,
      "расцеп": 1737,
      "##земной": 1738,
      "коэффициентом": 1739,
      "Провод": 1740,
      "высокопрочного": 1741,
      "уп": 1742,
      "полиэтилена": 1743,
      "образный": 1744,
      "песчаным": 1745,
      "##ческого": 1746,
      "защиты": 1747,
      "##ческой": 1748,
      "двухслой": 1749,
      "III": 1750,
      "Вы": 1751,
      "сбор": 1752,
      "полиэфи": 1753,
      "усили": 1754,
      "28": 1755,
      "Переход": 1756,
      "вертикальный": 1757,
      "расцепителем": 1758,
      "##ута": 1759,
      "креплением": 1760,
      "##ровочный": 1761,
      "пониженным": 1762,
      "12Х18Н10Т": 1763,
      "трения": 1764,
      "шлифованная": 1765,
      "пиле": 1766,
      "форм": 1767,
      "конца": 1768,
      "электросварные": 1769,
      "сух": 1770,
      "##полнит": 1771,
      "##оот": 1772,
      "расчет": 1773,
      "Выключ": 1774,
      "48": 1775,
      "базальтового": 1776,
      "##енная": 1777,
      "древ": 1778,
      "деревян": 1779,
      "полиэфир": 1780,
      "вырезные": 1781,
      "105": 1782,
      "круглый": 1783,
      "алюминиевые": 1784,
      "поток": 1785,
      "##икл": 1786,
      "механи": 1787,
      "кабельные": 1788,
      "В22": 1789,
      "двухкамерным": 1790,
      "квадрат": 1791,
      "##ких": 1792,
      "сост": 1793,
      "##лог": 1794,
      "многопустот": 1795,
      "лю": 1796,
      "273": 1797,
      "встроенным": 1798,
      "сколь": 1799,
      "##глуш": 1800,
      "##ярусный": 1801,
      "усилие": 1802,
      "коррозионной": 1803,
      "##яд": 1804,
      "сплав": 1805,
      "питания": 1806,
      "СП": 1807,
      "##ешетка": 1808,
      "верх": 1809,
      "неп": 1810,
      "освещения": 1811,
      "##чи": 1812,
      "температур": 1813,
      "стойкости": 1814,
      "##оляция": 1815,
      "Изоляция": 1816,
      "##агнит": 1817,
      "сплавов": 1818,
      "##чатая": 1819,
      "полированная": 1820,
      "части": 1821,
      "##ука": 1822,
      "КЗСБ": 1823,
      "ПЭ100": 1824,
      "наконечником": 1825,
      "##32": 1826,
      "стакан": 1827,
      "воздуш": 1828,
      "давления": 1829,
      "перикл": 1830,
      "периклаз": 1831,
      "треб": 1832,
      "блоки": 1833,
      "оконный": 1834,
      "град": 1835,
      "##актери": 1836,
      "##х25": 1837,
      "##итум": 1838,
      "повышенными": 1839,
      "##ованиями": 1840,
      "требованиями": 1841,
      "##200": 1842,
      "одном": 1843,
      "нижним": 1844,
      "##ивающее": 1845,
      "ПП": 1846,
      "##ета": 1847,
      "крышки": 1848,
      "масса": 1849,
      "##16": 1850,
      "выдвижным": 1851,
      "##пи": 1852,
      "##мк": 1853,
      "оцинкованные": 1854,
      "Муфты": 1855,
      "сигналь": 1856,
      "серд": 1857,
      "89": 1858,
      "Ан": 1859,
      "##ровол": 1860,
      "##x2x0": 1861,
      "однокамерным": 1862,
      "сет": 1863,
      "тепловой": 1864,
      "плоский": 1865,
      "##ести": 1866,
      "##ри": 1867,
      "##еры": 1868,
      "##ущ": 1869,
      "гидроизоляци": 1870,
      "муллитокорундовый": 1871,
      "##их": 1872,
      "сте": 1873,
      "хар": 1874,
      "##ПВ": 1875,
      "##рыв": 1876,
      "электром": 1877,
      "##устим": 1878,
      "допустим": 1879,
      "Провол": 1880,
      "Проволока": 1881,
      "АВ": 1882,
      "##ечник": 1883,
      "алюминиевых": 1884,
      "##актеристи": 1885,
      "характеристи": 1886,
      "##нач": 1887,
      "##чатые": 1888,
      "Фланец": 1889,
      "КМ": 1890,
      "оч": 1891,
      "пост": 1892,
      "лаковым": 1893,
      "напорные": 1894,
      "##отда": 1895,
      "теплоотда": 1896,
      "металлических": 1897,
      "теплоотдача": 1898,
      "##равли": 1899,
      "##уд": 1900,
      "Конв": 1901,
      "лест": 1902,
      "низ": 1903,
      "гидравли": 1904,
      "экрани": 1905,
      "полимерный": 1906,
      "##онент": 1907,
      "Конвектор": 1908,
      "Пан": 1909,
      "##знач": 1910,
      "##ины": 1911,
      "пиленая": 1912,
      "кров": 1913,
      "четы": 1914,
      "четыр": 1915,
      "над": 1916,
      "полиэтиленовые": 1917,
      "боковым": 1918,
      "##ники": 1919,
      "смол": 1920,
      "точ": 1921,
      "##ойкой": 1922,
      "##ковый": 1923,
      "измер": 1924,
      "##ешет": 1925,
      "предел": 1926,
      "белый": 1927,
      "привод": 1928,
      "цельнос": 1929,
      "КУ": 1930,
      "##естой": 1931,
      "сварной": 1932,
      "управление": 1933,
      "лампу": 1934,
      "цельносвар": 1935,
      "скольжения": 1936,
      "##отный": 1937,
      "##форм": 1938,
      "огнестой": 1939,
      "утеп": 1940,
      "##х10": 1941,
      "1770": 1942,
      "условного": 1943,
      "открытого": 1944,
      "##оди": 1945,
      "степ": 1946,
      "##евой": 1947,
      "круг": 1948,
      "степень": 1949,
      "##13": 1950,
      "очист": 1951,
      "##ерс": 1952,
      "##анной": 1953,
      "##РА": 1954,
      "клиновая": 1955,
      "##х5": 1956,
      "##ящ": 1957,
      "перфор": 1958,
      "##минер": 1959,
      "##арку": 1960,
      "против": 1961,
      "380": 1962,
      "700": 1963,
      "КП": 1964,
      "приварку": 1965,
      "М3": 1966,
      "##кашированные": 1967,
      "10с": 1968,
      "некашированные": 1969,
      "кованной": 1970,
      "анти": 1971,
      "телефонный": 1972,
      "цельносварной": 1973,
      "битум": 1974,
      "анкерным": 1975,
      "приварной": 1976,
      "допустимое": 1977,
      "##абота": 1978,
      "##x150": 1979,
      "зда": 1980,
      "зданий": 1981,
      "ячей": 1982,
      "##СП": 1983,
      "##озит": 1984,
      "окон": 1985,
      "##рот": 1986,
      "##Шв": 1987,
      "##оф": 1988,
      "пенополимер": 1989,
      "лоп": 1990,
      "пенополимерминер": 1991,
      "растяг": 1992,
      "600х": 1993,
      "##ями": 1994,
      "##x6": 1995,
      "##изоли": 1996,
      "рабочей": 1997,
      "цин": 1998,
      "растягивающее": 1999,
      "##сна": 2000,
      "электромагнит": 2001,
      "воды": 2002,
      "##ельная": 2003,
      "спи": 2004,
      "цоколь": 2005,
      "##800": 2006,
      "##x4": 2007,
      "НГ": 2008,
      "В30": 2009,
      "500х": 2010,
      "##чный": 2011,
      "наст": 2012,
      "55": 2013,
      "сигнально": 2014,
      "одномод": 2015,
      "Пв": 2016,
      "комб": 2017,
      "отопительные": 2018,
      "надземной": 2019,
      "холоднод": 2020,
      "##полнителя": 2021,
      "буч": 2022,
      "##оян": 2023,
      "##ЭВ": 2024,
      "##ардированная": 2025,
      "постоян": 2026,
      "бучардированная": 2027,
      "630": 2028,
      "##ХЛ": 2029,
      "блокировочный": 2030,
      "##ПКВ": 2031,
      "фланцевый": 2032,
      "холоднодеформированные": 2033,
      "гоф": 2034,
      "групп": 2035,
      "КЗСГ": 2036,
      "лопасти": 2037,
      "##новые": 2038,
      "##Энг": 2039,
      "Консоль": 2040,
      "пром": 2041,
      "сты": 2042,
      "дверной": 2043,
      "УХЛ": 2044,
      "водоот": 2045,
      "##грев": 2046,
      "1570": 2047,
      "переменного": 2048,
      "Ск": 2049,
      "##тяж": 2050,
      "##лин": 2051,
      "смолы": 2052,
      "##нез": 2053,
      "полнопроходной": 2054,
      "устрой": 2055,
      "##рная": 2056,
      "термообр": 2057,
      "термообработа": 2058,
      "##ера": 2059,
      "##ированный": 2060,
      "Анкер": 2061,
      "##екор": 2062,
      "оболочке": 2063,
      "##емыч": 2064,
      "декор": 2065,
      "##сов": 2066,
      "Заглуш": 2067,
      "норм": 2068,
      "##ковое": 2069,
      "##Пнг": 2070,
      "назнач": 2071,
      "##ивные": 2072,
      "волоконно": 2073,
      "назначения": 2074,
      "Решетка": 2075,
      "##х7": 2076,
      "кер": 2077,
      "база": 2078,
      "##бжения": 2079,
      "пенополиуретанов": 2080,
      "горячеоцинкованная": 2081,
      "уни": 2082,
      "обс": 2083,
      "##рунт": 2084,
      "##няя": 2085,
      "Дос": 2086,
      "##цент": 2087,
      "##пс": 2088,
      "одноярусный": 2089,
      "Модуль": 2090,
      "##LS": 2091,
      "длиной": 2092,
      "КС": 2093,
      "скрутки": 2094,
      "термообработанная": 2095,
      "шамот": 2096,
      "##напряж": 2097,
      "##85": 2098,
      "400x500": 2099,
      "Конвекторы": 2100,
      "комбини": 2101,
      "брус": 2102,
      "##олов": 2103,
      "FRLS": 2104,
      "##есцент": 2105,
      "стальных": 2106,
      "лестнич": 2107,
      "Ог": 2108,
      "решет": 2109,
      "##рования": 2110,
      "##фт": 2111,
      "удлин": 2112,
      "##олот": 2113,
      "минералов": 2114,
      "минераловат": 2115,
      "всп": 2116,
      "железобетонный": 2117,
      "Профи": 2118,
      "вертикаль": 2119,
      "##гиб": 2120,
      "Ст3сп": 2121,
      "##ную": 2122,
      "##уров": 2123,
      "##азем": 2124,
      "Кронштей": 2125,
      "сердечник": 2126,
      "##форматор": 2127,
      "##уголь": 2128,
      "напряжением": 2129,
      "листовой": 2130,
      "попер": 2131,
      "##литель": 2132,
      "##КС": 2133,
      "одност": 2134,
      "малог": 2135,
      "навесной": 2136,
      "накл": 2137,
      "##незем": 2138,
      "325": 2139,
      "219": 2140,
      "##минесцент": 2141,
      "зазем": 2142,
      "строительства": 2143,
      "сухие": 2144,
      "##неземист": 2145,
      "64": 2146,
      "159": 2147,
      "электри": 2148,
      "рабочая": 2149,
      "бесшов": 2150,
      "36": 2151,
      "##11": 2152,
      "ост": 2153,
      "##елит": 2154,
      "люминесцент": 2155,
      "постоянного": 2156,
      "##ром": 2157,
      "##Г2": 2158,
      "мост": 2159,
      "##атели": 2160,
      "##комп": 2161,
      "меж": 2162,
      "исполнении": 2163,
      "попереч": 2164,
      "малогабаритный": 2165,
      "основа": 2166,
      "преднапряж": 2167,
      "##ровкой": 2168,
      "Уст": 2169,
      "тон": 2170,
      "##аж": 2171,
      "##аш": 2172,
      "полиэфирной": 2173,
      "одномодовых": 2174,
      "##17п": 2175,
      "хв": 2176,
      "лег": 2177,
      "канализ": 2178,
      "##ряд": 2179,
      "сварного": 2180,
      "ЕК": 2181,
      "1500": 2182,
      "96": 2183,
      "1020": 2184,
      "заполнителя": 2185,
      "##х16": 2186,
      "прочности": 2187,
      "кле": 2188,
      "23": 2189,
      "##атериал": 2190,
      "декорат": 2191,
      "Раз": 2192,
      "груз": 2193,
      "1600": 2194,
      "КЗСА": 2195,
      "цап": 2196,
      "##х35": 2197,
      "##ивный": 2198,
      "гофр": 2199,
      "общего": 2200,
      "металлические": 2201,
      "экрана": 2202,
      "W4": 2203,
      "ОК": 2204,
      "цапковое": 2205,
      "85": 2206,
      "900": 2207,
      "##тив": 2208,
      "наружной": 2209,
      "двум": 2210,
      "муфта": 2211,
      "двумя": 2212,
      "##овод": 2213,
      "напор": 2214,
      "балк": 2215,
      "Ограж": 2216,
      "медно": 2217,
      "##низ": 2218,
      "##олет": 2219,
      "##ельный": 2220,
      "##гост": 2221,
      "кожухе": 2222,
      "26": 2223,
      "М2": 2224,
      "вводы": 2225,
      "многопустотная": 2226,
      "экранировкой": 2227,
      "Заглушка": 2228,
      "Пр": 2229,
      "Со": 2230,
      "двухслойный": 2231,
      "нормальной": 2232,
      "##кор": 2233,
      "##ляющ": 2234,
      "наполь": 2235,
      "Под": 2236,
      "Щеб": 2237,
      "модуль": 2238,
      "##него": 2239,
      "гибкие": 2240,
      "##ундамент": 2241,
      "Щебень": 2242,
      "##нные": 2243,
      "##х120": 2244,
      "фасадный": 2245,
      "отделка": 2246,
      "минераловатных": 2247,
      "основание": 2248,
      "##ускат": 2249,
      "потол": 2250,
      "утеплитель": 2251,
      "##Г2С": 2252,
      "##оруж": 2253,
      "38": 2254,
      "##ласт": 2255,
      "повивной": 2256,
      "##есины": 2257,
      "муллитокрем": 2258,
      "древесины": 2259,
      "муллитокремнеземист": 2260,
      "09": 2261,
      "##нут": 2262,
      "##есущ": 2263,
      "Перемыч": 2264,
      "стеклопластиковый": 2265,
      "акусти": 2266,
      "62": 2267,
      "Материал": 2268,
      "рул": 2269,
      "##пред": 2270,
      "##рам": 2271,
      "##шение": 2272,
      "безопалуб": 2273,
      "формования": 2274,
      "безопалубочного": 2275,
      "##олятор": 2276,
      "точности": 2277,
      "Блоки": 2278,
      "##ционные": 2279,
      "##порная": 2280,
      "расчетное": 2281,
      "##ено": 2282,
      "отно": 2283,
      "кабельного": 2284,
      "##компонент": 2285,
      "угол": 2286,
      "поверхност": 2287,
      "номинальным": 2288,
      "силового": 2289,
      "Кронштейн": 2290,
      "##ПП": 2291,
      "Радиаторы": 2292,
      "34": 2293,
      "электромагнитный": 2294,
      "связи": 2295,
      "верхней": 2296,
      "отношение": 2297,
      "шах": 2298,
      "##ивания": 2299,
      "стандартное": 2300,
      "направления": 2301,
      "Пускат": 2302,
      "блок": 2303,
      "размерное": 2304,
      "В40": 2305,
      "2500": 2306,
      "переходная": 2307,
      "нагрузки": 2308,
      "металлический": 2309,
      "резьбы": 2310,
      "панели": 2311,
      "Ст3пс": 2312,
      "дор": 2313,
      "##цемент": 2314,
      "Пускатель": 2315,
      "каналов": 2316,
      "балконный": 2317,
      "##ими": 2318,
      "##ников": 2319,
      "высот": 2320,
      "##росс": 2321,
      "##вест": 2322,
      "##ья": 2323,
      "##омут": 2324,
      "##HF": 2325,
      "оцинкованном": 2326,
      "111": 2327,
      "работ": 2328,
      "переходной": 2329,
      "FRHF": 2330,
      "внутренни": 2331,
      "##х100": 2332,
      "силовых": 2333,
      "спираль": 2334,
      "Доска": 2335,
      "Профиль": 2336,
      "дорог": 2337,
      "поворот": 2338,
      "##чатый": 2339,
      "05": 2340,
      "##х150": 2341,
      "гибкий": 2342,
      "##ерен": 2343,
      "##фф": 2344,
      "двухд": 2345,
      "резинов": 2346,
      "вспен": 2347,
      "##пределит": 2348,
      "гай": 2349,
      "##гран": 2350,
      "##ала": 2351,
      "##уск": 2352,
      "##x120": 2353,
      "листв": 2354,
      "##вич": 2355,
      "##ку": 2356,
      "подвесной": 2357,
      "двухдисковая": 2358,
      "##клад": 2359,
      "обрат": 2360,
      "бур": 2361,
      "алюминиевого": 2362,
      "пенополиуретана": 2363,
      "##150": 2364,
      "##энд": 2365,
      "10000": 2366,
      "##верс": 2367,
      "огнеупорная": 2368,
      "##эндвич": 2369,
      "стеклопластиковые": 2370,
      "##енной": 2371,
      "трещ": 2372,
      "композит": 2373,
      "универс": 2374,
      "пруж": 2375,
      "##27": 2376,
      "наклонная": 2377,
      "##сатор": 2378,
      "газопровод": 2379,
      "190": 2380,
      "ИА": 2381,
      "извест": 2382,
      "глуб": 2383,
      "сторон": 2384,
      "##лая": 2385,
      "пожарной": 2386,
      "##x7": 2387,
      "##ращ": 2388,
      "измеритель": 2389,
      "11165": 2390,
      "##уп": 2391,
      "подкат": 2392,
      "сейсмостойком": 2393,
      "подкатегория": 2394,
      "вла": 2395,
      "##x90": 2396,
      "##овое": 2397,
      "горизонтальный": 2398,
      "##утав": 2399,
      "керами": 2400,
      "##ема": 2401,
      "##слойные": 2402,
      "ячейки": 2403,
      "полиурет": 2404,
      "Перемычка": 2405,
      "##ии": 2406,
      "монтажа": 2407,
      "гидравлическим": 2408,
      "##еф": 2409,
      "светоди": 2410,
      "светодиод": 2411,
      "46": 2412,
      "много": 2413,
      "ответвитель": 2414,
      "##ацион": 2415,
      "130": 2416,
      "пружин": 2417,
      "шести": 2418,
      "противоп": 2419,
      "##зий": 2420,
      "Клемм": 2421,
      "##ВБ": 2422,
      "проходной": 2423,
      "вспененного": 2424,
      "##ачи": 2425,
      "##ёр": 2426,
      "##тами": 2427,
      "гранитном": 2428,
      "шв": 2429,
      "##ника": 2430,
      "##важ": 2431,
      "Бал": 2432,
      "##лятор": 2433,
      "колод": 2434,
      "IP20": 2435,
      "##71": 2436,
      "сооруж": 2437,
      "глух": 2438,
      "##чив": 2439,
      "##алю": 2440,
      "109": 2441,
      "армату": 2442,
      "##x250": 2443,
      "КЗСВ": 2444,
      "ПвПнг": 2445,
      "##ПКВт": 2446,
      "жалю": 2447,
      "ин": 2448,
      "противопожар": 2449,
      "##луж": 2450,
      "##x5": 2451,
      "рель": 2452,
      "##ойчив": 2453,
      "##х2х0": 2454,
      "сталем": 2455,
      "146": 2456,
      "##ерсивный": 2457,
      "сталемед": 2458,
      "##ВС": 2459,
      "свариваем": 2460,
      "нагрузка": 2461,
      "сооружений": 2462,
      "ЭН": 2463,
      "печ": 2464,
      "пенополиуретановая": 2465,
      "жалюзий": 2466,
      "вз": 2467,
      "##авкой": 2468,
      "прямошовные": 2469,
      "Щит": 2470,
      "133": 2471,
      "водоотвод": 2472,
      "КГ": 2473,
      "##опод": 2474,
      "прямоуголь": 2475,
      "С3": 2476,
      "крест": 2477,
      "профилей": 2478,
      "Изолятор": 2479,
      "цветной": 2480,
      "периклазовый": 2481,
      "цинковым": 2482,
      "##уль": 2483,
      "##х8": 2484,
      "железнод": 2485,
      "повив": 2486,
      "железнодорож": 2487,
      "маг": 2488,
      "чер": 2489,
      "Панели": 2490,
      "оконцев": 2491,
      "ГО": 2492,
      "стерж": 2493,
      "шестигран": 2494,
      "оконцевания": 2495,
      "техни": 2496,
      "##верж": 2497,
      "сварные": 2498,
      "защитным": 2499,
      "огнестойкости": 2500,
      "##ителя": 2501,
      "концев": 2502,
      "ручным": 2503,
      "ЭПРА": 2504,
      "составе": 2505,
      "приводом": 2506,
      "контрольных": 2507,
      "Выключатель": 2508,
      "бы": 2509,
      "##ирпи": 2510,
      "Ленты": 2511,
      "полипропиленов": 2512,
      "устройства": 2513,
      "Уз": 2514,
      "распределит": 2515,
      "##x2000": 2516,
      "очистки": 2517,
      "ГОСТ": 2518,
      "ПС": 2519,
      "##одерж": 2520,
      "##ерживающ": 2521,
      "арми": 2522,
      "горизонтальная": 2523,
      "Кам": 2524,
      "рав": 2525,
      "##цы": 2526,
      "##опуск": 2527,
      "##ровки": 2528,
      "##х70": 2529,
      "напольные": 2530,
      "нер": 2531,
      "сж": 2532,
      "регулируем": 2533,
      "полиуретанов": 2534,
      "6000": 2535,
      "пластиков": 2536,
      "##КБ": 2537,
      "высотой": 2538,
      "тор": 2539,
      "##ница": 2540,
      "##руг": 2541,
      "закрыт": 2542,
      "стекло": 2543,
      "двойная": 2544,
      "Крест": 2545,
      "04": 2546,
      "вентиляционная": 2547,
      "автоматический": 2548,
      "##реп": 2549,
      "##окс": 2550,
      "##оподъем": 2551,
      "##тный": 2552,
      "навес": 2553,
      "прод": 2554,
      "корот": 2555,
      "горячед": 2556,
      "##инами": 2557,
      "##азон": 2558,
      "растяж": 2559,
      "вентиляционных": 2560,
      "кладки": 2561,
      "уси": 2562,
      "АВВГнг": 2563,
      "##едачи": 2564,
      "отверж": 2565,
      "горизонтального": 2566,
      "секций": 2567,
      "обслуж": 2568,
      "печей": 2569,
      "част": 2570,
      "##x190": 2571,
      "стеклопластиковая": 2572,
      "обслуживания": 2573,
      "52": 2574,
      "##олем": 2575,
      "31": 2576,
      "##род": 2577,
      "Трубки": 2578,
      "чугунный": 2579,
      "бесшовный": 2580,
      "750": 2581,
      "медные": 2582,
      "металлическая": 2583,
      "горизонтальной": 2584,
      "кольцевая": 2585,
      "акустического": 2586,
      "жалюзийная": 2587,
      "кА": 2588,
      "номер": 2589,
      "заполн": 2590,
      "жесткость": 2591,
      "АС": 2592,
      "128": 2593,
      "##ильных": 2594,
      "подключения": 2595,
      "коррозионност": 2596,
      "грузоподъем": 2597,
      "бурения": 2598,
      "сд": 2599,
      "##яз": 2600,
      "одноп": 2601,
      "управлением": 2602,
      "уплот": 2603,
      "Разветвитель": 2604,
      "свариваемости": 2605,
      "##х19": 2606,
      "люминесцентную": 2607,
      "6х3": 2608,
      "сэндвич": 2609,
      "##юч": 2610,
      "конструкций": 2611,
      "МКС": 2612,
      "панельные": 2613,
      "##анж": 2614,
      "подвес": 2615,
      "##оза": 2616,
      "##x150x90": 2617,
      "ред": 2618,
      "трой": 2619,
      "известня": 2620,
      "225": 2621,
      "пласти": 2622,
      "##маль": 2623,
      "##лава": 2624,
      "##x50": 2625,
      "электропер": 2626,
      "##олб": 2627,
      "##x100": 2628,
      "Ге": 2629,
      "##ированного": 2630,
      "шарни": 2631,
      "рулонный": 2632,
      "530": 2633,
      "##лекс": 2634,
      "полипропилена": 2635,
      "ТК": 2636,
      "содерж": 2637,
      "дифф": 2638,
      "редук": 2639,
      "##лы": 2640,
      "##лет": 2641,
      "##рованной": 2642,
      "60°": 2643,
      "грузоподъемность": 2644,
      "##Шп": 2645,
      "##шив": 2646,
      "продоль": 2647,
      "##нист": 2648,
      "панелью": 2649,
      "лестничного": 2650,
      "горячедеформированные": 2651,
      "голов": 2652,
      "##ателем": 2653,
      "Коль": 2654,
      "##еллер": 2655,
      "Тройники": 2656,
      "цилиндри": 2657,
      "изолированный": 2658,
      "Клеммник": 2659,
      "электропередачи": 2660,
      "бор": 2661,
      "##900": 2662,
      "##ПБ": 2663,
      "##ованные": 2664,
      "##айб": 2665,
      "клеммы": 2666,
      "магист": 2667,
      "ввер": 2668,
      "манс": 2669,
      "##ковыми": 2670,
      "трубчатая": 2671,
      "##x200": 2672,
      "стойкий": 2673,
      "мансард": 2674,
      "240": 2675,
      "грунт": 2676,
      "нерев": 2677,
      "##нев": 2678,
      "максимальная": 2679,
      "шамотные": 2680,
      "стеклов": 2681,
      "полиэтиленовой": 2682,
      "термо": 2683,
      "круглые": 2684,
      "крестообр": 2685,
      "вверх": 2686,
      "51": 2687,
      "##тов": 2688,
      "##ыка": 2689,
      "усилен": 2690,
      "грав": 2691,
      "##тного": 2692,
      "кром": 2693,
      "отверстий": 2694,
      "Устрой": 2695,
      "ас": 2696,
      "пенополимерминеральной": 2697,
      "БС": 2698,
      "КН": 2699,
      "##ох": 2700,
      "отверждения": 2701,
      "нереверсивный": 2702,
      "##олист": 2703,
      "металлической": 2704,
      "полиэтиленовая": 2705,
      "Пес": 2706,
      "##костью": 2707,
      "М350": 2708,
      "коррозионностойкой": 2709,
      "417": 2710,
      "##осы": 2711,
      "кауч": 2712,
      "перекрытий": 2713,
      "деревянный": 2714,
      "##ирпич": 2715,
      "стекла": 2716,
      "преднапряженная": 2717,
      "1400": 2718,
      "воздей": 2719,
      "слоя": 2720,
      "14нж0": 2721,
      "тонк": 2722,
      "быст": 2723,
      "фан": 2724,
      "сплава": 2725,
      "шарнирная": 2726,
      "##оя": 2727,
      "##ыш": 2728,
      "30°": 2729,
      "##Х13": 2730,
      "IP5": 2731,
      "5000": 2732,
      "дом": 2733,
      "##унт": 2734,
      "пресс": 2735,
      "##лош": 2736,
      "железобетонных": 2737,
      "полиэтиленовый": 2738,
      "характеристика": 2739,
      "остек": 2740,
      "##еренци": 2741,
      "дифференци": 2742,
      "4178": 2743,
      "550": 2744,
      "##х95": 2745,
      "##луч": 2746,
      "##опо": 2747,
      "##отки": 2748,
      "##онагрев": 2749,
      "гибкость": 2750,
      "обществ": 2751,
      "##III": 2752,
      "кровельный": 2753,
      "вниз": 2754,
      "уч": 2755,
      "##уко": 2756,
      "##лями": 2757,
      "материалов": 2758,
      "материала": 2759,
      "средняя": 2760,
      "защитного": 2761,
      "##стви": 2762,
      "##лич": 2763,
      "стойкой": 2764,
      "##олистовой": 2765,
      "РК": 2766,
      "##ентов": 2767,
      "отопления": 2768,
      "КВВГ": 2769,
      "69": 2770,
      "##ехнических": 2771,
      "бруса": 2772,
      "бл": 2773,
      "порист": 2774,
      "426": 2775,
      "4000": 2776,
      "эласти": 2777,
      "##кана": 2778,
      "перфорированный": 2779,
      "битумно": 2780,
      "влагост": 2781,
      "##етри": 2782,
      "пролет": 2783,
      "##яжки": 2784,
      "кольц": 2785,
      "БКЗК": 2786,
      "##ние": 2787,
      "упру": 2788,
      "IIIв": 2789,
      "##ателей": 2790,
      "##цией": 2791,
      "##елями": 2792,
      "Конструк": 2793,
      "системе": 2794,
      "Выключатели": 2795,
      "растяжении": 2796,
      "54": 2797,
      "SDR11": 2798,
      "лит": 2799,
      "##14": 2800,
      "железных": 2801,
      "одина": 2802,
      "гидрот": 2803,
      "латунный": 2804,
      "##охра": 2805,
      "315": 2806,
      "реле": 2807,
      "##устойчив": 2808,
      "электроприводом": 2809,
      "гидротехнических": 2810,
      "трос": 2811,
      "##вижная": 2812,
      "Комплект": 2813,
      "клап": 2814,
      "Кол": 2815,
      "##ильз": 2816,
      "односторон": 2817,
      "воздействи": 2818,
      "##риз": 2819,
      "##ена": 2820,
      "##ушения": 2821,
      "дросс": 2822,
      "##щи": 2823,
      "##ветвления": 2824,
      "блочный": 2825,
      "Габ": 2826,
      "##БШв": 2827,
      "воздействию": 2828,
      "замыка": 2829,
      "РН": 2830,
      "лент": 2831,
      "гравия": 2832,
      "общественных": 2833,
      "Ду": 2834,
      "Филь": 2835,
      "Шп": 2836,
      "эп": 2837,
      "##тором": 2838,
      "##оксид": 2839,
      "ге": 2840,
      "эма": 2841,
      "##ойных": 2842,
      "##ект": 2843,
      "двухкомпонент": 2844,
      "токопо": 2845,
      "муфтой": 2846,
      "токопоисковая": 2847,
      "кра": 2848,
      "##хслойная": 2849,
      "##ёхслойная": 2850,
      "шпунт": 2851,
      "транспортного": 2852,
      "##утавр": 2853,
      "фанеры": 2854,
      "W2": 2855,
      "дис": 2856,
      "##отушения": 2857,
      "тепловая": 2858,
      "пожаротушения": 2859,
      "хвойных": 2860,
      "сталемедная": 2861,
      "6х19": 2862,
      "##той": 2863,
      "изгиб": 2864,
      "сто": 2865,
      "##епи": 2866,
      "##овыми": 2867,
      "скваж": 2868,
      "##виг": 2869,
      "проводов": 2870,
      "обратный": 2871,
      "Хомут": 2872,
      "плен": 2873,
      "размером": 2874,
      "сплош": 2875,
      "условное": 2876,
      "##опроводов": 2877,
      "сварная": 2878,
      "образ": 2879,
      "##ежут": 2880,
      "промежут": 2881,
      "92": 2882,
      "##лор": 2883,
      "##очаст": 2884,
      "шириной": 2885,
      "крупность": 2886,
      "##аном": 2887,
      "##рас": 2888,
      "##рож": 2889,
      "переходные": 2890,
      "##укав": 2891,
      "эпоксид": 2892,
      "##каф": 2893,
      "разветвитель": 2894,
      "09Г2С": 2895,
      "С345": 2896,
      "несущ": 2897,
      "реб": 2898,
      "##ельные": 2899,
      "покрытий": 2900,
      "горячего": 2901,
      "##енными": 2902,
      "проп": 2903,
      "кронштей": 2904,
      "технические": 2905,
      "Кал": 2906,
      "##x400": 2907,
      "проклад": 2908,
      "характеристики": 2909,
      "##71фт": 2910,
      "термоус": 2911,
      "##х40": 2912,
      "диап": 2913,
      "##рядная": 2914,
      "##основ": 2915,
      "покрытие": 2916,
      "порошковым": 2917,
      "шахт": 2918,
      "280": 2919,
      "гип": 2920,
      "##еци": 2921,
      "свин": 2922,
      "гидроизоляционный": 2923,
      "участ": 2924,
      "влагостойкой": 2925,
      "диапазон": 2926,
      "Манж": 2927,
      "##Гц": 2928,
      "бетонный": 2929,
      "##осна": 2930,
      "полимерным": 2931,
      "##егулятор": 2932,
      "проводной": 2933,
      "##ЭВнг": 2934,
      "2В": 2935,
      "стан": 2936,
      "##инское": 2937,
      "выход": 2938,
      "сосна": 2939,
      "##ство": 2940,
      "шты": 2941,
      "раструбные": 2942,
      "каучука": 2943,
      "виб": 2944,
      "##ата": 2945,
      "подоснов": 2946,
      "##ированной": 2947,
      "##еталли": 2948,
      "сварным": 2949,
      "строительные": 2950,
      "73": 2951,
      "##вающ": 2952,
      "вставкой": 2953,
      "Манжета": 2954,
      "Полот": 2955,
      "С2": 2956,
      "##28": 2957,
      "##кар": 2958,
      "издели": 2959,
      "обшив": 2960,
      "29": 2961,
      "теплосна": 2962,
      "фасадов": 2963,
      "Ограждения": 2964,
      "##центр": 2965,
      "##ушитель": 2966,
      "коррозионно": 2967,
      "##IIIв": 2968,
      "##еров": 2969,
      "Комплекс": 2970,
      "круглая": 2971,
      "сжати": 2972,
      "тонколистовой": 2973,
      "теплоснабжения": 2974,
      "Лист": 2975,
      "стор": 2976,
      "##альное": 2977,
      "заклад": 2978,
      "дорожный": 2979,
      "Соединитель": 2980,
      "44": 2981,
      "зв": 2982,
      "##7р": 2983,
      "##емой": 2984,
      "##ильки": 2985,
      "антикор": 2986,
      "регулируемая": 2987,
      "термоусаж": 2988,
      "АП": 2989,
      "В20": 2990,
      "##овор": 2991,
      "ТПП": 2992,
      "508": 2993,
      "трансформатор": 2994,
      "группе": 2995,
      "Д1": 2996,
      "##x25": 2997,
      "##иней": 2998,
      "категор": 2999,
      "Скоб": 3000,
      "47": 3001,
      "##лев": 3002,
      "##ральный": 3003,
      "##00х3": 3004,
      "##пресс": 3005,
      "круглого": 3006,
      "МЛ": 3007,
      "ограж": 3008,
      "автомоб": 3009,
      "доб": 3010,
      "##эп": 3011,
      "##евые": 3012,
      "14нж9": 3013,
      "##сные": 3014,
      "274": 3015,
      "синтетического": 3016,
      "##нак": 3017,
      "полю": 3018,
      "пожарно": 3019,
      "подоснове": 3020,
      "Риг": 3021,
      "##чная": 3022,
      "выше": 3023,
      "##ческими": 3024,
      "опорах": 3025,
      "нижней": 3026,
      "потолочный": 3027,
      "##оснабжения": 3028,
      "43": 3029,
      "ТС": 3030,
      "пат": 3031,
      "сх": 3032,
      "##рованного": 3033,
      "полимерные": 3034,
      "окрашенные": 3035,
      "Опоры": 3036,
      "изолированная": 3037,
      "автоматические": 3038,
      "одинар": 3039,
      "##ризот": 3040,
      "##24": 3041,
      "##стир": 3042,
      "УХЛ4": 3043,
      "легкого": 3044,
      "##мс": 3045,
      "##фальт": 3046,
      "мостов": 3047,
      "швеллер": 3048,
      "трубопровода": 3049,
      "ВН": 3050,
      "квадратные": 3051,
      "IP54": 3052,
      "полюсов": 3053,
      "фут": 3054,
      "обор": 3055,
      "неизоли": 3056,
      "однослойные": 3057,
      "клинов": 3058,
      "температурный": 3059,
      "КМПВ": 3060,
      "редуктором": 3061,
      "06": 3062,
      "##гу": 3063,
      "##ковые": 3064,
      "##кос": 3065,
      "отвод": 3066,
      "##айки": 3067,
      "яче": 3068,
      "пределом": 3069,
      "720": 3070,
      "##ТТ": 3071,
      "##очной": 3072,
      "100х100": 3073,
      "вытяж": 3074,
      "три": 3075,
      "##рующая": 3076,
      "##очастотный": 3077,
      "##ризотил": 3078,
      "IV": 3079,
      "входной": 3080,
      "##19": 3081,
      "наклад": 3082,
      "762": 3083,
      "асфальт": 3084,
      "дроссельная": 3085,
      "ГВС": 3086,
      "Фундамент": 3087,
      "##емб": 3088,
      "конус": 3089,
      "##ционная": 3090,
      "порошковыми": 3091,
      "непр": 3092,
      "пенополимерминеральная": 3093,
      "##ъемная": 3094,
      "комм": 3095,
      "головкой": 3096,
      "763": 3097,
      "штока": 3098,
      "стекловолок": 3099,
      "ПР": 3100,
      "пут": 3101,
      "рем": 3102,
      "##полю": 3103,
      "бетонных": 3104,
      "##ранс": 3105,
      "воздушных": 3106,
      "##нутый": 3107,
      "##оящ": 3108,
      "##то": 3109,
      "##х20": 3110,
      "##700": 3111,
      "##стоя": 3112,
      "##танг": 3113,
      "расстоя": 3114,
      "окна": 3115,
      "дорожных": 3116,
      "ППУ": 3117,
      "муллитокремнеземистой": 3118,
      "линей": 3119,
      "распа": 3120,
      "полиэст": 3121,
      "дорожного": 3122,
      "периклазовая": 3123,
      "промыш": 3124,
      "внутренних": 3125,
      "мансардный": 3126,
      "категории": 3127,
      "промышлен": 3128,
      "СС": 3129,
      "Транс": 3130,
      "Электр": 3131,
      "хризотил": 3132,
      "##чик": 3133,
      "##кид": 3134,
      "##егм": 3135,
      "жестких": 3136,
      "латунные": 3137,
      "хризотилцемент": 3138,
      "ПК": 3139,
      "Прутки": 3140,
      "Фан": 3141,
      "ре": 3142,
      "ска": 3143,
      "136": 3144,
      "панельный": 3145,
      "светодиодный": 3146,
      "##центри": 3147,
      "оборуд": 3148,
      "Фанера": 3149,
      "мк": 3150,
      "ор": 3151,
      "##кол": 3152,
      "##ковом": 3153,
      "контрольного": 3154,
      "частота": 3155,
      "известняковом": 3156,
      "##00х2": 3157,
      "скважин": 3158,
      "штыр": 3159,
      "56": 3160,
      "пласт": 3161,
      "полос": 3162,
      "стойкостью": 3163,
      "SN4": 3164,
      "удерживающ": 3165,
      "трещин": 3166,
      "крестообразный": 3167,
      "Шр": 3168,
      "гран": 3169,
      "##оустойчив": 3170,
      "##75": 3171,
      "##енц": 3172,
      "обм": 3173,
      "алюминиевая": 3174,
      "механический": 3175,
      "ТППэп": 3176,
      "##стан": 3177,
      "##енцес": 3178,
      "РО": 3179,
      "полки": 3180,
      "##31": 3181,
      "##ющим": 3182,
      "ручка": 3183,
      "температурным": 3184,
      "Конструкции": 3185,
      "##x60": 3186,
      "##ара": 3187,
      "##альные": 3188,
      "углеродистая": 3189,
      "канализацион": 3190,
      "##ык": 3191,
      "##х12": 3192,
      "воздуховод": 3193,
      "группы": 3194,
      "стоек": 3195,
      "схемы": 3196,
      "Трансформатор": 3197,
      "ЛС": 3198,
      "##арь": 3199,
      "##рованием": 3200,
      "##рафи": 3201,
      "створ": 3202,
      "509": 3203,
      "##струд": 3204,
      "перехода": 3205,
      "Панель": 3206,
      "декоратив": 3207,
      "борта": 3208,
      "Устройство": 3209,
      "распаш": 3210,
      "Ст20": 3211,
      "кВА": 3212,
      "двухслойная": 3213,
      "фланцевая": 3214,
      "коробчатая": 3215,
      "строительных": 3216,
      "закрытого": 3217,
      "##онагревателей": 3218,
      "Полотенцес": 3219,
      "кД": 3220,
      "ож": 3221,
      "##мм": 3222,
      "сжатие": 3223,
      "кДж": 3224,
      "820": 3225,
      "##вной": 3226,
      "##тация": 3227,
      "##рованных": 3228,
      "эмалями": 3229,
      "воздуховодов": 3230,
      "##есь": 3231,
      "##циона": 3232,
      "IP65": 3233,
      "поверхности": 3234,
      "Узел": 3235,
      "уплотнитель": 3236,
      "кар": 3237,
      "##х80": 3238,
      "##цо": 3239,
      "##ози": 3240,
      "фланца": 3241,
      "опалуб": 3242,
      "10с3": 3243,
      "Кольцо": 3244,
      "##рон": 3245,
      "##елев": 3246,
      "##яга": 3247,
      "##руемых": 3248,
      "твердые": 3249,
      "стороне": 3250,
      "обмотки": 3251,
      "39": 3252,
      "НН": 3253,
      "ми": 3254,
      "##енсатор": 3255,
      "подъем": 3256,
      "КВВГЭнг": 3257,
      "Фильтр": 3258,
      "обшивочная": 3259,
      "асфальтобетон": 3260,
      "полосовой": 3261,
      "Ем": 3262,
      "ЕР": 3263,
      "УКС": 3264,
      "углов": 3265,
      "W8": 3266,
      "Роз": 3267,
      "ФС": 3268,
      "##нита": 3269,
      "##рубного": 3270,
      "опасности": 3271,
      "##17ст": 3272,
      "глухой": 3273,
      "Шкаф": 3274,
      "дым": 3275,
      "шайб": 3276,
      "см3": 3277,
      "##вини": 3278,
      "непреры": 3279,
      "миним": 3280,
      "Манс": 3281,
      "РТТ": 3282,
      "филь": 3283,
      "моно": 3284,
      "чугун": 3285,
      "стыков": 3286,
      "##уровское": 3287,
      "магистраль": 3288,
      "14нж017п": 3289,
      "Ригели": 3290,
      "Полотенцесушитель": 3291,
      "Мансуровское": 3292,
      "104": 3293,
      "контролем": 3294,
      "настенный": 3295,
      "##арьер": 3296,
      "Ввод": 3297,
      "Возд": 3298,
      "Пуд": 3299,
      "дуб": 3300,
      "##цевой": 3301,
      "полов": 3302,
      "##ечника": 3303,
      "КМП": 3304,
      "Воздух": 3305,
      "рек": 3306,
      "шум": 3307,
      "алюминиевый": 3308,
      "кроме": 3309,
      "##щищ": 3310,
      "Листы": 3311,
      "4х1": 3312,
      "СК": 3313,
      "##лам": 3314,
      "специ": 3315,
      "заземляющ": 3316,
      "модульная": 3317,
      "взрыв": 3318,
      "мкм": 3319,
      "Рукав": 3320,
      "##альным": 3321,
      "бетоне": 3322,
      "воздухонагревателей": 3323,
      "способность": 3324,
      "низкого": 3325,
      "гофрированные": 3326,
      "##ская": 3327,
      "##ровой": 3328,
      "##митация": 3329,
      "220В": 3330,
      "комбинированный": 3331,
      "клее": 3332,
      "G13": 3333,
      "В3": 3334,
      "##тка": 3335,
      "Камни": 3336,
      "термоусаживаем": 3337,
      "74": 3338,
      "Воз": 3339,
      "Дж": 3340,
      "Каш": 3341,
      "##ине": 3342,
      "подвижная": 3343,
      "##урт": 3344,
      "элементом": 3345,
      "##рождение": 3346,
      "футеров": 3347,
      "непрерывной": 3348,
      "Возрождение": 3349,
      "Курт": 3350,
      "##яющ": 3351,
      "##тау": 3352,
      "стациона": 3353,
      "##ожское": 3354,
      "гора": 3355,
      "##акси": 3356,
      "##ваара": 3357,
      "коакси": 3358,
      "##ильтау": 3359,
      "фаской": 3360,
      "винтовой": 3361,
      "слоем": 3362,
      "древес": 3363,
      "четыре": 3364,
      "равнопроходной": 3365,
      "Песок": 3366,
      "Калгу": 3367,
      "Пудожское": 3368,
      "Джильтау": 3369,
      "Кашина": 3370,
      "Куртинское": 3371,
      "Калгуваара": 3372,
      "АА": 3373,
      "Знак": 3374,
      "ТЗ": 3375,
      "##x10": 3376,
      "элементов": 3377,
      "настенные": 3378,
      "сня": 3379,
      "эмаль": 3380,
      "##68": 3381,
      "##x300": 3382,
      "##ностоящ": 3383,
      "состав": 3384,
      "доменных": 3385,
      "320": 3386,
      "вол": 3387,
      "нит": 3388,
      "намот": 3389,
      "##невой": 3390,
      "##рные": 3391,
      "##за": 3392,
      "##ению": 3393,
      "##раиваем": 3394,
      "МКР": 3395,
      "##x63": 3396,
      "##ПКВтнг": 3397,
      "##стирола": 3398,
      "намотки": 3399,
      "Зат": 3400,
      "аэ": 3401,
      "мом": 3402,
      "поливини": 3403,
      "фланец": 3404,
      "крепеж": 3405,
      "снятой": 3406,
      "ем": 3407,
      "##елья": 3408,
      "одним": 3409,
      "механиз": 3410,
      "пластм": 3411,
      "Об": 3412,
      "мрам": 3413,
      "пос": 3414,
      "фундамент": 3415,
      "##бШв": 3416,
      "##новское": 3417,
      "##00х1": 3418,
      "##акуш": 3419,
      "термостойкости": 3420,
      "воздушный": 3421,
      "6х36": 3422,
      "Емелья": 3423,
      "мрамор": 3424,
      "Емельяновское": 3425,
      "DN": 3426,
      "RT": 3427,
      "вращ": 3428,
      "кам": 3429,
      "ракуш": 3430,
      "уль": 3431,
      "##емый": 3432,
      "заполнением": 3433,
      "магистральных": 3434,
      "Затвор": 3435,
      "ракушечника": 3436,
      "##лении": 3437,
      "прогиб": 3438,
      "115": 3439,
      "Стойки": 3440,
      "средн": 3441,
      "термостойкие": 3442,
      "муллитовый": 3443,
      "поперечин": 3444,
      "кольцом": 3445,
      "230": 3446,
      "РП": 3447,
      "вход": 3448,
      "##уар": 3449,
      "##остран": 3450,
      "перед": 3451,
      "электрот": 3452,
      "элементы": 3453,
      "пленкой": 3454,
      "##карб": 3455,
      "ук": 3456,
      "##офор": 3457,
      "##пар": 3458,
      "столб": 3459,
      "##алле": 3460,
      "анкеров": 3461,
      "МКБ": 3462,
      "железнодорожного": 3463,
      "Проход": 3464,
      "рев": 3465,
      "##совые": 3466,
      "##ечные": 3467,
      "полости": 3468,
      "водост": 3469,
      "экструд": 3470,
      "нераз": 3471,
      "коаксиальный": 3472,
      "##аллель": 3473,
      "Проходка": 3474,
      "##овоз": 3475,
      "безна": 3476,
      "##остав": 3477,
      "перим": 3478,
      "прямая": 3479,
      "шпона": 3480,
      "мас": 3481,
      "консоль": 3482,
      "377": 3483,
      "стеновые": 3484,
      "вертикального": 3485,
      "газопроводных": 3486,
      "расстояние": 3487,
      "пластмасс": 3488,
      "АК": 3489,
      "Вентиля": 3490,
      "мик": 3491,
      "фик": 3492,
      "трубам": 3493,
      "полимерных": 3494,
      "оборудования": 3495,
      "реклам": 3496,
      "ВК": 3497,
      "Нас": 3498,
      "вит": 3499,
      "##уруп": 3500,
      "##енов": 3501,
      "##гани": 3502,
      "##34": 3503,
      "SN6": 3504,
      "Крас": 3505,
      "элемента": 3506,
      "многопустотные": 3507,
      "решеткой": 3508,
      "блоком": 3509,
      "клапаном": 3510,
      "периметр": 3511,
      "венти": 3512,
      "двутавр": 3513,
      "дроб": 3514,
      "час": 3515,
      "##евое": 3516,
      "##олимер": 3517,
      "запи": 3518,
      "меди": 3519,
      "водоснабжения": 3520,
      "концевые": 3521,
      "добав": 3522,
      "53": 3523,
      "Состав": 3524,
      "тв": 3525,
      "##етки": 3526,
      "сили": 3527,
      "##керный": 3528,
      "чугунная": 3529,
      "термор": 3530,
      "плоские": 3531,
      "электрические": 3532,
      "навесных": 3533,
      "запира": 3534,
      "гильз": 3535,
      "пс": 3536,
      "распол": 3537,
      "параллель": 3538,
      "Ограждение": 3539,
      "Балка": 3540,
      "одностороннего": 3541,
      "среднеп": 3542,
      "##карбона": 3543,
      "49": 3544,
      "83": 3545,
      "Нак": 3546,
      "туф": 3547,
      "чёр": 3548,
      "##дости": 3549,
      "##льной": 3550,
      "маркерный": 3551,
      "сеткой": 3552,
      "четырёхслойная": 3553,
      "##ёрдости": 3554,
      "эластичная": 3555,
      "кронштейна": 3556,
      "твёрдости": 3557,
      "среднеповор": 3558,
      "туфа": 3559,
      "чёрный": 3560,
      "59": 3561,
      "##рун": 3562,
      "вывод": 3563,
      "поликарбона": 3564,
      "Вентилятор": 3565,
      "Ста": 3566,
      "##юб": 3567,
      "внутрит": 3568,
      "50Гц": 3569,
      "сварки": 3570,
      "водопр": 3571,
      "канала": 3572,
      "максимальное": 3573,
      "каркасом": 3574,
      "монтажный": 3575,
      "транспорта": 3576,
      "##ЭВЭВнг": 3577,
      "межд": 3578,
      "БСЛ": 3579,
      "изделий": 3580,
      "Краска": 3581,
      "ВБШв": 3582,
      "##250": 3583,
      "стр": 3584,
      "иск": 3585,
      "затяжки": 3586,
      "радиус": 3587,
      "сдвиг": 3588,
      "170": 3589,
      "78": 3590,
      "АМ": 3591,
      "ШВ": 3592,
      "дут": 3593,
      "фундам": 3594,
      "##вращ": 3595,
      "##х60": 3596,
      "##x9": 3597,
      "##ким": 3598,
      "##емые": 3599,
      "прямого": 3600,
      "полот": 3601,
      "кожуха": 3602,
      "напорным": 3603,
      "колодцев": 3604,
      "В45": 3605,
      "бим": 3606,
      "ест": 3607,
      "иг": 3608,
      "##онных": 3609,
      "разд": 3610,
      "концентри": 3611,
      "двухст": 3612,
      "резьба": 3613,
      "SDR17": 3614,
      "##родром": 3615,
      "аэродром": 3616,
      "биметалли": 3617,
      "естеств": 3618,
      "Уголь": 3619,
      "бер": 3620,
      "##Пу": 3621,
      "##остов": 3622,
      "##астная": 3623,
      "металлическим": 3624,
      "жесткости": 3625,
      "муфтовое": 3626,
      "блоков": 3627,
      "##x190x120": 3628,
      "ячеек": 3629,
      "фундамента": 3630,
      "ККБ": 3631,
      "нетка": 3632,
      "трав": 3633,
      "щелев": 3634,
      "##ути": 3635,
      "##хлор": 3636,
      "##чным": 3637,
      "##гов": 3638,
      "стойки": 3639,
      "##кань": 3640,
      "##ающей": 3641,
      "хвостов": 3642,
      "листвен": 3643,
      "арматурой": 3644,
      "патруб": 3645,
      "друг": 3646,
      "##КV": 3647,
      "Плитка": 3648,
      "кони": 3649,
      "панелями": 3650,
      "оболочки": 3651,
      "УХЛ1": 3652,
      "стержневой": 3653,
      "ограждения": 3654,
      "##оустойчивый": 3655,
      "экструдированного": 3656,
      "##нию": 3657,
      "##ейств": 3658,
      "горных": 3659,
      "четырех": 3660,
      "тройников": 3661,
      "антикоррозион": 3662,
      "запирающим": 3663,
      "им": 3664,
      "лип": 3665,
      "нав": 3666,
      "алюминия": 3667,
      "150x150x90": 3668,
      "1100": 3669,
      "пог": 3670,
      "##х240": 3671,
      "воздухопроводов": 3672,
      "вентили": 3673,
      "дутья": 3674,
      "86": 3675,
      "М400": 3676,
      "воз": 3677,
      "##нительный": 3678,
      "##грег": 3679,
      "полипропиленовый": 3680,
      "упруго": 3681,
      "поливинил": 3682,
      "УФ": 3683,
      "##иком": 3684,
      "вырыв": 3685,
      "трубчатые": 3686,
      "общая": 3687,
      "латунная": 3688,
      "расчетная": 3689,
      "заполнителях": 3690,
      "##канальный": 3691,
      "момента": 3692,
      "грун": 3693,
      "##Ат": 3694,
      "##раны": 3695,
      "разрыв": 3696,
      "одной": 3697,
      "балки": 3698,
      "секционный": 3699,
      "Грунт": 3700,
      "У2": 3701,
      "##x8": 3702,
      "обеч": 3703,
      "##ранный": 3704,
      "##овозвращ": 3705,
      "располож": 3706,
      "Бур": 3707,
      "дол": 3708,
      "##кому": 3709,
      "##ипп": 3710,
      "слоями": 3711,
      "КУГ": 3712,
      "вентилируемых": 3713,
      "Колод": 3714,
      "##ино": 3715,
      "##нот": 3716,
      "##ального": 3717,
      "защ": 3718,
      "предохра": 3719,
      "встраиваем": 3720,
      "решетчатые": 3721,
      "рельс": 3722,
      "безнапорные": 3723,
      "водопропуск": 3724,
      "000": 3725,
      "79": 3726,
      "##очным": 3727,
      "подкос": 3728,
      "окра": 3729,
      "бесс": 3730,
      "##ражающ": 3731,
      "стыка": 3732,
      "глубина": 3733,
      "автомобильных": 3734,
      "гранями": 3735,
      "аэродромных": 3736,
      "##хлорид": 3737,
      "расс": 3738,
      "##онка": 3739,
      "##опас": 3740,
      "##нители": 3741,
      "##роводов": 3742,
      "СТА": 3743,
      "оснований": 3744,
      "измерительного": 3745,
      "противопожарный": 3746,
      "короткому": 3747,
      "замыканию": 3748,
      "КМПЭВЭВнг": 3749,
      "клееного": 3750,
      "навивные": 3751,
      "82": 3752,
      "У3": 3753,
      "##остойкость": 3754,
      "основания": 3755,
      "облицовка": 3756,
      "радиочастотный": 3757,
      "продольном": 3758,
      "звуко": 3759,
      "мел": 3760,
      "##обез": 3761,
      "##коу": 3762,
      "проволок": 3763,
      "переходный": 3764,
      "транспорти": 3765,
      "хвостовиком": 3766,
      "68": 3767,
      "Т8": 3768,
      "ал": 3769,
      "##42": 3770,
      "##коп": 3771,
      "##ппар": 3772,
      "##38": 3773,
      "##ковой": 3774,
      "##авка": 3775,
      "откры": 3776,
      "проема": 3777,
      "стеклом": 3778,
      "соединении": 3779,
      "разветвительная": 3780,
      "клиновым": 3781,
      "скальный": 3782,
      "емкость": 3783,
      "окраше": 3784,
      "07": 3785,
      "дета": 3786,
      "хром": 3787,
      "световозвращ": 3788,
      "КВВГнг": 3789,
      "резиновым": 3790,
      "поливинилхлорид": 3791,
      "транспортировки": 3792,
      "В1": 3793,
      "сана": 3794,
      "##ту": 3795,
      "двуст": 3796,
      "зажимами": 3797,
      "дверного": 3798,
      "3332": 3799,
      "твердая": 3800,
      "Прок": 3801,
      "асфальтобетонные": 3802,
      "##обезопас": 3803,
      "санации": 3804,
      "3332и": 3805,
      "93": 3806,
      "##воз": 3807,
      "##Бл": 3808,
      "##фоб": 3809,
      "стати": 3810,
      "##пряга": 3811,
      "##елые": 3812,
      "заземлением": 3813,
      "полиуретановым": 3814,
      "##енаж": 3815,
      "распашной": 3816,
      "механизм": 3817,
      "среднеповоротный": 3818,
      "##АтV": 3819,
      "67": 3820,
      "##вед": 3821,
      "##мож": 3822,
      "##x40": 3823,
      "открытой": 3824,
      "лаки": 3825,
      "пористых": 3826,
      "возмож": 3827,
      "RD": 3828,
      "ВТ": 3829,
      "М1": 3830,
      "ОС": 3831,
      "нев": 3832,
      "прочая": 3833,
      "##ПВХ": 3834,
      "удлинением": 3835,
      "##прягаемой": 3836,
      "ВР": 3837,
      "риг": 3838,
      "фиб": 3839,
      "регулирования": 3840,
      "акри": 3841,
      "гидрофоб": 3842,
      "обсад": 3843,
      "Брус": 3844,
      "Элем": 3845,
      "жел": 3846,
      "нес": 3847,
      "фур": 3848,
      "##ода": 3849,
      "##ственных": 3850,
      "направляющ": 3851,
      "Балки": 3852,
      "после": 3853,
      "внутритрубного": 3854,
      "Сегм": 3855,
      "##пир": 3856,
      "##енс": 3857,
      "114": 3858,
      "SN16": 3859,
      "преднапряженные": 3860,
      "радиусом": 3861,
      "бессвар": 3862,
      "возможностью": 3863,
      "2р": 3864,
      "W6": 3865,
      "СВ": 3866,
      "штанг": 3867,
      "##ровая": 3868,
      "парап": 3869,
      "направлении": 3870,
      "отопительный": 3871,
      "##озащищ": 3872,
      "вращения": 3873,
      "87": 3874,
      "А2": 3875,
      "КО": 3876,
      "Маты": 3877,
      "ель": 3878,
      "неоцинкован": 3879,
      "ручкой": 3880,
      "пружинный": 3881,
      "##ПКВтп": 3882,
      "##опускная": 3883,
      "Скоба": 3884,
      "61": 3885,
      "симм": 3886,
      "сейсмостойкость": 3887,
      "теплонос": 3888,
      "##Х17": 3889,
      "листов": 3890,
      "колодца": 3891,
      "упругости": 3892,
      "Сегменты": 3893,
      "Ворон": 3894,
      "##азопровод": 3895,
      "разветвления": 3896,
      "консо": 3897,
      "двухкамер": 3898,
      "##урой": 3899,
      "шту": 3900,
      "фильт": 3901,
      "берез": 3902,
      "симметри": 3903,
      "консольный": 3904,
      "ПСП": 3905,
      "##бро": 3906,
      "откид": 3907,
      "горюч": 3908,
      "Ответвитель": 3909,
      "полипропиленовая": 3910,
      "спирально": 3911,
      "прямоугольного": 3912,
      "##Х17Н": 3913,
      "Воронка": 3914,
      "B25": 3915,
      "Ар": 3916,
      "Г4": 3917,
      "пустот": 3918,
      "##ион": 3919,
      "##ун": 3920,
      "##НД": 3921,
      "натяж": 3922,
      "1220": 3923,
      "прибор": 3924,
      "смеси": 3925,
      "##паунд": 3926,
      "1800": 3927,
      "системы": 3928,
      "красками": 3929,
      "раструбный": 3930,
      "непод": 3931,
      "стены": 3932,
      "измерительный": 3933,
      "Габбро": 3934,
      "невы": 3935,
      "фурнит": 3936,
      "##ированных": 3937,
      "##осевое": 3938,
      "пенополистирола": 3939,
      "квадратного": 3940,
      "межосевое": 3941,
      "шестигранной": 3942,
      "Колено": 3943,
      "кирпич": 3944,
      "моду": 3945,
      "##онесущ": 3946,
      "разм": 3947,
      "присоединением": 3948,
      "Установ": 3949,
      "содержание": 3950,
      "световозвращающей": 3951,
      "теплоносителя": 3952,
      "3С": 3953,
      "66": 3954,
      "F1": 3955,
      "Кирпич": 3956,
      "Краны": 3957,
      "Эк": 3958,
      "##х65": 3959,
      "толщине": 3960,
      "##ечная": 3961,
      "##ворчатый": 3962,
      "приварная": 3963,
      "трещинами": 3964,
      "стеклонит": 3965,
      "взрывозащищ": 3966,
      "ульт": 3967,
      "игровой": 3968,
      "фурнитурой": 3969,
      "##оды": 3970,
      "конс": 3971,
      "##ключения": 3972,
      "удар": 3973,
      "поверхностная": 3974,
      "190x150x90": 3975,
      "черный": 3976,
      "однополь": 3977,
      "монолит": 3978,
      "##бетон": 3979,
      "##оком": 3980,
      "номинальная": 3981,
      "отс": 3982,
      "теплоизоли": 3983,
      "##цовая": 3984,
      "оконных": 3985,
      "стеклонитей": 3986,
      "ультрафи": 3987,
      "М600": 3988,
      "Т5": 3989,
      "брон": 3990,
      "галь": 3991,
      "##аны": 3992,
      "##во": 3993,
      "##2л": 3994,
      "##онт": 3995,
      "излуч": 3996,
      "##опро": 3997,
      "##амид": 3998,
      "плотных": 3999,
      "скреп": 4000,
      "способностью": 4001,
      "антипир": 4002,
      "устройств": 4003,
      "остеклен": 4004,
      "концентрический": 4005,
      "480": 4006,
      "G5": 4007,
      "Пок": 4008,
      "нипп": 4009,
      "##ходные": 4010,
      "12Г2С": 4011,
      "##прессов": 4012,
      "М300": 4013,
      "действ": 4014,
      "щит": 4015,
      "##ач": 4016,
      "##бр": 4017,
      "подст": 4018,
      "сквоз": 4019,
      "сдво": 4020,
      "биметаллический": 4021,
      "ИКБ": 4022,
      "##тур": 4023,
      "дву": 4024,
      "компаунд": 4025,
      "цементе": 4026,
      "стенов": 4027,
      "гайкой": 4028,
      "содержанием": 4029,
      "Шпильки": 4030,
      "удерживающей": 4031,
      "витраж": 4032,
      "поликарбоната": 4033,
      "ультрафиолет": 4034,
      "920": 4035,
      "##лу": 4036,
      "##мату": 4037,
      "стру": 4038,
      "газон": 4039,
      "уголками": 4040,
      "универсальный": 4041,
      "пролетных": 4042,
      "АПв": 4043,
      "Розетка": 4044,
      "##ведения": 4045,
      "Армату": 4046,
      "М150": 4047,
      "врез": 4048,
      "кноп": 4049,
      "##17р": 4050,
      "гладкий": 4051,
      "световой": 4052,
      "КПС": 4053,
      "##полюсные": 4054,
      "##отуар": 4055,
      "тротуар": 4056,
      "распорный": 4057,
      "##40x1": 4058,
      "контроли": 4059,
      "##ломоустойчивый": 4060,
      "изолированные": 4061,
      "керамический": 4062,
      "взломоустойчивый": 4063,
      "силикат": 4064,
      "B15": 4065,
      "EI": 4066,
      "Регулятор": 4067,
      "##x600": 4068,
      "258": 4069,
      "1300": 4070,
      "##рующий": 4071,
      "поворотный": 4072,
      "соединение": 4073,
      "SN32": 4074,
      "провода": 4075,
      "потока": 4076,
      "сетей": 4077,
      "очистного": 4078,
      "10с96": 4079,
      "свинц": 4080,
      "режим": 4081,
      "SN48": 4082,
      "акрилов": 4083,
      "77": 4084,
      "Зам": 4085,
      "М200": 4086,
      "##х30": 4087,
      "##63": 4088,
      "##анси": 4089,
      "##есси": 4090,
      "##егород": 4091,
      "SN24": 4092,
      "баланси": 4093,
      "КУП": 4094,
      "пропит": 4095,
      "##ембра": 4096,
      "естественной": 4097,
      "патрубка": 4098,
      "вс": 4099,
      "##КМ": 4100,
      "##рытие": 4101,
      "прочие": 4102,
      "##четчик": 4103,
      "виде": 4104,
      "водоотведения": 4105,
      "дифференциальный": 4106,
      "искус": 4107,
      "полотна": 4108,
      "двухсторон": 4109,
      "сдвоенные": 4110,
      "D1": 4111,
      "бук": 4112,
      "ряд": 4113,
      "##44": 4114,
      "##цем": 4115,
      "##ители": 4116,
      "крив": 4117,
      "самонесущ": 4118,
      "185": 4119,
      "SN12": 4120,
      "щебено": 4121,
      "##лизации": 4122,
      "канализации": 4123,
      "ответвительный": 4124,
      "торцевая": 4125,
      "спиральношовные": 4126,
      "излучению": 4127,
      "W12": 4128,
      "Т1": 4129,
      "цент": 4130,
      "##Кт": 4131,
      "##ющая": 4132,
      "стеклот": 4133,
      "водог": 4134,
      "штоком": 4135,
      "противопожарных": 4136,
      "алм": 4137,
      "щебеноч": 4138,
      "водогазопровод": 4139,
      "84": 4140,
      "ВС": 4141,
      "МС": 4142,
      "цир": 4143,
      "##ИП": 4144,
      "##обеж": 4145,
      "##катур": 4146,
      "##янут": 4147,
      "##x35": 4148,
      "массив": 4149,
      "огнестойкого": 4150,
      "М250": 4151,
      "##куля": 4152,
      "опалубки": 4153,
      "грунта": 4154,
      "циркуля": 4155,
      "Маш": 4156,
      "вт": 4157,
      "заб": 4158,
      "сопр": 4159,
      "##шивные": 4160,
      "##КП": 4161,
      "Трубка": 4162,
      "прошивные": 4163,
      "центробеж": 4164,
      "дренаж": 4165,
      "плитками": 4166,
      "##ПКВКт": 4167,
      "стороны": 4168,
      "линейный": 4169,
      "##говрем": 4170,
      "долговрем": 4171,
      "##ембрана": 4172,
      "втул": 4173,
      "НС": 4174,
      "Пол": 4175,
      "лаз": 4176,
      "##цвет": 4177,
      "чугунные": 4178,
      "поверхность": 4179,
      "##омпозит": 4180,
      "цилиндрический": 4181,
      "прессованные": 4182,
      "ленточные": 4183,
      "вибр": 4184,
      "стекловолоконный": 4185,
      "столбам": 4186,
      "SN64": 4187,
      "встраиваемый": 4188,
      "антипиренов": 4189,
      "Покрытие": 4190,
      "ультрафиолетового": 4191,
      "Машины": 4192,
      "долговременный": 4193,
      "шин": 4194,
      "нагрев": 4195,
      "однорядная": 4196,
      "бето": 4197,
      "ребра": 4198,
      "штукатур": 4199,
      "бум": 4200,
      "##гольный": 4201,
      "оси": 4202,
      "50х50": 4203,
      "##х185": 4204,
      "##x1000": 4205,
      "установка": 4206,
      "сигнализации": 4207,
      "скор": 4208,
      "дорожное": 4209,
      "автомат": 4210,
      "##оводы": 4211,
      "чугунной": 4212,
      "Воздуховоды": 4213,
      "компаунда": 4214,
      "1ПКВтнг": 4215,
      "Агрег": 4216,
      "##фазный": 4217,
      "##ерепи": 4218,
      "##лений": 4219,
      "##лощ": 4220,
      "дверных": 4221,
      "тре": 4222,
      "средней": 4223,
      "скры": 4224,
      "цветная": 4225,
      "низкол": 4226,
      "неразъемная": 4227,
      "низколег": 4228,
      "260": 4229,
      "Пор": 4230,
      "Сетка": 4231,
      "атом": 4232,
      "ходу": 4233,
      "##нее": 4234,
      "##еная": 4235,
      "##ателя": 4236,
      "1250": 4237,
      "конд": 4238,
      "15600": 4239,
      "Клапаны": 4240,
      "##x130": 4241,
      "LO": 4242,
      "АД": 4243,
      "Дв": 4244,
      "моди": 4245,
      "##59": 4246,
      "##отовая": 4247,
      "подвод": 4248,
      "подземной": 4249,
      "Смесь": 4250,
      "HF1": 4251,
      "дисковый": 4252,
      "погруж": 4253,
      "витражные": 4254,
      "пом": 4255,
      "102": 4256,
      "##изог": 4257,
      "165": 4258,
      "ручного": 4259,
      "круто": 4260,
      "анкерные": 4261,
      "СБПБ": 4262,
      "секции": 4263,
      "Камень": 4264,
      "##x2500": 4265,
      "##00х3000": 4266,
      "коммута": 4267,
      "крутоизог": 4268,
      "Грав": 4269,
      "Р65": 4270,
      "Свер": 4271,
      "ФК": 4272,
      "ШС": 4273,
      "##УС": 4274,
      "##онструк": 4275,
      "##атой": 4276,
      "##готов": 4277,
      "фасонные": 4278,
      "SN96": 4279,
      "КВВБ": 4280,
      "Узлы": 4281,
      "пластика": 4282,
      "обсадные": 4283,
      "Установки": 4284,
      "Гравий": 4285,
      "Шн": 4286,
      "##вания": 4287,
      "##овина": 4288,
      "##инг": 4289,
      "##пресси": 4290,
      "шиной": 4291,
      "компресси": 4292,
      "поверхностью": 4293,
      "##тепроводов": 4294,
      "##ефтепроводов": 4295,
      "троса": 4296,
      "несущей": 4297,
      "ребр": 4298,
      "стрел": 4299,
      "газонефтепроводов": 4300,
      "Замок": 4301,
      "модифици": 4302,
      "3P": 4303,
      "В35": 4304,
      "##овка": 4305,
      "##омута": 4306,
      "свер": 4307,
      "двухрядная": 4308,
      "##локонструк": 4309,
      "КГН": 4310,
      "усиленная": 4311,
      "липа": 4312,
      "штанги": 4313,
      "парапет": 4314,
      "3СIIIв": 4315,
      "ЛП": 4316,
      "ат": 4317,
      "зон": 4318,
      "хомута": 4319,
      "##мос": 4320,
      "обык": 4321,
      "выпус": 4322,
      "##остойкости": 4323,
      "400x250": 4324,
      "стойкая": 4325,
      "IIв": 4326,
      "##делит": 4327,
      "креплениями": 4328,
      "##IIв": 4329,
      "гидроизоляционная": 4330,
      "2ВIIIв": 4331,
      "2ВIIв": 4332,
      "##АтVТ": 4333,
      "Арматура": 4334,
      "контролируем": 4335,
      "обыкнов": 4336,
      "560": 4337,
      "81": 4338,
      "Ок": 4339,
      "Рас": 4340,
      "шаг": 4341,
      "##67р": 4342,
      "облицовки": 4343,
      "поя": 4344,
      "##х200": 4345,
      "раствор": 4346,
      "СПА": 4347,
      "Габион": 4348,
      "хризотилцементные": 4349,
      "мраморная": 4350,
      "Грунтовка": 4351,
      "10с967р": 4352,
      "F300": 4353,
      "В12": 4354,
      "##ках": 4355,
      "##рата": 4356,
      "стальное": 4357,
      "##рони": 4358,
      "основанием": 4359,
      "компонент": 4360,
      "2200": 4361,
      "отдель": 4362,
      "муфту": 4363,
      "шайбой": 4364,
      "обечайки": 4365,
      "Элемент": 4366,
      "2з": 4367,
      "брони": 4368,
      "гладки": 4369,
      "тка": 4370,
      "крем": 4371,
      "профиль": 4372,
      "конструктив": 4373,
      "строений": 4374,
      "сборе": 4375,
      "6х37": 4376,
      "изгибом": 4377,
      "станций": 4378,
      "##урупы": 4379,
      "лиственница": 4380,
      "консоли": 4381,
      "действия": 4382,
      "К2": 4383,
      "метр": 4384,
      "чист": 4385,
      "##снов": 4386,
      "##шир": 4387,
      "##арфор": 4388,
      "##отив": 4389,
      "стяж": 4390,
      "трубчат": 4391,
      "полнот": 4392,
      "##опресс": 4393,
      "##ционных": 4394,
      "##ционного": 4395,
      "14нж17п": 4396,
      "14нж917п": 4397,
      "АМг": 4398,
      "вибропресс": 4399,
      "К1": 4400,
      "буров": 4401,
      "дефор": 4402,
      "лак": 4403,
      "##ейки": 4404,
      "##идная": 4405,
      "однокамер": 4406,
      "стандартным": 4407,
      "сетки": 4408,
      "##х75": 4409,
      "поверхностей": 4410,
      "концевой": 4411,
      "невыдвижным": 4412,
      "помещ": 4413,
      "3х50": 4414,
      "4х4": 4415,
      "В27": 4416,
      "хомут": 4417,
      "##бы": 4418,
      "##ометри": 4419,
      "##асл": 4420,
      "##еся": 4421,
      "IP00": 4422,
      "СБЗ": 4423,
      "подвески": 4424,
      "гипс": 4425,
      "полиэстера": 4426,
      "органи": 4427,
      "микрот": 4428,
      "Колодец": 4429,
      "E600": 4430,
      "Сва": 4431,
      "ветр": 4432,
      "мор": 4433,
      "щита": 4434,
      "##ят": 4435,
      "##92": 4436,
      "отключения": 4437,
      "наружными": 4438,
      "песчаная": 4439,
      "лиственных": 4440,
      "остеклением": 4441,
      "Насосы": 4442,
      "водогазопроводные": 4443,
      "Сваи": 4444,
      "5ок": 4445,
      "98": 4446,
      "Эмаль": 4447,
      "##возд": 4448,
      "##них": 4449,
      "проем": 4450,
      "одного": 4451,
      "ширины": 4452,
      "защитная": 4453,
      "КМПВнг": 4454,
      "промышленных": 4455,
      "подкосом": 4456,
      "деталей": 4457,
      "##бШп": 4458,
      "##CA": 4459,
      "##ъярусный": 4460,
      "натр": 4461,
      "##окрас": 4462,
      "103": 4463,
      "внутренняя": 4464,
      "плотностью": 4465,
      "##форма": 4466,
      "##ластика": 4467,
      "##х3000": 4468,
      "резьбовым": 4469,
      "соединительные": 4470,
      "скоб": 4471,
      "гибких": 4472,
      "керам": 4473,
      "рельсов": 4474,
      "прокладками": 4475,
      "Электроды": 4476,
      "неоцинкованные": 4477,
      "щебеночно": 4478,
      "лакокрас": 4479,
      "рам": 4480,
      "тав": 4481,
      "ответвления": 4482,
      "корпусе": 4483,
      "##х36": 4484,
      "силовая": 4485,
      "Зажимы": 4486,
      "минимальной": 4487,
      "имп": 4488,
      "горючести": 4489,
      "ИКС": 4490,
      "лами": 4491,
      "ули": 4492,
      "##оу": 4493,
      "##Б1": 4494,
      "##олст": 4495,
      "##орез": 4496,
      "SDR9": 4497,
      "АВВГ": 4498,
      "универсальные": 4499,
      "шестигранные": 4500,
      "стеклоткань": 4501,
      "отдельностоящ": 4502,
      "ИКСЛ": 4503,
      "ламини": 4504,
      "99": 4505,
      "СИП": 4506,
      "бу": 4507,
      "жид": 4508,
      "##нер": 4509,
      "##угольный": 4510,
      "##МС": 4511,
      "##отовый": 4512,
      "сварочные": 4513,
      "##атора": 4514,
      "трехфазный": 4515,
      "##сплу": 4516,
      "допол": 4517,
      "ПБС": 4518,
      "деревянная": 4519,
      "комбинированная": 4520,
      "композитной": 4521,
      "##нистой": 4522,
      "прессу": 4523,
      "створками": 4524,
      "подъема": 4525,
      "94": 4526,
      "W14": 4527,
      "Бол": 4528,
      "ИТ": 4529,
      "Основ": 4530,
      "Пред": 4531,
      "Сд": 4532,
      "Уг": 4533,
      "аппар": 4534,
      "осина": 4535,
      "##лопастная": 4536,
      "полок": 4537,
      "##амеры": 4538,
      "200х50": 4539,
      "сборные": 4540,
      "##x496": 4541,
      "быстро": 4542,
      "футеровочные": 4543,
      "Предохра": 4544,
      "91": 4545,
      "ЗП": 4546,
      "Мембрана": 4547,
      "фр": 4548,
      "##опог": 4549,
      "##евых": 4550,
      "обрез": 4551,
      "##ющие": 4552,
      "##агности": 4553,
      "радиацион": 4554,
      "внутренние": 4555,
      "информа": 4556,
      "Крестовина": 4557,
      "Обрам": 4558,
      "натяжной": 4559,
      "буро": 4560,
      "радиационно": 4561,
      "3х35": 4562,
      "8000": 4563,
      "D400": 4564,
      "Засл": 4565,
      "О1": 4566,
      "Эм": 4567,
      "метиз": 4568,
      "##66": 4569,
      "##мобезопас": 4570,
      "##77": 4571,
      "диагности": 4572,
      "##ровых": 4573,
      "подд": 4574,
      "##илиз": 4575,
      "прямые": 4576,
      "250х120": 4577,
      "##х300": 4578,
      "бескана": 4579,
      "соединительный": 4580,
      "цветными": 4581,
      "эксплу": 4582,
      "отделкой": 4583,
      "шамотный": 4584,
      "АСБ": 4585,
      "нитей": 4586,
      "травмобезопас": 4587,
      "##ПКВтпнг": 4588,
      "контролируемого": 4589,
      "бесканальной": 4590,
      "2х1": 4591,
      "ПТ": 4592,
      "ПСТ": 4593,
      "ох": 4594,
      "##ляем": 4595,
      "разбор": 4596,
      "##очками": 4597,
      "##епро": 4598,
      "##екционный": 4599,
      "##ладка": 4600,
      "##гряз": 4601,
      "МКСТ": 4602,
      "стандартнопроходной": 4603,
      "цоколем": 4604,
      "непер": 4605,
      "##гость": 4606,
      "распределительные": 4607,
      "упругость": 4608,
      "двухкомпонентная": 4609,
      "МЛСТ": 4610,
      "14нж017п32": 4611,
      "МКБСТ": 4612,
      "бронз": 4613,
      "алмаз": 4614,
      "зоне": 4615,
      "Уголок": 4616,
      "##грязн": 4617,
      "2P": 4618,
      "3х95": 4619,
      "ВВГ": 4620,
      "М8": 4621,
      "##x70": 4622,
      "##енное": 4623,
      "двиг": 4624,
      "##адочные": 4625,
      "1000х1": 4626,
      "теплового": 4627,
      "1700": 4628,
      "механическим": 4629,
      "электрическим": 4630,
      "элементами": 4631,
      "двуполь": 4632,
      "искусств": 4633,
      "трубчатой": 4634,
      "уличный": 4635,
      "неперфор": 4636,
      "нас": 4637,
      "пли": 4638,
      "##еза": 4639,
      "загрязн": 4640,
      "##x16": 4641,
      "однокомпонент": 4642,
      "3500": 4643,
      "цементной": 4644,
      "вытяжных": 4645,
      "штыревой": 4646,
      "между": 4647,
      "бессварного": 4648,
      "балансировочный": 4649,
      "сопротив": 4650,
      "скорость": 4651,
      "коммутационная": 4652,
      "1з": 4653,
      "Бр": 4654,
      "М4": 4655,
      "МГ": 4656,
      "имитация": 4657,
      "шва": 4658,
      "##орешетка": 4659,
      "пере": 4660,
      "стенкой": 4661,
      "полимербетон": 4662,
      "напряжения": 4663,
      "ковша": 4664,
      "фольг": 4665,
      "дверные": 4666,
      "SDR7": 4667,
      "число": 4668,
      "Фланцы": 4669,
      "керамические": 4670,
      "однопут": 4671,
      "Георешетка": 4672,
      "10с367р": 4673,
      "эмалью": 4674,
      "параллельными": 4675,
      "Угольник": 4676,
      "антикоррозионным": 4677,
      "защел": 4678,
      "##коулов": 4679,
      "14нж917п34": 4680,
      "буроопускная": 4681,
      "метизы": 4682,
      "3х70": 4683,
      "570": 4684,
      "E27": 4685,
      "Дис": 4686,
      "Счетчик": 4687,
      "пле": 4688,
      "##рации": 4689,
      "металлоп": 4690,
      "оптическими": 4691,
      "гайками": 4692,
      "сплошного": 4693,
      "Окно": 4694,
      "##41": 4695,
      "##насти": 4696,
      "##ополот": 4697,
      "100х50": 4698,
      "выст": 4699,
      "коры": 4700,
      "##ительного": 4701,
      "гранита": 4702,
      "##ливания": 4703,
      "каркасе": 4704,
      "водоотводный": 4705,
      "полиэстер": 4706,
      "лакированной": 4707,
      "Сверло": 4708,
      "тавровая": 4709,
      "97": 4710,
      "Камеры": 4711,
      "фарфор": 4712,
      "##Внг": 4713,
      "##26": 4714,
      "дистан": 4715,
      "ключ": 4716,
      "болт": 4717,
      "контактами": 4718,
      "##х32": 4719,
      "039": 4720,
      "переходных": 4721,
      "сортовой": 4722,
      "гофрированная": 4723,
      "газопроводные": 4724,
      "водоотводной": 4725,
      "двухкомпонентный": 4726,
      "специальная": 4727,
      "звукоизоли": 4728,
      "ниппель": 4729,
      "14нж17п28": 4730,
      "диагностирования": 4731,
      "ГПа": 4732,
      "ДСП": 4733,
      "ад": 4734,
      "дина": 4735,
      "пет": 4736,
      "##гез": 4737,
      "сид": 4738,
      "шпильки": 4739,
      "анкерная": 4740,
      "##верде": 4741,
      "радиальный": 4742,
      "водосточных": 4743,
      "березы": 4744,
      "Д3": 4745,
      "готовая": 4746,
      "##Бп": 4747,
      "##онным": 4748,
      "##ополимер": 4749,
      "простран": 4750,
      "медная": 4751,
      "полочками": 4752,
      "трехст": 4753,
      "стеклопакетами": 4754,
      "горизонтальное": 4755,
      "регулированием": 4756,
      "Компенсатор": 4757,
      "твердых": 4758,
      "Хомуты": 4759,
      "неизолированная": 4760,
      "10с371фт": 4761,
      "##яющий": 4762,
      "других": 4763,
      "расположения": 4764,
      "ударного": 4765,
      "гладкие": 4766,
      "Ру": 4767,
      "С4": 4768,
      "дБ": 4769,
      "лента": 4770,
      "##ированием": 4771,
      "##рный": 4772,
      "##яговый": 4773,
      "Светильники": 4774,
      "оболочка": 4775,
      "##ающая": 4776,
      "##ярусного": 4777,
      "шахты": 4778,
      "прямоугольные": 4779,
      "участка": 4780,
      "ремонт": 4781,
      "стационарные": 4782,
      "окрашены": 4783,
      "сквозным": 4784,
      "сверления": 4785,
      "деформа": 4786,
      "##ометрическая": 4787,
      "натри": 4788,
      "Болты": 4789,
      "корытный": 4790,
      "ленты": 4791,
      "тя": 4792,
      "##рных": 4793,
      "##лаж": 4794,
      "##цевые": 4795,
      "строительной": 4796,
      "проводников": 4797,
      "прямоугольный": 4798,
      "##x190x100": 4799,
      "Сталь": 4800,
      "атомных": 4801,
      "LOCA": 4802,
      "тягой": 4803,
      "3х25": 4804,
      "780": 4805,
      "К38": 4806,
      "барьер": 4807,
      "гнутый": 4808,
      "руко": 4809,
      "##холст": 4810,
      "##21": 4811,
      "##олит": 4812,
      "безус": 4813,
      "отраж": 4814,
      "40Х13": 4815,
      "смот": 4816,
      "##x2x2": 4817,
      "профили": 4818,
      "светофор": 4819,
      "##изводительность": 4820,
      "твердого": 4821,
      "ПБЗ": 4822,
      "стеклохолст": 4823,
      "Геополот": 4824,
      "конусная": 4825,
      "створкой": 4826,
      "древесина": 4827,
      "добавками": 4828,
      "тротуарная": 4829,
      "Регуляторы": 4830,
      "динасовые": 4831,
      "сидень": 4832,
      "Геополотно": 4833,
      "клен": 4834,
      "##иеся": 4835,
      "##льное": 4836,
      "сталей": 4837,
      "выключ": 4838,
      "заглуш": 4839,
      "кабельное": 4840,
      "переп": 4841,
      "стекля": 4842,
      "термометрическая": 4843,
      "##образ": 4844,
      "многол": 4845,
      "380x190x120": 4846,
      "отводов": 4847,
      "канализационных": 4848,
      "передвиж": 4849,
      "Након": 4850,
      "предохранительный": 4851,
      "грунтах": 4852,
      "выступ": 4853,
      "безусадочные": 4854,
      "510": 4855,
      "Кот": 4856,
      "Плен": 4857,
      "улич": 4858,
      "сейсмостойкое": 4859,
      "##рытия": 4860,
      "##ольтный": 4861,
      "нена": 4862,
      "плотности": 4863,
      "355": 4864,
      "лицевой": 4865,
      "2400": 4866,
      "##x350": 4867,
      "отделки": 4868,
      "потоков": 4869,
      "квадратный": 4870,
      "магистральный": 4871,
      "краном": 4872,
      "пропита": 4873,
      "ремонта": 4874,
      "электротяговый": 4875,
      "водопропускные": 4876,
      "бумаж": 4877,
      "полнотелый": 4878,
      "аппарат": 4879,
      "информационный": 4880,
      "травмобезопасным": 4881,
      "Пленка": 4882,
      "71": 4883,
      "АБ": 4884,
      "плав": 4885,
      "скат": 4886,
      "##изны": 4887,
      "##цевым": 4888,
      "##уму": 4889,
      "способности": 4890,
      "паро": 4891,
      "спиральный": 4892,
      "##ульс": 4893,
      "крана": 4894,
      "изгибами": 4895,
      "рекламный": 4896,
      "Прокладки": 4897,
      "желоб": 4898,
      "симметричный": 4899,
      "##амидных": 4900,
      "кривизны": 4901,
      "бронированный": 4902,
      "конструктивной": 4903,
      "полимербетонный": 4904,
      "ненапрягаемой": 4905,
      "210": 4906,
      "3х120": 4907,
      "А4": 4908,
      "Терм": 4909,
      "##х400": 4910,
      "##еив": 4911,
      "##ью": 4912,
      "##82": 4913,
      "##ества": 4914,
      "40х40": 4915,
      "##рующие": 4916,
      "175": 4917,
      "системой": 4918,
      "фасонных": 4919,
      "форма": 4920,
      "10с71фт": 4921,
      "легкие": 4922,
      "поворотом": 4923,
      "шпунтовый": 4924,
      "свинцовые": 4925,
      "натриев": 4926,
      "3х16": 4927,
      "900х": 4928,
      "##хит": 4929,
      "##плав": 4930,
      "##ельного": 4931,
      "##оскоп": 4932,
      "архит": 4933,
      "алюминиевым": 4934,
      "базой": 4935,
      "##слойным": 4936,
      "ОКЛ": 4937,
      "термоусаживаемая": 4938,
      "РПШ": 4939,
      "дробления": 4940,
      "ИТГ": 4941,
      "архитект": 4942,
      "Шайб": 4943,
      "кед": 4944,
      "слив": 4945,
      "##креп": 4946,
      "##пти": 4947,
      "##ерный": 4948,
      "##етона": 4949,
      "##евов": 4950,
      "20Х13": 4951,
      "полимерной": 4952,
      "полками": 4953,
      "переклад": 4954,
      "резиновые": 4955,
      "Подстан": 4956,
      "трансформаторная": 4957,
      "гильзами": 4958,
      "рассеив": 4959,
      "однопольный": 4960,
      "отсевов": 4961,
      "централь": 4962,
      "лакокрасочным": 4963,
      "Диск": 4964,
      "Котлы": 4965,
      "архитектур": 4966,
      "Подстанция": 4967,
      "4х2": 4968,
      "А1": 4969,
      "Гильз": 4970,
      "ПРА": 4971,
      "Свет": 4972,
      "ЩО": 4973,
      "зерен": 4974,
      "мат": 4975,
      "топ": 4976,
      "##18": 4977,
      "##лли": 4978,
      "##23": 4979,
      "##x80": 4980,
      "ответ": 4981,
      "внутреннего": 4982,
      "перви": 4983,
      "металлов": 4984,
      "30Х13": 4985,
      "компенсатор": 4986,
      "крышка": 4987,
      "комплектом": 4988,
      "условный": 4989,
      "##польз": 4990,
      "##ротверде": 4991,
      "Кольца": 4992,
      "ЛС59": 4993,
      "14нж017п31": 4994,
      "укладки": 4995,
      "терморегулятор": 4996,
      "парапетного": 4997,
      "##опоглощ": 4998,
      "отражателем": 4999,
      "кедр": 5000,
      "первичный": 5001,
      "Реле": 5002,
      "ТД": 5003,
      "рт": 5004,
      "##ацией": 5005,
      "##55": 5006,
      "##АС": 5007,
      "##очное": 5008,
      "##при": 5009,
      "использ": 5010,
      "##цевое": 5011,
      "1420": 5012,
      "кач": 5013,
      "цветные": 5014,
      "теплостойкость": 5015,
      "цементные": 5016,
      "комплектная": 5017,
      "щебень": 5018,
      "SDS": 5019,
      "производственных": 5020,
      "СБВБ": 5021,
      "лампами": 5022,
      "двухслойные": 5023,
      "декоративные": 5024,
      "##ерживающий": 5025,
      "короткой": 5026,
      "##нистые": 5027,
      "материалах": 5028,
      "шпунтованная": 5029,
      "МЛС": 5030,
      "масла": 5031,
      "пустотелый": 5032,
      "самонесущий": 5033,
      "хомутами": 5034,
      "Основание": 5035,
      "натриевую": 5036,
      "##ллипти": 5037,
      "ртут": 5038,
      "3х4": 5039,
      "650": 5040,
      "Барьер": 5041,
      "Ламп": 5042,
      "прут": 5043,
      "эллипти": 5044,
      "##вента": 5045,
      "##ских": 5046,
      "##боль": 5047,
      "##бус": 5048,
      "##оллей": 5049,
      "наполнит": 5050,
      "природ": 5051,
      "##ланг": 5052,
      "установок": 5053,
      "высокой": 5054,
      "##ПКр": 5055,
      "резиновая": 5056,
      "верхний": 5057,
      "измерения": 5058,
      "Скваж": 5059,
      "унифици": 5060,
      "универсальная": 5061,
      "арматурная": 5062,
      "инвента": 5063,
      "шахтных": 5064,
      "##прессор": 5065,
      "Предохранители": 5066,
      "смотровых": 5067,
      "Лампы": 5068,
      "##оллейбус": 5069,
      "Скважина": 5070,
      "W20": 5071,
      "ma": 5072,
      "Имитация": 5073,
      "М12": 5074,
      "Раст": 5075,
      "деф": 5076,
      "опорный": 5077,
      "спор": 5078,
      "##сы": 5079,
      "##шный": 5080,
      "##рованным": 5081,
      "троллейбус": 5082,
      "неф": 5083,
      "стеклок": 5084,
      "##x219": 5085,
      "породы": 5086,
      "лифт": 5087,
      "дорожная": 5088,
      "##ающие": 5089,
      "удлиненными": 5090,
      "##тивный": 5091,
      "лиственные": 5092,
      "пластиковый": 5093,
      "пластиковым": 5094,
      "закрытый": 5095,
      "дифференциального": 5096,
      "##ерепица": 5097,
      "поясов": 5098,
      "мороз": 5099,
      "max": 5100,
      "8АтVТ": 5101,
      "cх": 5102,
      "Фик": 5103,
      "Шурупы": 5104,
      "квар": 5105,
      "пнев": 5106,
      "##вани": 5107,
      "##ув": 5108,
      "##крытия": 5109,
      "##МП": 5110,
      "контактов": 5111,
      "пара": 5112,
      "08Х18Н10": 5113,
      "быстротверде": 5114,
      "геос": 5115,
      "сплошные": 5116,
      "МКРС": 5117,
      "Агрегаты": 5118,
      "компрессионные": 5119,
      "вибропрессованная": 5120,
      "рассеивателем": 5121,
      "стеклокомпозит": 5122,
      "cхема": 5123,
      "Фиксатор": 5124,
      "1P": 5125,
      "ОР": 5126,
      "фаль": 5127,
      "##аго": 5128,
      "##нка": 5129,
      "##станов": 5130,
      "##авки": 5131,
      "арамидных": 5132,
      "электрод": 5133,
      "соединительным": 5134,
      "панелей": 5135,
      "крышей": 5136,
      "материалом": 5137,
      "встык": 5138,
      "герметичное": 5139,
      "дверей": 5140,
      "14нж17ст": 5141,
      "200х100": 5142,
      "экранированный": 5143,
      "канализа": 5144,
      "обратные": 5145,
      "угловая": 5146,
      "скрепления": 5147,
      "треуголь": 5148,
      "эксплуата": 5149,
      "выступом": 5150,
      "геосотовый": 5151,
      "360": 5152,
      "960": 5153,
      "ЭТ": 5154,
      "тянут": 5155,
      "фини": 5156,
      "##елая": 5157,
      "##шит": 5158,
      "##лива": 5159,
      "##окой": 5160,
      "горение": 5161,
      "168": 5162,
      "14Х17Н": 5163,
      "##торы": 5164,
      "150х150": 5165,
      "канальный": 5166,
      "электросварных": 5167,
      "электромагнитные": 5168,
      "##рядный": 5169,
      "спиральная": 5170,
      "поворотно": 5171,
      "пористость": 5172,
      "##ектоскоп": 5173,
      "Скобы": 5174,
      "неизолированный": 5175,
      "тянутые": 5176,
      "14Х17Н2": 5177,
      "ВЛ": 5178,
      "У1": 5179,
      "ХПВХ": 5180,
      "вор": 5181,
      "мемб": 5182,
      "##ояч": 5183,
      "##сВБ": 5184,
      "##67": 5185,
      "##УТ": 5186,
      "трёхслойная": 5187,
      "одино": 5188,
      "резиновыми": 5189,
      "известняка": 5190,
      "геояч": 5191,
      "подставкой": 5192,
      "циркуляцией": 5193,
      "геоячейки": 5194,
      "2х0": 5195,
      "Зв": 5196,
      "ПМ": 5197,
      "гус": 5198,
      "паз": 5199,
      "счет": 5200,
      "##ощ": 5201,
      "##180": 5202,
      "##ванием": 5203,
      "прорез": 5204,
      "##аян": 5205,
      "##х13": 5206,
      "Столб": 5207,
      "водопроводов": 5208,
      "слож": 5209,
      "цоколя": 5210,
      "дерева": 5211,
      "ячейковый": 5212,
      "Доски": 5213,
      "муллитокремнеземистый": 5214,
      "работе": 5215,
      "шума": 5216,
      "гальвани": 5217,
      "крутоизогнутый": 5218,
      "двупольный": 5219,
      "однопутная": 5220,
      "гусени": 5221,
      "6х25": 5222,
      "динами": 5223,
      "лм": 5224,
      "##анд": 5225,
      "##каливания": 5226,
      "накаливания": 5227,
      "проб": 5228,
      "##едка": 5229,
      "##евыми": 5230,
      "##00х800": 5231,
      "50x50": 5232,
      "бетонным": 5233,
      "##х140": 5234,
      "цветных": 5235,
      "газовый": 5236,
      "полипропиленовые": 5237,
      "огнеза": 5238,
      "одинарной": 5239,
      "##полюс": 5240,
      "камня": 5241,
      "щелевой": 5242,
      "дополнитель": 5243,
      "Светофор": 5244,
      "электродвиг": 5245,
      "М20": 5246,
      "ПД": 5247,
      "СГ": 5248,
      "ФЛ": 5249,
      "вос": 5250,
      "##яной": 5251,
      "##М2": 5252,
      "##рад": 5253,
      "оцинкованное": 5254,
      "##простран": 5255,
      "оголов": 5256,
      "##x296": 5257,
      "##х250": 5258,
      "термоп": 5259,
      "220x190x100": 5260,
      "электросварная": 5261,
      "утеплен": 5262,
      "пенополиуретановой": 5263,
      "распределительный": 5264,
      "конденс": 5265,
      "ПО": 5266,
      "ТП": 5267,
      "анг": 5268,
      "сшит": 5269,
      "##роп": 5270,
      "##ПРА": 5271,
      "##арская": 5272,
      "сварное": 5273,
      "резер": 5274,
      "водопровод": 5275,
      "##1500": 5276,
      "защитной": 5277,
      "самоходные": 5278,
      "245": 5279,
      "двойным": 5280,
      "монтажные": 5281,
      "низков": 5282,
      "тонн": 5283,
      "ответвительная": 5284,
      "цилиндрической": 5285,
      "##00х2000": 5286,
      "пропиткой": 5287,
      "Двутавр": 5288,
      "ЭмПРА": 5289,
      "адгез": 5290,
      "лифтов": 5291,
      "треугольной": 5292,
      "ангарская": 5293,
      "Гл": 5294,
      "Сиб": 5295,
      "Трав": 5296,
      "жильных": 5297,
      "##куму": 5298,
      "##52": 5299,
      "##ителей": 5300,
      "светиль": 5301,
      "медных": 5302,
      "##единит": 5303,
      "##щитная": 5304,
      "угла": 5305,
      "условная": 5306,
      "дорожные": 5307,
      "##ирское": 5308,
      "герметизи": 5309,
      "##ерса": 5310,
      "швов": 5311,
      "сталемедный": 5312,
      "Устройства": 5313,
      "14нж917ст": 5314,
      "щелевая": 5315,
      "дефектоскоп": 5316,
      "быстротвердеющие": 5317,
      "Сибирское": 5318,
      "##кумулятор": 5319,
      "2х2": 5320,
      "215": 5321,
      "Дюб": 5322,
      "М16": 5323,
      "мА": 5324,
      "мяг": 5325,
      "##оци": 5326,
      "##ческом": 5327,
      "конец": 5328,
      "Стек": 5329,
      "##x196": 5330,
      "винтовыми": 5331,
      "##нтус": 5332,
      "##x396": 5333,
      "двухслойным": 5334,
      "Анти": 5335,
      "клеевых": 5336,
      "полипропиленовое": 5337,
      "дробле": 5338,
      "погружные": 5339,
      "Раствор": 5340,
      "##агона": 5341,
      "сшитого": 5342,
      "270": 5343,
      "Метал": 5344,
      "М100": 5345,
      "Масти": 5346,
      "Т3": 5347,
      "гли": 5348,
      "инд": 5349,
      "ку": 5350,
      "лощ": 5351,
      "##тной": 5352,
      "##реб": 5353,
      "##гор": 5354,
      "##бой": 5355,
      "##ницы": 5356,
      "проз": 5357,
      "стальными": 5358,
      "трам": 5359,
      "##х14": 5360,
      "двухлопастная": 5361,
      "системах": 5362,
      "##даления": 5363,
      "листовая": 5364,
      "ввода": 5365,
      "деревянные": 5366,
      "нерас": 5367,
      "свинцовая": 5368,
      "канализационного": 5369,
      "карниз": 5370,
      "теплоизолированных": 5371,
      "врезки": 5372,
      "рядовой": 5373,
      "атмос": 5374,
      "барьерного": 5375,
      "прозра": 5376,
      "атмосф": 5377,
      "1х10": 5378,
      "3х150": 5379,
      "нан": 5380,
      "факт": 5381,
      "##чные": 5382,
      "##ант": 5383,
      "наружных": 5384,
      "основани": 5385,
      "##ированное": 5386,
      "опорные": 5387,
      "##атором": 5388,
      "сборных": 5389,
      "экранами": 5390,
      "ленточного": 5391,
      "сторона": 5392,
      "заглушкой": 5393,
      "компенсатором": 5394,
      "##пространяющий": 5395,
      "дефектоскопа": 5396,
      "нераспространяющий": 5397,
      "нанес": 5398,
      "1х16": 5399,
      "куль": 5400,
      "ти": 5401,
      "шпри": 5402,
      "##огр": 5403,
      "##анный": 5404,
      "##новит": 5405,
      "##екла": 5406,
      "##ектив": 5407,
      "##сосные": 5408,
      "##цевидная": 5409,
      "армированные": 5410,
      "двухс": 5411,
      "базе": 5412,
      "полиэтиленовым": 5413,
      "##огра": 5414,
      "свободностоящ": 5415,
      "раструбом": 5416,
      "приварные": 5417,
      "##ающий": 5418,
      "поперечном": 5419,
      "пружинными": 5420,
      "армированной": 5421,
      "гидрофобным": 5422,
      "С440": 5423,
      "Мастика": 5424,
      "шприцевидная": 5425,
      "330": 5426,
      "7х7": 5427,
      "Вст": 5428,
      "белые": 5429,
      "##зер": 5430,
      "диагона": 5431,
      "сила": 5432,
      "##изи": 5433,
      "зад": 5434,
      "запор": 5435,
      "50x100": 5436,
      "##ечный": 5437,
      "проект": 5438,
      "установочный": 5439,
      "комплек": 5440,
      "резьбовые": 5441,
      "##одук": 5442,
      "зажимы": 5443,
      "соединениями": 5444,
      "вертикальная": 5445,
      "сжатой": 5446,
      "подвесных": 5447,
      "крестообраз": 5448,
      "угловые": 5449,
      "мелко": 5450,
      "ребрист": 5451,
      "сопротивление": 5452,
      "F5": 5453,
      "F2": 5454,
      "Yн": 5455,
      "Фундам": 5456,
      "Шиб": 5457,
      "сектор": 5458,
      "##ский": 5459,
      "##дон": 5460,
      "##мнг": 5461,
      "##цами": 5462,
      "##опор": 5463,
      "12000": 5464,
      "теплоп": 5465,
      "горлов": 5466,
      "153": 5467,
      "гибкости": 5468,
      "##айка": 5469,
      "##х4х1": 5470,
      "люб": 5471,
      "температуре": 5472,
      "композитных": 5473,
      "ККБС": 5474,
      "механизмом": 5475,
      "стяжными": 5476,
      "быстрого": 5477,
      "диагональ": 5478,
      "Фундаменты": 5479,
      "теплопро": 5480,
      "640": 5481,
      "E40": 5482,
      "В7": 5483,
      "Косы": 5484,
      "Лю": 5485,
      "Пат": 5486,
      "ФБ": 5487,
      "гвозд": 5488,
      "пути": 5489,
      "ха": 5490,
      "##леум": 5491,
      "##кими": 5492,
      "##каз": 5493,
      "100х80": 5494,
      "окрашенное": 5495,
      "##рующими": 5496,
      "##х2000": 5497,
      "присоединитель": 5498,
      "прочностью": 5499,
      "1900": 5500,
      "4182": 5501,
      "##цепные": 5502,
      "СТД": 5503,
      "освещением": 5504,
      "Подъем": 5505,
      "##x700": 5506,
      "мансардное": 5507,
      "##колон": 5508,
      "удерживающая": 5509,
      "карм": 5510,
      "МКБС": 5511,
      "остекленные": 5512,
      "стеновой": 5513,
      "Шнек": 5514,
      "Звено": 5515,
      "культур": 5516,
      "Косынка": 5517,
      "4182и": 5518,
      "B30": 5519,
      "Кач": 5520,
      "Лак": 5521,
      "М500": 5522,
      "УЗ": 5523,
      "гнут": 5524,
      "кис": 5525,
      "сополимер": 5526,
      "хими": 5527,
      "##раб": 5528,
      "##льных": 5529,
      "##руч": 5530,
      "##лави": 5531,
      "##кового": 5532,
      "##ностекла": 5533,
      "##епс": 5534,
      "вылет": 5535,
      "##естав": 5536,
      "стенка": 5537,
      "теплоизоляцией": 5538,
      "пеностекла": 5539,
      "цветочных": 5540,
      "штепс": 5541,
      "мач": 5542,
      "продольная": 5543,
      "конусно": 5544,
      "микротон": 5545,
      "##БпШп": 5546,
      "Шибер": 5547,
      "Клей": 5548,
      "Л63": 5549,
      "ПФ": 5550,
      "РЦ": 5551,
      "глав": 5552,
      "ней": 5553,
      "##огрев": 5554,
      "##ика": 5555,
      "##абилиз": 5556,
      "##рывающ": 5557,
      "##остабилиз": 5558,
      "##порка": 5559,
      "перемыч": 5560,
      "нефт": 5561,
      "теплос": 5562,
      "шарового": 5563,
      "плоская": 5564,
      "кольцевое": 5565,
      "ПБШ": 5566,
      "##оотражающ": 5567,
      "кровельная": 5568,
      "противов": 5569,
      "декоративный": 5570,
      "С235": 5571,
      "втулочная": 5572,
      "проемов": 5573,
      "импульс": 5574,
      "алмазное": 5575,
      "плеча": 5576,
      "хаус": 5577,
      "B20": 5578,
      "Гор": 5579,
      "зав": 5580,
      "роз": 5581,
      "тур": 5582,
      "##лый": 5583,
      "##га": 5584,
      "##x20": 5585,
      "##x30": 5586,
      "##ПЗ": 5587,
      "##рап": 5588,
      "1050": 5589,
      "##адочный": 5590,
      "устойчив": 5591,
      "полук": 5592,
      "коробов": 5593,
      "275": 5594,
      "скам": 5595,
      "дорожной": 5596,
      "серый": 5597,
      "холодно": 5598,
      "200х400": 5599,
      "резины": 5600,
      "##чиком": 5601,
      "Соедин": 5602,
      "спиральновит": 5603,
      "КМПВЭнг": 5604,
      "фиксатор": 5605,
      "фильтрующим": 5606,
      "монолитный": 5607,
      "силикатный": 5608,
      "унифицированная": 5609,
      "теплопроизводительность": 5610,
      "спиральновитые": 5611,
      "700х": 5612,
      "F900": 5613,
      "УГ": 5614,
      "эфф": 5615,
      "##зящ": 5616,
      "##новый": 5617,
      "##аяся": 5618,
      "сита": 5619,
      "двухъярусный": 5620,
      "##перси": 5621,
      "элемент": 5622,
      "СБПЗ": 5623,
      "сухой": 5624,
      "гидроизоляционные": 5625,
      "##ешетки": 5626,
      "мостовая": 5627,
      "керамическая": 5628,
      "одинарный": 5629,
      "фундаментная": 5630,
      "КУГП": 5631,
      "ПСПБ": 5632,
      "неподвиж": 5633,
      "центробежные": 5634,
      "неперфорированный": 5635,
      "загрязнения": 5636,
      "ртутную": 5637,
      "спортивный": 5638,
      "Траверса": 5639,
      "лощеная": 5640,
      "СБПЗА": 5641,
      "710": 5642,
      "борт": 5643,
      "сери": 5644,
      "##ащ": 5645,
      "##чном": 5646,
      "##ерная": 5647,
      "налив": 5648,
      "##ейка": 5649,
      "##ексти": 5650,
      "распорные": 5651,
      "стеклопластика": 5652,
      "бесцвет": 5653,
      "привода": 5654,
      "КПГ": 5655,
      "гайки": 5656,
      "##упы": 5657,
      "штыревыми": 5658,
      "ТППэпБ": 5659,
      "##защит": 5660,
      "неподвижная": 5661,
      "400x250x120": 5662,
      "##оудаления": 5663,
      "##772": 5664,
      "звукоизолирующая": 5665,
      "прорезанием": 5666,
      "##одуктов": 5667,
      "горловины": 5668,
      "1х25": 5669,
      "3х185": 5670,
      "540": 5671,
      "950": 5672,
      "B22": 5673,
      "Киб": 5674,
      "С1": 5675,
      "вм": 5676,
      "##ои": 5677,
      "##лупы": 5678,
      "##фнасти": 5679,
      "##орлупы": 5680,
      "различ": 5681,
      "##очными": 5682,
      "1200х": 5683,
      "города": 5684,
      "##х18": 5685,
      "порта": 5686,
      "мощностью": 5687,
      "##резка": 5688,
      "профилем": 5689,
      "27772": 5690,
      "IP66": 5691,
      "сером": 5692,
      "Скорлупы": 5693,
      "Профили": 5694,
      "люминесцентными": 5695,
      "водоотводного": 5696,
      "стержня": 5697,
      "равнопро": 5698,
      "промежуточные": 5699,
      "ШВУ": 5700,
      "разметки": 5701,
      "устройствами": 5702,
      "архитектурно": 5703,
      "##донское": 5704,
      "холодноката": 5705,
      "Кибик": 5706,
      "Лино": 5707,
      "М10": 5708,
      "Штанг": 5709,
      "##ача": 5710,
      "##т3": 5711,
      "##аск": 5712,
      "диз": 5713,
      "##итинг": 5714,
      "сиф": 5715,
      "##яжущ": 5716,
      "смес": 5717,
      "##катной": 5718,
      "##аторы": 5719,
      "площадкой": 5720,
      "300х100": 5721,
      "Извещ": 5722,
      "скруч": 5723,
      "##х4х0": 5724,
      "##тепр": 5725,
      "наконечник": 5726,
      "муллитокорундовые": 5727,
      "КУН": 5728,
      "558": 5729,
      "поперечная": 5730,
      "поворотная": 5731,
      "уплотн": 5732,
      "дымоудаления": 5733,
      "электротехни": 5734,
      "взрывозащищенный": 5735,
      "Распорка": 5736,
      "чистящ": 5737,
      "искусственный": 5738,
      "трехстворчатый": 5739,
      "переплет": 5740,
      "нефтепр": 5741,
      "гусеничном": 5742,
      "конденсата": 5743,
      "свободностоящие": 5744,
      "карманный": 5745,
      "Линолеум": 5746,
      "7х1": 5747,
      "Бес": 5748,
      "ККС": 5749,
      "МП": 5750,
      "СВС": 5751,
      "баск": 5752,
      "вещ": 5753,
      "дет": 5754,
      "опрессов": 5755,
      "сор": 5756,
      "цепи": 5757,
      "##вели": 5758,
      "##х9": 5759,
      "##клави": 5760,
      "##мость": 5761,
      "##пт": 5762,
      "##БбШв": 5763,
      "##ЭШ": 5764,
      "##етболь": 5765,
      "##асло": 5766,
      "прист": 5767,
      "отбой": 5768,
      "##20н": 5769,
      "##аника": 5770,
      "##етик": 5771,
      "##елка": 5772,
      "132": 5773,
      "трехлуч": 5774,
      "листа": 5775,
      "##движной": 5776,
      "волокнами": 5777,
      "муфтовый": 5778,
      "##естимость": 5779,
      "точечная": 5780,
      "литым": 5781,
      "изделие": 5782,
      "накладной": 5783,
      "ФСФ": 5784,
      "масля": 5785,
      "защелкой": 5786,
      "динамический": 5787,
      "вместимость": 5788,
      "баскетболь": 5789,
      "PP": 5790,
      "Врезка": 5791,
      "КТ": 5792,
      "М6": 5793,
      "Пос": 5794,
      "ШТ": 5795,
      "магнит": 5796,
      "план": 5797,
      "риф": 5798,
      "энер": 5799,
      "##злом": 5800,
      "##РН": 5801,
      "##флан": 5802,
      "наполнителя": 5803,
      "напрессов": 5804,
      "двутав": 5805,
      "##полнитель": 5806,
      "перегород": 5807,
      "1000х2": 5808,
      "плотным": 5809,
      "объемная": 5810,
      "водостойкости": 5811,
      "опорная": 5812,
      "фланцем": 5813,
      "теплоизоляционный": 5814,
      "отверстиями": 5815,
      "##дапт": 5816,
      "квадратная": 5817,
      "перфорацией": 5818,
      "грунтованная": 5819,
      "минимальная": 5820,
      "двухсторонним": 5821,
      "бетонов": 5822,
      "хомутовая": 5823,
      "Обрамления": 5824,
      "##епроница": 5825,
      "стеклокомпозитная": 5826,
      "любым": 5827,
      "##колончатые": 5828,
      "кислот": 5829,
      "Беседка": 5830,
      "Посадочный": 5831,
      "460": 5832,
      "ВД": 5833,
      "М700": 5834,
      "Сп": 5835,
      "Сист": 5836,
      "врем": 5837,
      "клад": 5838,
      "сегм": 5839,
      "##труб": 5840,
      "##того": 5841,
      "##веллер": 5842,
      "##ыв": 5843,
      "##шко": 5844,
      "##мест": 5845,
      "##Е3": 5846,
      "##фта": 5847,
      "##электр": 5848,
      "##евая": 5849,
      "подача": 5850,
      "202": 5851,
      "001": 5852,
      "кали": 5853,
      "##ильные": 5854,
      "светоотражающ": 5855,
      "##1200": 5856,
      "вентиляционные": 5857,
      "холодного": 5858,
      "сбора": 5859,
      "сборного": 5860,
      "механическая": 5861,
      "пластиковые": 5862,
      "дисперси": 5863,
      "уплотнительным": 5864,
      "термоусаживаемых": 5865,
      "укреп": 5866,
      "пластмассовой": 5867,
      "##ПКВКтЭнг": 5868,
      "бронзы": 5869,
      "металлополимер": 5870,
      "1х6": 5871,
      "2600": 5872,
      "5х2": 5873,
      "C250": 5874,
      "ДН": 5875,
      "Зем": 5876,
      "Швеллер": 5877,
      "белая": 5878,
      "втор": 5879,
      "дру": 5880,
      "мет": 5881,
      "мок": 5882,
      "увели": 5883,
      "цеп": 5884,
      "##еи": 5885,
      "##паника": 5886,
      "##37": 5887,
      "##Ш1": 5888,
      "15Х": 5889,
      "металлоконструк": 5890,
      "оконные": 5891,
      "Коронка": 5892,
      "458": 5893,
      "полу": 5894,
      "компози": 5895,
      "##жимная": 5896,
      "трехслойные": 5897,
      "конструкцион": 5898,
      "##x3000": 5899,
      "бесшовная": 5900,
      "композитная": 5901,
      "армированная": 5902,
      "раздель": 5903,
      "пространства": 5904,
      "морозостойкость": 5905,
      "ОРЦ": 5906,
      "Антипаника": 5907,
      "серии": 5908,
      "##электри": 5909,
      "увелич": 5910,
      "Вор": 5911,
      "Дет": 5912,
      "Ко": 5913,
      "МА": 5914,
      "бел": 5915,
      "олов": 5916,
      "шла": 5917,
      "##400х": 5918,
      "##стра": 5919,
      "##аренных": 5920,
      "##евый": 5921,
      "стального": 5922,
      "расшир": 5923,
      "50К": 5924,
      "152": 5925,
      "##паков": 5926,
      "4500": 5927,
      "ковкого": 5928,
      "358": 5929,
      "кабелем": 5930,
      "контроля": 5931,
      "контактом": 5932,
      "воздуху": 5933,
      "IP44": 5934,
      "высокочастотный": 5935,
      "400х100": 5936,
      "регулировки": 5937,
      "гидроизоляции": 5938,
      "500х100": 5939,
      "Подвес": 5940,
      "швеллера": 5941,
      "ТППэпЗ": 5942,
      "открыванием": 5943,
      "СБЗПБ": 5944,
      "поддерживающий": 5945,
      "ключом": 5946,
      "использования": 5947,
      "восстанов": 5948,
      "противовзлом": 5949,
      "нефтепродуктов": 5950,
      "Ворота": 5951,
      "противовзломной": 5952,
      "4х6": 5953,
      "5х1": 5954,
      "В10": 5955,
      "ЗТ": 5956,
      "С35": 5957,
      "ТЛ": 5958,
      "уз": 5959,
      "##оной": 5960,
      "стопор": 5961,
      "##остойкой": 5962,
      "25А": 5963,
      "Стол": 5964,
      "##иликат": 5965,
      "электро": 5966,
      "связке": 5967,
      "пескоулов": 5968,
      "вводных": 5969,
      "перемещ": 5970,
      "стеновая": 5971,
      "КУВ": 5972,
      "##х10ок": 5973,
      "Заглушки": 5974,
      "брусковая": 5975,
      "клеевые": 5976,
      "Пресс": 5977,
      "стекловаренных": 5978,
      "эластичный": 5979,
      "эпоксидным": 5980,
      "прокладкой": 5981,
      "ВСт3": 5982,
      "отдельностоящий": 5983,
      "мембранный": 5984,
      "дробленый": 5985,
      "4х0": 5986,
      "6х7": 5987,
      "7000": 5988,
      "7х0": 5989,
      "ОП": 5990,
      "Саян": 5991,
      "Черепица": 5992,
      "мол": 5993,
      "пиг": 5994,
      "сант": 5995,
      "##оном": 5996,
      "##нных": 5997,
      "##х90": 5998,
      "##лоч": 5999,
      "##500х": 6000,
      "##цер": 6001,
      "##этиле": 6002,
      "##нищ": 6003,
      "##отроп": 6004,
      "100x300": 6005,
      "трубчатый": 6006,
      "##осетка": 6007,
      "145": 6008,
      "142": 6009,
      "##нели": 6010,
      "минераль": 6011,
      "##x18": 6012,
      "компрессор": 6013,
      "Кордонское": 6014,
      "400x350": 6015,
      "однож": 6016,
      "##ебр": 6017,
      "300х50": 6018,
      "горячекатаного": 6019,
      "предвар": 6020,
      "##чатка": 6021,
      "Перегород": 6022,
      "крупно": 6023,
      "удерж": 6024,
      "200х80": 6025,
      "кровля": 6026,
      "600х100": 6027,
      "заполнения": 6028,
      "стыкового": 6029,
      "крепежных": 6030,
      "вывода": 6031,
      "статический": 6032,
      "все": 6033,
      "автоматов": 6034,
      "скобя": 6035,
      "фрик": 6036,
      "эксплуатации": 6037,
      "эффектив": 6038,
      "Штанга": 6039,
      "Саянское": 6040,
      "400x350x130": 6041,
      "2x2": 6042,
      "2х36": 6043,
      "К52": 6044,
      "Л68": 6045,
      "На": 6046,
      "##язи": 6047,
      "##льные": 6048,
      "##нивающ": 6049,
      "##анные": 6050,
      "##евод": 6051,
      "вынос": 6052,
      "##х110": 6053,
      "Ст2": 6054,
      "##нометалли": 6055,
      "болтами": 6056,
      "032": 6057,
      "##илька": 6058,
      "##икс": 6059,
      "анкерно": 6060,
      "##чика": 6061,
      "битумной": 6062,
      "Разъ": 6063,
      "кольцами": 6064,
      "литой": 6065,
      "заземляющим": 6066,
      "нагреватель": 6067,
      "наполнителем": 6068,
      "атмосфер": 6069,
      "Горка": 6070,
      "оловян": 6071,
      "сантехни": 6072,
      "520": 6073,
      "˚С": 6074,
      "АЗ": 6075,
      "Держ": 6076,
      "Пласт": 6077,
      "ана": 6078,
      "зна": 6079,
      "учет": 6080,
      "##фит": 6081,
      "##нопол": 6082,
      "##анда": 6083,
      "##ему": 6084,
      "бетонная": 6085,
      "1500х": 6086,
      "4050": 6087,
      "##рующих": 6088,
      "##ливки": 6089,
      "колеи": 6090,
      "##ечники": 6091,
      "вентиляции": 6092,
      "деревянных": 6093,
      "105x63": 6094,
      "гидравлическое": 6095,
      "измерений": 6096,
      "КПсВБ": 6097,
      "черепи": 6098,
      "АСК": 6099,
      "Геосетка": 6100,
      "грунтов": 6101,
      "закладной": 6102,
      "ТСА": 6103,
      "Розетки": 6104,
      "двусторон": 6105,
      "двухкамерный": 6106,
      "##готовки": 6107,
      "дистанцион": 6108,
      "ремонтные": 6109,
      "Наконечники": 6110,
      "ПМБ": 6111,
      "резерв": 6112,
      "теплосети": 6113,
      "бортовые": 6114,
      "Пластина": 6115,
      "4П": 6116,
      "Ав": 6117,
      "Герм": 6118,
      "Лента": 6119,
      "днищ": 6120,
      "лока": 6121,
      "тикс": 6122,
      "упаков": 6123,
      "##они": 6124,
      "##вая": 6125,
      "##ска": 6126,
      "##чных": 6127,
      "##36": 6128,
      "##ИД": 6129,
      "##ориф": 6130,
      "##органи": 6131,
      "##ельное": 6132,
      "##изоци": 6133,
      "лотки": 6134,
      "фланцевым": 6135,
      "Конд": 6136,
      "SN8": 6137,
      "##ографи": 6138,
      "023": 6139,
      "условия": 6140,
      "каркасные": 6141,
      "##движные": 6142,
      "квадрата": 6143,
      "ПБВ": 6144,
      "порошковой": 6145,
      "одномодовыми": 6146,
      "потолочные": 6147,
      "акустическая": 6148,
      "железнодорожных": 6149,
      "ТКП": 6150,
      "280x190x120": 6151,
      "С245": 6152,
      "антикоррози": 6153,
      "##тоном": 6154,
      "промышленный": 6155,
      "М4П": 6156,
      "тиксотроп": 6157,
      "##орифер": 6158,
      "1х1": 6159,
      "2П": 6160,
      "3ПКВтпнг": 6161,
      "VI": 6162,
      "Венти": 6163,
      "Е40": 6164,
      "Решетки": 6165,
      "##кч": 6166,
      "##350": 6167,
      "##2х0": 6168,
      "##бк": 6169,
      "##еня": 6170,
      "##лож": 6171,
      "##роцемент": 6172,
      "покры": 6173,
      "30с": 6174,
      "управляем": 6175,
      "лифта": 6176,
      "током": 6177,
      "Контак": 6178,
      "трехполюсные": 6179,
      "канат": 6180,
      "холодной": 6181,
      "стандартными": 6182,
      "вводно": 6183,
      "аккумулятор": 6184,
      "битумный": 6185,
      "гайка": 6186,
      "гипсовые": 6187,
      "закладная": 6188,
      "путевые": 6189,
      "футеровки": 6190,
      "фиброцемент": 6191,
      "направляющее": 6192,
      "1ПКВтнг6": 6193,
      "скрытого": 6194,
      "микротоннели": 6195,
      "Извещатель": 6196,
      "светоотражающие": 6197,
      "Деталь": 6198,
      "белом": 6199,
      "черепицы": 6200,
      "Герметик": 6201,
      "микротоннелирования": 6202,
      "3x2": 6203,
      "ПНД": 6204,
      "Сэндвич": 6205,
      "вин": 6206,
      "зем": 6207,
      "##58": 6208,
      "##550": 6209,
      "##цей": 6210,
      "##онки": 6211,
      "##атлев": 6212,
      "прин": 6213,
      "струж": 6214,
      "сос": 6215,
      "##ительности": 6216,
      "##онарез": 6217,
      "облицовкой": 6218,
      "одноканальный": 6219,
      "металлическом": 6220,
      "фланцевые": 6221,
      "трехслойным": 6222,
      "##итанный": 6223,
      "порошковая": 6224,
      "сборный": 6225,
      "очистное": 6226,
      "антив": 6227,
      "цинк": 6228,
      "гофра": 6229,
      "останов": 6230,
      "Сооруж": 6231,
      "глубины": 6232,
      "торцовая": 6233,
      "Конструкция": 6234,
      "разветвительные": 6235,
      "линейные": 6236,
      "двухкамерными": 6237,
      "шинная": 6238,
      "качества": 6239,
      "условиях": 6240,
      "принуд": 6241,
      "Сооружение": 6242,
      "3х2": 6243,
      "3х240": 6244,
      "4з": 6245,
      "манж": 6246,
      "нож": 6247,
      "чув": 6248,
      "шуруп": 6249,
      "##тры": 6250,
      "##х500": 6251,
      "##читанный": 6252,
      "##ба": 6253,
      "##x96": 6254,
      "##фера": 6255,
      "##ЭПнг": 6256,
      "##аситель": 6257,
      "##анья": 6258,
      "диэлектри": 6259,
      "##ляемый": 6260,
      "##опастная": 6261,
      "прочных": 6262,
      "разделит": 6263,
      "разливки": 6264,
      "100x100": 6265,
      "127": 6266,
      "перестав": 6267,
      "покрас": 6268,
      "прик": 6269,
      "##еллаж": 6270,
      "##единители": 6271,
      "Связи": 6272,
      "внешней": 6273,
      "IP40": 6274,
      "авт": 6275,
      "винтовых": 6276,
      "пожарный": 6277,
      "газа": 6278,
      "135°": 6279,
      "ЭПУ": 6280,
      "сердцев": 6281,
      "##корост": 6282,
      "ЭНТ": 6283,
      "ТКМ": 6284,
      "асб": 6285,
      "Фильтры": 6286,
      "образная": 6287,
      "Калорифер": 6288,
      "участок": 6289,
      "прогибом": 6290,
      "анкеровки": 6291,
      "рекламными": 6292,
      "рассчитанный": 6293,
      "Прокладка": 6294,
      "приборов": 6295,
      "кирпичным": 6296,
      "режиме": 6297,
      "лазанья": 6298,
      "1ПКВтнг10": 6299,
      "Заслонка": 6300,
      "стеклянная": 6301,
      "многолопастная": 6302,
      "задней": 6303,
      "присоединительная": 6304,
      "УЗО": 6305,
      "перемычек": 6306,
      "ТЛК": 6307,
      "чувств": 6308,
      "4P": 6309,
      "440": 6310,
      "5А": 6311,
      "В2": 6312,
      "СО": 6313,
      "Тум": 6314,
      "ЦП": 6315,
      "пил": 6316,
      "плет": 6317,
      "трап": 6318,
      "чаш": 6319,
      "##x95": 6320,
      "##нии": 6321,
      "##ораз": 6322,
      "##окон": 6323,
      "##еделка": 6324,
      "открытия": 6325,
      "10Х17Н": 6326,
      "движ": 6327,
      "20П": 6328,
      "##лапковые": 6329,
      "##ворный": 6330,
      "##х26": 6331,
      "Профнасти": 6332,
      "самонарез": 6333,
      "трехканальный": 6334,
      "SDR13": 6335,
      "боковые": 6336,
      "протектор": 6337,
      "ОККМ": 6338,
      "многослойные": 6339,
      "головками": 6340,
      "ААБл": 6341,
      "водосточный": 6342,
      "Стан": 6343,
      "Угольники": 6344,
      "автоматиз": 6345,
      "керамогра": 6346,
      "плитами": 6347,
      "бумажной": 6348,
      "Шайбы": 6349,
      "светильников": 6350,
      "восстановления": 6351,
      "удерживающее": 6352,
      "эффективности": 6353,
      "##нополочный": 6354,
      "10Х17Н13": 6355,
      "Профнастил": 6356,
      "самонарезающие": 6357,
      "К42": 6358,
      "ЭЦ": 6359,
      "вес": 6360,
      "вяжущ": 6361,
      "довод": 6362,
      "радиатор": 6363,
      "##товые": 6364,
      "##кп": 6365,
      "##зит": 6366,
      "##шлиф": 6367,
      "##ойкие": 6368,
      "100x400": 6369,
      "##ворчатые": 6370,
      "теплоизоляционная": 6371,
      "круглых": 6372,
      "##цепная": 6373,
      "актив": 6374,
      "##х595": 6375,
      "комбинированного": 6376,
      "односто": 6377,
      "влаж": 6378,
      "многоярусного": 6379,
      "инъ": 6380,
      "Колон": 6381,
      "огражд": 6382,
      "##есьма": 6383,
      "дымовых": 6384,
      "фольгированные": 6385,
      "деформационного": 6386,
      "светофора": 6387,
      "Гильзы": 6388,
      "водопроводных": 6389,
      "Патруб": 6390,
      "главной": 6391,
      "ДР": 6392,
      "буг": 6393,
      "весьма": 6394,
      "трак": 6395,
      "фиг": 6396,
      "##тп": 6397,
      "##жектор": 6398,
      "##онной": 6399,
      "напрягаемой": 6400,
      "##азмер": 6401,
      "##окле": 6402,
      "##роволоч": 6403,
      "толст": 6404,
      "##остойкая": 6405,
      "оград": 6406,
      "электрона": 6407,
      "Втул": 6408,
      "самокле": 6409,
      "контактного": 6410,
      "полиэтиленовых": 6411,
      "проводника": 6412,
      "Переходы": 6413,
      "удлинение": 6414,
      "дифференциальным": 6415,
      "##рожковый": 6416,
      "патрон": 6417,
      "РТТ5": 6418,
      "консольных": 6419,
      "ламинированной": 6420,
      "разборно": 6421,
      "Вставки": 6422,
      "равнопроход": 6423,
      "упаковка": 6424,
      "управляемое": 6425,
      "чувствительности": 6426,
      "фигур": 6427,
      "##роволочными": 6428,
      "420": 6429,
      "850": 6430,
      "Вазон": 6431,
      "КБ": 6432,
      "Угл": 6433,
      "##ильный": 6434,
      "##нутр": 6435,
      "##рил": 6436,
      "##х600": 6437,
      "##зра": 6438,
      "##971фт": 6439,
      "##Б2л": 6440,
      "##таж": 6441,
      "##енка": 6442,
      "изолятор": 6443,
      "разъ": 6444,
      "##обетона": 6445,
      "##рованное": 6446,
      "121": 6447,
      "##оскорост": 6448,
      "##никами": 6449,
      "##x1500": 6450,
      "##ушители": 6451,
      "нижний": 6452,
      "24В": 6453,
      "высокоскорост": 6454,
      "радиографи": 6455,
      "##чики": 6456,
      "АВБШв": 6457,
      "лестни": 6458,
      "10с971фт": 6459,
      "лестничная": 6460,
      "поверхностями": 6461,
      "глухие": 6462,
      "промежуточное": 6463,
      "несущему": 6464,
      "##левой": 6465,
      "добор": 6466,
      "ячеист": 6467,
      "ААБ2л": 6468,
      "составная": 6469,
      "окрашена": 6470,
      "остекленный": 6471,
      "подводом": 6472,
      "однокамерный": 6473,
      "помещения": 6474,
      "канализационные": 6475,
      "Система": 6476,
      "фрикционные": 6477,
      "##андаж": 6478,
      "переставной": 6479,
      "асбест": 6480,
      "ЭЦВ": 6481,
      "W16": 6482,
      "мал": 6483,
      "масти": 6484,
      "пайка": 6485,
      "##x800": 6486,
      "##ИМ": 6487,
      "##нине": 6488,
      "##одом": 6489,
      "##ану": 6490,
      "станине": 6491,
      "##цид": 6492,
      "стяжки": 6493,
      "##евого": 6494,
      "10х1": 6495,
      "конт": 6496,
      "труба": 6497,
      "20х20": 6498,
      "необ": 6499,
      "железобетону": 6500,
      "##аку": 6501,
      "жилых": 6502,
      "замковый": 6503,
      "медный": 6504,
      "1140x1": 6505,
      "автоном": 6506,
      "свето": 6507,
      "плоскости": 6508,
      "штуч": 6509,
      "200х200": 6510,
      "гофрированных": 6511,
      "защитный": 6512,
      "несколь": 6513,
      "лазерная": 6514,
      "прессуемый": 6515,
      "ниппельном": 6516,
      "комплекта": 6517,
      "сегментов": 6518,
      "Швеллеры": 6519,
      "мокром": 6520,
      "оловянно": 6521,
      "электронасосные": 6522,
      "высокоскоростное": 6523,
      "радиографическая": 6524,
      "1х2": 6525,
      "4х25": 6526,
      "4x2x0": 6527,
      "4х70": 6528,
      "800х": 6529,
      "ВЦ": 6530,
      "Г2": 6531,
      "Нд": 6532,
      "ТПВ": 6533,
      "дном": 6534,
      "шланг": 6535,
      "##те": 6536,
      "##иш": 6537,
      "##гинское": 6538,
      "##ПЭнг": 6539,
      "##фу": 6540,
      "##енз": 6541,
      "##азу": 6542,
      "прол": 6543,
      "##гое": 6544,
      "разно": 6545,
      "##лощад": 6546,
      "особ": 6547,
      "Ступ": 6548,
      "##елгинское": 6549,
      "двухп": 6550,
      "теплозащит": 6551,
      "каш": 6552,
      "пола": 6553,
      "110В": 6554,
      "##ластиковые": 6555,
      "соединений": 6556,
      "материалами": 6557,
      "строительная": 6558,
      "раструбная": 6559,
      "##ерсивные": 6560,
      "КПо": 6561,
      "Скам": 6562,
      "Анкеры": 6563,
      "##олото": 6564,
      "Кронштейны": 6565,
      "внутренними": 6566,
      "продольное": 6567,
      "Песоч": 6568,
      "14нж017р": 6569,
      "замыкающая": 6570,
      "скважинные": 6571,
      "ФСА": 6572,
      "добавок": 6573,
      "штукатурные": 6574,
      "прессуемые": 6575,
      "насос": 6576,
      "инвентарный": 6577,
      "масляная": 6578,
      "другое": 6579,
      "Коелгинское": 6580,
      "пескоуловителя": 6581,
      "Контакторы": 6582,
      "сердцевина": 6583,
      "самоклеящ": 6584,
      "Углы": 6585,
      "3х6": 6586,
      "4х50": 6587,
      "БП": 6588,
      "КД": 6589,
      "Стр": 6590,
      "сб": 6591,
      "укор": 6592,
      "шкаф": 6593,
      "##йной": 6594,
      "##уника": 6595,
      "##нок": 6596,
      "##никовый": 6597,
      "##отексти": 6598,
      "##ивная": 6599,
      "дос": 6600,
      "осевой": 6601,
      "1000х3": 6602,
      "##глеродист": 6603,
      "графит": 6604,
      "##щитовой": 6605,
      "клин": 6606,
      "пенополиизоци": 6607,
      "гибкая": 6608,
      "листом": 6609,
      "плоским": 6610,
      "цельнометалли": 6611,
      "СБВГнг": 6612,
      "Компози": 6613,
      "Клемма": 6614,
      "усиленный": 6615,
      "вибрации": 6616,
      "автомобиль": 6617,
      "ТЗП": 6618,
      "##делитель": 6619,
      "однокомпонентный": 6620,
      "аппаратные": 6621,
      "троллейбуса": 6622,
      "Металлоконструк": 6623,
      "трамвая": 6624,
      "фактур": 6625,
      "основанию": 6626,
      "Люк": 6627,
      "скрученными": 6628,
      "наконечниками": 6629,
      "##этилен": 6630,
      "Разъединитель": 6631,
      "##анурата": 6632,
      "пенополиизоцианурата": 6633,
      "Композиция": 6634,
      "1х70": 6635,
      "Долото": 6636,
      "УВ": 6637,
      "зеле": 6638,
      "пб": 6639,
      "палуб": 6640,
      "тяг": 6641,
      "шли": 6642,
      "##AL": 6643,
      "##онное": 6644,
      "##онными": 6645,
      "износ": 6646,
      "разъем": 6647,
      "##новой": 6648,
      "##облоки": 6649,
      "##инета": 6650,
      "100x500": 6651,
      "подзем": 6652,
      "##егом": 6653,
      "горка": 6654,
      "205": 6655,
      "##х11": 6656,
      "##х15": 6657,
      "Стеллаж": 6658,
      "теплоустойчив": 6659,
      "131": 6660,
      "облицовочного": 6661,
      "площадки": 6662,
      "Прожектор": 6663,
      "креплений": 6664,
      "##ещенный": 6665,
      "высоков": 6666,
      "низкоу": 6667,
      "600х50": 6668,
      "600х80": 6669,
      "настрой": 6670,
      "##х35мк": 6671,
      "гофрированный": 6672,
      "армирования": 6673,
      "навесом": 6674,
      "##озащитная": 6675,
      "хризотилцементных": 6676,
      "декоративных": 6677,
      "опалубочных": 6678,
      "74x63": 6679,
      "реверсивный": 6680,
      "консольной": 6681,
      "консольные": 6682,
      "##x980": 6683,
      "коническим": 6684,
      "откидное": 6685,
      "Экстра": 6686,
      "кнопками": 6687,
      "скрытой": 6688,
      "компонентов": 6689,
      "буровая": 6690,
      "керамзит": 6691,
      "сиденьями": 6692,
      "уличного": 6693,
      "скатом": 6694,
      "паронита": 6695,
      "##полюсный": 6696,
      "карнизное": 6697,
      "увеличенной": 6698,
      "локальное": 6699,
      "Вентиль": 6700,
      "контуров": 6701,
      "кашированием": 6702,
      "Песочница": 6703,
      "сбегом": 6704,
      "укороч": 6705,
      "Металлоконструкции": 6706,
      "палубой": 6707,
      "низкоуглеродист": 6708,
      "9000": 6709,
      "во": 6710,
      "вяз": 6711,
      "дем": 6712,
      "кинета": 6713,
      "пайки": 6714,
      "шта": 6715,
      "##товый": 6716,
      "##точного": 6717,
      "##x45": 6718,
      "##фат": 6719,
      "##етами": 6720,
      "##кис": 6721,
      "наплав": 6722,
      "избы": 6723,
      "##опластиковые": 6724,
      "##ейные": 6725,
      "##оты": 6726,
      "##поразмер": 6727,
      "10КV": 6728,
      "##ольш": 6729,
      "опорно": 6730,
      "болты": 6731,
      "лотками": 6732,
      "базальтопластиковые": 6733,
      "##опроб": 6734,
      "##иффу": 6735,
      "строения": 6736,
      "скользящ": 6737,
      "удлиненный": 6738,
      "удлиненная": 6739,
      "вертикальные": 6740,
      "ОКБ": 6741,
      "##x72": 6742,
      "технический": 6743,
      "фильтр": 6744,
      "шумопоглощ": 6745,
      "заземляющий": 6746,
      "фикс": 6747,
      "другую": 6748,
      "рельса": 6749,
      "Бруски": 6750,
      "780x1": 6751,
      "нанесения": 6752,
      "типоразмер": 6753,
      "нейло": 6754,
      "избыточного": 6755,
      "1х50": 6756,
      "4х16": 6757,
      "НПВХ": 6758,
      "РВ": 6759,
      "ТГ": 6760,
      "касс": 6761,
      "##ич": 6762,
      "##уля": 6763,
      "##кр": 6764,
      "##СО": 6765,
      "##щитный": 6766,
      "##Мц": 6767,
      "##PC": 6768,
      "##наруж": 6769,
      "##ними": 6770,
      "пре": 6771,
      "закреп": 6772,
      "корунд": 6773,
      "14х1": 6774,
      "3050": 6775,
      "##пала": 6776,
      "##x27": 6777,
      "контактными": 6778,
      "цветовая": 6779,
      "песко": 6780,
      "нагрузок": 6781,
      "фасадной": 6782,
      "воздушная": 6783,
      "гидравлического": 6784,
      "лестничный": 6785,
      "декоративной": 6786,
      "муллитокремнеземистая": 6787,
      "##2700": 6788,
      "распределителем": 6789,
      "станционный": 6790,
      "Шкафы": 6791,
      "поливинилхлорида": 6792,
      "акриловых": 6793,
      "выпуском": 6794,
      "передвижные": 6795,
      "счетчиком": 6796,
      "калиб": 6797,
      "Налич": 6798,
      "2х4": 6799,
      "4х95": 6800,
      "ГТ": 6801,
      "ЛА": 6802,
      "М550": 6803,
      "Пе": 6804,
      "ПН": 6805,
      "ТУТ": 6806,
      "УТ": 6807,
      "ЭИМ": 6808,
      "бут": 6809,
      "пасс": 6810,
      "пеш": 6811,
      "таб": 6812,
      "ут": 6813,
      "##62": 6814,
      "##кли": 6815,
      "##КВ": 6816,
      "##щик": 6817,
      "##РП": 6818,
      "##ТЛ": 6819,
      "##фанов": 6820,
      "##Эф": 6821,
      "нату": 6822,
      "освет": 6823,
      "5050": 6824,
      "##цевый": 6825,
      "сварочная": 6826,
      "комплекс": 6827,
      "Оттяж": 6828,
      "обраб": 6829,
      "высокого": 6830,
      "силовые": 6831,
      "боковая": 6832,
      "изолированных": 6833,
      "сердечником": 6834,
      "500х80": 6835,
      "вертикальным": 6836,
      "##имися": 6837,
      "полиуретановая": 6838,
      "эмали": 6839,
      "станции": 6840,
      "коммуника": 6841,
      "лиственницы": 6842,
      "конической": 6843,
      "симметричным": 6844,
      "гальфанов": 6845,
      "нагрева": 6846,
      "обыкновенного": 6847,
      "помещений": 6848,
      "органических": 6849,
      "250х120х65": 6850,
      "низковольтный": 6851,
      "##клавишный": 6852,
      "бугелем": 6853,
      "шлицем": 6854,
      "пешеход": 6855,
      "гальфановым": 6856,
      "1х4": 6857,
      "3х1": 6858,
      "3х0": 6859,
      "ВА": 6860,
      "ВУС": 6861,
      "Гц": 6862,
      "ГГц": 6863,
      "СА": 6864,
      "кры": 6865,
      "па": 6866,
      "штор": 6867,
      "##трубного": 6868,
      "##вяз": 6869,
      "##4000": 6870,
      "##ПМ": 6871,
      "##эк": 6872,
      "##TP": 6873,
      "##отделитель": 6874,
      "##остого": 6875,
      "##рог": 6876,
      "12КV": 6877,
      "два": 6878,
      "окрас": 6879,
      "##елки": 6880,
      "смещенный": 6881,
      "30ч": 6882,
      "1140": 6883,
      "водно": 6884,
      "опорной": 6885,
      "18П": 6886,
      "лицевые": 6887,
      "горячекатаной": 6888,
      "##чатого": 6889,
      "холодоснабжения": 6890,
      "стык": 6891,
      "электрического": 6892,
      "межтрубного": 6893,
      "##x796": 6894,
      "пружинные": 6895,
      "##x250x200": 6896,
      "распределительного": 6897,
      "подключениями": 6898,
      "геотексти": 6899,
      "образным": 6900,
      "заземляющего": 6901,
      "волнистой": 6902,
      "реверсивные": 6903,
      "нетканое": 6904,
      "разрыве": 6905,
      "лакированная": 6906,
      "ОСК": 6907,
      "приборами": 6908,
      "струк": 6909,
      "охранный": 6910,
      "перекладинами": 6911,
      "нагревательный": 6912,
      "##скав": 6913,
      "сосны": 6914,
      "особо": 6915,
      "Пенополи": 6916,
      "015": 6917,
      "340": 6918,
      "370": 6919,
      "В60": 6920,
      "В55": 6921,
      "Ушко": 6922,
      "гр": 6923,
      "дюб": 6924,
      "жар": 6925,
      "игл": 6926,
      "##еления": 6927,
      "##46": 6928,
      "##жд": 6929,
      "##омб": 6930,
      "разветв": 6931,
      "##ловая": 6932,
      "выдвижные": 6933,
      "##ительные": 6934,
      "прием": 6935,
      "однос": 6936,
      "среднего": 6937,
      "переходах": 6938,
      "верш": 6939,
      "максимальный": 6940,
      "##фицированного": 6941,
      "боковое": 6942,
      "гидравлические": 6943,
      "##значный": 6944,
      "бесшовных": 6945,
      "модульные": 6946,
      "муллитокремнеземистые": 6947,
      "резиновой": 6948,
      "##ефлектор": 6949,
      "##x54": 6950,
      "бортами": 6951,
      "##невые": 6952,
      "эпоксидная": 6953,
      "гипсо": 6954,
      "ФСБ": 6955,
      "дуба": 6956,
      "ТЗГ": 6957,
      "##опрозра": 6958,
      "топлив": 6959,
      "пневм": 6960,
      "сложной": 6961,
      "тоннелей": 6962,
      "Качели": 6963,
      "дисперсионная": 6964,
      "методом": 6965,
      "С355": 6966,
      "Перегородка": 6967,
      "движения": 6968,
      "доводчика": 6969,
      "одностоечные": 6970,
      "Скамья": 6971,
      "досок": 6972,
      "цельнометаллические": 6973,
      "Оттяжка": 6974,
      "иглопроб": 6975,
      "4100": 6976,
      "Ди": 6977,
      "ЛЭ": 6978,
      "Рель": 6979,
      "соч": 6980,
      "срывающ": 6981,
      "фос": 6982,
      "##онит": 6983,
      "##чаты": 6984,
      "##мп": 6985,
      "##пук": 6986,
      "##РС": 6987,
      "##x65": 6988,
      "##x900": 6989,
      "##IN": 6990,
      "##орас": 6991,
      "##оматери": 6992,
      "##лег": 6993,
      "##енси": 6994,
      "старог": 6995,
      "##раг": 6996,
      "выпук": 6997,
      "##яжке": 6998,
      "150х100": 6999,
      "ковров": 7000,
      "##х220": 7001,
      "##жимной": 7002,
      "затяжке": 7003,
      "стеклопластикового": 7004,
      "светопрозра": 7005,
      "37x63": 7006,
      "цельные": 7007,
      "промежуточная": 7008,
      "трансформатором": 7009,
      "ПРТ": 7010,
      "гильзой": 7011,
      "направляющий": 7012,
      "##унк": 7013,
      "забивная": 7014,
      "низколегированной": 7015,
      "АМг5": 7016,
      "Заслонки": 7017,
      "финиш": 7018,
      "винтами": 7019,
      "манжеты": 7020,
      "пиломатери": 7021,
      "керамогранит": 7022,
      "лестницей": 7023,
      "##акуум": 7024,
      "теплозащитные": 7025,
      "клинкер": 7026,
      "Пенополиэтилен": 7027,
      "срывающимися": 7028,
      "старогод": 7029,
      "PG": 7030,
      "Аппар": 7031,
      "Гид": 7032,
      "Теп": 7033,
      "Шту": 7034,
      "пы": 7035,
      "##алог": 7036,
      "##Пмнг": 7037,
      "##енно": 7038,
      "##ельных": 7039,
      "разрядный": 7040,
      "##лона": 7041,
      "отражающ": 7042,
      "##х100х": 7043,
      "объемный": 7044,
      "##торной": 7045,
      "качеств": 7046,
      "водоблоки": 7047,
      "компенси": 7048,
      "300х80": 7049,
      "##отаранный": 7050,
      "каналы": 7051,
      "1928": 7052,
      "светостабилиз": 7053,
      "газового": 7054,
      "##ошок": 7055,
      "##укава": 7056,
      "противотаранный": 7057,
      "остр": 7058,
      "глубокой": 7059,
      "IP53": 7060,
      "##x400x150": 7061,
      "вытяжки": 7062,
      "скальных": 7063,
      "стационарная": 7064,
      "Накладка": 7065,
      "фибры": 7066,
      "ИКБнг": 7067,
      "КУПЭф": 7068,
      "обрезные": 7069,
      "двигатель": 7070,
      "пропитанная": 7071,
      "нефтяной": 7072,
      "460x400x150": 7073,
      "металлоконструкций": 7074,
      "Штуцер": 7075,
      "19281": 7076,
      "КУПЭфПмнг": 7077,
      "4х120": 7078,
      "625": 7079,
      "940x1": 7080,
      "DIN": 7081,
      "F4": 7082,
      "Битум": 7083,
      "Площад": 7084,
      "Форм": 7085,
      "ША": 7086,
      "оцинков": 7087,
      "тяга": 7088,
      "уров": 7089,
      "##сцентри": 7090,
      "##чок": 7091,
      "изм": 7092,
      "##евым": 7093,
      "обвяз": 7094,
      "100х35": 7095,
      "давлением": 7096,
      "трубка": 7097,
      "раскли": 7098,
      "##ечных": 7099,
      "40x70": 7100,
      "##х100х1": 7101,
      "присп": 7102,
      "##ланд": 7103,
      "полимерного": 7104,
      "##x2x1": 7105,
      "фланцами": 7106,
      "СвЗ": 7107,
      "коуш": 7108,
      "муллитовые": 7109,
      "проволочный": 7110,
      "37x60": 7111,
      "многом": 7112,
      "сетчатые": 7113,
      "М24": 7114,
      "высоты": 7115,
      "рельеф": 7116,
      "шпунтовая": 7117,
      "пленки": 7118,
      "сплошным": 7119,
      "коммути": 7120,
      "РП1": 7121,
      "АКВ": 7122,
      "кронштейнами": 7123,
      "однопольные": 7124,
      "штукатурный": 7125,
      "400x250x130": 7126,
      "фарфоровая": 7127,
      "Глушители": 7128,
      "двухскатной": 7129,
      "завод": 7130,
      "Соединение": 7131,
      "баскетбольная": 7132,
      "М6П": 7133,
      "рифле": 7134,
      "металлополимерных": 7135,
      "ВСт3сп": 7136,
      "дистанционное": 7137,
      "влажности": 7138,
      "трактор": 7139,
      "гипсокар": 7140,
      "сочлен": 7141,
      "водоблокирующими": 7142,
      "приспособ": 7143,
      "030": 7144,
      "1х95": 7145,
      "415": 7146,
      "760": 7147,
      "R4": 7148,
      "W10": 7149,
      "Гаситель": 7150,
      "КФ": 7151,
      "М50": 7152,
      "Р50": 7153,
      "Фрез": 7154,
      "инт": 7155,
      "рис": 7156,
      "форт": 7157,
      "шн": 7158,
      "##ву": 7159,
      "##ВВ": 7160,
      "##ГП": 7161,
      "##К1": 7162,
      "##окол": 7163,
      "##абор": 7164,
      "##50x200": 7165,
      "123": 7166,
      "полиами": 7167,
      "задвиж": 7168,
      "перв": 7169,
      "20Ш1": 7170,
      "##х180": 7171,
      "арочной": 7172,
      "повторной": 7173,
      "200x200": 7174,
      "террак": 7175,
      "192": 7176,
      "19х1": 7177,
      "400х80": 7178,
      "слоев": 7179,
      "боковой": 7180,
      "кольцевой": 7181,
      "СБВГ": 7182,
      "СБ2л": 7183,
      "##ающего": 7184,
      "маш": 7185,
      "##етали": 7186,
      "Перемычки": 7187,
      "термоусаживающ": 7188,
      "путь": 7189,
      "ССА": 7190,
      "расположением": 7191,
      "водопропускной": 7192,
      "щитов": 7193,
      "стеновое": 7194,
      "выпуска": 7195,
      "метров": 7196,
      "##МСР": 7197,
      "петлевой": 7198,
      "гальваническим": 7199,
      "Дюбель": 7200,
      "КУГПЭПнг": 7201,
      "опрессовку": 7202,
      "принудительного": 7203,
      "разъединит": 7204,
      "несколькими": 7205,
      "высоковольтный": 7206,
      "нейлоновые": 7207,
      "коммуникаций": 7208,
      "многомод": 7209,
      "670": 7210,
      "SS": 7211,
      "МД": 7212,
      "инж": 7213,
      "соб": 7214,
      "циф": 7215,
      "##рно": 7216,
      "##460": 7217,
      "##кост": 7218,
      "##Вт": 7219,
      "##9ТЛ": 7220,
      "##Гсп": 7221,
      "##РВ": 7222,
      "##льная": 7223,
      "##ометр": 7224,
      "набор": 7225,
      "стар": 7226,
      "##рубный": 7227,
      "100x200": 7228,
      "##ловые": 7229,
      "12Х18Н": 7230,
      "полистирола": 7231,
      "заготовки": 7232,
      "##сосы": 7233,
      "15кч": 7234,
      "16П": 7235,
      "14х0": 7236,
      "двухмест": 7237,
      "150x150": 7238,
      "однорожковый": 7239,
      "324": 7240,
      "18Б1": 7241,
      "защитные": 7242,
      "крупный": 7243,
      "400х50": 7244,
      "клеммная": 7245,
      "газо": 7246,
      "Ст3Гсп": 7247,
      "##х63": 7248,
      "200х35": 7249,
      "кровли": 7250,
      "КУПП": 7251,
      "огнестойкостью": 7252,
      "светодиодными": 7253,
      "участком": 7254,
      "С285": 7255,
      "вытяжной": 7256,
      "декоративными": 7257,
      "шайбы": 7258,
      "Насос": 7259,
      "кнопок": 7260,
      "дренажные": 7261,
      "СБПБбШв": 7262,
      "СБПБбШп": 7263,
      "кремний": 7264,
      "желобов": 7265,
      "центральная": 7266,
      "мелкозер": 7267,
      "отбойника": 7268,
      "автоматизированное": 7269,
      "автономное": 7270,
      "Наличник": 7271,
      "иглопробив": 7272,
      "12Х18Н9ТЛ": 7273,
      "4x4": 7274,
      "4х150": 7275,
      "F3": 7276,
      "S460": 7277,
      "БНД": 7278,
      "В50": 7279,
      "Лиф": 7280,
      "П1": 7281,
      "кирпи": 7282,
      "ту": 7283,
      "фрез": 7284,
      "этаж": 7285,
      "##аТ": 7286,
      "##нет": 7287,
      "##ыс": 7288,
      "##ОС": 7289,
      "##NH": 7290,
      "##ованием": 7291,
      "##омог": 7292,
      "прав": 7293,
      "пропускная": 7294,
      "##остати": 7295,
      "обнаруж": 7296,
      "железобетонное": 7297,
      "Плинтус": 7298,
      "##х125": 7299,
      "Ст0": 7300,
      "высоких": 7301,
      "##атывания": 7302,
      "##х350": 7303,
      "колон": 7304,
      "соединительными": 7305,
      "##айке": 7306,
      "нагрузкой": 7307,
      "монтажной": 7308,
      "стандартный": 7309,
      "акрил": 7310,
      "СППК": 7311,
      "Изоляторы": 7312,
      "нерав": 7313,
      "Шпилька": 7314,
      "эпоксидной": 7315,
      "##ециев": 7316,
      "обечайке": 7317,
      "ригеля": 7318,
      "откидной": 7319,
      "Шнур": 7320,
      "ребрами": 7321,
      "СБЗПу": 7322,
      "гипсовая": 7323,
      "фронта": 7324,
      "фольгированием": 7325,
      "стеклохолстом": 7326,
      "матра": 7327,
      "дополнительным": 7328,
      "ШТС": 7329,
      "ДНаТ": 7330,
      "трапециев": 7331,
      "КПоПЭнг": 7332,
      "кремнийоргани": 7333,
      "S460NH": 7334,
      "1х0": 7335,
      "2А": 7336,
      "430": 7337,
      "4x10": 7338,
      "9600": 7339,
      "C2": 7340,
      "Бокс": 7341,
      "Ка": 7342,
      "Масло": 7343,
      "НТ": 7344,
      "ШЛ": 7345,
      "вок": 7346,
      "ватой": 7347,
      "неси": 7348,
      "саль": 7349,
      "туп": 7350,
      "##43": 7351,
      "##шар": 7352,
      "##ВЭВнг": 7353,
      "насти": 7354,
      "##азву": 7355,
      "##езав": 7356,
      "##остан": 7357,
      "##тразву": 7358,
      "##ноструж": 7359,
      "##рош": 7360,
      "##фибр": 7361,
      "пери": 7362,
      "бетонными": 7363,
      "##проч": 7364,
      "покров": 7365,
      "замковыми": 7366,
      "спин": 7367,
      "горячей": 7368,
      "##рующее": 7369,
      "СвО": 7370,
      "300х200": 7371,
      "35x35": 7372,
      "##х360": 7373,
      "##исим": 7374,
      "соединением": 7375,
      "горизонтальными": 7376,
      "телеф": 7377,
      "сетчатый": 7378,
      "шамотная": 7379,
      "минераловатные": 7380,
      "вспомог": 7381,
      "##ажир": 7382,
      "ОКК": 7383,
      "ответвительные": 7384,
      "регулируемые": 7385,
      "стеклофибр": 7386,
      "усиленным": 7387,
      "промежуточной": 7388,
      "накладками": 7389,
      "##оустойчивые": 7390,
      "древесноструж": 7391,
      "входят": 7392,
      "модулями": 7393,
      "##янутой": 7394,
      "Порошок": 7395,
      "АД1": 7396,
      "тканое": 7397,
      "##41нж": 7398,
      "##образов": 7399,
      "уличные": 7400,
      "природного": 7401,
      "ворс": 7402,
      "утепленным": 7403,
      "##огрева": 7404,
      "антиванд": 7405,
      "Патрубок": 7406,
      "ДРЛ": 7407,
      "пиломатериала": 7408,
      "двигательным": 7409,
      "кирпича": 7410,
      "обнаружения": 7411,
      "вокруг": 7412,
      "несиловая": 7413,
      "##езависим": 7414,
      "вспомогатель": 7415,
      "490": 7416,
      "C1": 7417,
      "АЦ": 7418,
      "ДО": 7419,
      "Круг": 7420,
      "М22": 7421,
      "М75": 7422,
      "Пласти": 7423,
      "СМ": 7424,
      "УК": 7425,
      "анод": 7426,
      "вет": 7427,
      "габар": 7428,
      "ромб": 7429,
      "##х800": 7430,
      "##зированной": 7431,
      "##200х": 7432,
      "##Гнг": 7433,
      "##М1": 7434,
      "##никовая": 7435,
      "налич": 7436,
      "##ранич": 7437,
      "##очно": 7438,
      "размерами": 7439,
      "обжимной": 7440,
      "##порных": 7441,
      "##ющий": 7442,
      "откос": 7443,
      "подвиж": 7444,
      "50x80": 7445,
      "##уска": 7446,
      "25х25": 7447,
      "##истки": 7448,
      "##х130": 7449,
      "поруч": 7450,
      "ант": 7451,
      "27х1": 7452,
      "##аркет": 7453,
      "##ленные": 7454,
      "парной": 7455,
      "SDR26": 7456,
      "125х26": 7457,
      "жесткие": 7458,
      "регулирующие": 7459,
      "37х1": 7460,
      "14нж17р": 7461,
      "##ошеч": 7462,
      "##лизатора": 7463,
      "непласти": 7464,
      "одномест": 7465,
      "##х54": 7466,
      "ПвБ": 7467,
      "электрической": 7468,
      "межфлан": 7469,
      "газопровода": 7470,
      "Щиток": 7471,
      "скважины": 7472,
      "отводом": 7473,
      "стекловолокном": 7474,
      "декоративная": 7475,
      "4х185": 7476,
      "ультразву": 7477,
      "ревизи": 7478,
      "ВБШвнг": 7479,
      "коническая": 7480,
      "У220н": 7481,
      "##обезопасном": 7482,
      "ригелей": 7483,
      "однокамерными": 7484,
      "перенос": 7485,
      "болтовыми": 7486,
      "профилированного": 7487,
      "мягкие": 7488,
      "раздельными": 7489,
      "##нивающиеся": 7490,
      "ограждений": 7491,
      "необрез": 7492,
      "демп": 7493,
      "кассетами": 7494,
      "ПРТО": 7495,
      "коммутируем": 7496,
      "инжен": 7497,
      "матрац": 7498,
      "4x16": 7499,
      "5500": 7500,
      "В5": 7501,
      "Доб": 7502,
      "Д16": 7503,
      "Ком": 7504,
      "ОД": 7505,
      "ШУ": 7506,
      "адапт": 7507,
      "знак": 7508,
      "##аф": 7509,
      "##агрессивной": 7510,
      "##сид": 7511,
      "##шип": 7512,
      "##ОП": 7513,
      "##овин": 7514,
      "##емая": 7515,
      "разъемная": 7516,
      "106": 7517,
      "##опроводящ": 7518,
      "Стенка": 7519,
      "30х30": 7520,
      "##x1800": 7521,
      "облицовочные": 7522,
      "Коробки": 7523,
      "одноярусного": 7524,
      "контакта": 7525,
      "внешними": 7526,
      "##ованного": 7527,
      "максимальным": 7528,
      "термостати": 7529,
      "##х410": 7530,
      "пиленые": 7531,
      "полиэфирное": 7532,
      "вертикально": 7533,
      "уголки": 7534,
      "поверхностного": 7535,
      "многоцвет": 7536,
      "полиуретановый": 7537,
      "АСБл": 7538,
      "усиленные": 7539,
      "##вающий": 7540,
      "##00х3300": 7541,
      "##00х3800": 7542,
      "##заход": 7543,
      "обыкновенные": 7544,
      "ветроустойчивые": 7545,
      "однокомпонентная": 7546,
      "адгезия": 7547,
      "полукруг": 7548,
      "сорта": 7549,
      "Держатель": 7550,
      "разветвителя": 7551,
      "уровня": 7552,
      "##ландцемент": 7553,
      "Лифт": 7554,
      "ревизионный": 7555,
      "инженерных": 7556,
      "##афраг": 7557,
      "1р": 7558,
      "1х2х0": 7559,
      "290": 7560,
      "2х2х0": 7561,
      "390": 7562,
      "Детали": 7563,
      "КЛ": 7564,
      "СЦ": 7565,
      "ба": 7566,
      "белого": 7567,
      "лод": 7568,
      "независим": 7569,
      "ов": 7570,
      "чуш": 7571,
      "##окий": 7572,
      "##метр": 7573,
      "##гии": 7574,
      "##пы": 7575,
      "##олег": 7576,
      "наб": 7577,
      "##опти": 7578,
      "прит": 7579,
      "##езд": 7580,
      "##раст": 7581,
      "##отор": 7582,
      "столя": 7583,
      "стема": 7584,
      "##ображ": 7585,
      "##ейся": 7586,
      "горки": 7587,
      "##обетонными": 7588,
      "проката": 7589,
      "40x50": 7590,
      "##литом": 7591,
      "сильф": 7592,
      "сварку": 7593,
      "однолет": 7594,
      "60х60": 7595,
      "рабочий": 7596,
      "35Т": 7597,
      "##х310": 7598,
      "токопроводящ": 7599,
      "##чатое": 7600,
      "высоколег": 7601,
      "условным": 7602,
      "углеродистых": 7603,
      "##х450": 7604,
      "регулирующий": 7605,
      "кольца": 7606,
      "цельная": 7607,
      "протяж": 7608,
      "шлифов": 7609,
      "200х1": 7610,
      "комбинированные": 7611,
      "композитными": 7612,
      "глубокий": 7613,
      "##упен": 7614,
      "полиуретановых": 7615,
      "заполняющ": 7616,
      "стекловолокна": 7617,
      "уплотнительные": 7618,
      "крепежом": 7619,
      "липким": 7620,
      "рельсовых": 7621,
      "фильтра": 7622,
      "##готовления": 7623,
      "ворот": 7624,
      "термопластика": 7625,
      "глинистой": 7626,
      "сополимеров": 7627,
      "сифоном": 7628,
      "уплотнением": 7629,
      "напрессовочные": 7630,
      "пигм": 7631,
      "анализатора": 7632,
      "знаков": 7633,
      "фиброцементными": 7634,
      "разделительная": 7635,
      "##оконечные": 7636,
      "наплавляемый": 7637,
      "структур": 7638,
      "ЛЭЗ": 7639,
      "керамогранитными": 7640,
      "клинкерными": 7641,
      "остроконечные": 7642,
      "полиамида": 7643,
      "терракоты": 7644,
      "стеклофибробетонными": 7645,
      "наличника": 7646,
      "непластифицированного": 7647,
      "Добавка": 7648,
      "чушках": 7649,
      "стемалитом": 7650,
      "однолетних": 7651,
      "заполняющими": 7652,
      "025": 7653,
      "3100": 7654,
      "3х10": 7655,
      "5100": 7656,
      "535": 7657,
      "940": 7658,
      "D1200": 7659,
      "КШ": 7660,
      "КР": 7661,
      "Кат": 7662,
      "КСП": 7663,
      "Па": 7664,
      "бандаж": 7665,
      "зер": 7666,
      "нег": 7667,
      "ник": 7668,
      "посы": 7669,
      "упроч": 7670,
      "##кон": 7671,
      "##шей": 7672,
      "##К2": 7673,
      "##щенный": 7674,
      "##нием": 7675,
      "##оры": 7676,
      "изображ": 7677,
      "##ельной": 7678,
      "облег": 7679,
      "перевод": 7680,
      "40x40": 7681,
      "алюмос": 7682,
      "металлом": 7683,
      "##х160": 7684,
      "прицепные": 7685,
      "двухполюсные": 7686,
      "графи": 7687,
      "1150": 7688,
      "полая": 7689,
      "##ебед": 7690,
      "3200": 7691,
      "отверд": 7692,
      "стойками": 7693,
      "растянутой": 7694,
      "Контр": 7695,
      "##ортландцемент": 7696,
      "электросварной": 7697,
      "глазу": 7698,
      "переменное": 7699,
      "##одического": 7700,
      "600х3": 7701,
      "вертикальных": 7702,
      "поперечное": 7703,
      "резиновый": 7704,
      "глухим": 7705,
      "109x60": 7706,
      "##x596": 7707,
      "железнодорожным": 7708,
      "тройника": 7709,
      "цилиндрические": 7710,
      "каучу": 7711,
      "одинарная": 7712,
      "тросы": 7713,
      "##щики": 7714,
      "выходом": 7715,
      "асфальтобетонных": 7716,
      "##x996": 7717,
      "разделе": 7718,
      "нетканого": 7719,
      "##туры": 7720,
      "стрелочных": 7721,
      "ИКСЛнг": 7722,
      "Обрамление": 7723,
      "прутков": 7724,
      "пневмати": 7725,
      "индика": 7726,
      "кула": 7727,
      "электротехнические": 7728,
      "магнитный": 7729,
      "компрессорных": 7730,
      "остановок": 7731,
      "Втулка": 7732,
      "светоопти": 7733,
      "пролета": 7734,
      "пассажир": 7735,
      "Диафраг": 7736,
      "изменя": 7737,
      "гипсокарт": 7738,
      "термоусаживающаяся": 7739,
      "многомодовых": 7740,
      "периодического": 7741,
      "полукруглой": 7742,
      "лодж": 7743,
      "посып": 7744,
      "облегч": 7745,
      "алюмосиликат": 7746,
      "425": 7747,
      "4х2х0": 7748,
      "4x50": 7749,
      "5х16": 7750,
      "Голов": 7751,
      "НК": 7752,
      "ПГ": 7753,
      "дат": 7754,
      "даль": 7755,
      "тар": 7756,
      "тех": 7757,
      "##ека": 7758,
      "##600х": 7759,
      "##яда": 7760,
      "##мет": 7761,
      "##ВП": 7762,
      "##ВО": 7763,
      "##ПС": 7764,
      "##МРП": 7765,
      "##ерст": 7766,
      "наполн": 7767,
      "наполнитель": 7768,
      "прос": 7769,
      "##окомпозит": 7770,
      "обогрева": 7771,
      "основного": 7772,
      "15000": 7773,
      "144": 7774,
      "##неля": 7775,
      "водогр": 7776,
      "кабины": 7777,
      "прочих": 7778,
      "защитное": 7779,
      "трехшар": 7780,
      "паропро": 7781,
      "проводки": 7782,
      "пенополиуретаном": 7783,
      "массой": 7784,
      "открытым": 7785,
      "сухая": 7786,
      "цинка": 7787,
      "##х700": 7788,
      "брусья": 7789,
      "напольный": 7790,
      "##нутые": 7791,
      "пластиной": 7792,
      "Пескоулов": 7793,
      "дроссель": 7794,
      "закладными": 7795,
      "распашные": 7796,
      "пластмассовые": 7797,
      "гидрофобиз": 7798,
      "щитом": 7799,
      "забивные": 7800,
      "низколегированная": 7801,
      "растворителей": 7802,
      "микротруб": 7803,
      "аппаратный": 7804,
      "финишный": 7805,
      "ребристые": 7806,
      "бесцветное": 7807,
      "Земле": 7808,
      "одножильных": 7809,
      "крупнощитовой": 7810,
      "резервуар": 7811,
      "земли": 7812,
      "Станки": 7813,
      "утол": 7814,
      "ковровое": 7815,
      "отражающе": 7816,
      "Форма": 7817,
      "заводских": 7818,
      "рисун": 7819,
      "СППК4": 7820,
      "покровом": 7821,
      "##ошечное": 7822,
      "независимым": 7823,
      "изображением": 7824,
      "переводов": 7825,
      "разделенных": 7826,
      "трехшарошечное": 7827,
      "Пескоуловитель": 7828,
      "PN": 7829,
      "ВБбШв": 7830,
      "Дросс": 7831,
      "Е27": 7832,
      "Мат": 7833,
      "Пу": 7834,
      "держ": 7835,
      "пла": 7836,
      "##тый": 7837,
      "##рель": 7838,
      "##хающего": 7839,
      "##шпол": 7840,
      "##5М": 7841,
      "##91": 7842,
      "##БК": 7843,
      "##Бнг": 7844,
      "##29": 7845,
      "##МТ": 7846,
      "##фр": 7847,
      "##льного": 7848,
      "##ником": 7849,
      "##инации": 7850,
      "##отражающ": 7851,
      "##епти": 7852,
      "##екст": 7853,
      "##атухающего": 7854,
      "50х35": 7855,
      "##озатухающего": 7856,
      "оксид": 7857,
      "20000": 7858,
      "##изоляционная": 7859,
      "##аторов": 7860,
      "самозатухающего": 7861,
      "колюч": 7862,
      "система": 7863,
      "системами": 7864,
      "##ага": 7865,
      "центрами": 7866,
      "анкерных": 7867,
      "проводе": 7868,
      "пониженной": 7869,
      "частичным": 7870,
      "блокировки": 7871,
      "перфорированная": 7872,
      "комбинации": 7873,
      "стыком": 7874,
      "наклонными": 7875,
      "груза": 7876,
      "Соединители": 7877,
      "поворотной": 7878,
      "С390": 7879,
      "пластин": 7880,
      "литерный": 7881,
      "трансформатора": 7882,
      "клиновид": 7883,
      "Воздухорас": 7884,
      "пс5": 7885,
      "##x81": 7886,
      "звукоотражающ": 7887,
      "открывания": 7888,
      "Брусчатка": 7889,
      "Экскав": 7890,
      "самонесущих": 7891,
      "центробежный": 7892,
      "низколегированных": 7893,
      "тканая": 7894,
      "АМг2": 7895,
      "обрезная": 7896,
      "АСБ2л": 7897,
      "рукоят": 7898,
      "желоба": 7899,
      "фальшпол": 7900,
      "##х140х2": 7901,
      "Стеклоп": 7902,
      "ребристая": 7903,
      "1000х290": 7904,
      "202х140х2": 7905,
      "конструкционно": 7906,
      "днища": 7907,
      "толстолистовой": 7908,
      "Тепло": 7909,
      "графическим": 7910,
      "светооптическими": 7911,
      "Дроссель": 7912,
      "Воздухораспределит": 7913,
      "1х35": 7914,
      "4р": 7915,
      "4x1": 7916,
      "595": 7917,
      "НФ": 7918,
      "ШСП": 7919,
      "ЭМП": 7920,
      "Ящик": 7921,
      "больш": 7922,
      "сад": 7923,
      "##ха": 7924,
      "##септи": 7925,
      "##ШВ": 7926,
      "раздвижной": 7927,
      "##епроводов": 7928,
      "ответв": 7929,
      "##полнительный": 7930,
      "##10П": 7931,
      "##ированными": 7932,
      "неар": 7933,
      "нешлиф": 7934,
      "исполнительный": 7935,
      "металлоч": 7936,
      "##учие": 7937,
      "смаз": 7938,
      "##x180": 7939,
      "##x1200": 7940,
      "сварных": 7941,
      "11с": 7942,
      "11000": 7943,
      "1180": 7944,
      "водной": 7945,
      "композ": 7946,
      "средний": 7947,
      "##х325": 7948,
      "##х330": 7949,
      "эксцентри": 7950,
      "##ованный": 7951,
      "шпатлев": 7952,
      "каната": 7953,
      "каркаса": 7954,
      "тяжелые": 7955,
      "радиов": 7956,
      "сборно": 7957,
      "##х500х": 7958,
      "ячейками": 7959,
      "постоянное": 7960,
      "УХЛ3": 7961,
      "тоннеля": 7962,
      "светодиодным": 7963,
      "пружинным": 7964,
      "железнодорожные": 7965,
      "##шивная": 7966,
      "БСМ": 7967,
      "быстрос": 7968,
      "отводами": 7969,
      "путепроводов": 7970,
      "расстоянием": 7971,
      "##озиционного": 7972,
      "нитепро": 7973,
      "DN100": 7974,
      "АКП": 7975,
      "микро": 7976,
      "теплоизолированные": 7977,
      "рядовые": 7978,
      "Агрегат": 7979,
      "шагом": 7980,
      "кремнеземист": 7981,
      "ниппельных": 7982,
      "рукоход": 7983,
      "прозрач": 7984,
      "аккумуляторов": 7985,
      "диэлектрический": 7986,
      "Стеллажи": 7987,
      "теплоустойчивой": 7988,
      "обработки": 7989,
      "Аппараты": 7990,
      "расклинивающиеся": 7991,
      "Фреза": 7992,
      "иглопробивное": 7993,
      "демпфера": 7994,
      "водогрейные": 7995,
      "Экскаваторы": 7996,
      "нитепрошивная": 7997,
      "1А": 7998,
      "4А": 7999,
      "580": 8000,
      "R1": 8001,
      "Кросс": 8002,
      "МВт": 8003,
      "Оп": 8004,
      "ОА": 8005,
      "СЛ": 8006,
      "Седелка": 8007,
      "Фитинг": 8008,
      "бар": 8009,
      "вини": 8010,
      "мг": 8011,
      "шип": 8012,
      "##ионная": 8013,
      "##упер": 8014,
      "##лаб": 8015,
      "##56": 8016,
      "##ЭТ": 8017,
      "##ерт": 8018,
      "##емых": 8019,
      "простой": 8020,
      "стока": 8021,
      "##ить": 8022,
      "обой": 8023,
      "##екс": 8024,
      "подва": 8025,
      "оцинкованных": 8026,
      "40А": 8027,
      "##вернут": 8028,
      "##елых": 8029,
      "двухканальный": 8030,
      "широкой": 8031,
      "облицованные": 8032,
      "112": 8033,
      "70x2": 8034,
      "##ластировки": 8035,
      "пено": 8036,
      "термостойкая": 8037,
      "018": 8038,
      "анкеру": 8039,
      "газовые": 8040,
      "песчаные": 8041,
      "балластировки": 8042,
      "протяжки": 8043,
      "##х610": 8044,
      "ПБП": 8045,
      "Провода": 8046,
      "битумная": 8047,
      "500х500": 8048,
      "##тяжелит": 8049,
      "лестничные": 8050,
      "шахтный": 8051,
      "##х88": 8052,
      "АСЦ": 8053,
      "кромки": 8054,
      "тонкост": 8055,
      "клапан": 8056,
      "образных": 8057,
      "вибро": 8058,
      "реак": 8059,
      "##00х220": 8060,
      "уплотнительное": 8061,
      "чугунных": 8062,
      "##бШвнг": 8063,
      "Брусья": 8064,
      "акриловая": 8065,
      "КВВБГ": 8066,
      "КВВБН": 8067,
      "стрелочный": 8068,
      "отдельностоящая": 8069,
      "плинтус": 8070,
      "##М2Т": 8071,
      "герметизирующая": 8072,
      "крестообразным": 8073,
      "гнутого": 8074,
      "штепсельные": 8075,
      "15Х5М": 8076,
      "предварительного": 8077,
      "скобяными": 8078,
      "10Х17Н13М2Т": 8079,
      "шланговый": 8080,
      "древесностружечные": 8081,
      "термостатическим": 8082,
      "##заходный": 8083,
      "садовая": 8084,
      "металлочерепи": 8085,
      "010": 8086,
      "4x2": 8087,
      "4x25": 8088,
      "5х4": 8089,
      "6500": 8090,
      "SC": 8091,
      "КЦ": 8092,
      "Лест": 8093,
      "МО": 8094,
      "Орос": 8095,
      "Портландцемент": 8096,
      "УН": 8097,
      "Шланг": 8098,
      "ЩРН": 8099,
      "лет": 8100,
      "фаз": 8101,
      "цем": 8102,
      "##ура": 8103,
      "##нолог": 8104,
      "##ерные": 8105,
      "##асшир": 8106,
      "изнутр": 8107,
      "##гофр": 8108,
      "##альд": 8109,
      "10С": 8110,
      "полистир": 8111,
      "##ожж": 8112,
      "##озы": 8113,
      "негофр": 8114,
      "##ъемным": 8115,
      "пота": 8116,
      "120x2": 8117,
      "шаром": 8118,
      "95x2": 8119,
      "термод": 8120,
      "400х300": 8121,
      "общей": 8122,
      "63А": 8123,
      "деревянным": 8124,
      "ППГнг": 8125,
      "600х600": 8126,
      "швед": 8127,
      "КГЭШ": 8128,
      "шестигранная": 8129,
      "ПСПКр": 8130,
      "разветвительный": 8131,
      "##оворот": 8132,
      "швеллерная": 8133,
      "неизолированные": 8134,
      "силико": 8135,
      "терморасшир": 8136,
      "модулей": 8137,
      "АПвПу": 8138,
      "циркуляционные": 8139,
      "1000х160": 8140,
      "БрО": 8141,
      "многолет": 8142,
      "пазогр": 8143,
      "пробкой": 8144,
      "огнезащит": 8145,
      "Дюбели": 8146,
      "времени": 8147,
      "##трубной": 8148,
      "перемещением": 8149,
      "антикоррозий": 8150,
      "износостойкости": 8151,
      "пневмокол": 8152,
      "Рельсы": 8153,
      "##чатых": 8154,
      "светостабилизированного": 8155,
      "##ебедки": 8156,
      "технолог": 8157,
      "резервуаров": 8158,
      "утолщенный": 8159,
      "подвалов": 8160,
      "тонкостенный": 8161,
      "Ороситель": 8162,
      "цемента": 8163,
      "изнутри": 8164,
      "негофрированный": 8165,
      "пазогреб": 8166,
      "пневмоколес": 8167,
      "3ПКВтп": 8168,
      "5х6": 8169,
      "5х50": 8170,
      "F10": 8171,
      "UTP": 8172,
      "ГК": 8173,
      "Е600": 8174,
      "Каб": 8175,
      "ЛВ": 8176,
      "ЛД": 8177,
      "План": 8178,
      "ПУС": 8179,
      "Поворот": 8180,
      "С5": 8181,
      "бути": 8182,
      "зоной": 8183,
      "мл": 8184,
      "ну": 8185,
      "пл": 8186,
      "сед": 8187,
      "цик": 8188,
      "##ела": 8189,
      "##шовые": 8190,
      "##33": 8191,
      "##АШп": 8192,
      "##ОСП": 8193,
      "##Эон": 8194,
      "##етуш": 8195,
      "##олновый": 8196,
      "накид": 8197,
      "##стиро": 8198,
      "##ковшовые": 8199,
      "обд": 8200,
      "заг": 8201,
      "марш": 8202,
      "соединит": 8203,
      "подок": 8204,
      "##шень": 8205,
      "проемы": 8206,
      "##х190": 8207,
      "##х195": 8208,
      "Ст22": 8209,
      "спар": 8210,
      "##x1180": 8211,
      "температурой": 8212,
      "одноковшовые": 8213,
      "мости": 8214,
      "опоре": 8215,
      "##рующей": 8216,
      "самоза": 8217,
      "лицевым": 8218,
      "шаровым": 8219,
      "термостойкого": 8220,
      "IP31": 8221,
      "горизонтально": 8222,
      "плоских": 8223,
      "фасадная": 8224,
      "стандартного": 8225,
      "огнетуш": 8226,
      "коэффициент": 8227,
      "##оотвод": 8228,
      "расчетным": 8229,
      "М3р": 8230,
      "##x66": 8231,
      "ПвПу": 8232,
      "М2р": 8233,
      "многос": 8234,
      "##невый": 8235,
      "пролетные": 8236,
      "стоечный": 8237,
      "выходных": 8238,
      "14нж917р": 8239,
      "отвода": 8240,
      "##озиционный": 8241,
      "Обои": 8242,
      "фикси": 8243,
      "М1р": 8244,
      "М1ф": 8245,
      "фибр": 8246,
      "СВЛ": 8247,
      "Экран": 8248,
      "атм": 8249,
      "терморегулятора": 8250,
      "эллиптическим": 8251,
      "14нж17ст19": 8252,
      "одиночным": 8253,
      "оголовком": 8254,
      "14нж917ст7": 8255,
      "запорной": 8256,
      "неподвижных": 8257,
      "различных": 8258,
      "Автом": 8259,
      "приклей": 8260,
      "14нж017р32": 8261,
      "корундовые": 8262,
      "натураль": 8263,
      "##х100х110": 8264,
      "П1б": 8265,
      "тупи": 8266,
      "тупым": 8267,
      "ветви": 8268,
      "14нж17р28": 8269,
      "столярных": 8270,
      "структурированной": 8271,
      "посыпкой": 8272,
      "паропроница": 8273,
      "радиоволновый": 8274,
      "кремнеземистые": 8275,
      "пенобетон": 8276,
      "анкеруемой": 8277,
      "полистиролб": 8278,
      "многолетних": 8279,
      "3ПКВтпБнг": 8280,
      "##Эонг": 8281,
      "Ст22К": 8282,
      "самозажимная": 8283,
      "1х120": 8284,
      "1х240": 8285,
      "2х16": 8286,
      "3600": 8287,
      "3300": 8288,
      "4х35": 8289,
      "Гвозд": 8290,
      "М800": 8291,
      "П2": 8292,
      "Уд": 8293,
      "УС": 8294,
      "вала": 8295,
      "дуг": 8296,
      "моб": 8297,
      "фрам": 8298,
      "фитинг": 8299,
      "##оения": 8300,
      "##лон": 8301,
      "##ыл": 8302,
      "##мент": 8303,
      "##86": 8304,
      "##фаз": 8305,
      "##льха": 8306,
      "##ерей": 8307,
      "##кинг": 8308,
      "наг": 8309,
      "##ополит": 8310,
      "##екуля": 8311,
      "10x2x0": 8312,
      "длины": 8313,
      "15°": 8314,
      "##ительный": 8315,
      "##торами": 8316,
      "##лителя": 8317,
      "150х50": 8318,
      "полимерными": 8319,
      "опорного": 8320,
      "полиэтилен": 8321,
      "лоток": 8322,
      "коробчатый": 8323,
      "1800х": 8324,
      "##акеты": 8325,
      "194": 8326,
      "195": 8327,
      "400х200": 8328,
      "SDR21": 8329,
      "монтажная": 8330,
      "автоматического": 8331,
      "2800": 8332,
      "непро": 8333,
      "##ихся": 8334,
      "КПД": 8335,
      "заземления": 8336,
      "ОКТ": 8337,
      "противопожарные": 8338,
      "прямоугольных": 8339,
      "однопроволочными": 8340,
      "подвеса": 8341,
      "тройной": 8342,
      "КВВГЭ": 8343,
      "пролетом": 8344,
      "Комплексы": 8345,
      "закладных": 8346,
      "крепежный": 8347,
      "фундаментной": 8348,
      "строп": 8349,
      "импор": 8350,
      "проволокой": 8351,
      "ригель": 8352,
      "всех": 8353,
      "трекинг": 8354,
      "метрополит": 8355,
      "##олитовые": 8356,
      "Наконечник": 8357,
      "Шайба": 8358,
      "Гильза": 8359,
      "СБВБбШвнг": 8360,
      "Глушитель": 8361,
      "герметизирующие": 8362,
      "устойчивая": 8363,
      "6х7х19": 8364,
      "АЗЕ": 8365,
      "ячеистых": 8366,
      "штучная": 8367,
      "Строения": 8368,
      "штамп": 8369,
      "бутыл": 8370,
      "табло": 8371,
      "машин": 8372,
      "коммутируемый": 8373,
      "кулачок": 8374,
      "неарми": 8375,
      "обойма": 8376,
      "##оотводчик": 8377,
      "Гвозди": 8378,
      "трекингу": 8379,
      "3x2x0": 8380,
      "410": 8381,
      "4х240": 8382,
      "F9": 8383,
      "UPC": 8384,
      "АПВ": 8385,
      "Гайки": 8386,
      "Дефлектор": 8387,
      "Зна": 8388,
      "Лебедки": 8389,
      "Уп": 8390,
      "ваг": 8391,
      "ду": 8392,
      "ольха": 8393,
      "сгор": 8394,
      "улуч": 8395,
      "функ": 8396,
      "##ненная": 8397,
      "##рь": 8398,
      "##вЭ": 8399,
      "##64": 8400,
      "##шения": 8401,
      "##2000": 8402,
      "##билиз": 8403,
      "##жные": 8404,
      "##ДП": 8405,
      "##ЭИД": 8406,
      "##овентиля": 8407,
      "##атная": 8408,
      "##опол": 8409,
      "##азка": 8410,
      "свай": 8411,
      "##изии": 8412,
      "наружные": 8413,
      "##x13": 8414,
      "1350": 8415,
      "150x300": 8416,
      "однозаходный": 8417,
      "##ранения": 8418,
      "##зионным": 8419,
      "ПВС": 8420,
      "трехъярусный": 8421,
      "##ленное": 8422,
      "листовое": 8423,
      "способа": 8424,
      "SN10": 8425,
      "##голов": 8426,
      "##x380": 8427,
      "37х0": 8428,
      "КВН": 8429,
      "латун": 8430,
      "ППС": 8431,
      "низкой": 8432,
      "ПвВнг": 8433,
      "УХЛ2": 8434,
      "мостам": 8435,
      "ОКГ": 8436,
      "##корпус": 8437,
      "бурильные": 8438,
      "прямоугольник": 8439,
      "навесные": 8440,
      "##невых": 8441,
      "кромкой": 8442,
      "92x496": 8443,
      "92x296": 8444,
      "92x196": 8445,
      "92x396": 8446,
      "ТСС": 8447,
      "одинарные": 8448,
      "канализационной": 8449,
      "дымовентиля": 8450,
      "МКРГП": 8451,
      "##юбинг": 8452,
      "грунтом": 8453,
      "поливинилхлоридный": 8454,
      "кирпичной": 8455,
      "устройством": 8456,
      "сквозного": 8457,
      "КУПР": 8458,
      "Поруч": 8459,
      "250х120х88": 8460,
      "двигателем": 8461,
      "пространств": 8462,
      "Стекло": 8463,
      "##рабатывания": 8464,
      "трехлучевой": 8465,
      "цепей": 8466,
      "покраской": 8467,
      "автод": 8468,
      "мастичный": 8469,
      "##иффузионным": 8470,
      "выпуклый": 8471,
      "сальниковый": 8472,
      "АЦЭИД": 8473,
      "Пластины": 8474,
      "СЦБ": 8475,
      "фальшполов": 8476,
      "ответвлений": 8477,
      "быстросъемным": 8478,
      "потайной": 8479,
      "термодиффузионным": 8480,
      "Знаки": 8481,
      "дугост": 8482,
      "сгорания": 8483,
      "5х25": 8484,
      "690": 8485,
      "F8": 8486,
      "А12": 8487,
      "Б2": 8488,
      "Дом": 8489,
      "Мпа": 8490,
      "аль": 8491,
      "апер": 8492,
      "крош": 8493,
      "рукав": 8494,
      "сф": 8495,
      "тум": 8496,
      "хол": 8497,
      "хлор": 8498,
      "##вы": 8499,
      "##йный": 8500,
      "##ские": 8501,
      "##лка": 8502,
      "##м2": 8503,
      "##Вг": 8504,
      "##асси": 8505,
      "##отов": 8506,
      "##альных": 8507,
      "10х2": 8508,
      "зап": 8509,
      "##нителем": 8510,
      "##лекты": 8511,
      "внутри": 8512,
      "##усор": 8513,
      "155": 8514,
      "14х2": 8515,
      "30x2x0": 8516,
      "70x2x2": 8517,
      "сечений": 8518,
      "опорами": 8519,
      "##х230": 8520,
      "120x2x2": 8521,
      "растворов": 8522,
      "услож": 8523,
      "прочистки": 8524,
      "цвета": 8525,
      "95x2x2": 8526,
      "гладкой": 8527,
      "##тейнер": 8528,
      "##укопоглощ": 8529,
      "сборная": 8530,
      "люком": 8531,
      "электромехани": 8532,
      "500х50": 8533,
      "пенополиуретановые": 8534,
      "удлиненным": 8535,
      "вспуч": 8536,
      "##ряды": 8537,
      "дорогах": 8538,
      "черной": 8539,
      "пластиковая": 8540,
      "торш": 8541,
      "##онагреватели": 8542,
      "звукопоглощ": 8543,
      "Ригель": 8544,
      "шайбами": 8545,
      "поглощ": 8546,
      "##x850": 8547,
      "предохранит": 8548,
      "подкоса": 8549,
      "Элементы": 8550,
      "АПвВг": 8551,
      "1000х1000": 8552,
      "ремонтных": 8553,
      "прутка": 8554,
      "14нж917ст25": 8555,
      "##гора": 8556,
      "фиксатора": 8557,
      "дизельные": 8558,
      "вещества": 8559,
      "детский": 8560,
      "трехлучевые": 8561,
      "энерго": 8562,
      "укрепляющ": 8563,
      "минеральными": 8564,
      "Колонны": 8565,
      "равнопроходная": 8566,
      "ТПВнг": 8567,
      "крыль": 8568,
      "первый": 8569,
      "поручня": 8570,
      "пассажирский": 8571,
      "Стеклопакеты": 8572,
      "обделки": 8573,
      "14нж917р34": 8574,
      "Уплот": 8575,
      "дымовентиляционных": 8576,
      "автодорож": 8577,
      "дугостойкие": 8578,
      "##лкауч": 8579,
      "усложн": 8580,
      "поглощающая": 8581,
      "2х6": 8582,
      "F25": 8583,
      "Ат": 8584,
      "Бак": 8585,
      "ИП": 8586,
      "ККП": 8587,
      "М25": 8588,
      "Маном": 8589,
      "Тр": 8590,
      "ФА": 8591,
      "ШБ": 8592,
      "гим": 8593,
      "##оэ": 8594,
      "##мыв": 8595,
      "##пен": 8596,
      "##73": 8597,
      "##72": 8598,
      "##Б2": 8599,
      "##МД": 8600,
      "##Инг": 8601,
      "##ойкий": 8602,
      "##леп": 8603,
      "##опласти": 8604,
      "##оклав": 8605,
      "##есом": 8606,
      "объ": 8607,
      "10х2х0": 8608,
      "1280": 8609,
      "полированного": 8610,
      "кабельными": 8611,
      "коррози": 8612,
      "##ечно": 8613,
      "255": 8614,
      "##осплав": 8615,
      "##истый": 8616,
      "1650": 8617,
      "горячим": 8618,
      "150x500": 8619,
      "150x400": 8620,
      "80х80": 8621,
      "##ранные": 8622,
      "повышенный": 8623,
      "##х21": 8624,
      "местного": 8625,
      "##окачеств": 8626,
      "бескорпус": 8627,
      "фланцевом": 8628,
      "линии": 8629,
      "пенополистиро": 8630,
      "крыши": 8631,
      "016": 8632,
      "##ованной": 8633,
      "анкерами": 8634,
      "теплу": 8635,
      "высококачеств": 8636,
      "19х0": 8637,
      "##аймер": 8638,
      "##огнутый": 8639,
      "плиты": 8640,
      "серая": 8641,
      "Уголки": 8642,
      "СТОП": 8643,
      "твердосплав": 8644,
      "##уклад": 8645,
      "формы": 8646,
      "воздушного": 8647,
      "гидроизоляцией": 8648,
      "кровельных": 8649,
      "КПЭТ": 8650,
      "855": 8651,
      "Прип": 8652,
      "поворотными": 8653,
      "резиновое": 8654,
      "##утавры": 8655,
      "арматурные": 8656,
      "шестигранный": 8657,
      "кранов": 8658,
      "накладная": 8659,
      "орна": 8660,
      "шумозащитная": 8661,
      "4х18": 8662,
      "терморегули": 8663,
      "нетканая": 8664,
      "двустворчатый": 8665,
      "модуля": 8666,
      "ИКБН": 8667,
      "Двутавры": 8668,
      "крутоизогнутые": 8669,
      "ИКСЛН": 8670,
      "защелки": 8671,
      "фарфоровой": 8672,
      "АБС": 8673,
      "сливной": 8674,
      "терморегулятором": 8675,
      "гальванизированной": 8676,
      "электродвигателем": 8677,
      "сектором": 8678,
      "наливные": 8679,
      "веществ": 8680,
      "укрепления": 8681,
      "второй": 8682,
      "ТППэпЗБ": 8683,
      "КПсВБГ": 8684,
      "КПсВБН": 8685,
      "вяжущем": 8686,
      "разноуров": 8687,
      "Боксы": 8688,
      "откосная": 8689,
      "бандажном": 8690,
      "гипсокартонные": 8691,
      "терморасширяющ": 8692,
      "Планка": 8693,
      "ПУСК": 8694,
      "бутилкауч": 8695,
      "импортной": 8696,
      "автодорожных": 8697,
      "Манометр": 8698,
      "##мываль": 8699,
      "бескорпусная": 8700,
      "КПЭТИнг": 8701,
      "1П": 8702,
      "4x6": 8703,
      "4x35": 8704,
      "5x2x0": 8705,
      "5х70": 8706,
      "D500": 8707,
      "В65": 8708,
      "ГП": 8709,
      "Зонт": 8710,
      "Рез": 8711,
      "ШК": 8712,
      "авар": 8713,
      "агрег": 8714,
      "бенз": 8715,
      "лив": 8716,
      "мусор": 8717,
      "ом": 8718,
      "роли": 8719,
      "хода": 8720,
      "шасси": 8721,
      "##нной": 8722,
      "##БФ": 8723,
      "##бав": 8724,
      "##АБпШп": 8725,
      "##емпер": 8726,
      "##гоны": 8727,
      "##отемпер": 8728,
      "##лац": 8729,
      "##алы": 8730,
      "##алка": 8731,
      "##сох": 8732,
      "##сос": 8733,
      "тран": 8734,
      "203": 8735,
      "##истого": 8736,
      "металлог": 8737,
      "двухлап": 8738,
      "##лителем": 8739,
      "полосы": 8740,
      "однолапковые": 8741,
      "одноцепная": 8742,
      "##рующего": 8743,
      "##х37": 8744,
      "2700": 8745,
      "178": 8746,
      "конструкция": 8747,
      "наклона": 8748,
      "оптическая": 8749,
      "горячекатаные": 8750,
      "листовым": 8751,
      "IP68": 8752,
      "термос": 8753,
      "160А": 8754,
      "герметизатором": 8755,
      "проходческие": 8756,
      "фасадные": 8757,
      "57х3": 8758,
      "состоя": 8759,
      "экранированных": 8760,
      "Огранич": 8761,
      "одностворчатый": 8762,
      "люминесцентный": 8763,
      "поворотным": 8764,
      "многослойным": 8765,
      "полипропиленовых": 8766,
      "равнополочный": 8767,
      "14нж017ст": 8768,
      "односторонним": 8769,
      "##очастот": 8770,
      "выхода": 8771,
      "стороной": 8772,
      "трансформаторов": 8773,
      "путевой": 8774,
      "хризотилцементная": 8775,
      "ААШв": 8776,
      "волнист": 8777,
      "нетканой": 8778,
      "поливинилхлоридным": 8779,
      "двустворный": 8780,
      "##енсат": 8781,
      "бессварная": 8782,
      "кирпичных": 8783,
      "КУПЭВ": 8784,
      "Поршень": 8785,
      "метра": 8786,
      "передвижных": 8787,
      "инвентарные": 8788,
      "фальцевым": 8789,
      "канализационный": 8790,
      "электродвигателя": 8791,
      "гвоздем": 8792,
      "штепсельная": 8793,
      "импульсным": 8794,
      "электроизоляционная": 8795,
      "канатная": 8796,
      "Тумбы": 8797,
      "рифленая": 8798,
      "фронтальное": 8799,
      "никели": 8800,
      "глазурованная": 8801,
      "алюмосиликатный": 8802,
      "тарель": 8803,
      "тоннелях": 8804,
      "металлочерепицы": 8805,
      "шведская": 8806,
      "апертуры": 8807,
      "гимнасти": 8808,
      "##отемперату": 8809,
      "металлогалог": 8810,
      "1м2": 8811,
      "2х35": 8812,
      "3x0": 8813,
      "4х10": 8814,
      "F12": 8815,
      "G3": 8816,
      "А15": 8817,
      "БН": 8818,
[...]
