{
  "version": "1.0",
  "truncation": null,
  "padding": null,
  "added_tokens": [
    {
      "id": 0,
      "content": "[PAD]",
      "single_word": false,
      "lstrip": false,
      "rstrip": false,
      "normalized": false,
      "special": true
    },
    {
      "id": 1,
      "content": "[UNK]",
      "single_word": false,
      "lstrip": false,
      "rstrip": false,
      "normalized": false,
      "special": true
    },
    {
      "id": 2,
      "content": "[CLS]",
      "single_word": false,
      "lstrip": false,
      "rstrip": false,
      "normalized": false,
      "special": true
    },
    {
      "id": 3,
      "content": "[SEP]",
      "single_word": false,
      "lstrip": false,
      "rstrip": false,
      "normalized": false,
      "special": true
    },
    {
      "id": 4,
      "content": "[MASK]",
      "single_word": false,
      "lstrip": false,
      "rstrip": false,
      "normalized": false,
      "special": true
    }
  ],
  "normalizer": {
    "type": "BertNormalizer",
    "clean_text": true,
    "handle_chinese_chars": true,
    "strip_accents": null,
    "lowercase": false
  },
  "pre_tokenizer": {
    "type": "BertPreTokenizer"
  },
  "post_processor": {
    "type": "TemplateProcessing",
    "single": [
      {
        "SpecialToken": {
          "id": "[CLS]",
          "type_id": 0
        }
      },
      {
        "Sequence": {
          "id": "A",
          "type_id": 0
        }
      },
      {
        "SpecialToken": {
          "id": "[SEP]",
          "type_id": 0
        }
      }
    ],
    "pair": [
      {
        "SpecialToken": {
          "id": "[CLS]",
          "type_id": 0
        }
      },
      {
        "Sequence": {
          "id": "A",
          "type_id": 0
        }
      },
      {
        "SpecialToken": {
          "id": "[SEP]",
          "type_id": 0
        }
      },
      {
        "Sequence": {
          "id": "B",
          "type_id": 1
        }
      },
      {
        "SpecialToken": {
          "id": "[SEP]",
          "type_id": 1
        }
      }
    ],
    "special_tokens": {
      "[CLS]": {
        "id": "[CLS]",
        "ids": [
          2
        ],
        "tokens": [
          "[CLS]"
        ]
      },
      "[SEP]": {
        "id": "[SEP]",
        "ids": [
          3
        ],
        "tokens": [
          "[SEP]"
        ]
      }
    }
  },
  "decoder": {
    "type": "WordPiece",
    "prefix": "##",
    "cleanup": true
  },
  "model": {
    "type": "WordPiece",
    "unk_token": "[UNK]",
    "continuing_subword_prefix": "##",
    "max_input_chars_per_word": 100,
    "vocab": {
      "[PAD]": 0,
      "[UNK]": 1,
      "[CLS]": 2,
      "[SEP]": 3,
      "[MASK]": 4,
      "!": 5,
      "\"": 6,
      "%": 7,
      "'": 8,
      "(": 9,
      ")": 10,
      "*": 11,
      "+": 12,
      ",": 13,
      "-": 14,
      ".": 15,
      "/": 16,
      "0": 17,
      "1": 18,
      "2": 19,
      "3": 20,
      "4": 21,
      "5": 22,
      "6": 23,
      "7": 24,
      "8": 25,
      "9": 26,
      ":": 27,
      ";": 28,
      "<": 29,
      "=": 30,
      "A": 31,
      "B": 32,
      "C": 33,
      "D": 34,
      "E": 35,
      "F": 36,
      "G": 37,
      "H": 38,
      "I": 39,
      "J": 40,
      "K": 41,
      "L": 42,
      "M": 43,
      "N": 44,
      "O": 45,
      "P": 46,
      "Q": 47,
      "R": 48,
      "S": 49,
      "T": 50,
      "U": 51,
      "V": 52,
      "W": 53,
      "X": 54,
      "Y": 55,
      "Z": 56,
      "\\": 57,
      "a": 58,
      "b": 59,
      "c": 60,
      "d": 61,
      "e": 62,
      "g": 63,
      "h": 64,
      "i": 65,
      "k": 66,
      "l": 67,
      "m": 68,
      "n": 69,
      "o": 70,
      "p": 71,
      "q": 72,
      "r": 73,
      "s": 74,
      "t": 75,
      "u": 76,
      "v": 77,
      "w": 78,
      "x": 79,
      "y": 80,
      "z": 81,
      "«": 82,
      "°": 83,
      "±": 84,
      "³": 85,
      "·": 86,
      "»": 87,
      "×": 88,
      "˚": 89,
      "·": 90,
      "А": 91,
      "Б": 92,
      "В": 93,
      "Г": 94,
      "Д": 95,
      "Е": 96,
      "Ж": 97,
      "З": 98,
      "И": 99,
      "Й": 100,
      "К": 101,
      "Л": 102,
      "М": 103,
      "Н": 104,
      "О": 105,
      "П": 106,
      "Р": 107,
      "С": 108,
      "Т": 109,
      "У": 110,
      "Ф": 111,
      "Х": 112,
      "Ц": 113,
      "Ч": 114,
      "Ш": 115,
      "Щ": 116,
      "Ы": 117,
      "Ь": 118,
      "Э": 119,
      "Ю": 120,
      "Я": 121,
      "а": 122,
      "б": 123,
      "в": 124,
      "г": 125,
      "д": 126,
      "е": 127,
      "ж": 128,
      "з": 129,
      "и": 130,
      "й": 131,
      "к": 132,
      "л": 133,
      "м": 134,
      "н": 135,
      "о": 136,
      "п": 137,
      "р": 138,
      "с": 139,
      "т": 140,
      "у": 141,
      "ф": 142,
      "х": 143,
      "ц": 144,
      "ч": 145,
      "ш": 146,
      "щ": 147,
      "ъ": 148,
      "ы": 149,
      "ь": 150,
      "э": 151,
      "ю": 152,
      "я": 153,
      "ё": 154,
      "–": 155,
      "№": 156,
      "∙": 157,
      "√": 158,
      "##е": 159,
      "##г": 160,
      "##у": 161,
      "##л": 162,
      "##и": 163,
      "##р": 164,
      "##о": 165,
      "##в": 166,
      "##к": 167,
      "##0": 168,
      "##ф": 169,
      "##э": 170,
      "##м": 171,
      "##5": 172,
      "##x": 173,
      "##4": 174,
      "##2": 175,
      "##х": 176,
      "##б": 177,
      "##а": 178,
      "##д": 179,
      "##ю": 180,
      "##щ": 181,
      "##й": 182,
      "##6": 183,
      "##Б": 184,
      "##С": 185,
      "##М": 186,
      "##8": 187,
      "##9": 188,
      "##н": 189,
      "##з": 190,
      "##ы": 191,
      "##ь": 192,
      "##т": 193,
      "##3": 194,
      "##с": 195,
      "##ж": 196,
      "##П": 197,
      "##Р": 198,
      "##1": 199,
      "##7": 200,
      "##п": 201,
      "##ъ": 202,
      "##А": 203,
      "##ц": 204,
      "##я": 205,
      "##I": 206,
      "##P": 207,
      "##К": 208,
      "##ч": 209,
      "##ш": 210,
      "##В": 211,
      "##Г": 212,
      "##У": 213,
      "##Н": 214,
      "##H": 215,
      "##Ц": 216,
      "##З": 217,
      "##D": 218,
      "##S": 219,
      "##Ч": 220,
      "##Х": 221,
      "##Л": 222,
      "##Т": 223,
      "##A": 224,
      "##V": 225,
      "##Ф": 226,
      "##Э": 227,
      "##M": 228,
      "##Ш": 229,
      "##Д": 230,
      "##О": 231,
      "##B": 232,
      "##И": 233,
      "##°": 234,
      "##T": 235,
      "##F": 236,
      "##J": 237,
      "##Ж": 238,
      "##ё": 239,
      "##×": 240,
      "##Е": 241,
      "##C": 242,
      "##p": 243,
      "##c": 244,
      "##E": 245,
      "##N": 246,
      "##Ь": 247,
      "##±": 248,
      "##l": 249,
      "##G": 250,
      "##e": 251,
      "##s": 252,
      "##i": 253,
      "##r": 254,
      "##o": 255,
      "##Я": 256,
      "##R": 257,
      "##U": 258,
      "##L": 259,
      "##˚": 260,
      "##K": 261,
      "##X": 262,
      "##W": 263,
      "##Ы": 264,
      "##Щ": 265,
      "##O": 266,
      "##Й": 267,
      "##v": 268,
      "##Ю": 269,
      "##Q": 270,
      "##n": 271,
      "##q": 272,
      "##Y": 273,
      "##w": 274,
      "##g": 275,
      "##y": 276,
      "##a": 277,
      "##u": 278,
      "##t": 279,
      "##№": 280,
      "##h": 281,
      "##d": 282,
      "##Z": 283,
      "##b": 284,
      "##k": 285,
      "##³": 286,
      "##∙": 287,
      "##ны": 288,
      "##но": 289,
      "##на": 290,
      "##ов": 291,
      "##ст": 292,
      "##ль": 293,
      "мм": 294,
      "##ни": 295,
      "##ер": 296,
      "##ет": 297,
      "##ол": 298,
      "##00": 299,
      "##ный": 300,
      "##ор": 301,
      "##ам": 302,
      "##та": 303,
      "##ой": 304,
      "##ли": 305,
      "##ом": 306,
      "##он": 307,
      "##од": 308,
      "##ле": 309,
      "##ас": 310,
      "##ная": 311,
      "##ен": 312,
      "##ки": 313,
      "##ной": 314,
      "##ру": 315,
      "##ан": 316,
      "##ина": 317,
      "##ка": 318,
      "ди": 319,
      "##ные": 320,
      "##етр": 321,
      "##ля": 322,
      "##аметр": 323,
      "диаметр": 324,
      "на": 325,
      "##ние": 326,
      "из": 327,
      "##ат": 328,
      "##оп": 329,
      "##ель": 330,
      "##сти": 331,
      "##аз": 332,
      "##ар": 333,
      "ста": 334,
      "пр": 335,
      "для": 336,
      "##че": 337,
      "##ок": 338,
      "##аб": 339,
      "##го": 340,
      "##ци": 341,
      "##ем": 342,
      "##ез": 343,
      "##ров": 344,
      "тол": 345,
      "толщ": 346,
      "##мер": 347,
      "##ра": 348,
      "##не": 349,
      "##ми": 350,
      "##ния": 351,
      "##асс": 352,
      "ст": 353,
      "толщина": 354,
      "##от": 355,
      "##ла": 356,
      "раз": 357,
      "##ных": 358,
      "кл": 359,
      "##ей": 360,
      "класс": 361,
      "##ры": 362,
      "без": 363,
      "##ит": 364,
      "##ост": 365,
      "размер": 366,
      "##нов": 367,
      "##ков": 368,
      "##ед": 369,
      "##оч": 370,
      "##ав": 371,
      "##абель": 372,
      "##тр": 373,
      "##оли": 374,
      "##ти": 375,
      "##об": 376,
      "##ного": 377,
      "##руб": 378,
      "##50": 379,
      "##еп": 380,
      "##ности": 381,
      "##ая": 382,
      "си": 383,
      "ном": 384,
      "##ност": 385,
      "##иналь": 386,
      "номиналь": 387,
      "##ным": 388,
      "##чес": 389,
      "##ло": 390,
      "##лов": 391,
      "безоп": 392,
      "##асности": 393,
      "##ко": 394,
      "100": 395,
      "сталь": 396,
      "безопасности": 397,
      "##ющ": 398,
      "##пор": 399,
      "об": 400,
      "##ность": 401,
      "стали": 402,
      "от": 403,
      "##рован": 404,
      "##ив": 405,
      "##ес": 406,
      "вы": 407,
      "##аль": 408,
      "##ек": 409,
      "##ал": 410,
      "##ное": 411,
      "##ление": 412,
      "##ро": 413,
      "##еле": 414,
      "10": 415,
      "##ев": 416,
      "##остой": 417,
      "поли": 418,
      "##овы": 419,
      "##ин": 420,
      "##руж": 421,
      "св": 422,
      "12": 423,
      "##ход": 424,
      "до": 425,
      "##етон": 426,
      "##из": 427,
      "##ний": 428,
      "##ами": 429,
      "##мостой": 430,
      "кг": 431,
      "##Па": 432,
      "кон": 433,
      "за": 434,
      "МПа": 435,
      "наруж": 436,
      "##ух": 437,
      "##ну": 438,
      "дав": 439,
      "теп": 440,
      "##со": 441,
      "Кабель": 442,
      "##ком": 443,
      "номинальный": 444,
      "со": 445,
      "##лю": 446,
      "размеры": 447,
      "давление": 448,
      "##чески": 449,
      "##ату": 450,
      "под": 451,
      "дв": 452,
      "##де": 453,
      "мар": 454,
      "##нков": 455,
      "##цинков": 456,
      "##00х": 457,
      "##цинкован": 458,
      "##ейс": 459,
      "##нит": 460,
      "##ож": 461,
      "дли": 462,
      "сейс": 463,
      "сейсмостой": 464,
      "##лек": 465,
      "кабель": 466,
      "м3": 467,
      "труб": 468,
      "##ад": 469,
      "ос": 470,
      "##нутр": 471,
      "##им": 472,
      "внутр": 473,
      "##кой": 474,
      "##ег": 475,
      "тр": 476,
      "внутрен": 477,
      "##оля": 478,
      "длина": 479,
      "##ип": 480,
      "##пол": 481,
      "##же": 482,
      "##нд": 483,
      "##еди": 484,
      "##фи": 485,
      "##онный": 486,
      "##оль": 487,
      "кор": 488,
      "##ент": 489,
      "50": 490,
      "##10": 491,
      "##20": 492,
      "стен": 493,
      "##ый": 494,
      "##шен": 495,
      "##ерж": 496,
      "##ными": 497,
      "##рыти": 498,
      "пер": 499,
      "гор": 500,
      "##кости": 501,
      "##ирован": 502,
      "##оляци": 503,
      "основ": 504,
      "##ровод": 505,
      "оцинкован": 506,
      "##ые": 507,
      "##лой": 508,
      "тип": 509,
      "рас": 510,
      "°C": 511,
      "##ус": 512,
      "стенки": 513,
      "25": 514,
      "##нение": 515,
      "##ест": 516,
      "Труб": 517,
      "##ос": 518,
      "20": 519,
      "##етал": 520,
      "##оз": 521,
      "##пр": 522,
      "не": 523,
      "##ил": 524,
      "ис": 525,
      "##ловой": 526,
      "пок": 527,
      "од": 528,
      "##ист": 529,
      "##цев": 530,
      "метал": 531,
      "алю": 532,
      "про": 533,
      "40": 534,
      "##итель": 535,
      "покрыти": 536,
      "алюми": 537,
      "15": 538,
      "16": 539,
      "##ления": 540,
      "испол": 541,
      "##опровод": 542,
      "##х1": 543,
      "##порный": 544,
      "##лот": 545,
      "##ети": 546,
      "##ым": 547,
      "ши": 548,
      "##ниев": 549,
      "##лит": 550,
      "00": 551,
      "наружный": 552,
      "жил": 553,
      "алюминиев": 554,
      "##уч": 555,
      "##аве": 556,
      "номинальное": 557,
      "при": 558,
      "##рав": 559,
      "##ак": 560,
      "##лад": 561,
      "##нг": 562,
      "мин": 563,
      "##лап": 564,
      "высо": 565,
      "бетон": 566,
      "##000": 567,
      "##ори": 568,
      "зам": 569,
      "высота": 570,
      "ок": 571,
      "1000": 572,
      "стек": 573,
      "##вод": 574,
      "##ого": 575,
      "##елез": 576,
      "желез": 577,
      "кр": 578,
      "##анов": 579,
      "Ст": 580,
      "нерж": 581,
      "##авеющ": 582,
      "нержавеющ": 583,
      "##итный": 584,
      "##или": 585,
      "##альной": 586,
      "кВ": 587,
      "##абар": 588,
      "14": 589,
      "плот": 590,
      "##егори": 591,
      "##80": 592,
      "##обетон": 593,
      "##абаритный": 594,
      "##ств": 595,
      "Клап": 596,
      "##кая": 597,
      "##уф": 598,
      "сейсмостойкости": 599,
      "##яже": 600,
      "внутренний": 601,
      "##вер": 602,
      "##ее": 603,
      "Клапан": 604,
      "замком": 605,
      "##егория": 606,
      "##ерм": 607,
      "двух": 608,
      "уг": 609,
      "##тор": 610,
      "плотность": 611,
      "железобетон": 612,
      "##пер": 613,
      "тепло": 614,
      "Трубы": 615,
      "##лектр": 616,
      "##ном": 617,
      "уст": 618,
      "ог": 619,
      "кат": 620,
      "##очная": 621,
      "##вет": 622,
      "габаритный": 623,
      "##лан": 624,
      "исполнение": 625,
      "см": 626,
      "тем": 627,
      "##перату": 628,
      "минер": 629,
      "##ения": 630,
      "##фонный": 631,
      "Пли": 632,
      "температу": 633,
      "##ъем": 634,
      "силовой": 635,
      "##ник": 636,
      "основе": 637,
      "ар": 638,
      "500": 639,
      "##x1": 640,
      "##аты": 641,
      "Плита": 642,
      "##нием": 643,
      "##орож": 644,
      "сп": 645,
      "категория": 646,
      "жилами": 647,
      "электр": 648,
      "ка": 649,
      "руч": 650,
      "мед": 651,
      "##рашен": 652,
      "##ое": 653,
      "##илинд": 654,
      "##ви": 655,
      "соеди": 656,
      "пов": 657,
      "##лок": 658,
      "90": 659,
      "##прав": 660,
      "стальные": 661,
      "##ых": 662,
      "##ческий": 663,
      "##ери": 664,
      "##ноп": 665,
      "пор": 666,
      "##лоп": 667,
      "полиэ": 668,
      "##ех": 669,
      "##цов": 670,
      "пло": 671,
      "##так": 672,
      "##ям": 673,
      "30": 674,
      "ком": 675,
      "прям": 676,
      "##лер": 677,
      "13": 678,
      "огне": 679,
      "нержавеющей": 680,
      "##x2": 681,
      "ги": 682,
      "покрытием": 683,
      "##па": 684,
      "##льный": 685,
      "##60": 686,
      "полимер": 687,
      "м2": 688,
      "##яче": 689,
      "установ": 690,
      "ваты": 691,
      "##лем": 692,
      "обли": 693,
      "облицов": 694,
      "Кор": 695,
      "##изоляци": 696,
      "150": 697,
      "слой": 698,
      "##ур": 699,
      "марка": 700,
      "##тов": 701,
      "##нения": 702,
      "##онные": 703,
      "напр": 704,
      "запорный": 705,
      "горяче": 706,
      "##си": 707,
      "##уг": 708,
      "шир": 709,
      "силь": 710,
      "гра": 711,
      "45": 712,
      "##ания": 713,
      "##она": 714,
      "##аст": 715,
      "400": 716,
      "##ече": 717,
      "сильфонный": 718,
      "##нитель": 719,
      "марки": 720,
      "минеральной": 721,
      "200": 722,
      "##ел": 723,
      "Вт": 724,
      "стальной": 725,
      "##ость": 726,
      "напряже": 727,
      "##мату": 728,
      "250": 729,
      "стеклоп": 730,
      "##руп": 731,
      "##25": 732,
      "##ции": 733,
      "##озд": 734,
      "##кий": 735,
      "расход": 736,
      "Короб": 737,
      "свар": 738,
      "баз": 739,
      "объем": 740,
      "##иной": 741,
      "##онта": 742,
      "##600": 743,
      "##фор": 744,
      "70": 745,
      "11": 746,
      "рез": 747,
      "армату": 748,
      "установки": 749,
      "пол": 750,
      "80": 751,
      "одно": 752,
      "диаметром": 753,
      "Блок": 754,
      "##ласти": 755,
      "##кое": 756,
      "##кость": 757,
      "##овой": 758,
      "##еход": 759,
      "вне": 760,
      "вод": 761,
      "##ран": 762,
      "##30": 763,
      "трубопровод": 764,
      "огнеу": 765,
      "Муф": 766,
      "##рыш": 767,
      "##пус": 768,
      "60": 769,
      "окрашен": 770,
      "##40": 771,
      "##атери": 772,
      "по": 773,
      "флан": 774,
      "##ча": 775,
      "##зи": 776,
      "ширина": 777,
      "раб": 778,
      "управ": 779,
      "Стой": 780,
      "сече": 781,
      "ручной": 782,
      "##дение": 783,
      "возд": 784,
      "облицовочная": 785,
      "толщиной": 786,
      "##тиле": 787,
      "##рующ": 788,
      "##еля": 789,
      "##олок": 790,
      "##рой": 791,
      "##слой": 792,
      "##клю": 793,
      "##ней": 794,
      "металли": 795,
      "арматуры": 796,
      "##кат": 797,
      "ПВ": 798,
      "опор": 799,
      "повы": 800,
      "полиэтиле": 801,
      "Св": 802,
      "Стойка": 803,
      "32": 804,
      "повышен": 805,
      "мо": 806,
      "корпус": 807,
      "ков": 808,
      "оцинкованной": 809,
      "##уш": 810,
      "теплоизоляци": 811,
      "медными": 812,
      "##ированные": 813,
      "##ати": 814,
      "напряжение": 815,
      "##щад": 816,
      "ко": 817,
      "##еб": 818,
      "##ВГ": 819,
      "##овых": 820,
      "##соеди": 821,
      "пров": 822,
      "площад": 823,
      "присоеди": 824,
      "##х2": 825,
      "##70": 826,
      "пород": 827,
      "лот": 828,
      "##нт": 829,
      "герм": 830,
      "бол": 831,
      "мест": 832,
      "##виж": 833,
      "300х": 834,
      "##атор": 835,
      "комп": 836,
      "##ностью": 837,
      "##ающ": 838,
      "##жим": 839,
      "##рез": 840,
      "##лив": 841,
      "отвер": 842,
      "базаль": 843,
      "металла": 844,
      "##овый": 845,
      "##чат": 846,
      "##ред": 847,
      "гранит": 848,
      "Цилинд": 849,
      "Цилиндры": 850,
      "##вор": 851,
      "температура": 852,
      "ли": 853,
      "профи": 854,
      "отверсти": 855,
      "##ул": 856,
      "##елем": 857,
      "##лом": 858,
      "##кер": 859,
      "##очных": 860,
      "мощ": 861,
      "теплов": 862,
      "месторож": 863,
      "##ним": 864,
      "месторождение": 865,
      "110": 866,
      "##ция": 867,
      "##еси": 868,
      "теплоизоляционные": 869,
      "300": 870,
      "Из": 871,
      "кли": 872,
      "матери": 873,
      "##щит": 874,
      "площадь": 875,
      "##ота": 876,
      "КЗ": 877,
      "пе": 878,
      "##стру": 879,
      "оп": 880,
      "мощность": 881,
      "каб": 882,
      "изоляци": 883,
      "КЗС": 884,
      "##шов": 885,
      "сред": 886,
      "кгс": 887,
      "##ированная": 888,
      "фланцев": 889,
      "##18": 890,
      "##аг": 891,
      "Муфта": 892,
      "##ис": 893,
      "бес": 894,
      "##ладки": 895,
      "35": 896,
      "##опр": 897,
      "стой": 898,
      "##ока": 899,
      "03": 900,
      "сам": 901,
      "##ше": 902,
      "прив": 903,
      "см2": 904,
      "##ели": 905,
      "короб": 906,
      "120": 907,
      "##очный": 908,
      "железобетонная": 909,
      "##х3": 910,
      "стальная": 911,
      "гранитная": 912,
      "##нкер": 913,
      "##шированные": 914,
      "более": 915,
      "контр": 916,
      "переход": 917,
      "##ся": 918,
      "##ик": 919,
      "ток": 920,
      "##вар": 921,
      "контак": 922,
      "типа": 923,
      "волок": 924,
      "вер": 925,
      "соединитель": 926,
      "груп": 927,
      "##ьб": 928,
      "##ум": 929,
      "резьб": 930,
      "ус": 931,
      "свя": 932,
      "##нополи": 933,
      "проч": 934,
      "##ками": 935,
      "##90": 936,
      "зат": 937,
      "кол": 938,
      "##гна": 939,
      "##оче": 940,
      "сигна": 941,
      "##ыми": 942,
      "ни": 943,
      "креп": 944,
      "пенополи": 945,
      "раст": 946,
      "От": 947,
      "##ерных": 948,
      "бет": 949,
      "отверстия": 950,
      "выс": 951,
      "LS": 952,
      "Про": 953,
      "##цион": 954,
      "защит": 955,
      "##струк": 956,
      "мм2": 957,
      "тер": 958,
      "##ут": 959,
      "##300": 960,
      "18": 961,
      "контакт": 962,
      "27": 963,
      "цвет": 964,
      "##амер": 965,
      "##изонта": 966,
      "горизонта": 967,
      "##рующим": 968,
      "##15": 969,
      "повышенной": 970,
      "##еч": 971,
      "пан": 972,
      "##руг": 973,
      "##ластиков": 974,
      "##емент": 975,
      "полиэтиленов": 976,
      "ск": 977,
      "##ади": 978,
      "шар": 979,
      "крыш": 980,
      "##арк": 981,
      "##ца": 982,
      "##кого": 983,
      "термостой": 984,
      "Кон": 985,
      "тепловым": 986,
      "##нич": 987,
      "трех": 988,
      "рабоче": 989,
      "##ключе": 990,
      "бетона": 991,
      "95": 992,
      "внеш": 993,
      "См": 994,
      "кабельный": 995,
      "##оток": 996,
      "повор": 997,
      "синт": 998,
      "синтети": 999,
      "##угу": 1000,
      "ковш": 1001,
      "##иле": 1002,
      "чугу": 1003,
      "##Х18": 1004,
      "##Х18Н": 1005,
      "##вес": 1006,
      "##ентр": 1007,
      "синтетичес": 1008,
      "##лект": 1009,
      "вырез": 1010,
      "##17": 1011,
      "##да": 1012,
      "##порные": 1013,
      "##акет": 1014,
      "воздух": 1015,
      "затвор": 1016,
      "##Х18Н10": 1017,
      "ковшей": 1018,
      "прок": 1019,
      "##стем": 1020,
      "систем": 1021,
      "##лен": 1022,
      "##ливочных": 1023,
      "кабельная": 1024,
      "##азливочных": 1025,
      "сталер": 1026,
      "сталеразливочных": 1027,
      "75": 1028,
      "##ВГнг": 1029,
      "##сирующим": 1030,
      "01": 1031,
      "##гр": 1032,
      "шиб": 1033,
      "##лемм": 1034,
      "затворов": 1035,
      "17": 1036,
      "##ветв": 1037,
      "шиберных": 1038,
      "600": 1039,
      "##фик": 1040,
      "само": 1041,
      "управления": 1042,
      "##камер": 1043,
      "##иль": 1044,
      "##сирующимся": 1045,
      "##фиксирующимся": 1046,
      "самофиксирующимся": 1047,
      "##рози": 1048,
      "кВт": 1049,
      "##ольг": 1050,
      "##рованная": 1051,
      "##100": 1052,
      "фольг": 1053,
      "##ещ": 1054,
      "стеклопакет": 1055,
      "##шовные": 1056,
      "гид": 1057,
      "##ходной": 1058,
      "##ень": 1059,
      "подключе": 1060,
      "Отвод": 1061,
      "##ческие": 1062,
      "ПВХ": 1063,
      "нак": 1064,
      "##унд": 1065,
      "##Х18Н10Т": 1066,
      "эк": 1067,
      "опти": 1068,
      "##ство": 1069,
      "##товых": 1070,
      "##500": 1071,
      "соединительная": 1072,
      "24": 1073,
      "IP": 1074,
      "##ожар": 1075,
      "гиб": 1076,
      "огнеупорный": 1077,
      "##ующ": 1078,
      "материал": 1079,
      "обр": 1080,
      "внешний": 1081,
      "линий": 1082,
      "связ": 1083,
      "##особ": 1084,
      "##енти": 1085,
      "##оцинкован": 1086,
      "Смеси": 1087,
      "##елей": 1088,
      "терм": 1089,
      "##розион": 1090,
      "##цевая": 1091,
      "группа": 1092,
      "фольгой": 1093,
      "контроль": 1094,
      "##рус": 1095,
      "II": 1096,
      "шп": 1097,
      "##есс": 1098,
      "##енным": 1099,
      "полимерная": 1100,
      "профиля": 1101,
      "базальтовых": 1102,
      "##ентри": 1103,
      "алюминиевой": 1104,
      "Трой": 1105,
      "способ": 1106,
      "кана": 1107,
      "##рованные": 1108,
      "##СТ": 1109,
      "##рыт": 1110,
      "72": 1111,
      "##яж": 1112,
      "660": 1113,
      "мул": 1114,
      "муллит": 1115,
      "тепл": 1116,
      "##урет": 1117,
      "##ожух": 1118,
      "шт": 1119,
      "связующ": 1120,
      "конструк": 1121,
      "кожух": 1122,
      "##ие": 1123,
      "лист": 1124,
      "##лением": 1125,
      "##ассы": 1126,
      "##асти": 1127,
      "##ва": 1128,
      "90°": 1129,
      "Коробка": 1130,
      "кашированные": 1131,
      "##стой": 1132,
      "трубопроводов": 1133,
      "трассы": 1134,
      "связующем": 1135,
      "фас": 1136,
      "Стак": 1137,
      "Стакан": 1138,
      "синтетическом": 1139,
      "анкер": 1140,
      "##ана": 1141,
      "круг": 1142,
      "##уль": 1143,
      "класса": 1144,
      "##ческое": 1145,
      "##ня": 1146,
      "220": 1147,
      "прокладки": 1148,
      "##нии": 1149,
      "высок": 1150,
      "SN": 1151,
      "горизонталь": 1152,
      "##анс": 1153,
      "глад": 1154,
      "##ян": 1155,
      "цемент": 1156,
      "цилинд": 1157,
      "##еш": 1158,
      "кН": 1159,
      "стеклопакетом": 1160,
      "оптический": 1161,
      "стро": 1162,
      "крас": 1163,
      "опоры": 1164,
      "горячеоцинкован": 1165,
      "вст": 1166,
      "сейсмостойкая": 1167,
      "##лектор": 1168,
      "##камерным": 1169,
      "стеклопластиков": 1170,
      "среды": 1171,
      "##ий": 1172,
      "##65": 1173,
      "покрытия": 1174,
      "##ковым": 1175,
      "##кие": 1176,
      "##ката": 1177,
      "муф": 1178,
      "классу": 1179,
      "##лерод": 1180,
      "Пер": 1181,
      "коррозион": 1182,
      "##ивной": 1183,
      "комплект": 1184,
      "##етич": 1185,
      "коли": 1186,
      "количе": 1187,
      "##ид": 1188,
      "##х4": 1189,
      "22": 1190,
      "##иб": 1191,
      "##етка": 1192,
      "##слойная": 1193,
      "##том": 1194,
      "##дели": 1195,
      "##ован": 1196,
      "количество": 1197,
      "08": 1198,
      "##леродист": 1199,
      "теплопровод": 1200,
      "мен": 1201,
      "менее": 1202,
      "##мати": 1203,
      "##сп": 1204,
      "теплопроводность": 1205,
      "герметич": 1206,
      "##еж": 1207,
      "трубы": 1208,
      "##ации": 1209,
      "оцинкованная": 1210,
      "##жения": 1211,
      "19": 1212,
      "пар": 1213,
      "##очного": 1214,
      "Труба": 1215,
      "400х": 1216,
      "пред": 1217,
      "вин": 1218,
      "##ское": 1219,
      "##крыт": 1220,
      "##х0": 1221,
      "коллектор": 1222,
      "клемм": 1223,
      "центри": 1224,
      "услов": 1225,
      "климати": 1226,
      "термостойкость": 1227,
      "02": 1228,
      "климатическое": 1229,
      "кабельной": 1230,
      "##нж": 1231,
      "##фуг": 1232,
      "центрифуг": 1233,
      "##тика": 1234,
      "вертика": 1235,
      "подключением": 1236,
      "зажим": 1237,
      "наружным": 1238,
      "кабельных": 1239,
      "##енного": 1240,
      "углеродист": 1241,
      "##ветвитель": 1242,
      "##уб": 1243,
      "##ческим": 1244,
      "##егу": 1245,
      "##раж": 1246,
      "свет": 1247,
      "Кран": 1248,
      "алюминиевыми": 1249,
      "центрифугированная": 1250,
      "присоединение": 1251,
      "##ентиля": 1252,
      "76": 1253,
      "21": 1254,
      "##етиль": 1255,
      "внутренней": 1256,
      "прямой": 1257,
      "корпуса": 1258,
      "##ог": 1259,
      "муллиток": 1260,
      "##оны": 1261,
      "##ования": 1262,
      "кабеля": 1263,
      "##ивающ": 1264,
      "##овые": 1265,
      "##локи": 1266,
      "конич": 1267,
      "коничностью": 1268,
      "##руз": 1269,
      "железобетонные": 1270,
      "рабочее": 1271,
      "экра": 1272,
      "соединения": 1273,
      "##ита": 1274,
      "пес": 1275,
      "##етиз": 1276,
      "##азный": 1277,
      "##ерев": 1278,
      "поворота": 1279,
      "ав": 1280,
      "корпусом": 1281,
      "провол": 1282,
      "гладкая": 1283,
      "##x0": 1284,
      "##400": 1285,
      "##овая": 1286,
      "Тройник": 1287,
      "горячеката": 1288,
      "##орон": 1289,
      "Свая": 1290,
      "##бор": 1291,
      "пожар": 1292,
      "##ец": 1293,
      "##яг": 1294,
      "изоляции": 1295,
      "окрашенный": 1296,
      "##усти": 1297,
      "двой": 1298,
      "герметичной": 1299,
      "##сим": 1300,
      "Кр": 1301,
      "##аркас": 1302,
      "строитель": 1303,
      "дорож": 1304,
      "шаровой": 1305,
      "волокон": 1306,
      "##ты": 1307,
      "FR": 1308,
      "МК": 1309,
      "основа": 1310,
      "нержавеющая": 1311,
      "плос": 1312,
      "лотков": 1313,
      "HF": 1314,
      "силов": 1315,
      "Светиль": 1316,
      "##ир": 1317,
      "красный": 1318,
      "##олод": 1319,
      "мак": 1320,
      "максим": 1321,
      "SD": 1322,
      "##фици": 1323,
      "##ай": 1324,
      "##ческая": 1325,
      "сейсмостойкий": 1326,
      "отоп": 1327,
      "каркас": 1328,
      "окрашенная": 1329,
      "##обр": 1330,
      "65": 1331,
      "Уг": 1332,
      "##аем": 1333,
      "##нная": 1334,
      "##ола": 1335,
      "##енных": 1336,
      "др": 1337,
      "бесшовные": 1338,
      "##оки": 1339,
      "##ческих": 1340,
      "##очные": 1341,
      "°С": 1342,
      "ниж": 1343,
      "160": 1344,
      "присоединения": 1345,
      "##рованный": 1346,
      "газ": 1347,
      "фланцевое": 1348,
      "панель": 1349,
      "##рут": 1350,
      "провод": 1351,
      "угловой": 1352,
      "##лемент": 1353,
      "##ному": 1354,
      "проволоки": 1355,
      "##одуль": 1356,
      "##лав": 1357,
      "лотка": 1358,
      "ВВГнг": 1359,
      "##упа": 1360,
      "##литель": 1361,
      "##нопро": 1362,
      "##ыше": 1363,
      "свыше": 1364,
      "уд": 1365,
      "двер": 1366,
      "сигнальный": 1367,
      "автом": 1368,
      "##чет": 1369,
      "##делия": 1370,
      "##ах": 1371,
      "герметиз": 1372,
      "Лоток": 1373,
      "зоны": 1374,
      "Прокат": 1375,
      "дост": 1376,
      "доступа": 1377,
      "41": 1378,
      "резьбой": 1379,
      "##нос": 1380,
      "##лей": 1381,
      "плит": 1382,
      "##енный": 1383,
      "##мированные": 1384,
      "пенополиурет": 1385,
      "сечение": 1386,
      "##орм": 1387,
      "##опиле": 1388,
      "45°": 1389,
      "##ковая": 1390,
      "##96": 1391,
      "##орт": 1392,
      "площадью": 1393,
      "##обод": 1394,
      "свобод": 1395,
      "##движ": 1396,
      "##пропиле": 1397,
      "марок": 1398,
      "##ства": 1399,
      "наружного": 1400,
      "трубопроводу": 1401,
      "полипропиле": 1402,
      "наг": 1403,
      "вырезному": 1404,
      "цилиндру": 1405,
      "Изделия": 1406,
      "108": 1407,
      "SDR": 1408,
      "##новая": 1409,
      "общ": 1410,
      "Светильник": 1411,
      "Опор": 1412,
      "песча": 1413,
      "##ций": 1414,
      "##амп": 1415,
      "##ерх": 1416,
      "бетонные": 1417,
      "##адиатор": 1418,
      "Отводы": 1419,
      "##ап": 1420,
      "##олоч": 1421,
      "##онная": 1422,
      "вентиля": 1423,
      "нагруз": 1424,
      "036": 1425,
      "##овым": 1426,
      "концевая": 1427,
      "##ке": 1428,
      "оцинкованный": 1429,
      "прочность": 1430,
      "тока": 1431,
      "##альная": 1432,
      "винтов": 1433,
      "Крыш": 1434,
      "800": 1435,
      "##ечни": 1436,
      "Г1": 1437,
      "сер": 1438,
      "##x3": 1439,
      "изоляцией": 1440,
      "##±5": 1441,
      "##арт": 1442,
      "25±5": 1443,
      "электрос": 1444,
      "комплекте": 1445,
      "поверх": 1446,
      "##весной": 1447,
      "электросвар": 1448,
      "Крышка": 1449,
      "##дефор": 1450,
      "300х300": 1451,
      "бал": 1452,
      "горячекатаный": 1453,
      "Плит": 1454,
      "##ообр": 1455,
      "##ыр": 1456,
      "холод": 1457,
      "станд": 1458,
      "##егули": 1459,
      "##лого": 1460,
      "углеродистой": 1461,
      "125": 1462,
      "2000": 1463,
      "08Х18Н10Т": 1464,
      "##нопроходной": 1465,
      "внутренним": 1466,
      "углом": 1467,
      "фасад": 1468,
      "##ани": 1469,
      "##ард": 1470,
      "##онтаж": 1471,
      "##деформированные": 1472,
      "неок": 1473,
      "стандарт": 1474,
      "бок": 1475,
      "##омп": 1476,
      "##кан": 1477,
      "63": 1478,
      "изоли": 1479,
      "Радиатор": 1480,
      "##ектор": 1481,
      "перек": 1482,
      "неокрашен": 1483,
      "монтаж": 1484,
      "чис": 1485,
      "проход": 1486,
      "основной": 1487,
      "открыт": 1488,
      "зажимов": 1489,
      "свободного": 1490,
      "неокрашенный": 1491,
      "88": 1492,
      "крепления": 1493,
      "регули": 1494,
      "ПЭ": 1495,
      "Угол": 1496,
      "оболоч": 1497,
      "14нж": 1498,
      "цементно": 1499,
      "прямо": 1500,
      "##рос": 1501,
      "коль": 1502,
      "##лу": 1503,
      "круп": 1504,
      "масс": 1505,
      "##екция": 1506,
      "раструб": 1507,
      "сечения": 1508,
      "ввод": 1509,
      "сло": 1510,
      "прим": 1511,
      "##ости": 1512,
      "##руем": 1513,
      "элемент": 1514,
      "##тей": 1515,
      "300х600": 1516,
      "герметизации": 1517,
      "привар": 1518,
      "57": 1519,
      "##цеп": 1520,
      "СТ": 1521,
      "##иваем": 1522,
      "##ованная": 1523,
      "##форм": 1524,
      "направ": 1525,
      "контрольный": 1526,
      "воздуха": 1527,
      "Зад": 1528,
      "Задвиж": 1529,
      "Задвижка": 1530,
      "450": 1531,
      "Секция": 1532,
      "4180": 1533,
      "ак": 1534,
      "##алов": 1535,
      "короба": 1536,
      "42": 1537,
      "ла": 1538,
      "примен": 1539,
      "##ира": 1540,
      "##12": 1541,
      "контактных": 1542,
      "гидро": 1543,
      "яче": 1544,
      "##извод": 1545,
      "КВ": 1546,
      "##теп": 1547,
      "##лиф": 1548,
      "цок": 1549,
      "или": 1550,
      "##енные": 1551,
      "волокна": 1552,
      "##рак": 1553,
      "кабелей": 1554,
      "жест": 1555,
      "##дения": 1556,
      "37": 1557,
      "Ст3": 1558,
      "350": 1559,
      "СБ": 1560,
      "ламп": 1561,
      "##елый": 1562,
      "лату": 1563,
      "##ключат": 1564,
      "перем": 1565,
      "##ук": 1566,
      "##льно": 1567,
      "применения": 1568,
      "##инд": 1569,
      "ниже": 1570,
      "##ош": 1571,
      "прот": 1572,
      "##КЗ": 1573,
      "кругл": 1574,
      "135": 1575,
      "##штей": 1576,
      "##онштей": 1577,
      "##альный": 1578,
      "##зем": 1579,
      "##ярус": 1580,
      "дерев": 1581,
      "крышкой": 1582,
      "400х600": 1583,
      "##13": 1584,
      "высокопр": 1585,
      "##его": 1586,
      "транс": 1587,
      "##вещ": 1588,
      "1200": 1589,
      "##х6": 1590,
      "##ивод": 1591,
      "шпинд": 1592,
      "шпинделем": 1593,
      "сорт": 1594,
      "гл": 1595,
      "##x500": 1596,
      "##движным": 1597,
      "температуры": 1598,
      "##95": 1599,
      "##опер": 1600,
      "##рутки": 1601,
      "##II": 1602,
      "##коль": 1603,
      "За": 1604,
      "##ента": 1605,
      "чугуна": 1606,
      "200х": 1607,
      "жилы": 1608,
      "140": 1609,
      "ств": 1610,
      "цель": 1611,
      "##нный": 1612,
      "ради": 1613,
      "##эф": 1614,
      "##опривод": 1615,
      "кв": 1616,
      "доп": 1617,
      "пони": 1618,
      "отопитель": 1619,
      "числом": 1620,
      "##луш": 1621,
      "##нер": 1622,
      "##акт": 1623,
      "горячеоцинкованный": 1624,
      "пониж": 1625,
      "##ПК": 1626,
      "33": 1627,
      "агр": 1628,
      "исполнения": 1629,
      "огнеупорные": 1630,
      "##дел": 1631,
      "БКЗ": 1632,
      "рези": 1633,
      "##х50": 1634,
      "##соль": 1635,
      "##ителем": 1636,
      "коэф": 1637,
      "коэффици": 1638,
      "Флан": 1639,
      "ЭП": 1640,
      "##45": 1641,
      "##тая": 1642,
      "коэффициент": 1643,
      "щеб": 1644,
      "трехслойная": 1645,
      "3000": 1646,
      "вентиляцион": 1647,
      "##рыв": 1648,
      "##тового": 1649,
      "прохода": 1650,
      "запол": 1651,
      "фрак": 1652,
      "##амот": 1653,
      "электропривод": 1654,
      "коробки": 1655,
      "##ессивной": 1656,
      "Комп": 1657,
      "##ционный": 1658,
      "након": 1659,
      "сечением": 1660,
      "шлиф": 1661,
      "вид": 1662,
      "ствола": 1663,
      "минус": 1664,
      "фракция": 1665,
      "##ехни": 1666,
      "сек": 1667,
      "кожухом": 1668,
      "PE": 1669,
      "пот": 1670,
      "##поль": 1671,
      "пита": 1672,
      "автомати": 1673,
      "отдел": 1674,
      "##исковая": 1675,
      "##орунд": 1676,
      "порош": 1677,
      "муллитокорунд": 1678,
      "теле": 1679,
      "перекрыти": 1680,
      "винтовая": 1681,
      "##верд": 1682,
      "Зажим": 1683,
      "Плиты": 1684,
      "180": 1685,
      "встро": 1686,
      "прямых": 1687,
      "стальным": 1688,
      "расцеп": 1689,
      "агрессивной": 1690,
      "##земной": 1691,
      "коэффициентом": 1692,
      "Провод": 1693,
      "конструкции": 1694,
      "Опора": 1695,
      "высокопрочного": 1696,
      "полиэтилена": 1697,
      "песчаным": 1698,
      "образный": 1699,
      "##рем": 1700,
      "наружная": 1701,
      "уп": 1702,
      "двухслой": 1703,
      "Переход": 1704,
      "вертикальный": 1705,
      "##ини": 1706,
      "##чный": 1707,
      "защиты": 1708,
      "расцепителем": 1709,
      "производ": 1710,
      "полиэфи": 1711,
      "##ровочный": 1712,
      "пониженным": 1713,
      "##ческого": 1714,
      "трения": 1715,
      "58": 1716,
      "Вы": 1717,
      "пиле": 1718,
      "конца": 1719,
      "электросварные": 1720,
      "##емы": 1721,
      "тверд": 1722,
      "##лиз": 1723,
      "##ехани": 1724,
      "##вой": 1725,
      "##ческой": 1726,
      "тяже": 1727,
      "расчет": 1728,
      "Выключат": 1729,
      "базальтового": 1730,
      "##нти": 1731,
      "сух": 1732,
      "вырезные": 1733,
      "ма": 1734,
      "древ": 1735,
      "алюминиевые": 1736,
      "полиэфир": 1737,
      "сбор": 1738,
      "поток": 1739,
      "##икл": 1740,
      "##нении": 1741,
      "освещ": 1742,
      "двухкамерным": 1743,
      "кабельные": 1744,
      "##уст": 1745,
      "##оот": 1746,
      "встроенным": 1747,
      "##ярусный": 1748,
      "105": 1749,
      "деревян": 1750,
      "273": 1751,
      "коррозионной": 1752,
      "квад": 1753,
      "##22": 1754,
      "сплав": 1755,
      "СП": 1756,
      "сколь": 1757,
      "шлифованная": 1758,
      "##ешетка": 1759,
      "лю": 1760,
      "сост": 1761,
      "питания": 1762,
      "холодно": 1763,
      "стойкости": 1764,
      "##рат": 1765,
      "##оляция": 1766,
      "Изоляция": 1767,
      "##нез": 1768,
      "##лог": 1769,
      "сплавов": 1770,
      "##агнит": 1771,
      "полированная": 1772,
      "наконечни": 1773,
      "КЗСБ": 1774,
      "ПЭ100": 1775,
      "верх": 1776,
      "##ительность": 1777,
      "##чатая": 1778,
      "В25": 1779,
      "механи": 1780,
      "##35": 1781,
      "перикл": 1782,
      "периклаз": 1783,
      "неп": 1784,
      "креплением": 1785,
      "треб": 1786,
      "воздуш": 1787,
      "##рный": 1788,
      "##голь": 1789,
      "12Х18Н10Т": 1790,
      "блоки": 1791,
      "##ука": 1792,
      "оконный": 1793,
      "##актери": 1794,
      "III": 1795,
      "##ри": 1796,
      "стакан": 1797,
      "повышенными": 1798,
      "##ованиями": 1799,
      "требованиями": 1800,
      "град": 1801,
      "##ивающее": 1802,
      "нижним": 1803,
      "##32": 1804,
      "усили": 1805,
      "крышки": 1806,
      "##анат": 1807,
      "выдвижным": 1808,
      "части": 1809,
      "давления": 1810,
      "##мк": 1811,
      "##енты": 1812,
      "одном": 1813,
      "Муфты": 1814,
      "усилие": 1815,
      "##x2x0": 1816,
      "однокамерным": 1817,
      "чет": 1818,
      "##ног": 1819,
      "плоский": 1820,
      "тепловой": 1821,
      "сет": 1822,
      "##оди": 1823,
      "##ровочная": 1824,
      "муллитокорундовый": 1825,
      "28": 1826,
      "наконечником": 1827,
      "хар": 1828,
      "гидроизоляци": 1829,
      "##ПВ": 1830,
      "оцинкованные": 1831,
      "алюминиевых": 1832,
      "##устим": 1833,
      "допустим": 1834,
      "##актеристи": 1835,
      "характеристи": 1836,
      "48": 1837,
      "АВ": 1838,
      "Фланец": 1839,
      "КМ": 1840,
      "##ета": 1841,
      "лаковым": 1842,
      "##16": 1843,
      "напорные": 1844,
      "##отда": 1845,
      "теплоотда": 1846,
      "теплоотдача": 1847,
      "электром": 1848,
      "металлических": 1849,
      "оч": 1850,
      "##вектор": 1851,
      "Канат": 1852,
      "мног": 1853,
      "##яд": 1854,
      "экрани": 1855,
      "полимерный": 1856,
      "##йки": 1857,
      "##чатые": 1858,
      "Конвектор": 1859,
      "освещения": 1860,
      "##итум": 1861,
      "низ": 1862,
      "В15": 1863,
      "ПП": 1864,
      "89": 1865,
      "маркировочная": 1866,
      "пиленая": 1867,
      "##онент": 1868,
      "##их": 1869,
      "квадрат": 1870,
      "полиэтиленовые": 1871,
      "##ундам": 1872,
      "боковым": 1873,
      "четыр": 1874,
      "сети": 1875,
      "##анной": 1876,
      "смол": 1877,
      "##отный": 1878,
      "##х25": 1879,
      "кров": 1880,
      "предел": 1881,
      "##ивки": 1882,
      "цельнос": 1883,
      "белый": 1884,
      "пост": 1885,
      "управление": 1886,
      "лампу": 1887,
      "цельносвар": 1888,
      "##200": 1889,
      "измер": 1890,
      "##ковый": 1891,
      "скольжения": 1892,
      "КУ": 1893,
      "огнестой": 1894,
      "Пан": 1895,
      "утеп": 1896,
      "условного": 1897,
      "##х10": 1898,
      "##ешет": 1899,
      "степ": 1900,
      "контактной": 1901,
      "открытого": 1902,
      "над": 1903,
      "степень": 1904,
      "клиновая": 1905,
      "сте": 1906,
      "тяжелого": 1907,
      "##х5": 1908,
      "##арку": 1909,
      "масса": 1910,
      "##минер": 1911,
      "приварку": 1912,
      "##уд": 1913,
      "анти": 1914,
      "##кашированные": 1915,
      "10с": 1916,
      "свивки": 1917,
      "некашированные": 1918,
      "кованной": 1919,
      "телефонный": 1920,
      "цельносварной": 1921,
      "перфор": 1922,
      "приварной": 1923,
      "против": 1924,
      "допустимое": 1925,
      "лест": 1926,
      "##РА": 1927,
      "##абота": 1928,
      "##x150": 1929,
      "муфт": 1930,
      "##ких": 1931,
      "двойной": 1932,
      "привод": 1933,
      "КП": 1934,
      "окон": 1935,
      "##Шв": 1936,
      "очист": 1937,
      "пенополимер": 1938,
      "пенополимерминер": 1939,
      "##анием": 1940,
      "лоп": 1941,
      "##оф": 1942,
      "рабоч": 1943,
      "растяг": 1944,
      "##ящ": 1945,
      "380": 1946,
      "##x6": 1947,
      "##ники": 1948,
      "##изоли": 1949,
      "##нут": 1950,
      "##СП": 1951,
      "рабочей": 1952,
      "цин": 1953,
      "растягивающее": 1954,
      "##сов": 1955,
      "##чи": 1956,
      "электромагнит": 1957,
      "##ута": 1958,
      "600х": 1959,
      "воды": 1960,
      "зда": 1961,
      "700": 1962,
      "##x4": 1963,
      "цоколь": 1964,
      "НГ": 1965,
      "спира": 1966,
      "##деч": 1967,
      "сердеч": 1968,
      "зданий": 1969,
      "##еры": 1970,
      "наст": 1971,
      "500х": 1972,
      "сигнально": 1973,
      "##ерс": 1974,
      "одномод": 1975,
      "битум": 1976,
      "Пв": 1977,
      "##иг": 1978,
      "отопительные": 1979,
      "надземной": 1980,
      "сварной": 1981,
      "буч": 1982,
      "##ЭВ": 1983,
      "##ардированная": 1984,
      "бучардированная": 1985,
      "##ХЛ": 1986,
      "блокировочный": 1987,
      "##оян": 1988,
      "##ПКВ": 1989,
      "постоян": 1990,
      "фланцевый": 1991,
      "холоднодеформированные": 1992,
      "##ущ": 1993,
      "КЗСГ": 1994,
      "лопасти": 1995,
      "гоф": 1996,
      "комб": 1997,
      "##Энг": 1998,
      "##алуб": 1999,
      "Консоль": 2000,
      "БСТ": 2001,
      "УХЛ": 2002,
      "##еств": 2003,
      "##сц": 2004,
      "смолы": 2005,
      "##озит": 2006,
      "полнопроходной": 2007,
      "переменного": 2008,
      "##сна": 2009,
      "##равли": 2010,
      "гидравли": 2011,
      "##олов": 2012,
      "дверной": 2013,
      "##нителя": 2014,
      "термообр": 2015,
      "термообработа": 2016,
      "630": 2017,
      "##ированный": 2018,
      "Заг": 2019,
      "Анкер": 2020,
      "оболочке": 2021,
      "анкерным": 2022,
      "Ск": 2023,
      "##ровол": 2024,
      "Заглуш": 2025,
      "водоот": 2026,
      "дек": 2027,
      "##Пнг": 2028,
      "пром": 2029,
      "##ковое": 2030,
      "производительность": 2031,
      "декор": 2032,
      "сты": 2033,
      "Решетка": 2034,
      "волоконно": 2035,
      "##устот": 2036,
      "##фер": 2037,
      "##бжения": 2038,
      "пенополиуретанов": 2039,
      "##рная": 2040,
      "кер": 2041,
      "горячеоцинкованная": 2042,
      "Провол": 2043,
      "Проволока": 2044,
      "##новые": 2045,
      "ЛК": 2046,
      "##ями": 2047,
      "Дос": 2048,
      "##грев": 2049,
      "одноярусный": 2050,
      "Модуль": 2051,
      "##LS": 2052,
      "эм": 2053,
      "устрой": 2054,
      "скрутки": 2055,
      "термообработанная": 2056,
      "шамот": 2057,
      "##зна": 2058,
      "##чения": 2059,
      "Конвекторы": 2060,
      "FRLS": 2061,
      "стальных": 2062,
      "##ивные": 2063,
      "минералов": 2064,
      "минераловат": 2065,
      "длиной": 2066,
      "комбини": 2067,
      "##нением": 2068,
      "удли": 2069,
      "решет": 2070,
      "##85": 2071,
      "##азем": 2072,
      "Кронштей": 2073,
      "сердечник": 2074,
      "##800": 2075,
      "##енная": 2076,
      "уни": 2077,
      "##гиб": 2078,
      "##ия": 2079,
      "##ную": 2080,
      "Ог": 2081,
      "напряжением": 2082,
      "транспор": 2083,
      "55": 2084,
      "КС": 2085,
      "база": 2086,
      "##низ": 2087,
      "навесной": 2088,
      "##форматор": 2089,
      "##сцент": 2090,
      "##несцент": 2091,
      "##минесцент": 2092,
      "малог": 2093,
      "ПБ": 2094,
      "зазем": 2095,
      "ОК": 2096,
      "одност": 2097,
      "##рования": 2098,
      "бесшов": 2099,
      "сухие": 2100,
      "325": 2101,
      "люминесцент": 2102,
      "всп": 2103,
      "219": 2104,
      "##незем": 2105,
      "159": 2106,
      "постоянного": 2107,
      "##нтов": 2108,
      "малогабаритный": 2109,
      "##неземист": 2110,
      "обс": 2111,
      "ост": 2112,
      "##ровкой": 2113,
      "400x500": 2114,
      "накл": 2115,
      "щебне": 2116,
      "полиэфирной": 2117,
      "одномодовых": 2118,
      "##тяж": 2119,
      "##комп": 2120,
      "##17п": 2121,
      "рабочая": 2122,
      "меж": 2123,
      "сварного": 2124,
      "лестнич": 2125,
      "ЕК": 2126,
      "гру": 2127,
      "##х16": 2128,
      "гофр": 2129,
      "брус": 2130,
      "##ельная": 2131,
      "##ейств": 2132,
      "исполнении": 2133,
      "прочности": 2134,
      "##аж": 2135,
      "##11": 2136,
      "##ацион": 2137,
      "КЗСА": 2138,
      "кле": 2139,
      "цап": 2140,
      "1020": 2141,
      "##х35": 2142,
      "##атель": 2143,
      "декорат": 2144,
      "##х7": 2145,
      "максимальной": 2146,
      "##ивный": 2147,
      "экрана": 2148,
      "##олот": 2149,
      "металлические": 2150,
      "##овод": 2151,
      "##атериал": 2152,
      "цапковое": 2153,
      "##ника": 2154,
      "1500": 2155,
      "Раз": 2156,
      "##няя": 2157,
      "наружной": 2158,
      "медно": 2159,
      "крупностью": 2160,
      "##ляющ": 2161,
      "##шение": 2162,
      "кожухе": 2163,
      "норм": 2164,
      "##тив": 2165,
      "двум": 2166,
      "балк": 2167,
      "900": 2168,
      "вводы": 2169,
      "экранировкой": 2170,
      "Заглушка": 2171,
      "двумя": 2172,
      "Со": 2173,
      "форм": 2174,
      "Профи": 2175,
      "двухслойный": 2176,
      "##нию": 2177,
      "наполь": 2178,
      "1600": 2179,
      "1770": 2180,
      "прямоу": 2181,
      "Щеб": 2182,
      "модуль": 2183,
      "гибкие": 2184,
      "Щебень": 2185,
      "фасадный": 2186,
      "отделка": 2187,
      "минераловатных": 2188,
      "основание": 2189,
      "утеплитель": 2190,
      "##х120": 2191,
      "##фт": 2192,
      "вертикаль": 2193,
      "повивной": 2194,
      "потол": 2195,
      "##нные": 2196,
      "##есины": 2197,
      "групп": 2198,
      "древесины": 2199,
      "##омут": 2200,
      "Пус": 2201,
      "стеклопластиковый": 2202,
      "##КС": 2203,
      "канализ": 2204,
      "муфта": 2205,
      "акусти": 2206,
      "перекрытия": 2207,
      "Материал": 2208,
      "##олет": 2209,
      "##уров": 2210,
      "##порная": 2211,
      "рул": 2212,
      "##олятор": 2213,
      "муллитокрем": 2214,
      "муллитокремнеземист": 2215,
      "##створ": 2216,
      "64": 2217,
      "##ины": 2218,
      "##катель": 2219,
      "расчетное": 2220,
      "96": 2221,
      "отно": 2222,
      "##кор": 2223,
      "кабельного": 2224,
      "угол": 2225,
      "номинальным": 2226,
      "силового": 2227,
      "Кронштейн": 2228,
      "##рам": 2229,
      "##ряд": 2230,
      "Радиаторы": 2231,
      "##Г2": 2232,
      "электромагнитный": 2233,
      "верхней": 2234,
      "отношение": 2235,
      "назна": 2236,
      "назначения": 2237,
      "стандартное": 2238,
      "направления": 2239,
      "##компонент": 2240,
      "тон": 2241,
      "##пред": 2242,
      "размерное": 2243,
      "1570": 2244,
      "##ич": 2245,
      "блок": 2246,
      "##ку": 2247,
      "нагрузки": 2248,
      "Блоки": 2249,
      "##ласт": 2250,
      "панели": 2251,
      "##ера": 2252,
      "металлический": 2253,
      "переходная": 2254,
      "Пускатель": 2255,
      "балконный": 2256,
      "##ено": 2257,
      "2500": 2258,
      "##росс": 2259,
      "высот": 2260,
      "##HF": 2261,
      "оцинкованном": 2262,
      "переходной": 2263,
      "FRHF": 2264,
      "##ников": 2265,
      "##ивания": 2266,
      "##х100": 2267,
      "##ья": 2268,
      "силовых": 2269,
      "Доска": 2270,
      "85": 2271,
      "Ограж": 2272,
      "##вич": 2273,
      "111": 2274,
      "##чатый": 2275,
      "##рот": 2276,
      "##ести": 2277,
      "##х150": 2278,
      "гибкий": 2279,
      "резьбы": 2280,
      "поворот": 2281,
      "каналов": 2282,
      "вспен": 2283,
      "##ала": 2284,
      "двухд": 2285,
      "поверхност": 2286,
      "гай": 2287,
      "резинов": 2288,
      "Под": 2289,
      "##ими": 2290,
      "##x120": 2291,
      "##ПП": 2292,
      "36": 2293,
      "листв": 2294,
      "##гран": 2295,
      "подвесной": 2296,
      "двухдисковая": 2297,
      "38": 2298,
      "##есущ": 2299,
      "алюминиевого": 2300,
      "пенополиуретана": 2301,
      "##него": 2302,
      "##энд": 2303,
      "огнеупорная": 2304,
      "обрат": 2305,
      "стеклопластиковые": 2306,
      "##преде": 2307,
      "23": 2308,
      "лег": 2309,
      "связи": 2310,
      "10000": 2311,
      "##эндвич": 2312,
      "пруж": 2313,
      "наклонная": 2314,
      "##пс": 2315,
      "хр": 2316,
      "многоп": 2317,
      "ИА": 2318,
      "В22": 2319,
      "##сатор": 2320,
      "сторон": 2321,
      "##Г2С": 2322,
      "трещ": 2323,
      "пожарной": 2324,
      "##x7": 2325,
      "11165": 2326,
      "##енной": 2327,
      "подкат": 2328,
      "сейсмостойком": 2329,
      "подкатегория": 2330,
      "круглый": 2331,
      "62": 2332,
      "##x90": 2333,
      "##ционные": 2334,
      "М3": 2335,
      "вла": 2336,
      "Перемы": 2337,
      "измеритель": 2338,
      "Перемыч": 2339,
      "горизонтальный": 2340,
      "##слойные": 2341,
      "##ундамент": 2342,
      "полиурет": 2343,
      "##цемент": 2344,
      "##ема": 2345,
      "точ": 2346,
      "керами": 2347,
      "##ового": 2348,
      "09": 2349,
      "26": 2350,
      "светоди": 2351,
      "светодиод": 2352,
      "ответвитель": 2353,
      "противоп": 2354,
      "Ст3сп": 2355,
      "34": 2356,
      "Клемм": 2357,
      "##лы": 2358,
      "проходной": 2359,
      "##зий": 2360,
      "монтажа": 2361,
      "Соеди": 2362,
      "вспененного": 2363,
      "##ВБ": 2364,
      "мост": 2365,
      "шах": 2366,
      "##ращ": 2367,
      "05": 2368,
      "нормальной": 2369,
      "гидравлическим": 2370,
      "Пр": 2371,
      "190": 2372,
      "шести": 2373,
      "##верс": 2374,
      "##клад": 2375,
      "##чив": 2376,
      "IP20": 2377,
      "кровель": 2378,
      "##утав": 2379,
      "универс": 2380,
      "##алю": 2381,
      "##x250": 2382,
      "КЗСВ": 2383,
      "ПвПнг": 2384,
      "##ПКВт": 2385,
      "попер": 2386,
      "жалю": 2387,
      "противопожар": 2388,
      "общего": 2389,
      "##x5": 2390,
      "напор": 2391,
      "##71": 2392,
      "температур": 2393,
      "##х2х0": 2394,
      "пружин": 2395,
      "глух": 2396,
      "##27": 2397,
      "сталем": 2398,
      "ячейки": 2399,
      "##ерсивный": 2400,
      "сталемед": 2401,
      "##ВС": 2402,
      "много": 2403,
      "109": 2404,
      "ЭН": 2405,
      "##истра": 2406,
      "композит": 2407,
      "пенополиуретановая": 2408,
      "Профиль": 2409,
      "жалюзий": 2410,
      "##чная": 2411,
      "##авкой": 2412,
      "газопровод": 2413,
      "прямошовные": 2414,
      "##еф": 2415,
      "##лая": 2416,
      "свариваем": 2417,
      "Щит": 2418,
      "повив": 2419,
      "КГ": 2420,
      "146": 2421,
      "133": 2422,
      "водоотвод": 2423,
      "шв": 2424,
      "##лятор": 2425,
      "Изолятор": 2426,
      "периклазовый": 2427,
      "цинковым": 2428,
      "точности": 2429,
      "цветной": 2430,
      "попереч": 2431,
      "крест": 2432,
      "электри": 2433,
      "оконцев": 2434,
      "ГО": 2435,
      "##еда": 2436,
      "130": 2437,
      "##луж": 2438,
      "оконцевания": 2439,
      "##х8": 2440,
      "маг": 2441,
      "сварные": 2442,
      "защитным": 2443,
      "огнестойкости": 2444,
      "##верж": 2445,
      "##напр": 2446,
      "профилей": 2447,
      "ЭПРА": 2448,
      "Панели": 2449,
      "листовой": 2450,
      "вз": 2451,
      "##оу": 2452,
      "контрольных": 2453,
      "Выключатель": 2454,
      "составе": 2455,
      "техни": 2456,
      "бы": 2457,
      "концев": 2458,
      "приводом": 2459,
      "чер": 2460,
      "##ителя": 2461,
      "шестигран": 2462,
      "строительства": 2463,
      "ручным": 2464,
      "##них": 2465,
      "Уз": 2466,
      "##x2000": 2467,
      "ГОСТ": 2468,
      "Ка": 2469,
      "##ностой": 2470,
      "##ерживающ": 2471,
      "горизонтальная": 2472,
      "##ирп": 2473,
      "полипропиленов": 2474,
      "##одерж": 2475,
      "распреде": 2476,
      "##х70": 2477,
      "##орог": 2478,
      "##уск": 2479,
      "колод": 2480,
      "напольные": 2481,
      "рав": 2482,
      "##руго": 2483,
      "нер": 2484,
      "полиуретанов": 2485,
      "дорог": 2486,
      "пластиков": 2487,
      "##род": 2488,
      "##ница": 2489,
      "регулируем": 2490,
      "высотой": 2491,
      "сж": 2492,
      "уси": 2493,
      "двойная": 2494,
      "Крест": 2495,
      "##КБ": 2496,
      "автоматический": 2497,
      "вентиляционная": 2498,
      "6000": 2499,
      "стекло": 2500,
      "заполнителя": 2501,
      "арми": 2502,
      "Кам": 2503,
      "рель": 2504,
      "##ровки": 2505,
      "46": 2506,
      "кладки": 2507,
      "АВВГнг": 2508,
      "нагрузка": 2509,
      "отверж": 2510,
      "##ечей": 2511,
      "##едачи": 2512,
      "##уже": 2513,
      "устройства": 2514,
      "печей": 2515,
      "тор": 2516,
      "##инами": 2517,
      "вентиляционных": 2518,
      "очистки": 2519,
      "обслуж": 2520,
      "ПС": 2521,
      "##x190": 2522,
      "стеклопластиковая": 2523,
      "секций": 2524,
      "обслуживания": 2525,
      "##олем": 2526,
      "##цы": 2527,
      "растяже": 2528,
      "Перемычка": 2529,
      "част": 2530,
      "##льных": 2531,
      "Трубки": 2532,
      "чугунный": 2533,
      "бесшовный": 2534,
      "##азон": 2535,
      "одноп": 2536,
      "медные": 2537,
      "##важ": 2538,
      "кольцевая": 2539,
      "многопустот": 2540,
      "жалюзийная": 2541,
      "##150": 2542,
      "кА": 2543,
      "номер": 2544,
      "горизонтальной": 2545,
      "жесткость": 2546,
      "акустического": 2547,
      "металлическая": 2548,
      "горизонтального": 2549,
      "прямоуголь": 2550,
      "подключения": 2551,
      "коррозионностой": 2552,
      "АС": 2553,
      "сд": 2554,
      "Разветвитель": 2555,
      "свариваемости": 2556,
      "люминесцентную": 2557,
      "уплот": 2558,
      "панельные": 2559,
      "ин": 2560,
      "##реп": 2561,
      "##анж": 2562,
      "##x150x90": 2563,
      "закрыт": 2564,
      "ред": 2565,
      "сэндвич": 2566,
      "##гостой": 2567,
      "стерж": 2568,
      "электропер": 2569,
      "##x50": 2570,
      "навес": 2571,
      "подвес": 2572,
      "##x100": 2573,
      "МКС": 2574,
      "прод": 2575,
      "шарни": 2576,
      "##ированного": 2577,
      "полипропилена": 2578,
      "рулонный": 2579,
      "пласти": 2580,
      "##нод": 2581,
      "530": 2582,
      "В30": 2583,
      "содерж": 2584,
      "диф": 2585,
      "конструкций": 2586,
      "редук": 2587,
      "##тный": 2588,
      "60°": 2589,
      "##уп": 2590,
      "##Шп": 2591,
      "##рованной": 2592,
      "##оза": 2593,
      "750": 2594,
      "Уст": 2595,
      "горячедеформированные": 2596,
      "панелью": 2597,
      "лестничного": 2598,
      "##250": 2599,
      "128": 2600,
      "управлением": 2601,
      "Тройники": 2602,
      "изолированный": 2603,
      "Клеммник": 2604,
      "электропередачи": 2605,
      "##яз": 2606,
      "трой": 2607,
      "клеммы": 2608,
      "цилиндри": 2609,
      "ввер": 2610,
      "манс": 2611,
      "##ковыми": 2612,
      "трубчатая": 2613,
      "##x200": 2614,
      "стойкий": 2615,
      "мансард": 2616,
      "##900": 2617,
      "железобетонный": 2618,
      "нерев": 2619,
      "шамотные": 2620,
      "магистра": 2621,
      "225": 2622,
      "##лет": 2623,
      "##енци": 2624,
      "##опуск": 2625,
      "полиэтиленовой": 2626,
      "вверх": 2627,
      "##ыка": 2628,
      "крестообр": 2629,
      "##еллер": 2630,
      "голов": 2631,
      "усилен": 2632,
      "##шив": 2633,
      "##отки": 2634,
      "пенополимерминеральной": 2635,
      "стеклов": 2636,
      "##сид": 2637,
      "глуб": 2638,
      "Комплект": 2639,
      "отверждения": 2640,
      "нереверсивный": 2641,
      "##олб": 2642,
      "металлической": 2643,
      "04": 2644,
      "##евой": 2645,
      "Ст3пс": 2646,
      "полиэтиленовая": 2647,
      "термо": 2648,
      "отверстий": 2649,
      "КН": 2650,
      "Пес": 2651,
      "##айб": 2652,
      "коррозионностойкой": 2653,
      "Ге": 2654,
      "кром": 2655,
      "кауч": 2656,
      "деревянный": 2657,
      "##олист": 2658,
      "стекла": 2659,
      "417": 2660,
      "##ох": 2661,
      "14нж0": 2662,
      "быст": 2663,
      "240": 2664,
      "слоя": 2665,
      "фан": 2666,
      "работ": 2667,
      "тонк": 2668,
      "шарнирная": 2669,
      "##оя": 2670,
      "30°": 2671,
      "IP5": 2672,
      "характеристика": 2673,
      "##ференци": 2674,
      "остек": 2675,
      "дифференци": 2676,
      "4178": 2677,
      "52": 2678,
      "Коль": 2679,
      "##х95": 2680,
      "гибкость": 2681,
      "обществ": 2682,
      "вниз": 2683,
      "##лями": 2684,
      "##онагрев": 2685,
      "##костью": 2686,
      "кровельный": 2687,
      "##ирпич": 2688,
      "Устрой": 2689,
      "##оруже": 2690,
      "воздейств": 2691,
      "Бал": 2692,
      "защитного": 2693,
      "дом": 2694,
      "##уко": 2695,
      "##опо": 2696,
      "материала": 2697,
      "стойкой": 2698,
      "550": 2699,
      "5000": 2700,
      "С3": 2701,
      "##вест": 2702,
      "##ыш": 2703,
      "1400": 2704,
      "максимальная": 2705,
      "КВВГ": 2706,
      "РК": 2707,
      "полиэтиленовый": 2708,
      "отопления": 2709,
      "бруса": 2710,
      "##лочный": 2711,
      "распределитель": 2712,
      "##олистовой": 2713,
      "4000": 2714,
      "эласти": 2715,
      "##лич": 2716,
      "##кана": 2717,
      "перфорированный": 2718,
      "битумно": 2719,
      "влагостой": 2720,
      "железобетонных": 2721,
      "кольц": 2722,
      "426": 2723,
      "БКЗК": 2724,
      "пресс": 2725,
      "31": 2726,
      "системе": 2727,
      "Выключатели": 2728,
      "ТК": 2729,
      "##24": 2730,
      "SDR11": 2731,
      "материалов": 2732,
      "упруго": 2733,
      "##яжки": 2734,
      "латунный": 2735,
      "##охра": 2736,
      "круглые": 2737,
      "растяжении": 2738,
      "реле": 2739,
      "##стойчив": 2740,
      "продоль": 2741,
      "лит": 2742,
      "##ание": 2743,
      "##вижная": 2744,
      "клап": 2745,
      "Ленты": 2746,
      "##III": 2747,
      "трос": 2748,
      "##лекс": 2749,
      "##ушения": 2750,
      "Конструк": 2751,
      "односторон": 2752,
      "##орта": 2753,
      "блочный": 2754,
      "дросс": 2755,
      "##цией": 2756,
      "##ветвления": 2757,
      "электроприводом": 2758,
      "Габ": 2759,
      "Ду": 2760,
      "##БШв": 2761,
      "корот": 2762,
      "##пок": 2763,
      "замыка": 2764,
      "РН": 2765,
      "общественных": 2766,
      "воздействи": 2767,
      "одина": 2768,
      "##ПБ": 2769,
      "Филь": 2770,
      "токопо": 2771,
      "муфтой": 2772,
      "эма": 2773,
      "токопоисковая": 2774,
      "315": 2775,
      "##хслойная": 2776,
      "##ёхслойная": 2777,
      "##утавр": 2778,
      "фанеры": 2779,
      "воздействию": 2780,
      "##отушения": 2781,
      "пожаротушения": 2782,
      "сталемедная": 2783,
      "Шп": 2784,
      "уч": 2785,
      "##ена": 2786,
      "изгиб": 2787,
      "извест": 2788,
      "ге": 2789,
      "двухкомпонент": 2790,
      "тепловая": 2791,
      "обратный": 2792,
      "IIIв": 2793,
      "ас": 2794,
      "##овыми": 2795,
      "условное": 2796,
      "Хомут": 2797,
      "эпок": 2798,
      "##нское": 2799,
      "сварная": 2800,
      "размером": 2801,
      "##опроводов": 2802,
      "##ильных": 2803,
      "Кол": 2804,
      "переходные": 2805,
      "образ": 2806,
      "проводов": 2807,
      "эпоксид": 2808,
      "плен": 2809,
      "##ежут": 2810,
      "промежут": 2811,
      "хвой": 2812,
      "##рож": 2813,
      "горячего": 2814,
      "хвойных": 2815,
      "51": 2816,
      "69": 2817,
      "##енными": 2818,
      "##очаст": 2819,
      "##тором": 2820,
      "технические": 2821,
      "##онагреват": 2822,
      "Кал": 2823,
      "##x400": 2824,
      "##каф": 2825,
      "##епи": 2826,
      "##укав": 2827,
      "характеристики": 2828,
      "##71фт": 2829,
      "термоус": 2830,
      "шириной": 2831,
      "проклад": 2832,
      "##рядная": 2833,
      "##основ": 2834,
      "##виг": 2835,
      "##х36": 2836,
      "порошковым": 2837,
      "##аном": 2838,
      "разветвитель": 2839,
      "гидроизоляционный": 2840,
      "влагостойкой": 2841,
      "участ": 2842,
      "Манж": 2843,
      "гип": 2844,
      "бетонный": 2845,
      "полимерным": 2846,
      "##егулятор": 2847,
      "проводной": 2848,
      "В40": 2849,
      "##щи": 2850,
      "##Гц": 2851,
      "##ателем": 2852,
      "##осна": 2853,
      "##ЭВнг": 2854,
      "2В": 2855,
      "дис": 2856,
      "покрытие": 2857,
      "280": 2858,
      "##лош": 2859,
      "кронштей": 2860,
      "штыр": 2861,
      "преднапр": 2862,
      "раструбные": 2863,
      "каучука": 2864,
      "##ект": 2865,
      "подоснов": 2866,
      "сварным": 2867,
      "преднапряж": 2868,
      "диап": 2869,
      "бур": 2870,
      "свин": 2871,
      "##ированной": 2872,
      "полос": 2873,
      "вставкой": 2874,
      "Манжета": 2875,
      "##х40": 2876,
      "сосна": 2877,
      "железнод": 2878,
      "железнодорож": 2879,
      "Полот": 2880,
      "##кар": 2881,
      "обшив": 2882,
      "диапазон": 2883,
      "теплосна": 2884,
      "выход": 2885,
      "коррозионно": 2886,
      "##ованные": 2887,
      "строительные": 2888,
      "##IIIв": 2889,
      "сжати": 2890,
      "тонколистовой": 2891,
      "теплоснабжения": 2892,
      "##рас": 2893,
      "заклад": 2894,
      "Соединитель": 2895,
      "##7р": 2896,
      "##альное": 2897,
      "антикор": 2898,
      "регулируемая": 2899,
      "термоусаж": 2900,
      "конц": 2901,
      "##ильки": 2902,
      "##28": 2903,
      "ТПП": 2904,
      "##овор": 2905,
      "железных": 2906,
      "дорожный": 2907,
      "##ений": 2908,
      "категори": 2909,
      "АП": 2910,
      "кра": 2911,
      "##00х3": 2912,
      "508": 2913,
      "Скоб": 2914,
      "круглого": 2915,
      "54": 2916,
      "БС": 2917,
      "С2": 2918,
      "фасадов": 2919,
      "спираль": 2920,
      "шпу": 2921,
      "14нж9": 2922,
      "трансформатор": 2923,
      "удлин": 2924,
      "ограж": 2925,
      "92": 2926,
      "##эп": 2927,
      "синтетического": 2928,
      "##нак": 2929,
      "напол": 2930,
      "полю": 2931,
      "пожарно": 2932,
      "подоснове": 2933,
      "09Г2С": 2934,
      "выше": 2935,
      "опорах": 2936,
      "274": 2937,
      "нижней": 2938,
      "потолочный": 2939,
      "зв": 2940,
      "пат": 2941,
      "реб": 2942,
      "сх": 2943,
      "полимерные": 2944,
      "Опоры": 2945,
      "изолированная": 2946,
      "##оснабжения": 2947,
      "##стир": 2948,
      "##рованного": 2949,
      "##ческими": 2950,
      "УХЛ4": 2951,
      "МЛ": 2952,
      "##мс": 2953,
      "окрашенные": 2954,
      "швеллер": 2955,
      "##14": 2956,
      "проп": 2957,
      "##елями": 2958,
      "автоматические": 2959,
      "ВН": 2960,
      "пролет": 2961,
      "##еталли": 2962,
      "IP54": 2963,
      "полюсов": 2964,
      "##за": 2965,
      "неизоли": 2966,
      "температурный": 2967,
      "клинов": 2968,
      "средняя": 2969,
      "КМПВ": 2970,
      "редуктором": 2971,
      "однослойные": 2972,
      "##гу": 2973,
      "отвод": 2974,
      "пределом": 2975,
      "несущ": 2976,
      "##19": 2977,
      "пос": 2978,
      "100х100": 2979,
      "вытяж": 2980,
      "три": 2981,
      "трубопровода": 2982,
      "##очастотный": 2983,
      "##ТТ": 2984,
      "квадратные": 2985,
      "720": 2986,
      "входной": 2987,
      "##кос": 2988,
      "762": 2989,
      "дроссельная": 2990,
      "ГВС": 2991,
      "конус": 2992,
      "скваж": 2993,
      "порошковыми": 2994,
      "пенополимерминеральная": 2995,
      "##емб": 2996,
      "стор": 2997,
      "##ъемная": 2998,
      "##75": 2999,
      "порист": 3000,
      "##рующая": 3001,
      "шахт": 3002,
      "##юс": 3003,
      "штока": 3004,
      "763": 3005,
      "лент": 3006,
      "##еци": 3007,
      "сплош": 3008,
      "##полюс": 3009,
      "круглая": 3010,
      "воздушных": 3011,
      "W4": 3012,
      "Лист": 3013,
      "##стоя": 3014,
      "##обав": 3015,
      "расстоя": 3016,
      "бетонных": 3017,
      "окна": 3018,
      "комм": 3019,
      "наклад": 3020,
      "муллитокремнеземистой": 3021,
      "##оящ": 3022,
      "##ата": 3023,
      "сооруже": 3024,
      "##х19": 3025,
      "##нутый": 3026,
      "##еров": 3027,
      "полиэст": 3028,
      "линей": 3029,
      "периклазовая": 3030,
      "непр": 3031,
      "мансардный": 3032,
      "категории": 3033,
      "иг": 3034,
      "рем": 3035,
      "##танг": 3036,
      "дву": 3037,
      "##егм": 3038,
      "латунные": 3039,
      "головкой": 3040,
      "стекловолок": 3041,
      "сооружений": 3042,
      "##чик": 3043,
      "##ранс": 3044,
      "дорожного": 3045,
      "панельный": 3046,
      "светодиодный": 3047,
      "внутренних": 3048,
      "виб": 3049,
      "##х20": 3050,
      "издели": 3051,
      "контрольного": 3052,
      "##кол": 3053,
      "Прутки": 3054,
      "Транс": 3055,
      "мк": 3056,
      "##ционная": 3057,
      "перекрытий": 3058,
      "ска": 3059,
      "стойкостью": 3060,
      "SN4": 3061,
      "удерживающ": 3062,
      "частота": 3063,
      "крестообразный": 3064,
      "Шр": 3065,
      "##енц": 3066,
      "обм": 3067,
      "распа": 3068,
      "механический": 3069,
      "промыш": 3070,
      "##оустойчив": 3071,
      "ТППэп": 3072,
      "промышлен": 3073,
      "##дель": 3074,
      "ТС": 3075,
      "Фундамент": 3076,
      "##кид": 3077,
      "##есуш": 3078,
      "воздуховод": 3079,
      "##енцесуш": 3080,
      "##31": 3081,
      "##фаль": 3082,
      "##аствор": 3083,
      "##700": 3084,
      "безопалуб": 3085,
      "ручка": 3086,
      "формования": 3087,
      "температурным": 3088,
      "асфаль": 3089,
      "безопалубочного": 3090,
      "##x60": 3091,
      "углеродистая": 3092,
      "трещин": 3093,
      "Эм": 3094,
      "##стан": 3095,
      "##очной": 3096,
      "##изот": 3097,
      "схемы": 3098,
      "Трансформатор": 3099,
      "борта": 3100,
      "##етри": 3101,
      "створ": 3102,
      "509": 3103,
      "перехода": 3104,
      "Устройство": 3105,
      "##рованием": 3106,
      "Ст20": 3107,
      "кВА": 3108,
      "##струд": 3109,
      "фланцевая": 3110,
      "коробчатая": 3111,
      "ППУ": 3112,
      "декоратив": 3113,
      "закрытого": 3114,
      "##онагревателей": 3115,
      "Полотенцесуш": 3116,
      "ор": 3117,
      "ож": 3118,
      "фут": 3119,
      "##мм": 3120,
      "##рафи": 3121,
      "зап": 3122,
      "сжатие": 3123,
      "Электр": 3124,
      "##ром": 3125,
      "##тация": 3126,
      "##лава": 3127,
      "обор": 3128,
      "##рованных": 3129,
      "сплава": 3130,
      "многопустотная": 3131,
      "эмалями": 3132,
      "бурения": 3133,
      "воздуховодов": 3134,
      "асфальт": 3135,
      "820": 3136,
      "ПР": 3137,
      "гранитном": 3138,
      "IP65": 3139,
      "Комплекс": 3140,
      "Узел": 3141,
      "Конструкции": 3142,
      "73": 3143,
      "##нев": 3144,
      "136": 3145,
      "##луче": 3146,
      "Ограждения": 3147,
      "уплотнитель": 3148,
      "кД": 3149,
      "##х80": 3150,
      "##арь": 3151,
      "##есь": 3152,
      "фланца": 3153,
      "10с3": 3154,
      "кДж": 3155,
      "44": 3156,
      "##рон": 3157,
      "##ара": 3158,
      "опалуб": 3159,
      "##руемых": 3160,
      "стороне": 3161,
      "обмотки": 3162,
      "распаш": 3163,
      "##изотил": 3164,
      "сто": 3165,
      "НН": 3166,
      "ми": 3167,
      "пласт": 3168,
      "строительных": 3169,
      "крупность": 3170,
      "КВВГЭнг": 3171,
      "полосовой": 3172,
      "обшивочная": 3173,
      "гран": 3174,
      "##х12": 3175,
      "Ем": 3176,
      "ЕР": 3177,
      "УКС": 3178,
      "##енсатор": 3179,
      "двухслойная": 3180,
      "углов": 3181,
      "##ерыв": 3182,
      "Фильтр": 3183,
      "06": 3184,
      "Роз": 3185,
      "##ык": 3186,
      "##рубного": 3187,
      "опасности": 3188,
      "##17ст": 3189,
      "глухой": 3190,
      "известня": 3191,
      "ФС": 3192,
      "пут": 3193,
      "см3": 3194,
      "миним": 3195,
      "Манс": 3196,
      "РТТ": 3197,
      "Шкаф": 3198,
      "чугун": 3199,
      "##уровское": 3200,
      "14нж017п": 3201,
      "непрерыв": 3202,
      "Полотенцесушитель": 3203,
      "Мансуровское": 3204,
      "грав": 3205,
      "шайб": 3206,
      "контролем": 3207,
      "настенный": 3208,
      "стыков": 3209,
      "филь": 3210,
      "29": 3211,
      "Ввод": 3212,
      "Пуд": 3213,
      "дуб": 3214,
      "стан": 3215,
      "##нят": 3216,
      "КМП": 3217,
      "Панель": 3218,
      "хризотил": 3219,
      "оборуд": 3220,
      "хризотилцемент": 3221,
      "Возд": 3222,
      "алюминиевый": 3223,
      "##щищ": 3224,
      "Воздух": 3225,
      "кар": 3226,
      "моно": 3227,
      "поверхности": 3228,
      "С345": 3229,
      "стоек": 3230,
      "4х1": 3231,
      "дым": 3232,
      "шум": 3233,
      "##лам": 3234,
      "##цевой": 3235,
      "полов": 3236,
      "заземляющ": 3237,
      "модульная": 3238,
      "мкм": 3239,
      "ЛС": 3240,
      "асфальтобетон": 3241,
      "Рукав": 3242,
      "рек": 3243,
      "воздухонагревателей": 3244,
      "гофрированные": 3245,
      "##арьер": 3246,
      "##ением": 3247,
      "##вини": 3248,
      "##ская": 3249,
      "##ровой": 3250,
      "##митация": 3251,
      "##00х2": 3252,
      "способность": 3253,
      "220В": 3254,
      "низкого": 3255,
      "комбинированный": 3256,
      "клее": 3257,
      "G13": 3258,
      "ре": 3259,
      "##шина": 3260,
      "##ози": 3261,
      "бетоне": 3262,
      "термоусаживаем": 3263,
      "43": 3264,
      "Воз": 3265,
      "##жиль": 3266,
      "подвижная": 3267,
      "элементом": 3268,
      "канализацион": 3269,
      "##рождение": 3270,
      "непрерывной": 3271,
      "Возрождение": 3272,
      "Джиль": 3273,
      "Кур": 3274,
      "##рные": 3275,
      "##тау": 3276,
      "##тинское": 3277,
      "##ющим": 3278,
      "##альным": 3279,
      "##ожское": 3280,
      "гора": 3281,
      "##ваара": 3282,
      "фаской": 3283,
      "винтовой": 3284,
      "четыре": 3285,
      "Кашина": 3286,
      "равнопроходной": 3287,
      "Песок": 3288,
      "кроме": 3289,
      "Калгу": 3290,
      "Пудожское": 3291,
      "Джильтау": 3292,
      "Куртинское": 3293,
      "Калгуваара": 3294,
      "АА": 3295,
      "Знак": 3296,
      "ТЗ": 3297,
      "отк": 3298,
      "##акси": 3299,
      "коакси": 3300,
      "настенные": 3301,
      "##нтован": 3302,
      "М350": 3303,
      "##ине": 3304,
      "##x10": 3305,
      "##x300": 3306,
      "древес": 3307,
      "эмаль": 3308,
      "доменных": 3309,
      "##ностоящ": 3310,
      "намот": 3311,
      "##цо": 3312,
      "покрытий": 3313,
      "элементов": 3314,
      "##x63": 3315,
      "##ПКВтнг": 3316,
      "Кольцо": 3317,
      "##стирола": 3318,
      "намотки": 3319,
      "104": 3320,
      "Камни": 3321,
      "Зат": 3322,
      "снят": 3323,
      "##юче": 3324,
      "фланец": 3325,
      "взрыв": 3326,
      "снятой": 3327,
      "крепеж": 3328,
      "IV": 3329,
      "##льной": 3330,
      "##ляем": 3331,
      "##елья": 3332,
      "одним": 3333,
      "Об": 3334,
      "##бШв": 3335,
      "##новское": 3336,
      "##акуш": 3337,
      "термостойкости": 3338,
      "воздушный": 3339,
      "Емелья": 3340,
      "Емельяновское": 3341,
      "DN": 3342,
      "RT": 3343,
      "ракуш": 3344,
      "##ечника": 3345,
      "заполнением": 3346,
      "Затвор": 3347,
      "ракушечника": 3348,
      "Фан": 3349,
      "##ковые": 3350,
      "слоем": 3351,
      "Фанера": 3352,
      "мрам": 3353,
      "##лении": 3354,
      "прогиб": 3355,
      "средне": 3356,
      "термостойкие": 3357,
      "муллитовый": 3358,
      "магистральных": 3359,
      "кольцом": 3360,
      "мрамор": 3361,
      "вход": 3362,
      "элементы": 3363,
      "пленкой": 3364,
      "##карб": 3365,
      "РП": 3366,
      "##остран": 3367,
      "электрот": 3368,
      "МКБ": 3369,
      "МКР": 3370,
      "уль": 3371,
      "поливини": 3372,
      "Проход": 3373,
      "скважин": 3374,
      "##офор": 3375,
      "столб": 3376,
      "6х19": 3377,
      "В3": 3378,
      "Д1": 3379,
      "экструд": 3380,
      "состав": 3381,
      "нераз": 3382,
      "коаксиальный": 3383,
      "Проходка": 3384,
      "кам": 3385,
      "##совые": 3386,
      "перим": 3387,
      "прямая": 3388,
      "полости": 3389,
      "##ающая": 3390,
      "листов": 3391,
      "группе": 3392,
      "водост": 3393,
      "мостов": 3394,
      "##ую": 3395,
      "##товое": 3396,
      "газопроводных": 3397,
      "расстояние": 3398,
      "230": 3399,
      "320": 3400,
      "вращ": 3401,
      "рев": 3402,
      "фик": 3403,
      "трубам": 3404,
      "вертикального": 3405,
      "группы": 3406,
      "реклам": 3407,
      "##68": 3408,
      "377": 3409,
      "ВК": 3410,
      "вит": 3411,
      "мом": 3412,
      "##нист": 3413,
      "SN6": 3414,
      "решеткой": 3415,
      "клапаном": 3416,
      "периметр": 3417,
      "нит": 3418,
      "венти": 3419,
      "##34": 3420,
      "двутавр": 3421,
      "блоком": 3422,
      "анкеров": 3423,
      "друг": 3424,
      "##уар": 3425,
      "##вая": 3426,
      "полки": 3427,
      "водоснабжения": 3428,
      "Листы": 3429,
      "безна": 3430,
      "добав": 3431,
      "тв": 3432,
      "##ёр": 3433,
      "полимерных": 3434,
      "115": 3435,
      "чугунная": 3436,
      "навесных": 3437,
      "запира": 3438,
      "##олимер": 3439,
      "пс": 3440,
      "распол": 3441,
      "гиль": 3442,
      "термор": 3443,
      "винт": 3444,
      "дроб": 3445,
      "Ограждение": 3446,
      "концевые": 3447,
      "одностороннего": 3448,
      "пластм": 3449,
      "среднеп": 3450,
      "##карбона": 3451,
      "основания": 3452,
      "Нак": 3453,
      "туф": 3454,
      "чё": 3455,
      "##дости": 3456,
      "сили": 3457,
      "##евое": 3458,
      "маркер": 3459,
      "сеткой": 3460,
      "четырёхслойная": 3461,
      "стеновые": 3462,
      "эластичная": 3463,
      "гравия": 3464,
      "оборудования": 3465,
      "твёр": 3466,
      "среднеповор": 3467,
      "туфа": 3468,
      "чёрный": 3469,
      "маркерный": 3470,
      "твёрдости": 3471,
      "обе": 3472,
      "##гани": 3473,
      "вывод": 3474,
      "поликарбона": 3475,
      "подъем": 3476,
      "футеров": 3477,
      "74": 3478,
      "АК": 3479,
      "56": 3480,
      "##остав": 3481,
      "внутрит": 3482,
      "50Гц": 3483,
      "канала": 3484,
      "каркасом": 3485,
      "##ЭВЭВнг": 3486,
      "изделий": 3487,
      "гильз": 3488,
      "ВБШв": 3489,
      "Состав": 3490,
      "вол": 3491,
      "хв": 3492,
      "час": 3493,
      "##ающей": 3494,
      "затяжки": 3495,
      "максимальное": 3496,
      "монтажный": 3497,
      "радиус": 3498,
      "сдвиг": 3499,
      "ШВ": 3500,
      "дут": 3501,
      "##x9": 3502,
      "##х60": 3503,
      "##осы": 3504,
      "прямого": 3505,
      "кожуха": 3506,
      "напорным": 3507,
      "Вентиля": 3508,
      "ест": 3509,
      "##00х1": 3510,
      "резьба": 3511,
      "SDR17": 3512,
      "концентри": 3513,
      "естеств": 3514,
      "47": 3515,
      "##нита": 3516,
      "Уголь": 3517,
      "центр": 3518,
      "##хл": 3519,
      "##Пу": 3520,
      "##астная": 3521,
      "##нительный": 3522,
      "металлическим": 3523,
      "муфтовое": 3524,
      "ячеек": 3525,
      "механиз": 3526,
      "клеев": 3527,
      "##x190x120": 3528,
      "специ": 3529,
      "легкого": 3530,
      "ККБ": 3531,
      "бим": 3532,
      "щеле": 3533,
      "##вращ": 3534,
      "##ород": 3535,
      "##остов": 3536,
      "консоль": 3537,
      "иск": 3538,
      "стойки": 3539,
      "листвен": 3540,
      "кронштейна": 3541,
      "патруб": 3542,
      "биметалли": 3543,
      "##кань": 3544,
      "блоков": 3545,
      "##енов": 3546,
      "##КV": 3547,
      "##циона": 3548,
      "панелями": 3549,
      "УХЛ1": 3550,
      "##оустойчивый": 3551,
      "экструдированного": 3552,
      "пластмасс": 3553,
      "хвостов": 3554,
      "СС": 3555,
      "нетка": 3556,
      "##альные": 3557,
      "ограждения": 3558,
      "СК": 3559,
      "##алле": 3560,
      "оболочки": 3561,
      "тройников": 3562,
      "антикоррозион": 3563,
      "запирающим": 3564,
      "170": 3565,
      "ук": 3566,
      "полот": 3567,
      "межд": 3568,
      "лип": 3569,
      "150x150x90": 3570,
      "воздухопроводов": 3571,
      "вентили": 3572,
      "дутья": 3573,
      "трав": 3574,
      "##х240": 3575,
      "1100": 3576,
      "встра": 3577,
      "полипропиленовый": 3578,
      "поливинил": 3579,
      "39": 3580,
      "##ехнических": 3581,
      "УФ": 3582,
      "тяг": 3583,
      "##иком": 3584,
      "##лев": 3585,
      "вырыв": 3586,
      "алюминия": 3587,
      "латунная": 3588,
      "расчетная": 3589,
      "четырех": 3590,
      "##канальный": 3591,
      "момента": 3592,
      "Вентилятор": 3593,
      "##юб": 3594,
      "##38": 3595,
      "горных": 3596,
      "Плитка": 3597,
      "транспорт": 3598,
      "Гру": 3599,
      "##етки": 3600,
      "трубчатые": 3601,
      "плоские": 3602,
      "общая": 3603,
      "секционный": 3604,
      "У2": 3605,
      "воз": 3606,
      "мик": 3607,
      "##x8": 3608,
      "##овоз": 3609,
      "нав": 3610,
      "##ранный": 3611,
      "располож": 3612,
      "дорожных": 3613,
      "обеча": 3614,
      "Бур": 3615,
      "дол": 3616,
      "##невой": 3617,
      "##кому": 3618,
      "##ипп": 3619,
      "кони": 3620,
      "балки": 3621,
      "КУГ": 3622,
      "вентилируемых": 3623,
      "##ути": 3624,
      "##Х13": 3625,
      "защ": 3626,
      "##ающие": 3627,
      "предохра": 3628,
      "решетчатые": 3629,
      "безнапорные": 3630,
      "встраиваем": 3631,
      "##гов": 3632,
      "подкос": 3633,
      "##нители": 3634,
      "окра": 3635,
      "бесс": 3636,
      "##нтованная": 3637,
      "##хлори": 3638,
      "##овозвращ": 3639,
      "##онных": 3640,
      "000": 3641,
      "##ино": 3642,
      "СТА": 3643,
      "измерительного": 3644,
      "противопожарный": 3645,
      "короткому": 3646,
      "замыканию": 3647,
      "КМПЭВЭВнг": 3648,
      "клееного": 3649,
      "навивные": 3650,
      "У3": 3651,
      "облицовка": 3652,
      "паралле": 3653,
      "радиочастотный": 3654,
      "продольном": 3655,
      "##онка": 3656,
      "гидрот": 3657,
      "им": 3658,
      "стациона": 3659,
      "##остойкость": 3660,
      "одной": 3661,
      "проволок": 3662,
      "звуко": 3663,
      "хвостовиком": 3664,
      "гидротехнических": 3665,
      "Т8": 3666,
      "ви": 3667,
      "##ационный": 3668,
      "##ковой": 3669,
      "##очным": 3670,
      "проема": 3671,
      "стеклом": 3672,
      "соединении": 3673,
      "переходный": 3674,
      "ячей": 3675,
      "транспорти": 3676,
      "разветвительная": 3677,
      "клиновым": 3678,
      "скальный": 3679,
      "окраше": 3680,
      "##ального": 3681,
      "##чные": 3682,
      "КВВГнг": 3683,
      "стыка": 3684,
      "резиновым": 3685,
      "хром": 3686,
      "поливинилхлори": 3687,
      "стр": 3688,
      "дета": 3689,
      "мод": 3690,
      "расс": 3691,
      "зажимами": 3692,
      "дверного": 3693,
      "массив": 3694,
      "3332": 3695,
      "твердая": 3696,
      "транспортировки": 3697,
      "3332и": 3698,
      "мас": 3699,
      "жесткости": 3700,
      "мел": 3701,
      "##фоб": 3702,
      "##Бл": 3703,
      "заземлением": 3704,
      "полиуретановым": 3705,
      "среднеповоротный": 3706,
      "##42": 3707,
      "##мож": 3708,
      "##x40": 3709,
      "##зы": 3710,
      "##ту": 3711,
      "консо": 3712,
      "световозвращ": 3713,
      "открытой": 3714,
      "лаки": 3715,
      "возмож": 3716,
      "В1": 3717,
      "колодцев": 3718,
      "RD": 3719,
      "ВТ": 3720,
      "ОС": 3721,
      "нев": 3722,
      "##ение": 3723,
      "##уем": 3724,
      "##аска": 3725,
      "##опас": 3726,
      "прочая": 3727,
      "удлинением": 3728,
      "##енаж": 3729,
      "ВР": 3730,
      "##обез": 3731,
      "##ственных": 3732,
      "пог": 3733,
      "акри": 3734,
      "гидрофоб": 3735,
      "##ПВХ": 3736,
      "грунт": 3737,
      "В20": 3738,
      "асфальтобетонные": 3739,
      "риг": 3740,
      "##вед": 3741,
      "##яющ": 3742,
      "##роводов": 3743,
      "направляющ": 3744,
      "после": 3745,
      "внутритрубного": 3746,
      "механизм": 3747,
      "транспортного": 3748,
      "59": 3749,
      "Брус": 3750,
      "Сегм": 3751,
      "ал": 3752,
      "фур": 3753,
      "##пир": 3754,
      "##товой": 3755,
      "SN16": 3756,
      "радиусом": 3757,
      "бессвар": 3758,
      "возможностью": 3759,
      "2р": 3760,
      "В45": 3761,
      "сана": 3762,
      "фиб": 3763,
      "штанг": 3764,
      "##пар": 3765,
      "##ровая": 3766,
      "регулирования": 3767,
      "направлении": 3768,
      "отопительный": 3769,
      "##озащищ": 3770,
      "распашной": 3771,
      "##обезопас": 3772,
      "санации": 3773,
      "груз": 3774,
      "шпона": 3775,
      "А2": 3776,
      "##уруп": 3777,
      "##став": 3778,
      "неоцинкован": 3779,
      "ручкой": 3780,
      "Краска": 3781,
      "##ПКВтп": 3782,
      "пружинный": 3783,
      "Скоба": 3784,
      "гранями": 3785,
      "вращения": 3786,
      "83": 3787,
      "##ода": 3788,
      "симм": 3789,
      "сейсмостойкость": 3790,
      "##опускная": 3791,
      "упругости": 3792,
      "Сегменты": 3793,
      "М2": 3794,
      "Ворон": 3795,
      "вт": 3796,
      "##азопровод": 3797,
      "разветвления": 3798,
      "двухкамер": 3799,
      "теплонос": 3800,
      "##урой": 3801,
      "##ающий": 3802,
      "консольный": 3803,
      "РО": 3804,
      "фундамент": 3805,
      "жестких": 3806,
      "фильт": 3807,
      "ПСП": 3808,
      "##коп": 3809,
      "##бро": 3810,
      "##енс": 3811,
      "откид": 3812,
      "горюче": 3813,
      "Ответвитель": 3814,
      "полипропиленовая": 3815,
      "спирально": 3816,
      "Воронка": 3817,
      "ель": 3818,
      "Ар": 3819,
      "Г4": 3820,
      "жел": 3821,
      "##ион": 3822,
      "отраж": 3823,
      "прибор": 3824,
      "##паунд": 3825,
      "красками": 3826,
      "раструбный": 3827,
      "непод": 3828,
      "измерительный": 3829,
      "Габбро": 3830,
      "невы": 3831,
      "фурнит": 3832,
      "53": 3833,
      "М1": 3834,
      "##оном": 3835,
      "##НД": 3836,
      "##ким": 3837,
      "##осевое": 3838,
      "114": 3839,
      "пенополистирола": 3840,
      "системы": 3841,
      "шту": 3842,
      "стены": 3843,
      "межосевое": 3844,
      "прямоугольного": 3845,
      "Колено": 3846,
      "Элемент": 3847,
      "колодца": 3848,
      "Риг": 3849,
      "сор": 3850,
      "##онесущ": 3851,
      "1220": 3852,
      "##ированных": 3853,
      "присоединением": 3854,
      "содержание": 3855,
      "световозвращающей": 3856,
      "пустот": 3857,
      "49": 3858,
      "##х65": 3859,
      "толщине": 3860,
      "смеси": 3861,
      "приварная": 3862,
      "трещинами": 3863,
      "стеклонит": 3864,
      "преднапряженная": 3865,
      "игровой": 3866,
      "взрывозащищ": 3867,
      "ульт": 3868,
      "теплоносителя": 3869,
      "фурнитурой": 3870,
      "КО": 3871,
      "СВ": 3872,
      "твердые": 3873,
      "стру": 3874,
      "конс": 3875,
      "1800": 3876,
      "##ключения": 3877,
      "190x150x90": 3878,
      "черный": 3879,
      "шестигранной": 3880,
      "монолит": 3881,
      "Кирпич": 3882,
      "бел": 3883,
      "теплоизоли": 3884,
      "##цовая": 3885,
      "оконных": 3886,
      "стержневой": 3887,
      "моду": 3888,
      "стеклонитей": 3889,
      "ультрафи": 3890,
      "Колод": 3891,
      "##нот": 3892,
      "##льные": 3893,
      "Балки": 3894,
      "86": 3895,
      "Т5": 3896,
      "брон": 3897,
      "галь": 3898,
      "##во": 3899,
      "##2л": 3900,
      "##бетон": 3901,
      "##аны": 3902,
      "стати": 3903,
      "##оком": 3904,
      "отс": 3905,
      "##амид": 3906,
      "плотных": 3907,
      "способностью": 3908,
      "антипир": 3909,
      "остеклен": 3910,
      "концентрический": 3911,
      "лиф": 3912,
      "G5": 3913,
      "кирпич": 3914,
      "нипп": 3915,
      "водопр": 3916,
      "раствор": 3917,
      "щит": 3918,
      "##иф": 3919,
      "однополь": 3920,
      "сдво": 3921,
      "биметаллический": 3922,
      "78": 3923,
      "АМ": 3924,
      "ИКБ": 3925,
      "компр": 3926,
      "компаунд": 3927,
      "##нутые": 3928,
      "гайкой": 3929,
      "содержанием": 3930,
      "##ембра": 3931,
      "удерживающей": 3932,
      "витраж": 3933,
      "поликарбоната": 3934,
      "ультрафиолет": 3935,
      "бер": 3936,
      "##тур": 3937,
      "##сторон": 3938,
      "заг": 3939,
      "алюминиевая": 3940,
      "газон": 3941,
      "уголками": 3942,
      "универсальный": 3943,
      "Шпильки": 3944,
      "АПв": 3945,
      "Розетка": 3946,
      "Армату": 3947,
      "скреп": 3948,
      "3С": 3949,
      "кноп": 3950,
      "хомут": 3951,
      "##воз": 3952,
      "##бр": 3953,
      "##ят": 3954,
      "сквоз": 3955,
      "##17р": 3956,
      "##ессов": 3957,
      "гладкий": 3958,
      "световой": 3959,
      "КПС": 3960,
      "##полюсные": 3961,
      "##оды": 3962,
      "480": 3963,
      "##ма": 3964,
      "распорный": 3965,
      "##40x1": 3966,
      "##ломоустойчивый": 3967,
      "контроли": 3968,
      "изолированные": 3969,
      "устройств": 3970,
      "керамический": 3971,
      "взломоустойчивый": 3972,
      "920": 3973,
      "EI": 3974,
      "Маты": 3975,
      "Регулятор": 3976,
      "##x600": 3977,
      "соединение": 3978,
      "##рующий": 3979,
      "поворотный": 3980,
      "SN32": 3981,
      "цементе": 3982,
      "провода": 3983,
      "потока": 3984,
      "10с96": 3985,
      "очистного": 3986,
      "SN48": 3987,
      "режим": 3988,
      "акрилов": 3989,
      "##ведения": 3990,
      "##63": 3991,
      "79": 3992,
      "Зам": 3993,
      "##анси": 3994,
      "разм": 3995,
      "##есси": 3996,
      "##егород": 3997,
      "258": 3998,
      "сварки": 3999,
      "SN24": 4000,
      "баланси": 4001,
      "КУП": 4002,
      "силикат": 4003,
      "естественной": 4004,
      "патрубка": 4005,
      "##х30": 4006,
      "##КМ": 4007,
      "##онт": 4008,
      "излуче": 4009,
      "разрыв": 4010,
      "двухсторон": 4011,
      "болт": 4012,
      "##четчик": 4013,
      "сетей": 4014,
      "водоотведения": 4015,
      "дифференциальный": 4016,
      "виде": 4017,
      "сдвоенные": 4018,
      "W2": 4019,
      "ПК": 4020,
      "1300": 4021,
      "самонесущ": 4022,
      "SN12": 4023,
      "ответвительный": 4024,
      "рельсов": 4025,
      "торцевая": 4026,
      "спиральношовные": 4027,
      "излучению": 4028,
      "Пок": 4029,
      "фундам": 4030,
      "##Кт": 4031,
      "водог": 4032,
      "прочие": 4033,
      "штоком": 4034,
      "щебено": 4035,
      "##лизации": 4036,
      "противопожарных": 4037,
      "искус": 4038,
      "водогазопровод": 4039,
      "МС": 4040,
      "М600": 4041,
      "Т1": 4042,
      "бук": 4043,
      "зер": 4044,
      "ряд": 4045,
      "цир": 4046,
      "##цем": 4047,
      "##отуар": 4048,
      "тротуар": 4049,
      "стеклот": 4050,
      "##x35": 4051,
      "огнестойкого": 4052,
      "##куля": 4053,
      "опалубки": 4054,
      "щебеноч": 4055,
      "циркуля": 4056,
      "слоями": 4057,
      "фундамента": 4058,
      "аэ": 4059,
      "номинальная": 4060,
      "Стойки": 4061,
      "плитками": 4062,
      "##ПКВКт": 4063,
      "свинц": 4064,
      "стороны": 4065,
      "линейный": 4066,
      "полотна": 4067,
      "долгов": 4068,
      "втул": 4069,
      "##ембрана": 4070,
      "долговрем": 4071,
      "87": 4072,
      "##ИП": 4073,
      "Трубка": 4074,
      "07": 4075,
      "6х36": 4076,
      "лаз": 4077,
      "сопр": 4078,
      "##оиз": 4079,
      "##льная": 4080,
      "натяж": 4081,
      "дренаж": 4082,
      "##омпозит": 4083,
      "стекловолоконный": 4084,
      "столбам": 4085,
      "SN64": 4086,
      "встраиваемый": 4087,
      "антипиренов": 4088,
      "ультрафиолетового": 4089,
      "долговременный": 4090,
      "##44": 4091,
      "цилиндрический": 4092,
      "однорядная": 4093,
      "##катур": 4094,
      "поверхностная": 4095,
      "ребра": 4096,
      "водопропуск": 4097,
      "##цвет": 4098,
      "##новой": 4099,
      "рельс": 4100,
      "ВС": 4101,
      "бум": 4102,
      "##нта": 4103,
      "##х185": 4104,
      "крив": 4105,
      "##x1000": 4106,
      "установка": 4107,
      "сигнализации": 4108,
      "чугунные": 4109,
      "дорожное": 4110,
      "##оводы": 4111,
      "чугунной": 4112,
      "Воздуховоды": 4113,
      "компаунда": 4114,
      "шин": 4115,
      "##рытие": 4116,
      "1ПКВтнг": 4117,
      "вс": 4118,
      "##фазный": 4119,
      "##лений": 4120,
      "##опро": 4121,
      "дверных": 4122,
      "оси": 4123,
      "средней": 4124,
      "скрыт": 4125,
      "поверхность": 4126,
      "неразъемная": 4127,
      "НС": 4128,
      "низкол": 4129,
      "низколег": 4130,
      "B15": 4131,
      "Нас": 4132,
      "Сетка": 4133,
      "атом": 4134,
      "##лощ": 4135,
      "15600": 4136,
      "Клапаны": 4137,
      "##x130": 4138,
      "цветная": 4139,
      "пролетных": 4140,
      "штукатур": 4141,
      "##гольный": 4142,
      "185": 4143,
      "LO": 4144,
      "ем": 4145,
      "крут": 4146,
      "моди": 4147,
      "##ъеди": 4148,
      "##отовая": 4149,
      "HF1": 4150,
      "удар": 4151,
      "канализации": 4152,
      "дисковый": 4153,
      "алм": 4154,
      "Ригели": 4155,
      "витражные": 4156,
      "##КП": 4157,
      "50х50": 4158,
      "нес": 4159,
      "##нее": 4160,
      "подземной": 4161,
      "ручного": 4162,
      "Смесь": 4163,
      "автомат": 4164,
      "СБПБ": 4165,
      "грунта": 4166,
      "##00х3000": 4167,
      "коммута": 4168,
      "##оизог": 4169,
      "крутоизог": 4170,
      "82": 4171,
      "##59": 4172,
      "анкерные": 4173,
      "Р65": 4174,
      "ШС": 4175,
      "##ппар": 4176,
      "##УС": 4177,
      "##атой": 4178,
      "##x2500": 4179,
      "SN96": 4180,
      "КВВБ": 4181,
      "секции": 4182,
      "Узлы": 4183,
      "прессованные": 4184,
      "пропит": 4185,
      "ленточные": 4186,
      "Камень": 4187,
      "Покрытие": 4188,
      "68": 4189,
      "67": 4190,
      "пай": 4191,
      "##овина": 4192,
      "102": 4193,
      "1250": 4194,
      "##ентра": 4195,
      "шиной": 4196,
      "фасонные": 4197,
      "автомоб": 4198,
      "##тепроводов": 4199,
      "##ефтепроводов": 4200,
      "одинар": 4201,
      "компресси": 4202,
      "газонефтепроводов": 4203,
      "Замок": 4204,
      "модифици": 4205,
      "3P": 4206,
      "W8": 4207,
      "Свер": 4208,
      "##юч": 4209,
      "двухрядная": 4210,
      "поверхностью": 4211,
      "КГН": 4212,
      "пластика": 4213,
      "усиленная": 4214,
      "троса": 4215,
      "липа": 4216,
      "штанги": 4217,
      "3СIIIв": 4218,
      "нагрев": 4219,
      "обык": 4220,
      "выпус": 4221,
      "##остойкости": 4222,
      "##инг": 4223,
      "конд": 4224,
      "подвод": 4225,
      "400x250": 4226,
      "стойкая": 4227,
      "IIв": 4228,
      "креплениями": 4229,
      "##IIв": 4230,
      "2ВIIIв": 4231,
      "2ВIIв": 4232,
      "Арматура": 4233,
      "контролируем": 4234,
      "обыкнов": 4235,
      "Ста": 4236,
      "отдель": 4237,
      "Ок": 4238,
      "действ": 4239,
      "зон": 4240,
      "##67р": 4241,
      "##льное": 4242,
      "СПА": 4243,
      "##нтовка": 4244,
      "обсад": 4245,
      "Габион": 4246,
      "БСЛ": 4247,
      "вибр": 4248,
      "мраморная": 4249,
      "10с967р": 4250,
      "каче": 4251,
      "F300": 4252,
      "врез": 4253,
      "пом": 4254,
      "##шивные": 4255,
      "##ерепи": 4256,
      "стальное": 4257,
      "##рони": 4258,
      "прошивные": 4259,
      "##х200": 4260,
      "компонент": 4261,
      "основанием": 4262,
      "гидроизоляционная": 4263,
      "муфту": 4264,
      "Прок": 4265,
      "шайбой": 4266,
      "Грунтовка": 4267,
      "##х37": 4268,
      "обечайки": 4269,
      "2з": 4270,
      "брони": 4271,
      "тка": 4272,
      "##отив": 4273,
      "##обеж": 4274,
      "конструктив": 4275,
      "сборе": 4276,
      "изгибом": 4277,
      "лиственница": 4278,
      "консоли": 4279,
      "560": 4280,
      "Пол": 4281,
      "12Г2С": 4282,
      "2200": 4283,
      "Балка": 4284,
      "К2": 4285,
      "де": 4286,
      "##арфор": 4287,
      "стяж": 4288,
      "трубчат": 4289,
      "песко": 4290,
      "14нж17п": 4291,
      "14нж917п": 4292,
      "центробеж": 4293,
      "##урупы": 4294,
      "Грав": 4295,
      "##шир": 4296,
      "однокамер": 4297,
      "поя": 4298,
      "##идная": 4299,
      "стандартным": 4300,
      "сетки": 4301,
      "##х75": 4302,
      "концевой": 4303,
      "невыдвижным": 4304,
      "Гравий": 4305,
      "3х50": 4306,
      "К1": 4307,
      "лак": 4308,
      "чист": 4309,
      "##еная": 4310,
      "свер": 4311,
      "IP00": 4312,
      "СБЗ": 4313,
      "подвески": 4314,
      "полиэстера": 4315,
      "органи": 4316,
      "4х4": 4317,
      "ЛП": 4318,
      "берез": 4319,
      "61": 4320,
      "E600": 4321,
      "ветр": 4322,
      "##мос": 4323,
      "##бы": 4324,
      "##92": 4325,
      "отключения": 4326,
      "лиственных": 4327,
      "остеклением": 4328,
      "водогазопроводные": 4329,
      "деформ": 4330,
      "B25": 4331,
      "бу": 4332,
      "##ун": 4333,
      "облицовки": 4334,
      "поперечин": 4335,
      "стрел": 4336,
      "5ок": 4337,
      "93": 4338,
      "Рас": 4339,
      "точе": 4340,
      "##делитель": 4341,
      "одного": 4342,
      "ширины": 4343,
      "защитная": 4344,
      "песчаная": 4345,
      "квадратного": 4346,
      "участка": 4347,
      "КМПВнг": 4348,
      "подкосом": 4349,
      "меди": 4350,
      "F1": 4351,
      "центра": 4352,
      "##бШп": 4353,
      "##ъярусный": 4354,
      "##CA": 4355,
      "##ометри": 4356,
      "натр": 4357,
      "внутренняя": 4358,
      "плотностью": 4359,
      "##х3000": 4360,
      "соединительные": 4361,
      "резьбовым": 4362,
      "скоб": 4363,
      "гибких": 4364,
      "керам": 4365,
      "информ": 4366,
      "прокладками": 4367,
      "деталей": 4368,
      "неоцинкованные": 4369,
      "щебеночно": 4370,
      "Электроды": 4371,
      "рам": 4372,
      "фр": 4373,
      "шаг": 4374,
      "##асл": 4375,
      "##окрас": 4376,
      "##ковом": 4377,
      "ответвления": 4378,
      "проем": 4379,
      "##x25": 4380,
      "корпусе": 4381,
      "силовая": 4382,
      "Зажимы": 4383,
      "##створчатый": 4384,
      "поверхностей": 4385,
      "известняковом": 4386,
      "минимальной": 4387,
      "горючести": 4388,
      "помещ": 4389,
      "лакокрас": 4390,
      "77": 4391,
      "ИКС": 4392,
      "лами": 4393,
      "ули": 4394,
      "##изи": 4395,
      "SDR9": 4396,
      "АВВГ": 4397,
      "##родром": 4398,
      "заполнителях": 4399,
      "стеклоткань": 4400,
      "аэродром": 4401,
      "действия": 4402,
      "ИКСЛ": 4403,
      "ламини": 4404,
      "260": 4405,
      "железнодорожного": 4406,
      "отдельностоящ": 4407,
      "АД": 4408,
      "СИП": 4409,
      "аппар": 4410,
      "тав": 4411,
      "##Б1": 4412,
      "##МС": 4413,
      "##снов": 4414,
      "##чным": 4415,
      "##олст": 4416,
      "##отовый": 4417,
      "крем": 4418,
      "##никами": 4419,
      "##опресс": 4420,
      "трехфазный": 4421,
      "допол": 4422,
      "комбинированная": 4423,
      "ПБС": 4424,
      "прессуем": 4425,
      "створками": 4426,
      "автомобильных": 4427,
      "вибропресс": 4428,
      "мор": 4429,
      "##нистой": 4430,
      "скор": 4431,
      "ИТ": 4432,
      "М400": 4433,
      "Основ": 4434,
      "Пред": 4435,
      "Сд": 4436,
      "бе": 4437,
      "щита": 4438,
      "осина": 4439,
      "##лопастная": 4440,
      "##х300": 4441,
      "##сплу": 4442,
      "200х50": 4443,
      "##x496": 4444,
      "шестигранные": 4445,
      "быстро": 4446,
      "гипс": 4447,
      "промышленных": 4448,
      "погруж": 4449,
      "Предохра": 4450,
      "##Х17": 4451,
      "##сть": 4452,
      "66": 4453,
      "Мембрана": 4454,
      "Пор": 4455,
      "обрез": 4456,
      "радиацион": 4457,
      "Крестовина": 4458,
      "Обрам": 4459,
      "натяжной": 4460,
      "емкость": 4461,
      "радиационно": 4462,
      "84": 4463,
      "полнот": 4464,
      "3х35": 4465,
      "D400": 4466,
      "Засл": 4467,
      "О1": 4468,
      "метиз": 4469,
      "##возд": 4470,
      "##фф": 4471,
      "##мобезопас": 4472,
      "##ющие": 4473,
      "103": 4474,
      "подд": 4475,
      "прямые": 4476,
      "арматурой": 4477,
      "##ластика": 4478,
      "##агности": 4479,
      "бескана": 4480,
      "соединительный": 4481,
      "цветными": 4482,
      "##амеры": 4483,
      "отделкой": 4484,
      "шамотный": 4485,
      "АСБ": 4486,
      "травмобезопас": 4487,
      "##ПКВтпнг": 4488,
      "контролируемого": 4489,
      "бесканальной": 4490,
      "##ители": 4491,
      "сборные": 4492,
      "##Х17Н": 4493,
      "8000": 4494,
      "Бол": 4495,
      "Дв": 4496,
      "ПСТ": 4497,
      "гладки": 4498,
      "##улов": 4499,
      "диагности": 4500,
      "##очками": 4501,
      "##екционный": 4502,
      "##ружеч": 4503,
      "##ладка": 4504,
      "эксплу": 4505,
      "МКСТ": 4506,
      "Уголок": 4507,
      "стандартнопроходной": 4508,
      "цоколем": 4509,
      "непер": 4510,
      "##ницаем": 4511,
      "многопустотные": 4512,
      "распределительные": 4513,
      "двухкомпонентная": 4514,
      "МЛСТ": 4515,
      "14нж017п32": 4516,
      "МКБСТ": 4517,
      "зоне": 4518,
      "##аш": 4519,
      "1000х1": 4520,
      "нитей": 4521,
      "2P": 4522,
      "2х1": 4523,
      "3х95": 4524,
      "ВВГ": 4525,
      "##x70": 4526,
      "##овое": 4527,
      "##ними": 4528,
      "##енное": 4529,
      "##ющая": 4530,
      "250х120": 4531,
      "теплового": 4532,
      "строений": 4533,
      "электрическим": 4534,
      "трубчатой": 4535,
      "уличный": 4536,
      "неперфор": 4537,
      "жид": 4538,
      "##66": 4539,
      "упругость": 4540,
      "метр": 4541,
      "ох": 4542,
      "##ских": 4543,
      "##x16": 4544,
      "цементной": 4545,
      "##аемой": 4546,
      "механическим": 4547,
      "глубина": 4548,
      "штыревой": 4549,
      "вытяжных": 4550,
      "имп": 4551,
      "бессварного": 4552,
      "балансировочный": 4553,
      "сопротив": 4554,
      "коммутационная": 4555,
      "буро": 4556,
      "1з": 4557,
      "Бр": 4558,
      "имитация": 4559,
      "##орешетка": 4560,
      "загр": 4561,
      "##адочные": 4562,
      "стенкой": 4563,
      "пере": 4564,
      "##илиз": 4565,
      "полимербетон": 4566,
      "1700": 4567,
      "дверные": 4568,
      "SDR7": 4569,
      "Фланцы": 4570,
      "керамические": 4571,
      "однопут": 4572,
      "Георешетка": 4573,
      "двуполь": 4574,
      "10с367р": 4575,
      "эмалью": 4576,
      "Угольник": 4577,
      "антикоррозионным": 4578,
      "поливинилхлорид": 4579,
      "искусств": 4580,
      "14нж917п34": 4581,
      "метизы": 4582,
      "буроопускная": 4583,
      "загряз": 4584,
      "##41": 4585,
      "##жи": 4586,
      "парап": 4587,
      "3х70": 4588,
      "E27": 4589,
      "Дис": 4590,
      "М4": 4591,
      "М8": 4592,
      "Счетчик": 4593,
      "пле": 4594,
      "##пы": 4595,
      "##ступ": 4596,
      "##орез": 4597,
      "однокомпонент": 4598,
      "оптическими": 4599,
      "число": 4600,
      "элементами": 4601,
      "защел": 4602,
      "Окно": 4603,
      "МГ": 4604,
      "борт": 4605,
      "гайками": 4606,
      "Эк": 4607,
      "шва": 4608,
      "##72": 4609,
      "##насти": 4610,
      "##ополот": 4611,
      "разбор": 4612,
      "100х50": 4613,
      "##еся": 4614,
      "гранита": 4615,
      "3500": 4616,
      "авт": 4617,
      "каркасе": 4618,
      "водоотводный": 4619,
      "полиэстер": 4620,
      "станций": 4621,
      "между": 4622,
      "лакированной": 4623,
      "Сверло": 4624,
      "тавровая": 4625,
      "внутренние": 4626,
      "165": 4627,
      "Эмаль": 4628,
      "Агр": 4629,
      "фарфор": 4630,
      "##Внг": 4631,
      "##нителем": 4632,
      "металлоп": 4633,
      "##верде": 4634,
      "напряжения": 4635,
      "##х32": 4636,
      "переходных": 4637,
      "контактами": 4638,
      "гофрированная": 4639,
      "газопроводные": 4640,
      "водоотводной": 4641,
      "двухкомпонентный": 4642,
      "преднапряженные": 4643,
      "специальная": 4644,
      "звукоизоли": 4645,
      "сортовой": 4646,
      "ниппель": 4647,
      "14нж17п28": 4648,
      "аэродромных": 4649,
      "диагностирования": 4650,
      "Агрег": 4651,
      "М300": 4652,
      "039": 4653,
      "транспорта": 4654,
      "900х": 4655,
      "ГПа": 4656,
      "ДСП": 4657,
      "ад": 4658,
      "дина": 4659,
      "##гез": 4660,
      "ключ": 4661,
      "шпильки": 4662,
      "анкерная": 4663,
      "радиальный": 4664,
      "деревянная": 4665,
      "ремонт": 4666,
      "М200": 4667,
      "##онструк": 4668,
      "##локонструк": 4669,
      "оснований": 4670,
      "водосточных": 4671,
      "парапет": 4672,
      "Д3": 4673,
      "Камеры": 4674,
      "готовая": 4675,
      "##лый": 4676,
      "##Бп": 4677,
      "дистан": 4678,
      "##готов": 4679,
      "огнез": 4680,
      "медная": 4681,
      "полочками": 4682,
      "стеклопакетами": 4683,
      "горизонтальное": 4684,
      "Компенсатор": 4685,
      "твердых": 4686,
      "Хомуты": 4687,
      "неизолированная": 4688,
      "пористых": 4689,
      "10с371фт": 4690,
      "хризотилцементные": 4691,
      "микрот": 4692,
      "расположения": 4693,
      "параллель": 4694,
      "##яющий": 4695,
      "ударного": 4696,
      "алмаз": 4697,
      "Ру": 4698,
      "С4": 4699,
      "дБ": 4700,
      "пет": 4701,
      "##ированием": 4702,
      "##онным": 4703,
      "простран": 4704,
      "##рата": 4705,
      "тре": 4706,
      "Светильники": 4707,
      "регулированием": 4708,
      "оболочка": 4709,
      "##ярусного": 4710,
      "ребр": 4711,
      "окрашены": 4712,
      "сквозным": 4713,
      "натри": 4714,
      "##ополимер": 4715,
      "сид": 4716,
      "строительной": 4717,
      "проводников": 4718,
      "прямоугольный": 4719,
      "##x190x100": 4720,
      "тягой": 4721,
      "атомных": 4722,
      "LOCA": 4723,
      "3х25": 4724,
      "К38": 4725,
      "барьер": 4726,
      "руко": 4727,
      "слив": 4728,
      "хом": 4729,
      "##онов": 4730,
      "##аи": 4731,
      "##ащ": 4732,
      "##рыва": 4733,
      "безус": 4734,
      "##x2x2": 4735,
      "полок": 4736,
      "##атора": 4737,
      "твердого": 4738,
      "Геополот": 4739,
      "конусная": 4740,
      "створкой": 4741,
      "древесина": 4742,
      "добавками": 4743,
      "Регуляторы": 4744,
      "тротуарная": 4745,
      "динасовые": 4746,
      "сидень": 4747,
      "Геополотно": 4748,
      "570": 4749,
      "клен": 4750,
      "##холст": 4751,
      "##епро": 4752,
      "выключат": 4753,
      "выступ": 4754,
      "кабельное": 4755,
      "переп": 4756,
      "##цевые": 4757,
      "термометри": 4758,
      "##изводительность": 4759,
      "380x190x120": 4760,
      "стеклохолст": 4761,
      "отводов": 4762,
      "электротяг": 4763,
      "других": 4764,
      "Након": 4765,
      "предохранительный": 4766,
      "заглуш": 4767,
      "сверления": 4768,
      "аппарат": 4769,
      "Болты": 4770,
      "безусадочные": 4771,
      "термометрическая": 4772,
      "гнутый": 4773,
      "светофор": 4774,
      "780": 4775,
      "Плен": 4776,
      "ленты": 4777,
      "улич": 4778,
      "##ув": 4779,
      "##ках": 4780,
      "сталей": 4781,
      "сейсмостойкое": 4782,
      "##ольтный": 4783,
      "##ительного": 4784,
      "плотности": 4785,
      "Сваи": 4786,
      "профили": 4787,
      "##x350": 4788,
      "потоков": 4789,
      "магистральный": 4790,
      "ремонта": 4791,
      "симметри": 4792,
      "бумаж": 4793,
      "грунтах": 4794,
      "информационный": 4795,
      "травмобезопасным": 4796,
      "электротяговый": 4797,
      "Пленка": 4798,
      "заб": 4799,
      "АБ": 4800,
      "ПТ": 4801,
      "##26": 4802,
      "##ыв": 4803,
      "##ставкой": 4804,
      "##опог": 4805,
      "##изны": 4806,
      "##цевым": 4807,
      "спиральный": 4808,
      "изгибами": 4809,
      "несущей": 4810,
      "рекламный": 4811,
      "Колодец": 4812,
      "##амидных": 4813,
      "кривизны": 4814,
      "бронированный": 4815,
      "конструктивной": 4816,
      "полимербетонный": 4817,
      "симметричный": 4818,
      "##образ": 4819,
      "канализационных": 4820,
      "3х120": 4821,
      "А4": 4822,
      "скат": 4823,
      "##еив": 4824,
      "##рующие": 4825,
      "лицевой": 4826,
      "##уму": 4827,
      "фасонных": 4828,
      "##х400": 4829,
      "10с71фт": 4830,
      "форма": 4831,
      "поворотом": 4832,
      "свинцовые": 4833,
      "натриев": 4834,
      "М250": 4835,
      "Сталь": 4836,
      "3х16": 4837,
      "##хит": 4838,
      "##ацией": 4839,
      "##ровых": 4840,
      "алюминиевым": 4841,
      "архит": 4842,
      "базой": 4843,
      "2400": 4844,
      "отделки": 4845,
      "ОКЛ": 4846,
      "термоусаживаемая": 4847,
      "РПШ": 4848,
      "футеровочные": 4849,
      "желоб": 4850,
      "ИТГ": 4851,
      "архитект": 4852,
      "Кот": 4853,
      "Терм": 4854,
      "ат": 4855,
      "кед": 4856,
      "##ью": 4857,
      "##пти": 4858,
      "##ерный": 4859,
      "##евов": 4860,
      "перед": 4861,
      "##слойным": 4862,
      "##ливания": 4863,
      "355": 4864,
      "переклад": 4865,
      "Подстан": 4866,
      "трансформаторная": 4867,
      "дробления": 4868,
      "гильзами": 4869,
      "рассеив": 4870,
      "отсевов": 4871,
      "Диск": 4872,
      "архитектур": 4873,
      "Подстанция": 4874,
      "##евые": 4875,
      "сварочные": 4876,
      "шахты": 4877,
      "4х2": 4878,
      "А1": 4879,
      "Гиль": 4880,
      "Свет": 4881,
      "ЩО": 4882,
      "##лли": 4883,
      "##креп": 4884,
      "##x80": 4885,
      "##21": 4886,
      "ответ": 4887,
      "перви": 4888,
      "компенсатор": 4889,
      "крышка": 4890,
      "условный": 4891,
      "##ягаемой": 4892,
      "##ротверде": 4893,
      "легкие": 4894,
      "Кольца": 4895,
      "14нж017п31": 4896,
      "ЛС59": 4897,
      "терморегулятор": 4898,
      "отражателем": 4899,
      "АМг": 4900,
      "зерен": 4901,
      "обсадные": 4902,
      "лакокрасочным": 4903,
      "кедр": 4904,
      "первичный": 4905,
      "полками": 4906,
      "резиновые": 4907,
      "Реле": 4908,
      "ТД": 4909,
      "мат": 4910,
      "рт": 4911,
      "топ": 4912,
      "##рации": 4913,
      "##очное": 4914,
      "##цевое": 4915,
      "металлов": 4916,
      "цементные": 4917,
      "комплектом": 4918,
      "комплектная": 4919,
      "SDS": 4920,
      "СБВБ": 4921,
      "лампами": 4922,
      "щебень": 4923,
      "##польз": 4924,
      "двухслойные": 4925,
      "декоративные": 4926,
      "##ерживающий": 4927,
      "материалах": 4928,
      "шпунтованная": 4929,
      "самонесущий": 4930,
      "Основание": 4931,
      "##опоглощ": 4932,
      "натриевую": 4933,
      "##ллипти": 4934,
      "ртут": 4935,
      "ФК": 4936,
      "##АС": 4937,
      "3х4": 4938,
      "Барьер": 4939,
      "Ламп": 4940,
      "М150": 4941,
      "эллипти": 4942,
      "##боль": 4943,
      "раздель": 4944,
      "использ": 4945,
      "природ": 4946,
      "теплостойкость": 4947,
      "##ПКр": 4948,
      "резиновая": 4949,
      "верхний": 4950,
      "измерения": 4951,
      "Скваж": 4952,
      "унифици": 4953,
      "универсальная": 4954,
      "универсальные": 4955,
      "хомутами": 4956,
      "Предохранители": 4957,
      "Лампы": 4958,
      "Скважина": 4959,
      "510": 4960,
      "98": 4961,
      "97": 4962,
      "##ланг": 4963,
      "пустотелый": 4964,
      "W6": 4965,
      "ma": 4966,
      "Имитация": 4967,
      "опорный": 4968,
      "##шный": 4969,
      "##оскоп": 4970,
      "стеклок": 4971,
      "1420": 4972,
      "##x219": 4973,
      "породы": 4974,
      "высокой": 4975,
      "производственных": 4976,
      "одноствор": 4977,
      "##тивный": 4978,
      "лиственные": 4979,
      "пластиковый": 4980,
      "пластиковым": 4981,
      "закрытый": 4982,
      "дифференциального": 4983,
      "краном": 4984,
      "удлиненными": 4985,
      "масла": 4986,
      "гальва": 4987,
      "однопольный": 4988,
      "поясов": 4989,
      "гладкие": 4990,
      "параллельными": 4991,
      "Котлы": 4992,
      "max": 4993,
      "##олит": 4994,
      "40х40": 4995,
      "##ционных": 4996,
      "cх": 4997,
      "спор": 4998,
      "##ником": 4999,
      "неф": 5000,
      "контактов": 5001,
      "пара": 5002,
      "быстротверде": 5003,
      "геос": 5004,
      "крана": 5005,
      "шахтных": 5006,
      "МКРС": 5007,
      "компрессионные": 5008,
      "вибропрессованная": 5009,
      "рассеивателем": 5010,
      "стеклокомпозит": 5011,
      "cхема": 5012,
      "М12": 5013,
      "##рованным": 5014,
      "сплошные": 5015,
      "скорость": 5016,
      "1P": 5017,
      "Фик": 5018,
      "Шурупы": 5019,
      "квар": 5020,
      "лента": 5021,
      "тя": 5022,
      "##бус": 5023,
      "##плав": 5024,
      "##Ат": 5025,
      "##станов": 5026,
      "##оллей": 5027,
      "##при": 5028,
      "стекля": 5029,
      "арамидных": 5030,
      "полимерной": 5031,
      "соединительным": 5032,
      "цветные": 5033,
      "панелей": 5034,
      "крышей": 5035,
      "материалом": 5036,
      "герметичное": 5037,
      "дверей": 5038,
      "14нж17ст": 5039,
      "200х100": 5040,
      "экранированный": 5041,
      "обратные": 5042,
      "угловая": 5043,
      "##ерепица": 5044,
      "выступом": 5045,
      "геосотовый": 5046,
      "Фиксатор": 5047,
      "##оллейбус": 5048,
      "##нка": 5049,
      "арматурная": 5050,
      "полнотелый": 5051,
      "210": 5052,
      "650": 5053,
      "960": 5054,
      "ЭТ": 5055,
      "деф": 5056,
      "прут": 5057,
      "фаль": 5058,
      "##шит": 5059,
      "##етона": 5060,
      "двуст": 5061,
      "троллейбус": 5062,
      "горение": 5063,
      "150х150": 5064,
      "канальный": 5065,
      "электросварных": 5066,
      "электромагнитные": 5067,
      "##рядный": 5068,
      "поворотно": 5069,
      "спиральная": 5070,
      "неизолированный": 5071,
      "пористость": 5072,
      "эксплуата": 5073,
      "тянутые": 5074,
      "##МП": 5075,
      "скрепления": 5076,
      "F5": 5077,
      "ПРА": 5078,
      "ХПВХ": 5079,
      "Шайб": 5080,
      "фини": 5081,
      "##ояче": 5082,
      "##сВБ": 5083,
      "##нек": 5084,
      "подставкой": 5085,
      "трёхслойная": 5086,
      "##ентов": 5087,
      "одино": 5088,
      "##нопроход": 5089,
      "резиновыми": 5090,
      "геояче": 5091,
      "Скобы": 5092,
      "циркуляцией": 5093,
      "##оскопа": 5094,
      "геоячейки": 5095,
      "В35": 5096,
      "ЗП": 5097,
      "нас": 5098,
      "МЛС": 5099,
      "2х0": 5100,
      "Зв": 5101,
      "У1": 5102,
      "плав": 5103,
      "счет": 5104,
      "##они": 5105,
      "##180": 5106,
      "прорез": 5107,
      "##х13": 5108,
      "водопроводов": 5109,
      "цоколя": 5110,
      "дерева": 5111,
      "Доски": 5112,
      "муллитокремнеземистый": 5113,
      "шума": 5114,
      "подъема": 5115,
      "ячейковый": 5116,
      "крутоизогнутый": 5117,
      "однопутная": 5118,
      "##УТ": 5119,
      "мороз": 5120,
      "81": 5121,
      "D1": 5122,
      "лм": 5123,
      "##иеся": 5124,
      "##23": 5125,
      "##каливания": 5126,
      "накаливания": 5127,
      "##едка": 5128,
      "##00х800": 5129,
      "50x50": 5130,
      "##рытия": 5131,
      "##х140": 5132,
      "бетонным": 5133,
      "смот": 5134,
      "цветных": 5135,
      "газовый": 5136,
      "полипропиленовые": 5137,
      "слож": 5138,
      "штырев": 5139,
      "известняка": 5140,
      "камня": 5141,
      "щелевой": 5142,
      "дополнитель": 5143,
      "Светофор": 5144,
      "##вента": 5145,
      "175": 5146,
      "08Х18Н10": 5147,
      "инвента": 5148,
      "вос": 5149,
      "динами": 5150,
      "мемб": 5151,
      "паз": 5152,
      "##ощ": 5153,
      "##67": 5154,
      "##нив": 5155,
      "проб": 5156,
      "##лави": 5157,
      "оцинкованное": 5158,
      "##простран": 5159,
      "##x296": 5160,
      "220x190x100": 5161,
      "электросварная": 5162,
      "утеплен": 5163,
      "пенополиуретановой": 5164,
      "композитной": 5165,
      "распределительный": 5166,
      "двупольный": 5167,
      "##х250": 5168,
      "##защит": 5169,
      "##АтV": 5170,
      "360": 5171,
      "99": 5172,
      "ТП": 5173,
      "анг": 5174,
      "буров": 5175,
      "сшит": 5176,
      "##аго": 5177,
      "##ПРА": 5178,
      "##арская": 5179,
      "сварное": 5180,
      "защитной": 5181,
      "низков": 5182,
      "ответвительная": 5183,
      "цилиндрической": 5184,
      "пропита": 5185,
      "ЭмПРА": 5186,
      "##00х2000": 5187,
      "Двутавр": 5188,
      "адгез": 5189,
      "ангарская": 5190,
      "М20": 5191,
      "СГ": 5192,
      "наружными": 5193,
      "оголов": 5194,
      "##товая": 5195,
      "Сиб": 5196,
      "гли": 5197,
      "жильных": 5198,
      "##рных": 5199,
      "светиль": 5200,
      "угла": 5201,
      "электрод": 5202,
      "медных": 5203,
      "водопровод": 5204,
      "условная": 5205,
      "двойным": 5206,
      "##ирское": 5207,
      "герметизи": 5208,
      "сталемедный": 5209,
      "14нж917ст": 5210,
      "##нистые": 5211,
      "щелевая": 5212,
      "одинарной": 5213,
      "быстротвердеющие": 5214,
      "Сибирское": 5215,
      "6х37": 5216,
      "168": 5217,
      "2х2": 5218,
      "Анти": 5219,
      "##оци": 5220,
      "##куму": 5221,
      "##яной": 5222,
      "конец": 5223,
      "Стек": 5224,
      "##x196": 5225,
      "##x396": 5226,
      "двухслойным": 5227,
      "##ерса": 5228,
      "полипропиленовое": 5229,
      "винтовыми": 5230,
      "дробле": 5231,
      "клеевых": 5232,
      "дефект": 5233,
      "сшитого": 5234,
      "##кумулятор": 5235,
      "лифтов": 5236,
      "418": 5237,
      "94": 5238,
      "Глуш": 5239,
      "Т3": 5240,
      "Трав": 5241,
      "лощ": 5242,
      "мяг": 5243,
      "##огр": 5244,
      "##М2": 5245,
      "##нных": 5246,
      "##атели": 5247,
      "проз": 5248,
      "##ческом": 5249,
      "стальными": 5250,
      "##х14": 5251,
      "двухлопастная": 5252,
      "системой": 5253,
      "системах": 5254,
      "листовая": 5255,
      "нерас": 5256,
      "свинцовая": 5257,
      "канализационного": 5258,
      "теплоизолированных": 5259,
      "рядовой": 5260,
      "барьерного": 5261,
      "прозра": 5262,
      "М16": 5263,
      "вор": 5264,
      "277": 5265,
      "1х10": 5266,
      "3х150": 5267,
      "мА": 5268,
      "факт": 5269,
      "##роп": 5270,
      "##ант": 5271,
      "##анный": 5272,
      "##ителей": 5273,
      "##сос": 5274,
      "трам": 5275,
      "##ированное": 5276,
      "##нтус": 5277,
      "##даления": 5278,
      "ввода": 5279,
      "экранами": 5280,
      "стационарные": 5281,
      "конденс": 5282,
      "заглушкой": 5283,
      "компенсатором": 5284,
      "##пространяющий": 5285,
      "##агона": 5286,
      "дефектоскопа": 5287,
      "нераспространяющий": 5288,
      "Дюб": 5289,
      "##52": 5290,
      "1х16": 5291,
      "куль": 5292,
      "шпри": 5293,
      "##нет": 5294,
      "##новит": 5295,
      "##екла": 5296,
      "##ектив": 5297,
      "наружных": 5298,
      "##цевидная": 5299,
      "опорные": 5300,
      "полиэтиленовым": 5301,
      "термоп": 5302,
      "встык": 5303,
      "##огра": 5304,
      "свободностоящ": 5305,
      "раструбом": 5306,
      "приварные": 5307,
      "квадратный": 5308,
      "пружинными": 5309,
      "поперечном": 5310,
      "армированной": 5311,
      "гидрофобным": 5312,
      "деформацион": 5313,
      "С440": 5314,
      "шприцевидная": 5315,
      "245": 5316,
      "сборных": 5317,
      "215": 5318,
      "91": 5319,
      "Встав": 5320,
      "ПД": 5321,
      "туп": 5322,
      "##уголь": 5323,
      "##тной": 5324,
      "##яем": 5325,
      "диагона": 5326,
      "налив": 5327,
      "запор": 5328,
      "50x100": 5329,
      "двухс": 5330,
      "армированные": 5331,
      "установочный": 5332,
      "зажимы": 5333,
      "соединениями": 5334,
      "##оотраж": 5335,
      "вертикальная": 5336,
      "сжатой": 5337,
      "подвесных": 5338,
      "угловые": 5339,
      "сопротивление": 5340,
      "ти": 5341,
      "деревянные": 5342,
      "F2": 5343,
      "Yн": 5344,
      "Шиб": 5345,
      "сектор": 5346,
      "##мнг": 5347,
      "##дон": 5348,
      "##зер": 5349,
      "12000": 5350,
      "теплоп": 5351,
      "металл": 5352,
      "резер": 5353,
      "резьбовые": 5354,
      "гибкости": 5355,
      "##х4х1": 5356,
      "композитных": 5357,
      "крестообраз": 5358,
      "ККБС": 5359,
      "мелко": 5360,
      "стяжными": 5361,
      "быстрого": 5362,
      "смотровых": 5363,
      "электродвиг": 5364,
      "теплопро": 5365,
      "700х": 5366,
      "E40": 5367,
      "W12": 5368,
      "Косы": 5369,
      "Масти": 5370,
      "Пат": 5371,
      "Шнек": 5372,
      "ха": 5373,
      "##2и": 5374,
      "100х80": 5375,
      "окрашенное": 5376,
      "##рующими": 5377,
      "##х2000": 5378,
      "прочностью": 5379,
      "1900": 5380,
      "СТД": 5381,
      "люб": 5382,
      "##x700": 5383,
      "мансардное": 5384,
      "##колон": 5385,
      "удерживающая": 5386,
      "карм": 5387,
      "МКБС": 5388,
      "белые": 5389,
      "остекленные": 5390,
      "импуль": 5391,
      "Звено": 5392,
      "4182и": 5393,
      "культур": 5394,
      "диагональ": 5395,
      "Косынка": 5396,
      "##ский": 5397,
      "##яч": 5398,
      "В5": 5399,
      "М500": 5400,
      "УЗ": 5401,
      "инд": 5402,
      "ку": 5403,
      "сери": 5404,
      "сополимер": 5405,
      "##реб": 5406,
      "##льного": 5407,
      "##ойчив": 5408,
      "##леум": 5409,
      "##епс": 5410,
      "##ностекла": 5411,
      "стенка": 5412,
      "горлов": 5413,
      "устойчив": 5414,
      "теплоизоляцией": 5415,
      "##щитная": 5416,
      "пеностекла": 5417,
      "цветочных": 5418,
      "штепс": 5419,
      "прямоугольные": 5420,
      "конусно": 5421,
      "механизмом": 5422,
      "##БпШп": 5423,
      "Шибер": 5424,
      "гвозд": 5425,
      "кис": 5426,
      "##1500": 5427,
      "дорожные": 5428,
      "640": 5429,
      "W20": 5430,
      "W14": 5431,
      "Клей": 5432,
      "Л63": 5433,
      "##руч": 5434,
      "##абилиз": 5435,
      "##остабилиз": 5436,
      "##порка": 5437,
      "теплос": 5438,
      "шарового": 5439,
      "кольцевое": 5440,
      "перемы": 5441,
      "С235": 5442,
      "втулочная": 5443,
      "проемов": 5444,
      "плеча": 5445,
      "алмазное": 5446,
      "атмос": 5447,
      "Мастика": 5448,
      "хаус": 5449,
      "330": 5450,
      "##бой": 5451,
      "##опод": 5452,
      "мач": 5453,
      "укладки": 5454,
      "Лак": 5455,
      "ПО": 5456,
      "ней": 5457,
      "тур": 5458,
      "##x30": 5459,
      "##ПЗ": 5460,
      "##окой": 5461,
      "вылет": 5462,
      "##адочный": 5463,
      "##естав": 5464,
      "##атором": 5465,
      "коробов": 5466,
      "275": 5467,
      "скам": 5468,
      "200х400": 5469,
      "резины": 5470,
      "##чиком": 5471,
      "спиральновит": 5472,
      "КМПВЭнг": 5473,
      "открыва": 5474,
      "фиксатор": 5475,
      "фильтрующим": 5476,
      "монолитный": 5477,
      "унифицированная": 5478,
      "теплопроизводительность": 5479,
      "спиральновитые": 5480,
      "хими": 5481,
      "##кими": 5482,
      "серый": 5483,
      "карниз": 5484,
      "F900": 5485,
      "Лю": 5486,
      "глав": 5487,
      "роз": 5488,
      "эфф": 5489,
      "##x20": 5490,
      "##ницы": 5491,
      "##ателя": 5492,
      "сита": 5493,
      "двухъярусный": 5494,
      "##онасос": 5495,
      "монтажные": 5496,
      "СБПЗ": 5497,
      "сухой": 5498,
      "гидроизоляционные": 5499,
      "кровельная": 5500,
      "##ешетки": 5501,
      "противов": 5502,
      "558": 5503,
      "декоративный": 5504,
      "мостовая": 5505,
      "одинарный": 5506,
      "КУГП": 5507,
      "ПСПБ": 5508,
      "неподвиж": 5509,
      "погружные": 5510,
      "неперфорированный": 5511,
      "загрязнения": 5512,
      "дистанцион": 5513,
      "ртутную": 5514,
      "спортивный": 5515,
      "лощеная": 5516,
      "импульс": 5517,
      "СБПЗА": 5518,
      "270": 5519,
      "УГ": 5520,
      "##ени": 5521,
      "##ика": 5522,
      "##сы": 5523,
      "1200х": 5524,
      "710": 5525,
      "ВЛ": 5526,
      "##ои": 5527,
      "##аск": 5528,
      "##опор": 5529,
      "##ексти": 5530,
      "1050": 5531,
      "распорные": 5532,
      "нефт": 5533,
      "##х18": 5534,
      "стеклопластика": 5535,
      "полук": 5536,
      "присоединитель": 5537,
      "бесцвет": 5538,
      "КПГ": 5539,
      "грунтов": 5540,
      "гайки": 5541,
      "##оудаления": 5542,
      "сплошного": 5543,
      "ТППэпБ": 5544,
      "неподвижная": 5545,
      "силикатный": 5546,
      "пропиткой": 5547,
      "400x250x120": 5548,
      "звукоизолирующая": 5549,
      "прорезанием": 5550,
      "штыревыми": 5551,
      "Траверса": 5552,
      "стеновой": 5553,
      "1х25": 5554,
      "3х185": 5555,
      "540": 5556,
      "950": 5557,
      "Киб": 5558,
      "##фнасти": 5559,
      "##ерная": 5560,
      "##орлу": 5561,
      "##рап": 5562,
      "##ейка": 5563,
      "##аяся": 5564,
      "сила": 5565,
      "города": 5566,
      "Столб": 5567,
      "##резка": 5568,
      "профилем": 5569,
      "IP66": 5570,
      "светоотраж": 5571,
      "дорожной": 5572,
      "##уктов": 5573,
      "холодноката": 5574,
      "Скорлу": 5575,
      "люминесцентными": 5576,
      "Профили": 5577,
      "водоотводного": 5578,
      "равнопроход": 5579,
      "Устройства": 5580,
      "промежуточные": 5581,
      "ревизи": 5582,
      "ШВУ": 5583,
      "устройствами": 5584,
      "архитектурно": 5585,
      "27772": 5586,
      "##донское": 5587,
      "Кибик": 5588,
      "Скорлупы": 5589,
      "B22": 5590,
      "153": 5591,
      "##перси": 5592,
      "керамическая": 5593,
      "Лино": 5594,
      "ПФ": 5595,
      "##т3": 5596,
      "##итинг": 5597,
      "сиф": 5598,
      "##лителем": 5599,
      "300х100": 5600,
      "базальт": 5601,
      "Извещ": 5602,
      "скруч": 5603,
      "трехстворчатый": 5604,
      "##х4х0": 5605,
      "дорожная": 5606,
      "наконеч": 5607,
      "поворотная": 5608,
      "стержня": 5609,
      "дымоудаления": 5610,
      "взрывозащищенный": 5611,
      "Насосы": 5612,
      "чистящ": 5613,
      "Распорка": 5614,
      "искусственный": 5615,
      "переплет": 5616,
      "конденсата": 5617,
      "свободностоящие": 5618,
      "карманный": 5619,
      "горловины": 5620,
      "Линолеум": 5621,
      "В12": 5622,
      "горяч": 5623,
      "7х1": 5624,
      "Бес": 5625,
      "СВС": 5626,
      "баск": 5627,
      "дет": 5628,
      "зав": 5629,
      "нан": 5630,
      "цепи": 5631,
      "##утовая": 5632,
      "##клави": 5633,
      "##х9": 5634,
      "##БбШв": 5635,
      "##пт": 5636,
      "##ЭШ": 5637,
      "##етболь": 5638,
      "различ": 5639,
      "##кового": 5640,
      "##очными": 5641,
      "##20н": 5642,
      "##етик": 5643,
      "##елка": 5644,
      "##катной": 5645,
      "площадкой": 5646,
      "листа": 5647,
      "сером": 5648,
      "##тепрод": 5649,
      "волокнами": 5650,
      "КУН": 5651,
      "муфтовый": 5652,
      "швов": 5653,
      "электрические": 5654,
      "литым": 5655,
      "накладной": 5656,
      "ФСФ": 5657,
      "электротехни": 5658,
      "точечная": 5659,
      "защелкой": 5660,
      "нефтепрод": 5661,
      "динамический": 5662,
      "баскетболь": 5663,
      "нанес": 5664,
      "березы": 5665,
      "кислот": 5666,
      "PP": 5667,
      "Врезка": 5668,
      "Гор": 5669,
      "КТ": 5670,
      "МП": 5671,
      "Пос": 5672,
      "Раствор": 5673,
      "Штанг": 5674,
      "вещ": 5675,
      "план": 5676,
      "##флан": 5677,
      "##злом": 5678,
      "##зящ": 5679,
      "##РН": 5680,
      "##анд": 5681,
      "зад": 5682,
      "перегород": 5683,
      "1000х2": 5684,
      "плотным": 5685,
      "##торы": 5686,
      "напрессов": 5687,
      "объемная": 5688,
      "водостойкости": 5689,
      "фланцем": 5690,
      "##дапт": 5691,
      "способности": 5692,
      "##движной": 5693,
      "перфорацией": 5694,
      "грунтованная": 5695,
      "температуре": 5696,
      "наполнителя": 5697,
      "минимальная": 5698,
      "разметки": 5699,
      "двухсторонним": 5700,
      "центробежные": 5701,
      "Обрамления": 5702,
      "хомутовая": 5703,
      "##епроницаем": 5704,
      "стеклокомпозитная": 5705,
      "##колончатые": 5706,
      "Беседка": 5707,
      "Посадочный": 5708,
      "М10": 5709,
      "ШТ": 5710,
      "теплоизоляционный": 5711,
      "конструкцион": 5712,
      "квадратная": 5713,
      "460": 5714,
      "B20": 5715,
      "М6": 5716,
      "врем": 5717,
      "магнит": 5718,
      "пути": 5719,
      "сегм": 5720,
      "##вели": 5721,
      "##электр": 5722,
      "##труб": 5723,
      "##шко": 5724,
      "##Е3": 5725,
      "разд": 5726,
      "001": 5727,
      "##x18": 5728,
      "кали": 5729,
      "бетонов": 5730,
      "сбора": 5731,
      "сборного": 5732,
      "механическая": 5733,
      "пластиковые": 5734,
      "уплотнительным": 5735,
      "термоусаживаемых": 5736,
      "пластмассовой": 5737,
      "бронзы": 5738,
      "##ПКВКтЭнг": 5739,
      "металлополимер": 5740,
      "топлив": 5741,
      "любым": 5742,
      "1х6": 5743,
      "2600": 5744,
      "C250": 5745,
      "ДН": 5746,
      "Сп": 5747,
      "зна": 5748,
      "клад": 5749,
      "увели": 5750,
      "цеп": 5751,
      "##нений": 5752,
      "коры": 5753,
      "##естная": 5754,
      "##прессов": 5755,
      "15Х": 5756,
      "##паника": 5757,
      "Коронка": 5758,
      "458": 5759,
      "комплек": 5760,
      "компози": 5761,
      "##жимная": 5762,
      "трехслойные": 5763,
      "##яжущ": 5764,
      "вентиляционные": 5765,
      "холодного": 5766,
      "тяжел": 5767,
      "бесшовная": 5768,
      "композитная": 5769,
      "армированная": 5770,
      "укреп": 5771,
      "пространства": 5772,
      "морозостойкость": 5773,
      "Антипаника": 5774,
      "серии": 5775,
      "##электри": 5776,
      "5х2": 5777,
      "отбой": 5778,
      "Вор": 5779,
      "В27": 5780,
      "мок": 5781,
      "олов": 5782,
      "опрессов": 5783,
      "шла": 5784,
      "##ии": 5785,
      "##400х": 5786,
      "##ационные": 5787,
      "##асло": 5788,
      "##аренных": 5789,
      "стального": 5790,
      "сос": 5791,
      "50К": 5792,
      "расшир": 5793,
      "4500": 5794,
      "ковкого": 5795,
      "кабелем": 5796,
      "358": 5797,
      "контактом": 5798,
      "IP44": 5799,
      "высокочастотный": 5800,
      "400х100": 5801,
      "##x3000": 5802,
      "гидроизоляции": 5803,
      "низко": 5804,
      "500х100": 5805,
      "Подвес": 5806,
      "швеллера": 5807,
      "ТППэпЗ": 5808,
      "СБЗПБ": 5809,
      "поддерживающий": 5810,
      "ключом": 5811,
      "использования": 5812,
      "восстанов": 5813,
      "открыванием": 5814,
      "противовзлом": 5815,
      "Ворота": 5816,
      "противовзломной": 5817,
      "##37": 5818,
      "##Ш1": 5819,
      "двутав": 5820,
      "порта": 5821,
      "отверстиями": 5822,
      "муллитокорундовые": 5823,
      "водопропускные": 5824,
      "4х6": 5825,
      "5х1": 5826,
      "Дет": 5827,
      "ЗТ": 5828,
      "##оной": 5829,
      "##огрев": 5830,
      "##чных": 5831,
      "##чное": 5832,
      "##стра": 5833,
      "стопор": 5834,
      "25А": 5835,
      "проект": 5836,
      "Стол": 5837,
      "воздуху": 5838,
      "связке": 5839,
      "вводных": 5840,
      "КУВ": 5841,
      "##х10ок": 5842,
      "стекловаренных": 5843,
      "эластичный": 5844,
      "эпоксидным": 5845,
      "прокладкой": 5846,
      "клеевые": 5847,
      "ВСт3": 5848,
      "пескоулов": 5849,
      "отдельностоящий": 5850,
      "мембранный": 5851,
      "дробленый": 5852,
      "нефтепродуктов": 5853,
      "Метал": 5854,
      "##остойкой": 5855,
      "4х0": 5856,
      "7х0": 5857,
      "Сая": 5858,
      "пиг": 5859,
      "риф": 5860,
      "сант": 5861,
      "ут": 5862,
      "##этиле": 5863,
      "##анные": 5864,
      "##каз": 5865,
      "набор": 5866,
      "##нели": 5867,
      "##отроп": 5868,
      "100x300": 5869,
      "трубчатый": 5870,
      "1500х": 5871,
      "Кордонское": 5872,
      "400x350": 5873,
      "300х50": 5874,
      "##чатка": 5875,
      "мощностью": 5876,
      "Перегород": 5877,
      "горячекатаного": 5878,
      "удерж": 5879,
      "200х80": 5880,
      "заполнения": 5881,
      "кровля": 5882,
      "600х100": 5883,
      "Заглушки": 5884,
      "стыкового": 5885,
      "вывода": 5886,
      "статический": 5887,
      "все": 5888,
      "скобя": 5889,
      "фрик": 5890,
      "Агрегаты": 5891,
      "эксплуатации": 5892,
      "эффектив": 5893,
      "Штанга": 5894,
      "Саянское": 5895,
      "400x350x130": 5896,
      "уз": 5897,
      "##500х": 5898,
      "152": 5899,
      "оконные": 5900,
      "крепежных": 5901,
      "2x2": 5902,
      "2х36": 5903,
      "К52": 5904,
      "Л68": 5905,
      "энер": 5906,
      "##х90": 5907,
      "##цер": 5908,
      "##язи": 5909,
      "##новый": 5910,
      "вынос": 5911,
      "202": 5912,
      "##х110": 5913,
      "Ст2": 5914,
      "142": 5915,
      "установок": 5916,
      "##ебр": 5917,
      "##ающими": 5918,
      "##илька": 5919,
      "анкерно": 5920,
      "крупно": 5921,
      "Разъеди": 5922,
      "кольцами": 5923,
      "литой": 5924,
      "заземляющим": 5925,
      "автоматов": 5926,
      "Горка": 5927,
      "корытный": 5928,
      "оловян": 5929,
      "сантехни": 5930,
      "B30": 5931,
      "##оизоляци": 5932,
      "##рад": 5933,
      "7000": 5934,
      "˚С": 5935,
      "АЗ": 5936,
      "Пласт": 5937,
      "Черепица": 5938,
      "ана": 5939,
      "элем": 5940,
      "##нопол": 5941,
      "##ему": 5942,
      "4050": 5943,
      "бетонная": 5944,
      "управляем": 5945,
      "##рующих": 5946,
      "##икс": 5947,
      "##ечники": 5948,
      "регулировки": 5949,
      "105x63": 5950,
      "КПсВБ": 5951,
      "гидравлическое": 5952,
      "черепи": 5953,
      "АСК": 5954,
      "закладной": 5955,
      "шпунт": 5956,
      "Розетки": 5957,
      "двухкамерный": 5958,
      "болтами": 5959,
      "нагреватель": 5960,
      "врезки": 5961,
      "белая": 5962,
      "Наконечники": 5963,
      "теплосети": 5964,
      "Пластина": 5965,
      "71": 5966,
      "##веллер": 5967,
      "##фит": 5968,
      "ВД": 5969,
      "Герм": 5970,
      "Лента": 5971,
      "лока": 5972,
      "тикс": 5973,
      "упа": 5974,
      "##ниц": 5975,
      "##оннели": 5976,
      "##анда": 5977,
      "##етрич": 5978,
      "##изоци": 5979,
      "##орифер": 5980,
      "смес": 5981,
      "минераль": 5982,
      "лотки": 5983,
      "##ливки": 5984,
      "фланцевым": 5985,
      "SN8": 5986,
      "предвар": 5987,
      "##движные": 5988,
      "перемещ": 5989,
      "порошковой": 5990,
      "измерений": 5991,
      "одномодовыми": 5992,
      "ПБВ": 5993,
      "потолочные": 5994,
      "акустическая": 5995,
      "ТКП": 5996,
      "280x190x120": 5997,
      "антикоррози": 5998,
      "С245": 5999,
      "наполнителем": 6000,
      "сторона": 6001,
      "промышленный": 6002,
      "М4П": 6003,
      "ремонтные": 6004,
      "двусторон": 6005,
      "полукруг": 6006,
      "элемента": 6007,
      "тиксотроп": 6008,
      "упаков": 6009,
      "520": 6010,
      "Швеллер": 6011,
      "032": 6012,
      "1х1": 6013,
      "3ПКВтпнг": 6014,
      "VI": 6015,
      "Венти": 6016,
      "Е40": 6017,
      "Решетки": 6018,
      "##кч": 6019,
      "##2х0": 6020,
      "##бк": 6021,
      "##350": 6022,
      "##ИД": 6023,
      "ненапр": 6024,
      "металлоконструк": 6025,
      "контроля": 6026,
      "током": 6027,
      "Контак": 6028,
      "трехполюсные": 6029,
      "##ографи": 6030,
      "плоская": 6031,
      "стандартными": 6032,
      "вводно": 6033,
      "##чика": 6034,
      "битумный": 6035,
      "гайка": 6036,
      "гипсовые": 6037,
      "закладная": 6038,
      "направляющее": 6039,
      "1ПКВтнг6": 6040,
      "скрытого": 6041,
      "микротоннели": 6042,
      "светоотражающие": 6043,
      "Извещатель": 6044,
      "Деталь": 6045,
      "черепицы": 6046,
      "Герметик": 6047,
      "ненапрягаемой": 6048,
      "микротоннелирования": 6049,
      "30с": 6050,
      "опорная": 6051,
      "деревянных": 6052,
      "3x2": 6053,
      "4П": 6054,
      "ПНД": 6055,
      "Сэндвич": 6056,
      "учет": 6057,
      "##роб": 6058,
      "##онки": 6059,
      "##аситель": 6060,
      "##роцемент": 6061,
      "##ительности": 6062,
      "двухп": 6063,
      "##оечные": 6064,
      "облицовкой": 6065,
      "##елла": 6066,
      "одноканальный": 6067,
      "металлическом": 6068,
      "фланцевые": 6069,
      "трехслойным": 6070,
      "##итанный": 6071,
      "аккумулятор": 6072,
      "сборный": 6073,
      "очистное": 6074,
      "цинк": 6075,
      "гофра": 6076,
      "Сооруже": 6077,
      "торцовая": 6078,
      "глубины": 6079,
      "Конструкция": 6080,
      "короткой": 6081,
      "разветвительные": 6082,
      "линейные": 6083,
      "фиброцемент": 6084,
      "двухкамерными": 6085,
      "шинная": 6086,
      "качества": 6087,
      "рукоят": 6088,
      "Сооружение": 6089,
      "##евод": 6090,
      "##1200": 6091,
      "порошковая": 6092,
      "останов": 6093,
      "дисперси": 6094,
      "##АтVТ": 6095,
      "##оподъем": 6096,
      "3х2": 6097,
      "3х240": 6098,
      "4з": 6099,
      "Держ": 6100,
      "М100": 6101,
      "На": 6102,
      "манж": 6103,
      "чув": 6104,
      "##58": 6105,
      "##x96": 6106,
      "##х500": 6107,
      "##ба": 6108,
      "##дцев": 6109,
      "##тры": 6110,
      "##36": 6111,
      "##читанный": 6112,
      "##ЭПнг": 6113,
      "##олоп": 6114,
      "##анья": 6115,
      "диэлектри": 6116,
      "##атлев": 6117,
      "прочных": 6118,
      "##чек": 6119,
      "разливки": 6120,
      "100x100": 6121,
      "внутреннего": 6122,
      "покрас": 6123,
      "##х15": 6124,
      "##иликат": 6125,
      "##атыв": 6126,
      "Связи": 6127,
      "##ающего": 6128,
      "внешней": 6129,
      "IP40": 6130,
      "канат": 6131,
      "винтовых": 6132,
      "023": 6133,
      "пожарный": 6134,
      "газа": 6135,
      "сердцев": 6136,
      "135°": 6137,
      "ЭПУ": 6138,
      "многолоп": 6139,
      "##фера": 6140,
      "##корост": 6141,
      "ЭНТ": 6142,
      "ТКМ": 6143,
      "Фильтры": 6144,
      "образная": 6145,
      "Калорифер": 6146,
      "участок": 6147,
      "прогибом": 6148,
      "рекламными": 6149,
      "анкеровки": 6150,
      "рассчитанный": 6151,
      "приборов": 6152,
      "белом": 6153,
      "кирпичным": 6154,
      "режиме": 6155,
      "лазанья": 6156,
      "1ПКВтнг10": 6157,
      "Прокладка": 6158,
      "Заслонка": 6159,
      "УЗО": 6160,
      "перемычек": 6161,
      "присоединительная": 6162,
      "задней": 6163,
      "манжет": 6164,
      "чувств": 6165,
      "многолопастная": 6166,
      "132": 6167,
      "продольная": 6168,
      "4P": 6169,
      "С1": 6170,
      "Сист": 6171,
      "Тум": 6172,
      "гнут": 6173,
      "трап": 6174,
      "##x95": 6175,
      "разделитель": 6176,
      "##еделка": 6177,
      "##обор": 6178,
      "10Х17Н": 6179,
      "145": 6180,
      "##х26": 6181,
      "Профнасти": 6182,
      "Конд": 6183,
      "трехканальный": 6184,
      "каркасные": 6185,
      "плитами": 6186,
      "SDR13": 6187,
      "боковые": 6188,
      "протектор": 6189,
      "стеновая": 6190,
      "ОККМ": 6191,
      "многослойные": 6192,
      "ААБл": 6193,
      "открытия": 6194,
      "Угольники": 6195,
      "Прокладки": 6196,
      "керамогра": 6197,
      "бумажной": 6198,
      "светильников": 6199,
      "восстановления": 6200,
      "удерживающее": 6201,
      "эффективности": 6202,
      "##нополочный": 6203,
      "шпунтовый": 6204,
      "10Х17Н13": 6205,
      "Профнастил": 6206,
      "20П": 6207,
      "грузоподъем": 6208,
      "##готовки": 6209,
      "6х25": 6210,
      "К42": 6211,
      "СО": 6212,
      "ЦП": 6213,
      "ЭЦ": 6214,
      "довод": 6215,
      "нож": 6216,
      "радиатор": 6217,
      "чаш": 6218,
      "##га": 6219,
      "##кп": 6220,
      "##зит": 6221,
      "##жности": 6222,
      "##онной": 6223,
      "##еняем": 6224,
      "прин": 6225,
      "100x400": 6226,
      "##евый": 6227,
      "перестав": 6228,
      "##лапковые": 6229,
      "##онарез": 6230,
      "самонарез": 6231,
      "фольгированные": 6232,
      "условия": 6233,
      "##цепная": 6234,
      "##х595": 6235,
      "комбинированного": 6236,
      "многоярусного": 6237,
      "##есьма": 6238,
      "водосточный": 6239,
      "футеровки": 6240,
      "##ружечные": 6241,
      "огнеза": 6242,
      "светофора": 6243,
      "Гильзы": 6244,
      "деформационного": 6245,
      "Патруб": 6246,
      "атмосфер": 6247,
      "главной": 6248,
      "увелич": 6249,
      "принуд": 6250,
      "самонарезающие": 6251,
      "условиях": 6252,
      "800х": 6253,
      "мет": 6254,
      "мол": 6255,
      "полу": 6256,
      "В2": 6257,
      "ДР": 6258,
      "буг": 6259,
      "весьма": 6260,
      "фиг": 6261,
      "##тп": 6262,
      "##органи": 6263,
      "##окон": 6264,
      "##окле": 6265,
      "##роволоч": 6266,
      "##лож": 6267,
      "40Х13": 6268,
      "Втул": 6269,
      "самокле": 6270,
      "контактного": 6271,
      "проводника": 6272,
      "холодной": 6273,
      "Переходы": 6274,
      "привода": 6275,
      "головками": 6276,
      "дифференциальным": 6277,
      "##рожковый": 6278,
      "огражде": 6279,
      "патрон": 6280,
      "РТТ5": 6281,
      "консольных": 6282,
      "ламинированной": 6283,
      "разборно": 6284,
      "треуголь": 6285,
      "водопроводных": 6286,
      "Вставки": 6287,
      "резерв": 6288,
      "управляемое": 6289,
      "упаковка": 6290,
      "чувствительности": 6291,
      "фигур": 6292,
      "##роволочными": 6293,
      "пил": 6294,
      "дви": 6295,
      "ребрист": 6296,
      "Вазон": 6297,
      "ОП": 6298,
      "##лг": 6299,
      "##рил": 6300,
      "##х600": 6301,
      "##Б2л": 6302,
      "##971фт": 6303,
      "##зра": 6304,
      "##енка": 6305,
      "изолятор": 6306,
      "##ельное": 6307,
      "##азмер": 6308,
      "разъеди": 6309,
      "##рованное": 6310,
      "##изированное": 6311,
      "##оскорост": 6312,
      "##x1500": 6313,
      "электронасос": 6314,
      "24В": 6315,
      "высокоскорост": 6316,
      "нижний": 6317,
      "вентиляции": 6318,
      "актив": 6319,
      "ячеист": 6320,
      "АВБШв": 6321,
      "10с971фт": 6322,
      "лестниц": 6323,
      "канализационные": 6324,
      "поверхностями": 6325,
      "Пресс": 6326,
      "промежуточное": 6327,
      "несущему": 6328,
      "ААБ2л": 6329,
      "##ляемый": 6330,
      "окрашена": 6331,
      "остекленный": 6332,
      "подводом": 6333,
      "однокамерный": 6334,
      "помещения": 6335,
      "разделе": 6336,
      "фрикционные": 6337,
      "Система": 6338,
      "ЭЦВ": 6339,
      "переставной": 6340,
      "850": 6341,
      "W16": 6342,
      "масти": 6343,
      "плет": 6344,
      "##устойчив": 6345,
      "##жектор": 6346,
      "##ИМ": 6347,
      "##нине": 6348,
      "##левой": 6349,
      "##ану": 6350,
      "станине": 6351,
      "##цид": 6352,
      "стяжки": 6353,
      "конт": 6354,
      "двиг": 6355,
      "труба": 6356,
      "20х20": 6357,
      "необ": 6358,
      "замковый": 6359,
      "железобетону": 6360,
      "медный": 6361,
      "1140x1": 6362,
      "штуч": 6363,
      "плоскости": 6364,
      "круглых": 6365,
      "200х200": 6366,
      "радиографи": 6367,
      "гофрированных": 6368,
      "защитный": 6369,
      "лазерная": 6370,
      "несколь": 6371,
      "пайка": 6372,
      "прессуемый": 6373,
      "ниппельном": 6374,
      "сегментов": 6375,
      "мокром": 6376,
      "оловянно": 6377,
      "высокоскоростное": 6378,
      "радиографическая": 6379,
      "440": 6380,
      "127": 6381,
      "жилых": 6382,
      "трехлуче": 6383,
      "глухие": 6384,
      "парапетного": 6385,
      "1х2": 6386,
      "4x2x0": 6387,
      "4х25": 6388,
      "4х70": 6389,
      "ВЦ": 6390,
      "Г2": 6391,
      "Кое": 6392,
      "Нд": 6393,
      "ТПВ": 6394,
      "вяжущ": 6395,
      "дном": 6396,
      "друго": 6397,
      "шланг": 6398,
      "##x800": 6399,
      "##ып": 6400,
      "##те": 6401,
      "##ПЭнг": 6402,
      "разно": 6403,
      "10х1": 6404,
      "##инское": 6405,
      "дос": 6406,
      "внутренними": 6407,
      "прик": 6408,
      "теплозащит": 6409,
      "каш": 6410,
      "теплоизоляционная": 6411,
      "110В": 6412,
      "##ластиковые": 6413,
      "материалами": 6414,
      "свето": 6415,
      "строительная": 6416,
      "Углы": 6417,
      "раструбная": 6418,
      "КПо": 6419,
      "Скам": 6420,
      "Кронштейны": 6421,
      "инъ": 6422,
      "Песоч": 6423,
      "14нж017р": 6424,
      "замыкающая": 6425,
      "ФСА": 6426,
      "скважинные": 6427,
      "прессуемые": 6428,
      "инвентарный": 6429,
      "пескоуловителя": 6430,
      "Контакторы": 6431,
      "сердцевина": 6432,
      "самоклеящ": 6433,
      "##лгинское": 6434,
      "электронасосные": 6435,
      "Коелгинское": 6436,
      "другое": 6437,
      "5А": 6438,
      "пола": 6439,
      "Анкеры": 6440,
      "поперечная": 6441,
      "грузоподъемность": 6442,
      "3х6": 6443,
      "4х50": 6444,
      "КБ": 6445,
      "пли": 6446,
      "##раб": 6447,
      "##жд": 6448,
      "##никовый": 6449,
      "толст": 6450,
      "##отексти": 6451,
      "##нителей": 6452,
      "особ": 6453,
      "осевой": 6454,
      "графит": 6455,
      "фланц": 6456,
      "##ающе": 6457,
      "пенополиизоци": 6458,
      "листом": 6459,
      "основанию": 6460,
      "плоским": 6461,
      "СБВГнг": 6462,
      "##олото": 6463,
      "Клемма": 6464,
      "усиленный": 6465,
      "вибрации": 6466,
      "дымовых": 6467,
      "ТЗП": 6468,
      "добавок": 6469,
      "однокомпонентный": 6470,
      "автоном": 6471,
      "аппаратные": 6472,
      "троллейбуса": 6473,
      "фактур": 6474,
      "трамвая": 6475,
      "Люк": 6476,
      "скрученными": 6477,
      "наконечниками": 6478,
      "##этилен": 6479,
      "Разъединитель": 6480,
      "##етричным": 6481,
      "##анурата": 6482,
      "пенополиизоцианурата": 6483,
      "мал": 6484,
      "##еи": 6485,
      "битумной": 6486,
      "стеклянная": 6487,
      "1х70": 6488,
      "420": 6489,
      "Долото": 6490,
      "ОР": 6491,
      "Пе": 6492,
      "УВ": 6493,
      "пб": 6494,
      "палуб": 6495,
      "##AL": 6496,
      "##онное": 6497,
      "износ": 6498,
      "##облоки": 6499,
      "100x500": 6500,
      "##инета": 6501,
      "горка": 6502,
      "Стелла": 6503,
      "##абарит": 6504,
      "теплоустойчив": 6505,
      "облицовочного": 6506,
      "##щитовой": 6507,
      "креплений": 6508,
      "Прожектор": 6509,
      "##ещенный": 6510,
      "гибкая": 6511,
      "##айки": 6512,
      "600х50": 6513,
      "600х80": 6514,
      "настрой": 6515,
      "гофрированный": 6516,
      "##х35мк": 6517,
      "навесом": 6518,
      "##озащитная": 6519,
      "##полюсный": 6520,
      "декоративных": 6521,
      "опалубочных": 6522,
      "хризотилцементных": 6523,
      "реверсивный": 6524,
      "74x63": 6525,
      "##x980": 6526,
      "консольной": 6527,
      "коническим": 6528,
      "##тура": 6529,
      "откидное": 6530,
      "кнопками": 6531,
      "скрытой": 6532,
      "керамзит": 6533,
      "Экстра": 6534,
      "сиденьями": 6535,
      "уличного": 6536,
      "скатом": 6537,
      "буровая": 6538,
      "карнизное": 6539,
      "локальное": 6540,
      "увеличенной": 6541,
      "контуров": 6542,
      "кашированием": 6543,
      "Песочница": 6544,
      "палубой": 6545,
      "##шлиф": 6546,
      "##азу": 6547,
      "##углеродист": 6548,
      "тонне": 6549,
      "Шайбы": 6550,
      "7х7": 6551,
      "9000": 6552,
      "кинета": 6553,
      "шкаф": 6554,
      "##уника": 6555,
      "##луч": 6556,
      "##фат": 6557,
      "##x45": 6558,
      "##товый": 6559,
      "##точного": 6560,
      "##нок": 6561,
      "##онными": 6562,
      "##кис": 6563,
      "наплав": 6564,
      "избы": 6565,
      "##опластиковые": 6566,
      "##ейные": 6567,
      "10КV": 6568,
      "20Х13": 6569,
      "опорно": 6570,
      "лотками": 6571,
      "болты": 6572,
      "##ерсивные": 6573,
      "ОКБ": 6574,
      "##x72": 6575,
      "удлиненный": 6576,
      "удлиненная": 6577,
      "путевые": 6578,
      "шумопоглощ": 6579,
      "заземляющий": 6580,
      "фикс": 6581,
      "другую": 6582,
      "лифта": 6583,
      "штукатурные": 6584,
      "пайки": 6585,
      "компонентов": 6586,
      "780x1": 6587,
      "нейло": 6588,
      "базальтопластиковые": 6589,
      "низкоуглеродист": 6590,
      "Вентиль": 6591,
      "треугольной": 6592,
      "избыточного": 6593,
      "ПБЗ": 6594,
      "1х50": 6595,
      "4х16": 6596,
      "РВ": 6597,
      "ТГ": 6598,
      "вяз": 6599,
      "касс": 6600,
      "шли": 6601,
      "##Мц": 6602,
      "##товые": 6603,
      "##PC": 6604,
      "##чок": 6605,
      "разъем": 6606,
      "##поразмер": 6607,
      "корунд": 6608,
      "14х1": 6609,
      "3050": 6610,
      "30Х13": 6611,
      "контактными": 6612,
      "цветовая": 6613,
      "высоков": 6614,
      "нагрузок": 6615,
      "фасадной": 6616,
      "воздушная": 6617,
      "гидравлического": 6618,
      "лестничный": 6619,
      "декоративной": 6620,
      "муллитокремнеземистая": 6621,
      "##2700": 6622,
      "распределителем": 6623,
      "фильтр": 6624,
      "станционный": 6625,
      "открыв": 6626,
      "поливинилхлорида": 6627,
      "Бруски": 6628,
      "акриловых": 6629,
      "рельса": 6630,
      "выпуском": 6631,
      "счетчиком": 6632,
      "типоразмер": 6633,
      "калиб": 6634,
      "Налич": 6635,
      "ККС": 6636,
      "##уля": 6637,
      "##таж": 6638,
      "131": 6639,
      "вертикальные": 6640,
      "2х4": 6641,
      "4х95": 6642,
      "ГТ": 6643,
      "ЛА": 6644,
      "НПВХ": 6645,
      "ТУТ": 6646,
      "УТ": 6647,
      "ЭИМ": 6648,
      "бут": 6649,
      "дем": 6650,
      "таб": 6651,
      "##фанов": 6652,
      "##СО": 6653,
      "##ПМ": 6654,
      "##РП": 6655,
      "##ТЛ": 6656,
      "##Эф": 6657,
      "натура": 6658,
      "##аро": 6659,
      "закреп": 6660,
      "подзем": 6661,
      "освет": 6662,
      "##ольш": 6663,
      "5050": 6664,
      "##х100х": 6665,
      "1000х3": 6666,
      "соединений": 6667,
      "##x27": 6668,
      "сварочная": 6669,
      "##ающих": 6670,
      "Оттяж": 6671,
      "боковая": 6672,
      "изолированных": 6673,
      "сердечником": 6674,
      "500х80": 6675,
      "полиуретановая": 6676,
      "эмали": 6677,
      "Шкафы": 6678,
      "составная": 6679,
      "лиственницы": 6680,
      "конической": 6681,
      "симметричным": 6682,
      "гальфанов": 6683,
      "обыкновенного": 6684,
      "органических": 6685,
      "помещений": 6686,
      "250х120х65": 6687,
      "низковольтный": 6688,
      "##клавишный": 6689,
      "##ающимися": 6690,
      "бугелем": 6691,
      "кассет": 6692,
      "гальфановым": 6693,
      "121": 6694,
      "технический": 6695,
      "масля": 6696,
      "Швеллеры": 6697,
      "1х4": 6698,
      "3х1": 6699,
      "3х0": 6700,
      "ВУС": 6701,
      "Гц": 6702,
      "ГГц": 6703,
      "СА": 6704,
      "втор": 6705,
      "штор": 6706,
      "##вяз": 6707,
      "##эк": 6708,
      "##4000": 6709,
      "##щик": 6710,
      "##йной": 6711,
      "##ненная": 6712,
      "##трубного": 6713,
      "##КВ": 6714,
      "##TP": 6715,
      "##ельные": 6716,
      "##чели": 6717,
      "##оты": 6718,
      "##отделитель": 6719,
      "##рог": 6720,
      "12КV": 6721,
      "два": 6722,
      "##цевый": 6723,
      "смещенный": 6724,
      "30ч": 6725,
      "##пала": 6726,
      "1140": 6727,
      "опорной": 6728,
      "##чатого": 6729,
      "лицевые": 6730,
      "профиль": 6731,
      "клинкер": 6732,
      "горячекатаной": 6733,
      "силовые": 6734,
      "холодоснабжения": 6735,
      "##рывающимися": 6736,
      "стык": 6737,
      "межтрубного": 6738,
      "вертикальным": 6739,
      "##x796": 6740,
      "##x250x200": 6741,
      "пружинные": 6742,
      "электрического": 6743,
      "подключениями": 6744,
      "распределительного": 6745,
      "геотексти": 6746,
      "образным": 6747,
      "заземляющего": 6748,
      "волнистой": 6749,
      "консольные": 6750,
      "нетканое": 6751,
      "лакированная": 6752,
      "ОСК": 6753,
      "приборами": 6754,
      "струк": 6755,
      "охранный": 6756,
      "перекладинами": 6757,
      "сосны": 6758,
      "нагревательный": 6759,
      "Пенополи": 6760,
      "В7": 6761,
      "ПН": 6762,
      "##авка": 6763,
      "колеи": 6764,
      "18П": 6765,
      "армирования": 6766,
      "ТСА": 6767,
      "015": 6768,
      "КД": 6769,
      "Ушко": 6770,
      "дюб": 6771,
      "##шеход": 6772,
      "##наруж": 6773,
      "разветв": 6774,
      "##остого": 6775,
      "##обетона": 6776,
      "##ловая": 6777,
      "выдвижные": 6778,
      "205": 6779,
      "##лопроб": 6780,
      "однос": 6781,
      "комплекс": 6782,
      "пешеход": 6783,
      "переходах": 6784,
      "##фицированного": 6785,
      "боковое": 6786,
      "стенов": 6787,
      "##значный": 6788,
      "одностоечные": 6789,
      "бесшовных": 6790,
      "модульные": 6791,
      "Подъем": 6792,
      "##x54": 6793,
      "##ефлектор": 6794,
      "Качели": 6795,
      "эпоксидная": 6796,
      "гипсо": 6797,
      "коммуника": 6798,
      "иглопроб": 6799,
      "ФСБ": 6800,
      "дуба": 6801,
      "ТЗГ": 6802,
      "##опрозра": 6803,
      "бортами": 6804,
      "Перегородка": 6805,
      "доводчика": 6806,
      "досок": 6807,
      "Скамья": 6808,
      "особо": 6809,
      "шлицем": 6810,
      "Оттяжка": 6811,
      "Фундам": 6812,
      "##46": 6813,
      "##х11": 6814,
      "14Х17Н": 6815,
      "площадки": 6816,
      "Фундаменты": 6817,
      "14Х17Н2": 6818,
      "4100": 6819,
      "ЛЭ": 6820,
      "М700": 6821,
      "вес": 6822,
      "зем": 6823,
      "соч": 6824,
      "срывающимися": 6825,
      "##x65": 6826,
      "##x900": 6827,
      "##РС": 6828,
      "##пук": 6829,
      "##IN": 6830,
      "##ораз": 6831,
      "##енси": 6832,
      "старог": 6833,
      "выпук": 6834,
      "##нур": 6835,
      "##нометалли": 6836,
      "150х100": 6837,
      "##ающиеся": 6838,
      "##жимной": 6839,
      "затяж": 6840,
      "стеклопластикового": 6841,
      "##способ": 6842,
      "светопрозра": 6843,
      "37x63": 6844,
      "Компози": 6845,
      "скользящ": 6846,
      "##нтовая": 6847,
      "промежуточная": 6848,
      "железнодорожных": 6849,
      "трансформатором": 6850,
      "ПРТ": 6851,
      "винтами": 6852,
      "гильзой": 6853,
      "направляющий": 6854,
      "низколегированной": 6855,
      "Заслонки": 6856,
      "гальвани": 6857,
      "сложной": 6858,
      "манжеты": 6859,
      "керамогранит": 6860,
      "лестницей": 6861,
      "теплозащитные": 6862,
      "Пенополиэтилен": 6863,
      "старогод": 6864,
      "затяжке": 6865,
      "Композиция": 6866,
      "2П": 6867,
      "МА": 6868,
      "ПМ": 6869,
      "зеле": 6870,
      "##нищ": 6871,
      "Колон": 6872,
      "PG": 6873,
      "Шту": 6874,
      "кирп": 6875,
      "па": 6876,
      "пасс": 6877,
      "фос": 6878,
      "##узи": 6879,
      "##кли": 6880,
      "##алог": 6881,
      "##Пмнг": 6882,
      "##одом": 6883,
      "разрядный": 6884,
      "##осетка": 6885,
      "прием": 6886,
      "##торной": 6887,
      "водоблоки": 6888,
      "300х80": 6889,
      "компенси": 6890,
      "##отаранный": 6891,
      "каналы": 6892,
      "1928": 6893,
      "светостабилиз": 6894,
      "газового": 6895,
      "##ошок": 6896,
      "противотаранный": 6897,
      "резиновой": 6898,
      "глубокой": 6899,
      "IP53": 6900,
      "##x400x150": 6901,
      "вытяжки": 6902,
      "реверсивные": 6903,
      "Накладка": 6904,
      "стационарная": 6905,
      "фибры": 6906,
      "ИКБнг": 6907,
      "КУПЭф": 6908,
      "обрезные": 6909,
      "финиш": 6910,
      "460x400x150": 6911,
      "комплекта": 6912,
      "двигатель": 6913,
      "Штуцер": 6914,
      "кирпи": 6915,
      "19281": 6916,
      "КУПЭфПмнг": 6917,
      "##оматери": 6918,
      "##остойкая": 6919,
      "пиломатери": 6920,
      "движения": 6921,
      "370": 6922,
      "4х120": 6923,
      "625": 6924,
      "6х7": 6925,
      "940x1": 6926,
      "DIN": 6927,
      "F4": 6928,
      "БП": 6929,
      "Рель": 6930,
      "ТЛ": 6931,
      "Форм": 6932,
      "нег": 6933,
      "оцинков": 6934,
      "уров": 6935,
      "##орас": 6936,
      "##омод": 6937,
      "##лег": 6938,
      "100х35": 6939,
      "обвяз": 6940,
      "трубка": 6941,
      "раскли": 6942,
      "40x70": 6943,
      "##х100х1": 6944,
      "приспособ": 6945,
      "##ланд": 6946,
      "##x2x1": 6947,
      "базе": 6948,
      "СвЗ": 6949,
      "коуш": 6950,
      "среднего": 6951,
      "проволочный": 6952,
      "37x60": 6953,
      "сетчатые": 6954,
      "многомод": 6955,
      "остр": 6956,
      "высоты": 6957,
      "влажности": 6958,
      "Соединение": 6959,
      "##карт": 6960,
      "шпунтовая": 6961,
      "сплошным": 6962,
      "коммути": 6963,
      "скальных": 6964,
      "РП1": 6965,
      "АКВ": 6966,
      "однопольные": 6967,
      "штукатурный": 6968,
      "400x250x130": 6969,
      "фарфоровая": 6970,
      "Глушители": 6971,
      "двухскатной": 6972,
      "дистанционное": 6973,
      "завод": 6974,
      "баскетбольная": 6975,
      "М6П": 6976,
      "металлополимерных": 6977,
      "ВСт3сп": 6978,
      "фланцами": 6979,
      "гипсокарт": 6980,
      "водоблокирующими": 6981,
      "расклинив": 6982,
      "ФБ": 6983,
      "##аку": 6984,
      "бортовые": 6985,
      "1х95": 6986,
      "R4": 6987,
      "Гаситель": 6988,
      "КФ": 6989,
      "М24": 6990,
      "Р50": 6991,
      "инт": 6992,
      "нез": 6993,
      "форт": 6994,
      "##62": 6995,
      "##К1": 6996,
      "##ВВ": 6997,
      "##енз": 6998,
      "изм": 6999,
      "излив": 7000,
      "##50x200": 7001,
      "полиами": 7002,
      "задвиж": 7003,
      "20Ш1": 7004,
      "арочной": 7005,
      "повторной": 7006,
      "200x200": 7007,
      "террак": 7008,
      "19х1": 7009,
      "400х80": 7010,
      "кольцевой": 7011,
      "слоев": 7012,
      "СБВГ": 7013,
      "СБ2л": 7014,
      "##укава": 7015,
      "Перемычки": 7016,
      "Геосетка": 7017,
      "пленки": 7018,
      "термоусаживающ": 7019,
      "путь": 7020,
      "тяга": 7021,
      "расположением": 7022,
      "водопропускной": 7023,
      "нагрева": 7024,
      "выпуска": 7025,
      "##МСР": 7026,
      "петлевой": 7027,
      "КУГПЭПнг": 7028,
      "опрессовку": 7029,
      "несколькими": 7030,
      "нейлоновые": 7031,
      "высоковольтный": 7032,
      "сочлен": 7033,
      "гальваническим": 7034,
      "030": 7035,
      "340": 7036,
      "днищ": 7037,
      "пы": 7038,
      "##лор": 7039,
      "##ГП": 7040,
      "SS": 7041,
      "циф": 7042,
      "##ела": 7043,
      "##460": 7044,
      "##9ТЛ": 7045,
      "##жильных": 7046,
      "##РВ": 7047,
      "##чаты": 7048,
      "##Вт": 7049,
      "##Гсп": 7050,
      "##омб": 7051,
      "стар": 7052,
      "##рубный": 7053,
      "##лона": 7054,
      "100x200": 7055,
      "полистирола": 7056,
      "12Х18Н": 7057,
      "давлением": 7058,
      "##ительные": 7059,
      "15кч": 7060,
      "##х180": 7061,
      "14х0": 7062,
      "полимерного": 7063,
      "150x150": 7064,
      "однорожковый": 7065,
      "##х350": 7066,
      "защитные": 7067,
      "18Б1": 7068,
      "обраб": 7069,
      "192": 7070,
      "400х50": 7071,
      "клеммная": 7072,
      "боковой": 7073,
      "крупный": 7074,
      "Ст3Гсп": 7075,
      "##х63": 7076,
      "200х35": 7077,
      "квадрата": 7078,
      "##етали": 7079,
      "КУПП": 7080,
      "огнестойкостью": 7081,
      "антив": 7082,
      "##нутой": 7083,
      "светодиодными": 7084,
      "участком": 7085,
      "С285": 7086,
      "вытяжной": 7087,
      "декоративными": 7088,
      "шайбы": 7089,
      "щитов": 7090,
      "кнопок": 7091,
      "дренажные": 7092,
      "автоматизированное": 7093,
      "СБПБбШв": 7094,
      "СБПБбШп": 7095,
      "центральная": 7096,
      "желобов": 7097,
      "нефтяной": 7098,
      "отбойника": 7099,
      "автономное": 7100,
      "Наличник": 7101,
      "иглопробив": 7102,
      "12Х18Н9ТЛ": 7103,
      "8АтVТ": 7104,
      "ВА": 7105,
      "ФЛ": 7106,
      "##енно": 7107,
      "16П": 7108,
      "водно": 7109,
      "Дюбель": 7110,
      "4x4": 7111,
      "4х150": 7112,
      "F3": 7113,
      "S460": 7114,
      "БНД": 7115,
      "Теп": 7116,
      "во": 7117,
      "жар": 7118,
      "инж": 7119,
      "шу": 7120,
      "##аТ": 7121,
      "##йке": 7122,
      "##ОС": 7123,
      "##NH": 7124,
      "##ометр": 7125,
      "##раны": 7126,
      "##остати": 7127,
      "##ющими": 7128,
      "пода": 7129,
      "##х125": 7130,
      "высоких": 7131,
      "Ст0": 7132,
      "двухм": 7133,
      "Плинтус": 7134,
      "соединительными": 7135,
      "##ечные": 7136,
      "фольгированием": 7137,
      "нагрузкой": 7138,
      "стандартный": 7139,
      "акрил": 7140,
      "СППК": 7141,
      "кровли": 7142,
      "Изоляторы": 7143,
      "нерав": 7144,
      "Шпилька": 7145,
      "эпоксидной": 7146,
      "##ециев": 7147,
      "кронштейнами": 7148,
      "обечайке": 7149,
      "ригеля": 7150,
      "откидной": 7151,
      "СБЗПу": 7152,
      "##унк": 7153,
      "гипсовая": 7154,
      "стеклохолстом": 7155,
      "матра": 7156,
      "дополнительным": 7157,
      "мелкозер": 7158,
      "ШТС": 7159,
      "ДНаТ": 7160,
      "##атывания": 7161,
      "трапециев": 7162,
      "КПоПЭнг": 7163,
      "коммуникаций": 7164,
      "S460NH": 7165,
      "670": 7166,
      "укор": 7167,
      "этаж": 7168,
      "удлинение": 7169,
      "рельеф": 7170,
      "дисперсионная": 7171,
      "1х0": 7172,
      "430": 7173,
      "4x10": 7174,
      "9600": 7175,
      "C2": 7176,
      "Бок": 7177,
      "НТ": 7178,
      "вок": 7179,
      "ватой": 7180,
      "неси": 7181,
      "саль": 7182,
      "##рно": 7183,
      "##ву": 7184,
      "##СМ": 7185,
      "##нель": 7186,
      "##янутой": 7187,
      "##ВЭВнг": 7188,
      "пропускная": 7189,
      "##авис": 7190,
      "##фибр": 7191,
      "##проч": 7192,
      "покров": 7193,
      "бетонными": 7194,
      "замковыми": 7195,
      "спин": 7196,
      "соединением": 7197,
      "##рующее": 7198,
      "СвО": 7199,
      "300х200": 7200,
      "35x35": 7201,
      "##х360": 7202,
      "##ционного": 7203,
      "полиэтиленовых": 7204,
      "высокого": 7205,
      "горизонтальными": 7206,
      "монтажной": 7207,
      "телеф": 7208,
      "сетчатый": 7209,
      "шамотная": 7210,
      "минераловатные": 7211,
      "ОКК": 7212,
      "муллитокремнеземистые": 7213,
      "ответвительные": 7214,
      "регулируемые": 7215,
      "стеклофибр": 7216,
      "усиленным": 7217,
      "промежуточной": 7218,
      "накладками": 7219,
      "изделие": 7220,
      "##оустойчивые": 7221,
      "##невые": 7222,
      "древесност": 7223,
      "входят": 7224,
      "##ставка": 7225,
      "модулями": 7226,
      "тканое": 7227,
      "Порошок": 7228,
      "##41нж": 7229,
      "уличные": 7230,
      "##образов": 7231,
      "природного": 7232,
      "утепленным": 7233,
      "рифле": 7234,
      "Патрубок": 7235,
      "принудительного": 7236,
      "ДРЛ": 7237,
      "двигательным": 7238,
      "кирпича": 7239,
      "пиломатериала": 7240,
      "антиванд": 7241,
      "вокруг": 7242,
      "несиловая": 7243,
      "##ависим": 7244,
      "рис": 7245,
      "пре": 7246,
      "прав": 7247,
      "заготовки": 7248,
      "324": 7249,
      "освещением": 7250,
      "ребрами": 7251,
      "укороч": 7252,
      "C1": 7253,
      "Круг": 7254,
      "Пласти": 7255,
      "СМ": 7256,
      "УК": 7257,
      "ант": 7258,
      "вет": 7259,
      "габарит": 7260,
      "##кост": 7261,
      "##200х": 7262,
      "##х800": 7263,
      "##600х": 7264,
      "##Гнг": 7265,
      "##никовая": 7266,
      "насти": 7267,
      "##абор": 7268,
      "размерами": 7269,
      "обжимной": 7270,
      "50x80": 7271,
      "перв": 7272,
      "##уска": 7273,
      "##х130": 7274,
      "поруч": 7275,
      "горячей": 7276,
      "27х1": 7277,
      "##ленные": 7278,
      "##няющими": 7279,
      "парной": 7280,
      "газо": 7281,
      "SDR26": 7282,
      "125х26": 7283,
      "регулирующие": 7284,
      "14нж17р": 7285,
      "жесткие": 7286,
      "37х1": 7287,
      "##лизатора": 7288,
      "непласти": 7289,
      "##х54": 7290,
      "ПвБ": 7291,
      "##сцентри": 7292,
      "межфлан": 7293,
      "Щиток": 7294,
      "электрической": 7295,
      "отводом": 7296,
      "стекловолокном": 7297,
      "декоративная": 7298,
      "4х185": 7299,
      "ВБШвнг": 7300,
      "Грунт": 7301,
      "У220н": 7302,
      "болтовыми": 7303,
      "однокамерными": 7304,
      "профилированного": 7305,
      "раздельными": 7306,
      "мягкие": 7307,
      "##нетуш": 7308,
      "нанесения": 7309,
      "необрез": 7310,
      "демп": 7311,
      "кассетами": 7312,
      "ПРТО": 7313,
      "коммутируем": 7314,
      "инжен": 7315,
      "матрац": 7316,
      "Ли": 7317,
      "М22": 7318,
      "П1": 7319,
      "##М1": 7320,
      "4x16": 7321,
      "ОД": 7322,
      "ШУ": 7323,
      "адапт": 7324,
      "добор": 7325,
      "знак": 7326,
      "ромб": 7327,
      "соб": 7328,
      "сорта": 7329,
      "##гор": 7330,
      "##ыс": 7331,
      "##шип": 7332,
      "##ОП": 7333,
      "прол": 7334,
      "разъемная": 7335,
      "обнаруж": 7336,
      "откос": 7337,
      "подвиж": 7338,
      "пери": 7339,
      "##опроводящ": 7340,
      "окрас": 7341,
      "Стенка": 7342,
      "##x1800": 7343,
      "30х30": 7344,
      "облицовочные": 7345,
      "Коробки": 7346,
      "одноярусного": 7347,
      "##х220": 7348,
      "контакта": 7349,
      "##аркет": 7350,
      "внешними": 7351,
      "##ильные": 7352,
      "термостати": 7353,
      "строения": 7354,
      "##х410": 7355,
      "##ованного": 7356,
      "вертикально": 7357,
      "максимальным": 7358,
      "пиленые": 7359,
      "полиэфирное": 7360,
      "##нителями": 7361,
      "уголки": 7362,
      "поверхностного": 7363,
      "полиуретановый": 7364,
      "АСБл": 7365,
      "усиленные": 7366,
      "##00х3300": 7367,
      "##00х3800": 7368,
      "##заход": 7369,
      "ригелей": 7370,
      "обыкновенные": 7371,
      "ветроустойчивые": 7372,
      "метров": 7373,
      "однокомпонентная": 7374,
      "адгезия": 7375,
      "ревизионный": 7376,
      "металлоконструкций": 7377,
      "ограждений": 7378,
      "разветвителя": 7379,
      "уровня": 7380,
      "##ландцемент": 7381,
      "инженерных": 7382,
      "490": 7383,
      "АЦ": 7384,
      "##43": 7385,
      "ковров": 7386,
      "муллитовые": 7387,
      "продольное": 7388,
      "качеств": 7389,
      "ТЛК": 7390,
      "Лифт": 7391,
      "1р": 7392,
      "1х2х0": 7393,
      "2х2х0": 7394,
      "Битум": 7395,
      "анод": 7396,
      "ов": 7397,
      "##окий": 7398,
      "##мент": 7399,
      "##шин": 7400,
      "##льным": 7401,
      "налич": 7402,
      "##опти": 7403,
      "##азву": 7404,
      "прит": 7405,
      "##раст": 7406,
      "столя": 7407,
      "стема": 7408,
      "##тразву": 7409,
      "##обра": 7410,
      "##ейся": 7411,
      "горки": 7412,
      "40x50": 7413,
      "##литом": 7414,
      "##обетонными": 7415,
      "сильф": 7416,
      "сварку": 7417,
      "однолет": 7418,
      "60х60": 7419,
      "##чатое": 7420,
      "##х310": 7421,
      "токопроводящ": 7422,
      "##х450": 7423,
      "условным": 7424,
      "углеродистых": 7425,
      "регулирующий": 7426,
      "протяж": 7427,
      "200х1": 7428,
      "заполняющими": 7429,
      "рабочий": 7430,
      "ПБШ": 7431,
      "композитными": 7432,
      "полиуретановых": 7433,
      "глубокий": 7434,
      "асб": 7435,
      "скважины": 7436,
      "крепежом": 7437,
      "липким": 7438,
      "фильтра": 7439,
      "белого": 7440,
      "##жильный": 7441,
      "глинистой": 7442,
      "ворот": 7443,
      "сополимеров": 7444,
      "сифоном": 7445,
      "напрессовочные": 7446,
      "знаков": 7447,
      "анализатора": 7448,
      "фиброцементными": 7449,
      "разделительная": 7450,
      "методом": 7451,
      "наплавляемый": 7452,
      "клинкерными": 7453,
      "структур": 7454,
      "ЛЭЗ": 7455,
      "керамогранитными": 7456,
      "независим": 7457,
      "полиамида": 7458,
      "терракоты": 7459,
      "стеклофибробетонными": 7460,
      "непластифицированного": 7461,
      "обнаружения": 7462,
      "наличника": 7463,
      "стемалитом": 7464,
      "однолетних": 7465,
      "390": 7466,
      "##олег": 7467,
      "высоколег": 7468,
      "многоцвет": 7469,
      "ленточного": 7470,
      "уплотнительные": 7471,
      "3100": 7472,
      "3х10": 7473,
      "5100": 7474,
      "5500": 7475,
      "940": 7476,
      "В10": 7477,
      "Детали": 7478,
      "КР": 7479,
      "КЛ": 7480,
      "КШ": 7481,
      "КСП": 7482,
      "М50": 7483,
      "Масло": 7484,
      "Па": 7485,
      "ник": 7486,
      "упроч": 7487,
      "##кон": 7488,
      "##фр": 7489,
      "##хв": 7490,
      "##ьев": 7491,
      "##К2": 7492,
      "изобра": 7493,
      "##ранич": 7494,
      "##ющий": 7495,
      "облег": 7496,
      "123": 7497,
      "##жением": 7498,
      "металлом": 7499,
      "алюмос": 7500,
      "40x40": 7501,
      "##х160": 7502,
      "двухполюсные": 7503,
      "графи": 7504,
      "1150": 7505,
      "3200": 7506,
      "отверд": 7507,
      "стойками": 7508,
      "растянутой": 7509,
      "Контр": 7510,
      "##ортландцемент": 7511,
      "электросварной": 7512,
      "переменное": 7513,
      "вертикальных": 7514,
      "резиновый": 7515,
      "##x596": 7516,
      "глухим": 7517,
      "109x60": 7518,
      "уплотнением": 7519,
      "тройника": 7520,
      "каучу": 7521,
      "тросы": 7522,
      "железнодорожным": 7523,
      "выходом": 7524,
      "ультразву": 7525,
      "##x996": 7526,
      "нетканого": 7527,
      "##туры": 7528,
      "ригель": 7529,
      "желт": 7530,
      "ИКСЛнг": 7531,
      "кремний": 7532,
      "Обрамление": 7533,
      "##уловитель": 7534,
      "прутков": 7535,
      "индика": 7536,
      "электротехнические": 7537,
      "магнитный": 7538,
      "##оконечные": 7539,
      "Втулка": 7540,
      "светоопти": 7541,
      "многомодовых": 7542,
      "остроконечные": 7543,
      "изменяем": 7544,
      "термоусаживающаяся": 7545,
      "облегч": 7546,
      "алюмосиликат": 7547,
      "535": 7548,
      "М5": 7549,
      "106": 7550,
      "##умм": 7551,
      "Металлоконструк": 7552,
      "остановок": 7553,
      "415": 7554,
      "4х2х0": 7555,
      "4x50": 7556,
      "5х16": 7557,
      "Голов": 7558,
      "Добав": 7559,
      "НК": 7560,
      "ПГ": 7561,
      "ША": 7562,
      "банда": 7563,
      "дат": 7564,
      "тар": 7565,
      "чуш": 7566,
      "##МРП": 7567,
      "##тель": 7568,
      "##3000": 7569,
      "##ПС": 7570,
      "##яда": 7571,
      "##шаро": 7572,
      "##ВП": 7573,
      "##ВО": 7574,
      "прист": 7575,
      "##окомпозит": 7576,
      "##лощад": 7577,
      "##коуловитель": 7578,
      "##рош": 7579,
      "##истки": 7580,
      "объемный": 7581,
      "одножильных": 7582,
      "водогр": 7583,
      "##реза": 7584,
      "##шечное": 7585,
      "прочих": 7586,
      "защитное": 7587,
      "трехшаро": 7588,
      "паропро": 7589,
      "проводки": 7590,
      "пенополиуретаном": 7591,
      "открытым": 7592,
      "кольца": 7593,
      "##х500х": 7594,
      "цинка": 7595,
      "брусья": 7596,
      "##х700": 7597,
      "напольный": 7598,
      "пластиной": 7599,
      "цилиндрические": 7600,
      "Пескоуловитель": 7601,
      "дроссель": 7602,
      "закладными": 7603,
      "посып": 7604,
      "распашные": 7605,
      "##обезопасном": 7606,
      "отражающе": 7607,
      "бронз": 7608,
      "растворителей": 7609,
      "щитом": 7610,
      "низколегированная": 7611,
      "аппаратный": 7612,
      "финишный": 7613,
      "В55": 7614,
      "кула": 7615,
      "бесцветное": 7616,
      "##огрева": 7617,
      "крупнощитовой": 7618,
      "Держатель": 7619,
      "разделенных": 7620,
      "земли": 7621,
      "Форма": 7622,
      "заводских": 7623,
      "СППК4": 7624,
      "покровом": 7625,
      "независимым": 7626,
      "изображением": 7627,
      "кремнийоргани": 7628,
      "Добавка": 7629,
      "чушках": 7630,
      "трехшарошечное": 7631,
      "СЦ": 7632,
      "##нного": 7633,
      "Металлоконструкции": 7634,
      "025": 7635,
      "PN": 7636,
      "ВБбШв": 7637,
      "Гид": 7638,
      "Дросс": 7639,
      "Е27": 7640,
      "Мат": 7641,
      "Пу": 7642,
      "ба": 7643,
      "держ": 7644,
      "##гии": 7645,
      "##5М": 7646,
      "##щенный": 7647,
      "##Бнг": 7648,
      "##МТ": 7649,
      "##91": 7650,
      "##чного": 7651,
      "##шпол": 7652,
      "##инации": 7653,
      "##атух": 7654,
      "##отраж": 7655,
      "##епти": 7656,
      "##порных": 7657,
      "обогрева": 7658,
      "50х35": 7659,
      "##озатух": 7660,
      "20000": 7661,
      "##елые": 7662,
      "самозатух": 7663,
      "колон": 7664,
      "система": 7665,
      "системами": 7666,
      "анкерных": 7667,
      "проводе": 7668,
      "цельнометалли": 7669,
      "пониженной": 7670,
      "сухая": 7671,
      "блокировки": 7672,
      "частичным": 7673,
      "##одического": 7674,
      "перфорированная": 7675,
      "комбинации": 7676,
      "наклонными": 7677,
      "Соединители": 7678,
      "С390": 7679,
      "литерный": 7680,
      "трансформатора": 7681,
      "клиновид": 7682,
      "Воздухорас": 7683,
      "асфальтобетонных": 7684,
      "пс5": 7685,
      "центрами": 7686,
      "пластмассовые": 7687,
      "##x81": 7688,
      "звукоотраж": 7689,
      "Брусчатка": 7690,
      "груза": 7691,
      "самонесущих": 7692,
      "тканая": 7693,
      "центробежный": 7694,
      "обрезная": 7695,
      "АСБ2л": 7696,
      "микротруб": 7697,
      "желоба": 7698,
      "фальшпол": 7699,
      "##х140х2": 7700,
      "Стеклоп": 7701,
      "1000х290": 7702,
      "конструкционно": 7703,
      "202х140х2": 7704,
      "полукруглой": 7705,
      "открывания": 7706,
      "Тепло": 7707,
      "периодического": 7708,
      "графическим": 7709,
      "светооптическими": 7710,
      "Дроссель": 7711,
      "самозатухающего": 7712,
      "Воздухораспреде": 7713,
      "##овин": 7714,
      "глазу": 7715,
      "фундаментная": 7716,
      "рельсовых": 7717,
      "низколегированных": 7718,
      "1х35": 7719,
      "2А": 7720,
      "4р": 7721,
      "4x1": 7722,
      "595": 7723,
      "НФ": 7724,
      "РЦ": 7725,
      "Фреза": 7726,
      "ШСП": 7727,
      "ЭМП": 7728,
      "Ящик": 7729,
      "ами": 7730,
      "даль": 7731,
      "сад": 7732,
      "##оэ": 7733,
      "##мет": 7734,
      "##дный": 7735,
      "##септи": 7736,
      "##чной": 7737,
      "##ШВ": 7738,
      "##оры": 7739,
      "##леп": 7740,
      "ответв": 7741,
      "##10П": 7742,
      "##ированными": 7743,
      "неар": 7744,
      "15000": 7745,
      "исполнительный": 7746,
      "144": 7747,
      "##x180": 7748,
      "##x1200": 7749,
      "11с": 7750,
      "1180": 7751,
      "водной": 7752,
      "##аторов": 7753,
      "композ": 7754,
      "средний": 7755,
      "##х325": 7756,
      "радиов": 7757,
      "постоянное": 7758,
      "УХЛ3": 7759,
      "##низированной": 7760,
      "##ажир": 7761,
      "поворотной": 7762,
      "светодиодным": 7763,
      "пружинным": 7764,
      "пластин": 7765,
      "быстрос": 7766,
      "железнодорожные": 7767,
      "отводами": 7768,
      "расстоянием": 7769,
      "##озиционного": 7770,
      "DN100": 7771,
      "АКП": 7772,
      "ячейками": 7773,
      "теплоизолированные": 7774,
      "рядовые": 7775,
      "шагом": 7776,
      "кремнеземист": 7777,
      "ниппельных": 7778,
      "Агрегат": 7779,
      "рукоход": 7780,
      "металлоч": 7781,
      "скамей": 7782,
      "утол": 7783,
      "аккумуляторов": 7784,
      "диэлектрический": 7785,
      "Стеллажи": 7786,
      "теплоустойчивой": 7787,
      "расклинивающиеся": 7788,
      "иглопробивное": 7789,
      "демпфера": 7790,
      "асбест": 7791,
      "бандаж": 7792,
      "водогрейные": 7793,
      "425": 7794,
      "оград": 7795,
      "каркаса": 7796,
      "стыком": 7797,
      "стекловолокна": 7798,
      "ворс": 7799,
      "R1": 7800,
      "Кросс": 7801,
      "М75": 7802,
      "МВт": 7803,
      "ОА": 7804,
      "Стр": 7805,
      "Седелка": 7806,
      "Фитинг": 7807,
      "Шнур": 7808,
      "больш": 7809,
      "вини": 7810,
      "мг": 7811,
      "шип": 7812,
      "##ионная": 7813,
      "##29": 7814,
      "##ха": 7815,
      "##БК": 7816,
      "##ЭТ": 7817,
      "##ателей": 7818,
      "простой": 7819,
      "стока": 7820,
      "раздвижной": 7821,
      "обой": 7822,
      "##евая": 7823,
      "оцинкованных": 7824,
      "40А": 7825,
      "005": 7826,
      "двухканальный": 7827,
      "смаз": 7828,
      "##оечная": 7829,
      "облицованные": 7830,
      "70x2": 7831,
      "11000": 7832,
      "пено": 7833,
      "кабины": 7834,
      "##х330": 7835,
      "шпатлев": 7836,
      "анкеруем": 7837,
      "##аемый": 7838,
      "песчаные": 7839,
      "##цепные": 7840,
      "##х610": 7841,
      "шлифов": 7842,
      "Провода": 7843,
      "500х500": 7844,
      "ПБП": 7845,
      "##створный": 7846,
      "шахтный": 7847,
      "АСЦ": 7848,
      "кромки": 7849,
      "тонкост": 7850,
      "домк": 7851,
      "клапан": 7852,
      "образных": 7853,
      "уплотнительное": 7854,
      "чугунных": 7855,
      "##00х220": 7856,
      "реак": 7857,
      "##бШвнг": 7858,
      "микро": 7859,
      "коническая": 7860,
      "Брусья": 7861,
      "акриловая": 7862,
      "КВВБГ": 7863,
      "КВВБН": 7864,
      "стрелочный": 7865,
      "отдельностоящая": 7866,
      "насос": 7867,
      "герметизирующая": 7868,
      "##М2Т": 7869,
      "штепсельные": 7870,
      "15Х5М": 7871,
      "скобяными": 7872,
      "предварительного": 7873,
      "гнутого": 7874,
      "10Х17Н13М2Т": 7875,
      "резервуар": 7876,
      "ребристые": 7877,
      "шланговый": 7878,
      "пассажир": 7879,
      "древесностружечные": 7880,
      "термостатическим": 7881,
      "##заходный": 7882,
      "садовая": 7883,
      "760": 7884,
      "СЛ": 7885,
      "##ека": 7886,
      "перевод": 7887,
      "##1800": 7888,
      "лестничные": 7889,
      "разрыве": 7890,
      "стрелочных": 7891,
      "масляная": 7892,
      "рисун": 7893,
      "4x2": 7894,
      "4x25": 7895,
      "5х4": 7896,
      "6500": 7897,
      "SC": 7898,
      "Орос": 7899,
      "Портландцемент": 7900,
      "С5": 7901,
      "УН": 7902,
      "ЩРН": 7903,
      "бор": 7904,
      "лет": 7905,
      "пла": 7906,
      "фаз": 7907,
      "##жные": 7908,
      "##плот": 7909,
      "##асшир": 7910,
      "изнутр": 7911,
      "##гофр": 7912,
      "##езд": 7913,
      "10С": 7914,
      "полистир": 7915,
      "##ожж": 7916,
      "25х25": 7917,
      "негофр": 7918,
      "покрыт": 7919,
      "##ъемным": 7920,
      "##оечный": 7921,
      "##ластировки": 7922,
      "пота": 7923,
      "120x2": 7924,
      "шаром": 7925,
      "95x2": 7926,
      "ковша": 7927,
      "##ованный": 7928,
      "400х300": 7929,
      "общей": 7930,
      "балластировки": 7931,
      "63А": 7932,
      "деревянным": 7933,
      "ППГнг": 7934,
      "600х600": 7935,
      "КГЭШ": 7936,
      "швед": 7937,
      "шестигранная": 7938,
      "ПСПКр": 7939,
      "БСМ": 7940,
      "наполнитель": 7941,
      "швеллерная": 7942,
      "неизолированные": 7943,
      "терморасшир": 7944,
      "силико": 7945,
      "АПвПу": 7946,
      "циркуляционные": 7947,
      "Насос": 7948,
      "##ружечных": 7949,
      "1000х160": 7950,
      "БрО": 7951,
      "АМг5": 7952,
      "пазогр": 7953,
      "пробкой": 7954,
      "пропитанная": 7955,
      "термопластика": 7956,
      "крестообразным": 7957,
      "времени": 7958,
      "##трубной": 7959,
      "тяжелые": 7960,
      "пигм": 7961,
      "перемещением": 7962,
      "антикоррозий": 7963,
      "огнезащит": 7964,
      "износостойкости": 7965,
      "светостабилизированного": 7966,
      "тонкостенный": 7967,
      "Ороситель": 7968,
      "изнутри": 7969,
      "негофрированный": 7970,
      "пазогреб": 7971,
      "МД": 7972,
      "С35": 7973,
      "Шланг": 7974,
      "##онита": 7975,
      "электроизоляци": 7976,
      "одинарная": 7977,
      "переводов": 7978,
      "3ПКВтп": 7979,
      "5х6": 7980,
      "F10": 7981,
      "UTP": 7982,
      "ГК": 7983,
      "Е600": 7984,
      "ЛВ": 7985,
      "ЛД": 7986,
      "План": 7987,
      "Повор": 7988,
      "ПУС": 7989,
      "бути": 7990,
      "зоной": 7991,
      "мл": 7992,
      "##АШп": 7993,
      "##Эон": 7994,
      "##ОСП": 7995,
      "##олновый": 7996,
      "##лях": 7997,
      "накид": 7998,
      "##стиро": 7999,
      "стоечный": 8000,
      "##екс": 8001,
      "##шень": 8002,
      "проката": 8003,
      "проемы": 8004,
      "##х190": 8005,
      "##х195": 8006,
      "Ст22": 8007,
      "##торами": 8008,
      "огнетуш": 8009,
      "температурой": 8010,
      "##x1180": 8011,
      "спар": 8012,
      "##рующей": 8013,
      "мости": 8014,
      "лицевым": 8015,
      "самоза": 8016,
      "1800х": 8017,
      "шаровым": 8018,
      "термостойкого": 8019,
      "IP31": 8020,
      "##ессор": 8021,
      "газовые": 8022,
      "стандартного": 8023,
      "цельные": 8024,
      "расчетным": 8025,
      "##оотвод": 8026,
      "##x66": 8027,
      "ПвПу": 8028,
      "комбинированные": 8029,
      "М3р": 8030,
      "многос": 8031,
      "газопровода": 8032,
      "##х88": 8033,
      "выходных": 8034,
      "14нж917р": 8035,
      "отвода": 8036,
      "вибро": 8037,
      "##невый": 8038,
      "##озиционный": 8039,
      "Обои": 8040,
      "фикси": 8041,
      "М2р": 8042,
      "М1р": 8043,
      "М1ф": 8044,
      "СВЛ": 8045,
      "модулей": 8046,
      "фронта": 8047,
      "перенос": 8048,
      "Экран": 8049,
      "терморегулятора": 8050,
      "эллиптическим": 8051,
      "14нж17ст19": 8052,
      "одиночным": 8053,
      "оголовком": 8054,
      "14нж917ст7": 8055,
      "Дюбели": 8056,
      "тупи": 8057,
      "тупым": 8058,
      "запорной": 8059,
      "неподвижных": 8060,
      "различных": 8061,
      "приклей": 8062,
      "14нж017р32": 8063,
      "плинтус": 8064,
      "толстолистовой": 8065,
      "корундовые": 8066,
      "Рельсы": 8067,
      "##х100х110": 8068,
      "ветви": 8069,
      "14нж17р28": 8070,
      "П1б": 8071,
      "столярных": 8072,
      "структурированной": 8073,
      "паропроницаем": 8074,
      "радиоволновый": 8075,
      "кремнеземистые": 8076,
      "пенобетон": 8077,
      "анкеруемой": 8078,
      "полистиролб": 8079,
      "3ПКВтпБнг": 8080,
      "Поворот": 8081,
      "##Эонг": 8082,
      "Ст22К": 8083,
      "самозажимная": 8084,
      "##упер": 8085,
      "##рель": 8086,
      "ступ": 8087,
      "018": 8088,
      "1х120": 8089,
      "1х240": 8090,
      "2х16": 8091,
      "3600": 8092,
      "3300": 8093,
      "4х35": 8094,
      "5х50": 8095,
      "ДО": 8096,
      "Уд": 8097,
      "УС": 8098,
      "вала": 8099,
      "гр": 8100,
      "ду": 8101,
      "ну": 8102,
      "фрам": 8103,
      "фитинг": 8104,
      "цик": 8105,
      "##лон": 8106,
      "##нем": 8107,
      "##пен": 8108,
      "##льха": 8109,
      "##кинг": 8110,
      "##рытая": 8111,
      "##екуля": 8112,
      "10x2x0": 8113,
      "длины": 8114,
      "перег": 8115,
      "##ительный": 8116,
      "15°": 8117,
      "##лителя": 8118,
      "##x13": 8119,
      "150х50": 8120,
      "опоре": 8121,
      "полиэтилен": 8122,
      "лоток": 8123,
      "коробчатый": 8124,
      "##ечник": 8125,
      "##акеты": 8126,
      "штамп": 8127,
      "##ульси": 8128,
      "горизонтально": 8129,
      "400х200": 8130,
      "плоских": 8131,
      "SDR21": 8132,
      "монтажная": 8133,
      "автоматического": 8134,
      "2800": 8135,
      "многолет": 8136,
      "КПД": 8137,
      "битумная": 8138,
      "заземления": 8139,
      "ОКТ": 8140,
      "противопожарные": 8141,
      "однопроволочными": 8142,
      "прямоугольных": 8143,
      "КВВГЭ": 8144,
      "закладных": 8145,
      "крепежный": 8146,
      "проволокой": 8147,
      "фундаментной": 8148,
      "трекинг": 8149,
      "Наконечник": 8150,
      "Гильза": 8151,
      "СБВБбШвнг": 8152,
      "герметизирующие": 8153,
      "Глушитель": 8154,
      "устойчивая": 8155,
      "АЗЕ": 8156,
      "ячеистых": 8157,
      "штучная": 8158,
      "буты": 8159,
      "табло": 8160,
      "коммутируемый": 8161,
      "посыпкой": 8162,
      "кулачок": 8163,
      "неарми": 8164,
      "утолщенный": 8165,
      "обойма": 8166,
      "резервуаров": 8167,
      "##оотводчик": 8168,
      "трекингу": 8169,
      "В50": 8170,
      "Ди": 8171,
      "КЦ": 8172,
      "лод": 8173,
      "брусковая": 8174,
      "Шайба": 8175,
      "ОРЦ": 8176,
      "3x2x0": 8177,
      "4х240": 8178,
      "580": 8179,
      "F9": 8180,
      "UPC": 8181,
      "АПВ": 8182,
      "Дефлектор": 8183,
      "Зна": 8184,
      "Оп": 8185,
      "ШЛ": 8186,
      "ольха": 8187,
      "функ": 8188,
      "##вЭ": 8189,
      "##2000": 8190,
      "##овентиля": 8191,
      "##ованием": 8192,
      "##ерст": 8193,
      "диз": 8194,
      "##опол": 8195,
      "##азка": 8196,
      "прос": 8197,
      "##екст": 8198,
      "основного": 8199,
      "##равнив": 8200,
      "Ступ": 8201,
      "150x300": 8202,
      "однозаходный": 8203,
      "ПВС": 8204,
      "трехъярусный": 8205,
      "##ленное": 8206,
      "эксцентри": 8207,
      "термоди": 8208,
      "SN10": 8209,
      "##x380": 8210,
      "фасадная": 8211,
      "КВН": 8212,
      "37х0": 8213,
      "латун": 8214,
      "сборно": 8215,
      "низкой": 8216,
      "ППС": 8217,
      "ПвВнг": 8218,
      "УХЛ2": 8219,
      "ОКГ": 8220,
      "мостам": 8221,
      "прямоугольник": 8222,
      "подвеса": 8223,
      "кромкой": 8224,
      "92x496": 8225,
      "92x296": 8226,
      "92x196": 8227,
      "92x396": 8228,
      "ТСС": 8229,
      "##невых": 8230,
      "дымовентиля": 8231,
      "МКРГП": 8232,
      "листовое": 8233,
      "грунтом": 8234,
      "фибр": 8235,
      "##ающийся": 8236,
      "кирпичной": 8237,
      "КУПР": 8238,
      "Поруч": 8239,
      "##ффузи": 8240,
      "поливинилхлоридный": 8241,
      "##олитовые": 8242,
      "Стекло": 8243,
      "цепей": 8244,
      "покраской": 8245,
      "мастичный": 8246,
      "##рабатывания": 8247,
      "стеновое": 8248,
      "выпуклый": 8249,
      "сальниковый": 8250,
      "Пластины": 8251,
      "СЦБ": 8252,
      "цельнометаллические": 8253,
      "фальшполов": 8254,
      "ответвлений": 8255,
      "быстросъемным": 8256,
      "потайной": 8257,
      "многолетних": 8258,
      "бутыл": 8259,
      "Знаки": 8260,
      "термодиффузи": 8261,
      "термодиффузионным": 8262,
      "Гвозд": 8263,
      "П2": 8264,
      "Площад": 8265,
      "##33": 8266,
      "наружные": 8267,
      "нешлиф": 8268,
      "массой": 8269,
      "днища": 8270,
      "ковровое": 8271,
      "Гвозди": 8272,
      "5х25": 8273,
      "D1200": 8274,
      "F8": 8275,
      "А12": 8276,
      "В60": 8277,
      "Д16": 8278,
      "Уплот": 8279,
      "аль": 8280,
      "апер": 8281,
      "кры": 8282,
      "тум": 8283,
      "##лка": 8284,
      "##вы": 8285,
      "##фаз": 8286,
      "##м2": 8287,
      "##56": 8288,
      "##йный": 8289,
      "##шения": 8290,
      "##Вг": 8291,
      "##ЭИД": 8292,
      "##чей": 8293,
      "10х2": 8294,
      "подок": 8295,
      "внутри": 8296,
      "##усор": 8297,
      "##ества": 8298,
      "14х2": 8299,
      "30x2x0": 8300,
      "сварных": 8301,
      "70x2x2": 8302,
      "опорами": 8303,
      "##х230": 8304,
      "##агр": 8305,
      "120x2x2": 8306,
      "услож": 8307,
      "цвета": 8308,
      "95x2x2": 8309,
      "способа": 8310,
      "протяжки": 8311,
      "люком": 8312,
      "500х50": 8313,
      "пенополиуретановые": 8314,
      "вспуч": 8315,
      "черной": 8316,
      "пластиковая": 8317,
      "торш": 8318,
      "##гостойкие": 8319,
      "##онагреватели": 8320,
      "##x850": 8321,
      "подкоса": 8322,
      "импор": 8323,
      "поглощ": 8324,
      "Элементы": 8325,
      "АПвВг": 8326,
      "ремонтных": 8327,
      "пространств": 8328,
      "забивные": 8329,
      "прутка": 8330,
      "14нж917ст25": 8331,
      "фиксатора": 8332,
      "равнопроходная": 8333,
      "детский": 8334,
      "укрепляющ": 8335,
      "энерго": 8336,
      "минеральными": 8337,
      "трехлучевой": 8338,
      "ТПВнг": 8339,
      "Колонны": 8340,
      "##чатых": 8341,
      "первый": 8342,
      "поручня": 8343,
      "АЦЭИД": 8344,
      "Стеклопакеты": 8345,
      "14нж917р34": 8346,
      "дугостойкие": 8347,
      "дымовентиляционных": 8348,
      "крыль": 8349,
      "##лкауч": 8350,
      "усложн": 8351,
      "поглощающая": 8352,
      "##ерей": 8353,
      "одинарные": 8354,
      "1000х1000": 8355,
      "2х6": 8356,
      "F25": 8357,
      "Бак": 8358,
      "Гайки": 8359,
      "ККП": 8360,
      "М25": 8361,
      "Маном": 8362,
      "ФА": 8363,
      "ШБ": 8364,
      "гим": 8365,
      "хлор": 8366,
      "##уз": 8367,
      "##лоч": 8368,
      "##мыв": 8369,
      "##64": 8370,
      "##Б2": 8371,
      "##МД": 8372,
      "##Инг": 8373,
      "##опласти": 8374,
      "##оклав": 8375,
      "##отов": 8376,
      "##альных": 8377,
      "10х2х0": 8378,
      "полированного": 8379,
      "1280": 8380,
      "кабельными": 8381,
      "коррози": 8382,
      "##осплав": 8383,
      "1650": 8384,
      "1350": 8385,
      "150x500": 8386,
      "150x400": 8387,
      "112": 8388,
      "80х80": 8389,
      "##пусная": 8390,
      "сечений": 8391,
      "повышенный": 8392,
      "##х21": 8393,
      "##ающим": 8394,
      "фланцевом": 8395,
      "бескор": 8396,
      "##окаче": 8397,
      "прочистки": 8398,
      "пенополистиро": 8399,
      "##ечно": 8400,
      "крыши": 8401,
      "термостойкая": 8402,
      "теплу": 8403,
      "анкерами": 8404,
      "высококаче": 8405,
      "гладкой": 8406,
      "194": 8407,
      "19х0": 8408,
      "##огнутый": 8409,
      "максимальный": 8410,
      "##аймер": 8411,
      "плиты": 8412,
      "##тейнер": 8413,
      "СТОП": 8414,
      "##укопоглощ": 8415,
      "твердосплав": 8416,
      "гидроизоляцией": 8417,
      "КПЭТ": 8418,
      "формы": 8419,
      "855": 8420,
      "поворотными": 8421,
      "резиновое": 8422,
      "Прип": 8423,
      "шестигранный": 8424,
      "кранов": 8425,
      "удлиненным": 8426,
      "звукопоглощ": 8427,
      "двустворчатый": 8428,
      "орна": 8429,
      "4х18": 8430,
      "шумозащитная": 8431,
      "терморегули": 8432,
      "нетканая": 8433,
      "##юбинг": 8434,
      "##енсат": 8435,
      "модуля": 8436,
      "ИКБН": 8437,
      "крутоизогнутые": 8438,
      "ИКСЛН": 8439,
      "250х120х88": 8440,
      "защелки": 8441,
      "фарфоровой": 8442,
      "сливной": 8443,
      "АБС": 8444,
      "терморегулятором": 8445,
      "гальванизированной": 8446,
      "наливные": 8447,
      "сектором": 8448,
      "горячим": 8449,
      "веществ": 8450,
      "вещества": 8451,
      "укрепления": 8452,
      "ТППэпЗБ": 8453,
      "КПсВБГ": 8454,
      "КПсВБН": 8455,
      "разноуров": 8456,
      "второй": 8457,
      "гипсокартонные": 8458,
      "обработки": 8459,
      "Боксы": 8460,
      "откосная": 8461,
      "##хват": 8462,
      "бандажном": 8463,
      "терморасширяющ": 8464,
      "Планка": 8465,
      "ПУСК": 8466,
      "бутилкауч": 8467,
      "импортной": 8468,
      "Манометр": 8469,
      "##мываль": 8470,
      "бескорпусная": 8471,
      "КПЭТИнг": 8472,
      "4А": 8473,
      "##истый": 8474,
      "##х45": 8475,
      "пассажирский": 8476,
      "4x6": 8477,
      "4x35": 8478,
      "5x2x0": 8479,
      "5х70": 8480,
      "D500": 8481,
      "W10": 8482,
      "Ат": 8483,
      "ГП": 8484,
      "Зонт": 8485,
      "Рез": 8486,
      "ШК": 8487,
      "лив": 8488,
      "мусор": 8489,
      "ом": 8490,
      "улуч": 8491,
      "шуруп": 8492,
      "##бав": 8493,
      "##нной": 8494,
      "##ыва": 8495,
      "##АБпШп": 8496,
      "##чал": 8497,
      "##ополит": 8498,
      "стаб": 8499,
      "##емые": 8500,
      "##емперату": 8501,
      "##отемперату": 8502,
      "##нущ": 8503,
      "марш": 8504,
      "##истого": 8505,
      "металлог": 8506,
      "двухлап": 8507,
      "напрягаемой": 8508,
      "арматурные": 8509,
      "одноцепная": 8510,
      "##ранные": 8511,
      "##ранения": 8512,
      "опорного": 8513,
      "##х27": 8514,
      "016": 8515,
      "оптическая": 8516,
      "IP68": 8517,
      "термос": 8518,
      "каната": 8519,
      "конструкция": 8520,
      "листовым": 8521,
      "160А": 8522,
      "герметизатором": 8523,
      "57х3": 8524,
      "##иваемая": 8525,
      "состоя": 8526,
      "воздушного": 8527,
      "экранированных": 8528,
      "Огранич": 8529,
      "люминесцентный": 8530,
      "##створчатые": 8531,
      "поворотным": 8532,
      "многослойным": 8533,
      "полипропиленовых": 8534,
      "равнополочный": 8535,
      "14нж017ст": 8536,
      "односторонним": 8537,
      "разветвительный": 8538,
      "полосы": 8539,
      "выхода": 8540,
      "стороной": 8541,
      "двустворный": 8542,
      "шайбами": 8543,
      "ААШв": 8544,
      "нетканой": 8545,
      "бессварная": 8546,
      "сквозного": 8547,
      "устройством": 8548,
      "КУПЭВ": 8549,
      "##ерепицы": 8550,
      "Поршень": 8551,
      "метрополит": 8552,
      "поливинилхлоридным": 8553,
      "одностворчатый": 8554,
      "фальцевым": 8555,
      "штепсельная": 8556,
      "гвоздем": 8557,
      "импульсным": 8558,
      "канатная": 8559,
      "Тумбы": 8560,
      "никели": 8561,
      "алюмосиликатный": 8562,
      "М550": 8563,
      "тарель": 8564,
      "металлочерепицы": 8565,
      "шведская": 8566,
      "фронтальное": 8567,
      "апертуры": 8568,
      "гимнасти": 8569,
      "металлогалог": 8570,
      "##86": 8571,
      "##омог": 8572,
      "195": 8573,
      "кровельных": 8574,
      "путевой": 8575,
      "1м2": 8576,
      "2х35": 8577,
      "3x0": 8578,
      "4х10": 8579,
      "F12": 8580,
      "G3": 8581,
      "А15": 8582,
      "БН": 8583,
      "В70": 8584,
      "Каб": 8585,
      "Лам": 8586,
      "Мпа": 8587,
      "Ом": 8588,
      "ШН": 8589,
      "Шпала": 8590,
      "авар": 8591,
      "бенз": 8592,
      "пя": 8593,
      "роли": 8594,
      "ряда": 8595,
      "сф": 8596,
      "тех": 8597,
      "хол": 8598,
      "хода": 8599,
      "##гл": 8600,
      "##лаб": 8601,
      "##ицион": 8602,
      "##мя": 8603,
      "##хнущ": 8604,
      "##тенов": 8605,
      "##сси": 8606,
      "##шня": 8607,
      "##норам": 8608,
      "##омер": 8609,
      "##омыс": 8610,
      "стружечных": 8611,
      "безрам": 8612,
      "##итковая": 8613,
      "##един": 8614,
      "##обм": 8615,
      "##лонов": 8616,
      "##ивная": 8617,
      "##роения": 8618,
      "12x2x0": 8619,
      "зака": 8620,
      "##сохнущ": 8621,
      "мартенов": 8622,
      "трубки": 8623,
      "трубок": 8624,
      "трубкой": 8625,
      "оцинкованными": 8626,
      "255": 8627,
      "20x2x0": 8628,
      "прочей": 8629,
      "спуск": 8630,
      "1320": 8631,
      "однолапковые": 8632,
      "##рующего": 8633,
      "##аги": 8634,
      "коробкой": 8635,
      "##х300х": 8636,
      "защитном": 8637,
      "трехколончатые": 8638,
      "наклона": 8639,
      "##ующими": 8640,
      "канал": 8641,
      "конструкционные": 8642,
      "2200х": 8643,
      "фасадных": 8644,
      "монтажными": 8645,
      "Уголки": 8646,
      "##х105": 8647,
      "##x650x200": 8648,
      "решеток": 8649,
      "ОКПМ": 8650,
      "формат": 8651,
      "канализационный": 8652,
      "##россельная": 8653,
      "легкой": 8654,
      "##кладка": 8655,
      "##кладыш": 8656,
      "водоотводом": 8657,
      "частью": 8658,
      "литые": 8659,
      "короткого": 8660,
      "замыкания": 8661,
      "участков": 8662,
      "свинцов": 8663,
      "хризотилцементная": 8664,
      "##нтованные": 8665,
      "поликарбонатной": 8666,
      "74x60": 8667,
      "волнист": 8668,
      "концентрические": 8669,
      "междроссельная": 8670,
      "кирпичных": 8671,
      "ветроустойчивый": 8672,
      "быстросохнущ": 8673,
      "выключатель": 8674,
      "электродвигателя": 8675,
      "тяжелых": 8676,
      "выносная": 8677,
      "сантехнический": 8678,
      "3ПКВтпнг6": 8679,
      "вяжущем": 8680,
      "##ающихся": 8681,
      "панорам": 8682,
      "компенсирующая": 8683,
      "сочлененный": 8684,
      "КУППмнг": 8685,
      "подача": 8686,
      "##конус": 8687,
      "звукоотражающая": 8688,
      "ЛДСП": 8689,
      "спаренными": 8690,
      "тупиковая": 8691,
      "приклейкой": 8692,
      "14нж017ст13": 8693,
      "##омысло": 8694,
      "мартеновских": 8695,
      "##акри": 8696,
      "сигнальные": 8697,
      "анкерный": 8698,
      "фасадные": 8699,
      "сборная": 8700,
      "непро": 8701,
      "вспомог": 8702,
      "вспомогатель": 8703,
      "1А": 8704,
      "290": 8705,
      "5x1": 8706,
      "5х95": 8707,
      "НЦ": 8708,
      "РС": 8709,
      "Рукава": 8710,
      "вогнутый": 8711,
      "зонта": 8712,
      "пл": 8713,
      "рукав": 8714,
      "рейка": 8715,
      "ткань": 8716,
      "шурупы": 8717,
      "##ьмя": 8718,
      "##овитковая": 8719,
      "##онепроницаем": 8720,
      "##анельное": 8721,
      "##кал": 8722,
      "##ельной": 8723,
      "##гоны": 8724,
      "стол": 8725,
      "##лата": 8726,
      "##епроводов": 8727,
      "##еления": 8728,
      "##инт": 8729,
      "##полнитель": 8730,
      "алюм": 8731,
      "141": 8732,
      "##x110": 8733,
      "полимерными": 8734,
      "##олокнистые": 8735,
      "##кателем": 8736,
      "кова": 8737,
      "местного": 8738,
      "300х35": 8739,
      "тепловых": 8740,
      "2700": 8741,
      "цветов": 8742,
      "внешнего": 8743,
      "##ленная": 8744,
      "##ленных": 8745,
      "17с": 8746,
      "##500С": 8747,
      "листами": 8748,
      "листах": 8749,
      "анкерными": 8750,
      "покрытиями": 8751,
      "##идным": 8752,
      "400х400": 8753,
      "МКЭШ": 8754,
      "##x32": 8755,
      "вводов": 8756,
      "200х200х": 8757,
      "стволов": 8758,
      "потреб": 8759,
      "287": 8760,
      "##161": 8761,
      "электромехани": 8762,
      "многовитковая": 8763,
      "500х400": 8764,
      "легированной": 8765,
      "редукционные": 8766,
      "домов": 8767,
      "одностороннее": 8768,
      "посад": 8769,
      "##невым": 8770,
      "путепроводов": 8771,
      "естественная": 8772,
      "антикоррозионной": 8773,
      "неоцинкованная": 8774,
      "Колодка": 8775,
      "НСО": 8776,
      "береза": 8777,
      "АД1": 8778,
      "2х18": 8779,
      "МГШВ": 8780,
      "хомута": 8781,
      "выключателя": 8782,
      "Термометр": 8783,
      "ответные": 8784,
      "эллиптические": 8785,
      "природный": 8786,
      "оголовка": 8787,
      "наливного": 8788,
      "секторные": 8789,
      "мачты": 8790,
      "скамейка": 8791,
      "холоднокатаный": 8792,
      "ревизии": 8793,
      "двутавра": 8794,
      "тиксотропного": 8795,
      "тоннелях": 8796,
      "Воздухораспределитель": 8797,
      "пазогребневым": 8798,
      "##оклавный": 8799,
      "высококачеств": 8800,
      "термоскреп": 8801,
      "дуг": 8802,
      "##х1000": 8803,
      "##ага": 8804,
      "дорогах": 8805,
      "конструкционной": 8806,
      "глазурованная": 8807,
      "электроизоляционная": 8808,
      "2У": 8809,
      "2x2x0": 8810,
      "5х120": 8811,
      "F13": 8812,
      "АРС": 8813,
      "Б2": 8814,
      "ЛГ": 8815,
      "Р6": 8816,
      "РД": 8817,
      "ШП": 8818,
      "ЭКП": 8819,
      "бр": 8820,
[...]
