{
  "version": "1.0",
  "truncation": {
    "direction": "Right",
    "max_length": 512,
    "strategy": "LongestFirst",
    "stride": 0
  },
  "padding": {
    "strategy": "BatchLongest",
    "direction": "Right",
    "pad_to_multiple_of": null,
    "pad_id": 0,
    "pad_type_id": 0,
    "pad_token": "[PAD]"
  },
  "added_tokens": [
    {
      "id": 0,
      "content": "[PAD]",
      "single_word": false,
      "lstrip": false,
      "rstrip": false,
      "normalized": false,
      "special": true
    },
    {
      "id": 1,
      "content": "[UNK]",
      "single_word": false,
      "lstrip": false,
      "rstrip": false,
      "normalized": false,
      "special": true
    },
    {
      "id": 2,
      "content": "[CLS]",
      "single_word": false,
      "lstrip": false,
      "rstrip": false,
      "normalized": false,
      "special": true
    },
    {
      "id": 3,
      "content": "[SEP]",
      "single_word": false,
      "lstrip": false,
      "rstrip": false,
      "normalized": false,
      "special": true
    },
    {
      "id": 4,
      "content": "[MASK]",
      "single_word": false,
      "lstrip": false,
      "rstrip": false,
      "normalized": false,
      "special": true
    }
  ],
  "normalizer": {
    "type": "BertNormalizer",
    "clean_text": true,
    "handle_chinese_chars": true,
    "strip_accents": null,
    "lowercase": false
  },
  "pre_tokenizer": {
    "type": "BertPreTokenizer"
  },
  "post_processor": {
    "type": "TemplateProcessing",
    "single": [
      {
        "SpecialToken": {
          "id": "[CLS]",
          "type_id": 0
        }
      },
      {
        "Sequence": {
          "id": "A",
          "type_id": 0
        }
      },
      {
        "SpecialToken": {
          "id": "[SEP]",
          "type_id": 0
        }
      }
    ],
    "pair": [
      {
        "SpecialToken": {
          "id": "[CLS]",
          "type_id": 0
        }
      },
      {
        "Sequence": {
          "id": "A",
          "type_id": 0
        }
      },
      {
        "SpecialToken": {
          "id": "[SEP]",
          "type_id": 0
        }
      },
      {
        "Sequence": {
          "id": "B",
          "type_id": 1
        }
      },
      {
        "SpecialToken": {
          "id": "[SEP]",
          "type_id": 1
        }
      }
    ],
    "special_tokens": {
      "[CLS]": {
        "id": "[CLS]",
        "ids": [
          2
        ],
        "tokens": [
          "[CLS]"
        ]
      },
      "[SEP]": {
        "id": "[SEP]",
        "ids": [
          3
        ],
        "tokens": [
          "[SEP]"
        ]
      }
    }
  },
  "decoder": {
    "type": "WordPiece",
    "prefix": "##",
    "cleanup": true
  },
  "model": {
    "type": "WordPiece",
    "unk_token": "[UNK]",
    "continuing_subword_prefix": "##",
    "max_input_chars_per_word": 100,
    "vocab": {
      "[PAD]": 0,
      "[UNK]": 1,
      "[CLS]": 2,
      "[SEP]": 3,
      "[MASK]": 4,
      "!": 5,
      "\"": 6,
      "%": 7,
      "&": 8,
      "'": 9,
      "(": 10,
      ")": 11,
      "*": 12,
      "+": 13,
      ",": 14,
      "-": 15,
      ".": 16,
      "/": 17,
      "0": 18,
      "1": 19,
      "2": 20,
      "3": 21,
      "4": 22,
      "5": 23,
      "6": 24,
      "7": 25,
      "8": 26,
      "9": 27,
      ":": 28,
      ";": 29,
      "<": 30,
      "=": 31,
      "A": 32,
      "B": 33,
      "C": 34,
      "D": 35,
      "E": 36,
      "F": 37,
      "G": 38,
      "H": 39,
      "I": 40,
      "J": 41,
      "K": 42,
      "L": 43,
      "M": 44,
      "N": 45,
      "O": 46,
      "P": 47,
      "Q": 48,
      "R": 49,
      "S": 50,
      "T": 51,
      "U": 52,
      "V": 53,
      "W": 54,
      "X": 55,
      "Y": 56,
      "Z": 57,
      "[": 58,
      "\\": 59,
      "]": 60,
      "_": 61,
      "a": 62,
      "b": 63,
      "c": 64,
      "d": 65,
      "e": 66,
      "f": 67,
      "g": 68,
      "h": 69,
      "i": 70,
      "j": 71,
      "k": 72,
      "l": 73,
      "m": 74,
      "n": 75,
      "o": 76,
      "p": 77,
      "q": 78,
      "r": 79,
      "s": 80,
      "t": 81,
      "u": 82,
      "v": 83,
      "w": 84,
      "x": 85,
      "y": 86,
      "z": 87,
      "|": 88,
      "«": 89,
      "®": 90,
      "°": 91,
      "±": 92,
      "²": 93,
      "³": 94,
      "·": 95,
      "»": 96,
      "Æ": 97,
      "Ö": 98,
      "×": 99,
      "Ø": 100,
      "˚": 101,
      "·": 102,
      "λ": 103,
      "А": 104,
      "Б": 105,
      "В": 106,
      "Г": 107,
      "Д": 108,
      "Е": 109,
      "Ж": 110,
      "З": 111,
      "И": 112,
      "Й": 113,
      "К": 114,
      "Л": 115,
      "М": 116,
      "Н": 117,
      "О": 118,
      "П": 119,
      "Р": 120,
      "С": 121,
      "Т": 122,
      "У": 123,
      "Ф": 124,
      "Х": 125,
      "Ц": 126,
      "Ч": 127,
      "Ш": 128,
      "Щ": 129,
      "Ы": 130,
      "Ь": 131,
      "Э": 132,
      "Ю": 133,
      "Я": 134,
      "а": 135,
      "б": 136,
      "в": 137,
      "г": 138,
      "д": 139,
      "е": 140,
      "ж": 141,
      "з": 142,
      "и": 143,
      "й": 144,
      "к": 145,
      "л": 146,
      "м": 147,
      "н": 148,
      "о": 149,
      "п": 150,
      "р": 151,
      "с": 152,
      "т": 153,
      "у": 154,
      "ф": 155,
      "х": 156,
      "ц": 157,
      "ч": 158,
      "ш": 159,
      "щ": 160,
      "ъ": 161,
      "ы": 162,
      "ь": 163,
      "э": 164,
      "ю": 165,
      "я": 166,
      "ё": 167,
      "–": 168,
      "—": 169,
      "№": 170,
      "∅": 171,
      "∙": 172,
      "√": 173,
      "≈": 174,
      "⌀": 175,
      "□": 176,
      "##5": 177,
      "##3": 178,
      "##а": 179,
      "##р": 180,
      "##к": 181,
      "##с": 182,
      "##о": 183,
      "##м": 184,
      "##г": 185,
      "##н": 186,
      "##8": 187,
      "##6": 188,
      "##0": 189,
      "##х": 190,
      "##1": 191,
      "##Б": 192,
      "##и": 193,
      "##з": 194,
      "##т": 195,
      "##л": 196,
      "##ц": 197,
      "##е": 198,
      "##ы": 199,
      "##в": 200,
      "##у": 201,
      "##2": 202,
      "##9": 203,
      "##N": 204,
      "##x": 205,
      "##д": 206,
      "##7": 207,
      "##З": 208,
      "##ь": 209,
      "##Г": 210,
      "##Ц": 211,
      "##й": 212,
      "##ш": 213,
      "##ч": 214,
      "##я": 215,
      "##п": 216,
      "##б": 217,
      "##Ф": 218,
      "##П": 219,
      "##T": 220,
      "##ж": 221,
      "##4": 222,
      "##К": 223,
      "##Л": 224,
      "##С": 225,
      "##щ": 226,
      "##Ш": 227,
      "##Э": 228,
      "##В": 229,
      "##Н": 230,
      "##Р": 231,
      "##О": 232,
      "##Т": 233,
      "##У": 234,
      "##Д": 235,
      "##А": 236,
      "##ю": 237,
      "##Ь": 238,
      "##М": 239,
      "##ф": 240,
      "##И": 241,
      "##P": 242,
      "##R": 243,
      "##X": 244,
      "##E": 245,
      "##C": 246,
      "##э": 247,
      "##A": 248,
      "##t": 249,
      "##d": 250,
      "##ъ": 251,
      "##I": 252,
      "##G": 253,
      "##Х": 254,
      "##±": 255,
      "##p": 256,
      "##i": 257,
      "##m": 258,
      "##a": 259,
      "##D": 260,
      "##K": 261,
      "##F": 262,
      "##k": 263,
      "##∙": 264,
      "##Ч": 265,
      "##Щ": 266,
      "##O": 267,
      "##U": 268,
      "##×": 269,
      "##№": 270,
      "##Е": 271,
      "##M": 272,
      "##h": 273,
      "##z": 274,
      "##g": 275,
      "##o": 276,
      "##e": 277,
      "##B": 278,
      "##S": 279,
      "##u": 280,
      "##W": 281,
      "##b": 282,
      "##s": 283,
      "##L": 284,
      "##c": 285,
      "##l": 286,
      "##°": 287,
      "##v": 288,
      "##n": 289,
      "##Ж": 290,
      "##V": 291,
      "##Й": 292,
      "##²": 293,
      "##Ы": 294,
      "##r": 295,
      "##f": 296,
      "##ё": 297,
      "##y": 298,
      "##Я": 299,
      "##®": 300,
      "##Y": 301,
      "##Q": 302,
      "##w": 303,
      "##Ю": 304,
      "##H": 305,
      "##Z": 306,
      "##J": 307,
      "##j": 308,
      "##³": 309,
      "##q": 310,
      "##˚": 311,
      "##ны": 312,
      "##но": 313,
      "##на": 314,
      "##ов": 315,
      "##ст": 316,
      "##ль": 317,
      "мм": 318,
      "##ни": 319,
      "##ер": 320,
      "##ет": 321,
      "##ол": 322,
      "##00": 323,
      "##ор": 324,
      "##ный": 325,
      "##та": 326,
      "##ам": 327,
      "##ой": 328,
      "##ли": 329,
      "##он": 330,
      "##ом": 331,
      "##од": 332,
      "##ле": 333,
      "##ас": 334,
      "##ная": 335,
      "##ки": 336,
      "##ен": 337,
      "##ру": 338,
      "##ной": 339,
      "##ан": 340,
      "##ка": 341,
      "##ина": 342,
      "##ные": 343,
      "ди": 344,
      "##ля": 345,
      "##етр": 346,
      "на": 347,
      "##аметр": 348,
      "диаметр": 349,
      "##ат": 350,
      "##ем": 351,
      "из": 352,
      "##ро": 353,
      "##ель": 354,
      "##сти": 355,
      "##аз": 356,
      "ста": 357,
      "##ени": 358,
      "##оп": 359,
      "##ар": 360,
      "для": 361,
      "##го": 362,
      "##аб": 363,
      "##ес": 364,
      "##ров": 365,
      "##ци": 366,
      "##ок": 367,
      "##ез": 368,
      "##ра": 369,
      "тол": 370,
      "толщ": 371,
      "##ей": 372,
      "##мер": 373,
      "##ми": 374,
      "##асс": 375,
      "ст": 376,
      "##ла": 377,
      "толщина": 378,
      "##ло": 379,
      "##ры": 380,
      "раз": 381,
      "##ных": 382,
      "кл": 383,
      "класс": 384,
      "##ти": 385,
      "без": 386,
      "##ит": 387,
      "##ед": 388,
      "##нов": 389,
      "размер": 390,
      "##ост": 391,
      "##ков": 392,
      "##об": 393,
      "##абель": 394,
      "##ев": 395,
      "##ин": 396,
      "##ного": 397,
      "##ав": 398,
      "##лени": 399,
      "##50": 400,
      "##оли": 401,
      "##руб": 402,
      "пр": 403,
      "##еп": 404,
      "##ност": 405,
      "##ая": 406,
      "##оч": 407,
      "##ности": 408,
      "##чес": 409,
      "ном": 410,
      "об": 411,
      "##ным": 412,
      "##иналь": 413,
      "номиналь": 414,
      "##ность": 415,
      "100": 416,
      "сталь": 417,
      "##лов": 418,
      "##ко": 419,
      "безоп": 420,
      "##пор": 421,
      "##от": 422,
      "##асности": 423,
      "си": 424,
      "безопасности": 425,
      "##ющ": 426,
      "##етон": 427,
      "стали": 428,
      "##кт": 429,
      "##ение": 430,
      "##ения": 431,
      "##еле": 432,
      "##рован": 433,
      "от": 434,
      "##аль": 435,
      "про": 436,
      "##ал": 437,
      "вы": 438,
      "##ход": 439,
      "##ив": 440,
      "10": 441,
      "12": 442,
      "##ное": 443,
      "кг": 444,
      "##ек": 445,
      "##овы": 446,
      "##тр": 447,
      "вн": 448,
      "до": 449,
      "св": 450,
      "поли": 451,
      "##руж": 452,
      "##из": 453,
      "##остой": 454,
      "кон": 455,
      "за": 456,
      "##ату": 457,
      "##мостой": 458,
      "м3": 459,
      "##Па": 460,
      "наруж": 461,
      "МПа": 462,
      "Кабель": 463,
      "##ух": 464,
      "##ление": 465,
      "##ами": 466,
      "дав": 467,
      "##со": 468,
      "##ний": 469,
      "теп": 470,
      "со": 471,
      "##ком": 472,
      "##чески": 473,
      "##лю": 474,
      "##ест": 475,
      "дв": 476,
      "номинальный": 477,
      "пло": 478,
      "под": 479,
      "размеры": 480,
      "##цин": 481,
      "##нит": 482,
      "мар": 483,
      "давление": 484,
      "##цинков": 485,
      "##ож": 486,
      "##им": 487,
      "##цинкован": 488,
      "труб": 489,
      "##00х": 490,
      "##ад": 491,
      "дли": 492,
      "кабель": 493,
      "ос": 494,
      "##ейс": 495,
      "##лект": 496,
      "##утр": 497,
      "сейс": 498,
      "сейсмостой": 499,
      "##кой": 500,
      "внутр": 501,
      "##ровод": 502,
      "рас": 503,
      "##ег": 504,
      "тр": 505,
      "##10": 506,
      "внутрен": 507,
      "##оля": 508,
      "50": 509,
      "##20": 510,
      "##ип": 511,
      "##рыти": 512,
      "##ый": 513,
      "длина": 514,
      "##сп": 515,
      "##нд": 516,
      "20": 517,
      "##ент": 518,
      "##фи": 519,
      "пер": 520,
      "##онный": 521,
      "гор": 522,
      "##еч": 523,
      "кор": 524,
      "бетон": 525,
      "стен": 526,
      "##яж": 527,
      "##ани": 528,
      "##ными": 529,
      "##ерж": 530,
      "##ые": 531,
      "##оляци": 532,
      "##шен": 533,
      "25": 534,
      "оцинкован": 535,
      "##ирован": 536,
      "основ": 537,
      "##ус": 538,
      "Труб": 539,
      "тип": 540,
      "##кости": 541,
      "##елез": 542,
      "желез": 543,
      "##лой": 544,
      "##пр": 545,
      "стенки": 546,
      "°C": 547,
      "##оз": 548,
      "##етал": 549,
      "15": 550,
      "##ист": 551,
      "пок": 552,
      "##ее": 553,
      "не": 554,
      "##итель": 555,
      "16": 556,
      "##обетон": 557,
      "##ловой": 558,
      "40": 559,
      "од": 560,
      "##цев": 561,
      "покрыти": 562,
      "##х1": 563,
      "##олн": 564,
      "алю": 565,
      "##ъем": 566,
      "алюми": 567,
      "метал": 568,
      "алюмини": 569,
      "ши": 570,
      "##уч": 571,
      "Пли": 572,
      "##ети": 573,
      "жи": 574,
      "исп": 575,
      "железобетон": 576,
      "##нг": 577,
      "##ления": 578,
      "##оль": 579,
      "алюминиев": 580,
      "##опровод": 581,
      "##рав": 582,
      "при": 583,
      "##ым": 584,
      "00": 585,
      "##000": 586,
      "исполн": 587,
      "##порный": 588,
      "наружный": 589,
      "ар": 590,
      "жил": 591,
      "##ос": 592,
      "Ст": 593,
      "##лад": 594,
      "##альной": 595,
      "##лап": 596,
      "##аве": 597,
      "номинальное": 598,
      "мин": 599,
      "##вод": 600,
      "кр": 601,
      "##ия": 602,
      "высо": 603,
      "##анов": 604,
      "14": 605,
      "высота": 606,
      "##ого": 607,
      "кВ": 608,
      "ок": 609,
      "1000": 610,
      "зам": 611,
      "##ак": 612,
      "##атуры": 613,
      "стек": 614,
      "##80": 615,
      "##или": 616,
      "##уф": 617,
      "##егор": 618,
      "##итный": 619,
      "нерж": 620,
      "##авеющ": 621,
      "нержавеющ": 622,
      "плот": 623,
      "##ели": 624,
      "##кая": 625,
      "Клап": 626,
      "##не": 627,
      "##иж": 628,
      "##абар": 629,
      "##вер": 630,
      "##ном": 631,
      "объем": 632,
      "##абаритный": 633,
      "##гл": 634,
      "Клапан": 635,
      "сейсмостойкости": 636,
      "##льный": 637,
      "##пер": 638,
      "расход": 639,
      "арм": 640,
      "Плита": 641,
      "внутренний": 642,
      "##ерм": 643,
      "тепло": 644,
      "двух": 645,
      "замком": 646,
      "##егория": 647,
      "уст": 648,
      "Трубы": 649,
      "плотность": 650,
      "##25": 651,
      "##ел": 652,
      "##вет": 653,
      "ог": 654,
      "##очная": 655,
      "##един": 656,
      "мед": 657,
      "кат": 658,
      "##ник": 659,
      "##орож": 660,
      "##яч": 661,
      "##руп": 662,
      "##лан": 663,
      "30": 664,
      "сп": 665,
      "см": 666,
      "арматуры": 667,
      "##x1": 668,
      "элект": 669,
      "силовой": 670,
      "##ид": 671,
      "габаритный": 672,
      "##аты": 673,
      "500": 674,
      "ка": 675,
      "тем": 676,
      "исполнение": 677,
      "минер": 678,
      "##ех": 679,
      "марка": 680,
      "горяч": 681,
      "темпер": 682,
      "##ых": 683,
      "основе": 684,
      "##фонный": 685,
      "90": 686,
      "##ноп": 687,
      "руч": 688,
      "марки": 689,
      "уп": 690,
      "жилами": 691,
      "ком": 692,
      "##пряж": 693,
      "стальные": 694,
      "пор": 695,
      "##ением": 696,
      "##лок": 697,
      "##она": 698,
      "##ческий": 699,
      "категория": 700,
      "##илинд": 701,
      "пов": 702,
      "##рашен": 703,
      "##ери": 704,
      "13": 705,
      "полиэ": 706,
      "##ур": 707,
      "##ям": 708,
      "##60": 709,
      "##цов": 710,
      "150": 711,
      "##ания": 712,
      "##лит": 713,
      "##овой": 714,
      "##лоп": 715,
      "прям": 716,
      "##па": 717,
      "##аст": 718,
      "стальной": 719,
      "##ое": 720,
      "##ции": 721,
      "200": 722,
      "шир": 723,
      "установ": 724,
      "м2": 725,
      "полимер": 726,
      "нержавеющей": 727,
      "покрытием": 728,
      "гра": 729,
      "##40": 730,
      "##лем": 731,
      "##изоляци": 732,
      "Кор": 733,
      "##онные": 734,
      "ваты": 735,
      "обли": 736,
      "облицов": 737,
      "400": 738,
      "##уг": 739,
      "45": 740,
      "горяче": 741,
      "слой": 742,
      "##x2": 743,
      "##ость": 744,
      "##нитель": 745,
      "##еш": 746,
      "запорный": 747,
      "##озд": 748,
      "11": 749,
      "силь": 750,
      "250": 751,
      "##30": 752,
      "напряж": 753,
      "##ва": 754,
      "##онта": 755,
      "пол": 756,
      "##кат": 757,
      "сильфонный": 758,
      "минеральной": 759,
      "рез": 760,
      "Вт": 761,
      "70": 762,
      "##кий": 763,
      "баз": 764,
      "##пус": 765,
      "##ран": 766,
      "стеклоп": 767,
      "Короб": 768,
      "80": 769,
      "##иб": 770,
      "##инт": 771,
      "##600": 772,
      "##си": 773,
      "##иной": 774,
      "ширина": 775,
      "##фор": 776,
      "по": 777,
      "температу": 778,
      "##ласти": 779,
      "60": 780,
      "установки": 781,
      "Муф": 782,
      "диаметром": 783,
      "##еб": 784,
      "одно": 785,
      "свар": 786,
      "сеч": 787,
      "Блок": 788,
      "##кость": 789,
      "раб": 790,
      "вод": 791,
      "##еля": 792,
      "железобетонная": 793,
      "##еход": 794,
      "##кое": 795,
      "трубопровод": 796,
      "Стой": 797,
      "##вор": 798,
      "##неу": 799,
      "##клад": 800,
      "огнеу": 801,
      "ПВ": 802,
      "##атери": 803,
      "##рыш": 804,
      "##рой": 805,
      "мо": 806,
      "опор": 807,
      "окрашен": 808,
      "##зи": 809,
      "##ностью": 810,
      "флан": 811,
      "##тиле": 812,
      "управ": 813,
      "возд": 814,
      "##70": 815,
      "##люч": 816,
      "ручной": 817,
      "##олок": 818,
      "##дение": 819,
      "Про": 820,
      "32": 821,
      "##ВГ": 822,
      "##ключ": 823,
      "##х2": 824,
      "толщиной": 825,
      "##еси": 826,
      "облицовочная": 827,
      "##еди": 828,
      "##ут": 829,
      "##рующ": 830,
      "##слой": 831,
      "полиэтиле": 832,
      "металли": 833,
      "ков": 834,
      "Св": 835,
      "##пи": 836,
      "##уш": 837,
      "бол": 838,
      "##ча": 839,
      "Стойка": 840,
      "##альт": 841,
      "##овый": 842,
      "оцинкованной": 843,
      "повы": 844,
      "корпус": 845,
      "электро": 846,
      "##ати": 847,
      "повышен": 848,
      "теплоизоляци": 849,
      "напряжение": 850,
      "медными": 851,
      "##ированные": 852,
      "##15": 853,
      "##щад": 854,
      "##единитель": 855,
      "##атор": 856,
      "##виж": 857,
      "##стру": 858,
      "мощ": 859,
      "гранит": 860,
      "##рез": 861,
      "ко": 862,
      "300": 863,
      "##овых": 864,
      "площад": 865,
      "бет": 866,
      "комп": 867,
      "##ней": 868,
      "##ред": 869,
      "##кер": 870,
      "рабоч": 871,
      "##жим": 872,
      "профи": 873,
      "присо": 874,
      "ма": 875,
      "мощность": 876,
      "лот": 877,
      "пород": 878,
      "110": 879,
      "герм": 880,
      "мест": 881,
      "##кан": 882,
      "##елем": 883,
      "груп": 884,
      "отвер": 885,
      "300х": 886,
      "##ты": 887,
      "базальт": 888,
      "металла": 889,
      "##Х1": 890,
      "изоляци": 891,
      "Муфта": 892,
      "35": 893,
      "присоедин": 894,
      "отверсти": 895,
      "Цилинд": 896,
      "Цилиндры": 897,
      "температура": 898,
      "бетона": 899,
      "более": 900,
      "сам": 901,
      "##СТ": 902,
      "теплов": 903,
      "сред": 904,
      "##щит": 905,
      "каб": 906,
      "##ция": 907,
      "##ним": 908,
      "месторож": 909,
      "месторождение": 910,
      "теплоизоляционные": 911,
      "Из": 912,
      "См": 913,
      "120": 914,
      "матери": 915,
      "##х3": 916,
      "##ота": 917,
      "мм2": 918,
      "оп": 919,
      "##лив": 920,
      "площадь": 921,
      "КЗ": 922,
      "кли": 923,
      "##ул": 924,
      "##ока": 925,
      "##ированная": 926,
      "угл": 927,
      "##шов": 928,
      "конта": 929,
      "##ровол": 930,
      "##ива": 931,
      "##нкер": 932,
      "бес": 933,
      "##струк": 934,
      "##овая": 935,
      "LS": 936,
      "КЗС": 937,
      "прив": 938,
      "кгс": 939,
      "##ьб": 940,
      "фланцев": 941,
      "резьб": 942,
      "03": 943,
      "стальная": 944,
      "пе": 945,
      "раст": 946,
      "##очных": 947,
      "18": 948,
      "стой": 949,
      "типа": 950,
      "проч": 951,
      "короб": 952,
      "##ум": 953,
      "##лер": 954,
      "##90": 955,
      "см2": 956,
      "##ис": 957,
      "##ик": 958,
      "##вар": 959,
      "переход": 960,
      "ли": 961,
      "шар": 962,
      "##ся": 963,
      "##шированные": 964,
      "гранитная": 965,
      "волок": 966,
      "ус": 967,
      "соединитель": 968,
      "кол": 969,
      "ток": 970,
      "контакт": 971,
      "вер": 972,
      "свя": 973,
      "27": 974,
      "17": 975,
      "креп": 976,
      "##ками": 977,
      "##нополи": 978,
      "кру": 979,
      "##еств": 980,
      "Смеси": 981,
      "##300": 982,
      "##цион": 983,
      "зат": 984,
      "##ыми": 985,
      "##гна": 986,
      "сигна": 987,
      "пенополи": 988,
      "выс": 989,
      "защит": 990,
      "От": 991,
      "отверстия": 992,
      "##ерных": 993,
      "цвет": 994,
      "##ческие": 995,
      "уг": 996,
      "ниж": 997,
      "##кого": 998,
      "75": 999,
      "##ката": 1000,
      "тер": 1001,
      "##ВГнг": 1002,
      "##емент": 1003,
      "кВт": 1004,
      "гориз": 1005,
      "гид": 1006,
      "горизонта": 1007,
      "##ластиков": 1008,
      "ск": 1009,
      "##гр": 1010,
      "##амер": 1011,
      "полиэтиленов": 1012,
      "ковш": 1013,
      "##нич": 1014,
      "##оток": 1015,
      "##рующим": 1016,
      "##угу": 1017,
      "повышенной": 1018,
      "пан": 1019,
      "чугу": 1020,
      "##ца": 1021,
      "01": 1022,
      "95": 1023,
      "кабельный": 1024,
      "трех": 1025,
      "##ади": 1026,
      "крыш": 1027,
      "##арк": 1028,
      "24": 1029,
      "##8Н": 1030,
      "##Х18Н": 1031,
      "термостой": 1032,
      "##100": 1033,
      "##лен": 1034,
      "Кон": 1035,
      "тепловым": 1036,
      "##вес": 1037,
      "##свар": 1038,
      "само": 1039,
      "внеш": 1040,
      "группа": 1041,
      "повор": 1042,
      "ПВХ": 1043,
      "синт": 1044,
      "синтети": 1045,
      "##ещ": 1046,
      "##унд": 1047,
      "600": 1048,
      "##Х18Н10": 1049,
      "##порные": 1050,
      "##акет": 1051,
      "кабельная": 1052,
      "воздух": 1053,
      "вырез": 1054,
      "##стем": 1055,
      "систем": 1056,
      "синтетичес": 1057,
      "Ста": 1058,
      "проклад": 1059,
      "нап": 1060,
      "##да": 1061,
      "конструк": 1062,
      "##ана": 1063,
      "##воров": 1064,
      "##лемм": 1065,
      "ковшей": 1066,
      "##рованная": 1067,
      "##ветв": 1068,
      "##ливочных": 1069,
      "##азливочных": 1070,
      "сталер": 1071,
      "сталеразливочных": 1072,
      "##очный": 1073,
      "##сирующим": 1074,
      "##есс": 1075,
      "##три": 1076,
      "шиб": 1077,
      "##гой": 1078,
      "затворов": 1079,
      "шиберных": 1080,
      "IP": 1081,
      "пи": 1082,
      "управления": 1083,
      "##шовные": 1084,
      "##фик": 1085,
      "##камер": 1086,
      "самофик": 1087,
      "##сирующимся": 1088,
      "самофиксирующимся": 1089,
      "##ень": 1090,
      "##рози": 1091,
      "эк": 1092,
      "соедин": 1093,
      "фоль": 1094,
      "##Х18Н10Т": 1095,
      "гиб": 1096,
      "опти": 1097,
      "терм": 1098,
      "стеклопакет": 1099,
      "##ходной": 1100,
      "кана": 1101,
      "подключ": 1102,
      "##ован": 1103,
      "Отвод": 1104,
      "горячеката": 1105,
      "##анс": 1106,
      "##уб": 1107,
      "##ай": 1108,
      "##17": 1109,
      "##елей": 1110,
      "стро": 1111,
      "лист": 1112,
      "конт": 1113,
      "обр": 1114,
      "##ви": 1115,
      "##цевая": 1116,
      "соединительная": 1117,
      "II": 1118,
      "##енти": 1119,
      "##ующ": 1120,
      "покрытия": 1121,
      "##руз": 1122,
      "##особ": 1123,
      "##рус": 1124,
      "##акс": 1125,
      "##лением": 1126,
      "##ня": 1127,
      "##иль": 1128,
      "##том": 1129,
      "материал": 1130,
      "огнеупорный": 1131,
      "##ше": 1132,
      "##ян": 1133,
      "внешний": 1134,
      "##оцинкован": 1135,
      "##ентри": 1136,
      "связ": 1137,
      "линий": 1138,
      "макс": 1139,
      "максим": 1140,
      "пред": 1141,
      "##дели": 1142,
      "##енным": 1143,
      "##розион": 1144,
      "глад": 1145,
      "способ": 1146,
      "фольгой": 1147,
      "72": 1148,
      "##ие": 1149,
      "контро": 1150,
      "##500": 1151,
      "##кры": 1152,
      "Трой": 1153,
      "полимерная": 1154,
      "профиля": 1155,
      "##чат": 1156,
      "алюминиевой": 1157,
      "базальтовых": 1158,
      "Труба": 1159,
      "##кие": 1160,
      "##оду": 1161,
      "анкер": 1162,
      "660": 1163,
      "мул": 1164,
      "муллит": 1165,
      "##рованные": 1166,
      "220": 1167,
      "Коробка": 1168,
      "фас": 1169,
      "##урет": 1170,
      "шп": 1171,
      "Прокат": 1172,
      "##уст": 1173,
      "##ожух": 1174,
      "связующ": 1175,
      "кН": 1176,
      "бетонные": 1177,
      "муф": 1178,
      "железобетонные": 1179,
      "кожух": 1180,
      "##ий": 1181,
      "трубопроводов": 1182,
      "провол": 1183,
      "##ования": 1184,
      "##ассы": 1185,
      "кашированные": 1186,
      "SN": 1187,
      "90°": 1188,
      "22": 1189,
      "##65": 1190,
      "##тив": 1191,
      "##ктор": 1192,
      "трассы": 1193,
      "##честв": 1194,
      "связующем": 1195,
      "высок": 1196,
      "За": 1197,
      "Стакан": 1198,
      "19": 1199,
      "прокладки": 1200,
      "синтетическом": 1201,
      "класса": 1202,
      "##асти": 1203,
      "##ческое": 1204,
      "горизонталь": 1205,
      "цилинд": 1206,
      "крас": 1207,
      "##лом": 1208,
      "опоры": 1209,
      "оптический": 1210,
      "##х4": 1211,
      "##тор": 1212,
      "##ри": 1213,
      "Пер": 1214,
      "цемент": 1215,
      "21": 1216,
      "Кран": 1217,
      "горячекатаный": 1218,
      "нак": 1219,
      "перек": 1220,
      "##ог": 1221,
      "двой": 1222,
      "горячеоцинкован": 1223,
      "##ожар": 1224,
      "среды": 1225,
      "##еж": 1226,
      "##лектор": 1227,
      "стеклопакетом": 1228,
      "вст": 1229,
      "##ело": 1230,
      "оцинкованная": 1231,
      "##ивной": 1232,
      "тепл": 1233,
      "##ковым": 1234,
      "комплект": 1235,
      "##оки": 1236,
      "##етка": 1237,
      "сейсмостойкая": 1238,
      "##камерным": 1239,
      "стеклопластиков": 1240,
      "ав": 1241,
      "08": 1242,
      "круп": 1243,
      "##овые": 1244,
      "##ерод": 1245,
      "классу": 1246,
      "проволоки": 1247,
      "##орм": 1248,
      "##ации": 1249,
      "##чной": 1250,
      "коли": 1251,
      "##х0": 1252,
      "коррозион": 1253,
      "##мати": 1254,
      "количеств": 1255,
      "трубы": 1256,
      "##слойная": 1257,
      "02": 1258,
      "##раж": 1259,
      "##опро": 1260,
      "количество": 1261,
      "гермети": 1262,
      "теплопровод": 1263,
      "##еродист": 1264,
      "мен": 1265,
      "менее": 1266,
      "теплопроводность": 1267,
      "центри": 1268,
      "строитель": 1269,
      "##фуг": 1270,
      "центрифуг": 1271,
      "400х": 1272,
      "коллектор": 1273,
      "шт": 1274,
      "##крыт": 1275,
      "##про": 1276,
      "##ентиля": 1277,
      "пар": 1278,
      "Свая": 1279,
      "дорож": 1280,
      "##ское": 1281,
      "76": 1282,
      "услов": 1283,
      "клемм": 1284,
      "центрифугированная": 1285,
      "##400": 1286,
      "алюминиевыми": 1287,
      "кабеля": 1288,
      "##ового": 1289,
      "наружным": 1290,
      "##ческим": 1291,
      "климати": 1292,
      "термостойкость": 1293,
      "кабельной": 1294,
      "свет": 1295,
      "внутренней": 1296,
      "##ветвитель": 1297,
      "зажим": 1298,
      "##тика": 1299,
      "вертика": 1300,
      "климатическое": 1301,
      "##нж": 1302,
      "##енного": 1303,
      "##рок": 1304,
      "##егу": 1305,
      "подключением": 1306,
      "FR": 1307,
      "##етиль": 1308,
      "кабельных": 1309,
      "углеродист": 1310,
      "##жения": 1311,
      "##орт": 1312,
      "ВВГнг": 1313,
      "##12": 1314,
      "##ческих": 1315,
      "корпуса": 1316,
      "винт": 1317,
      "муллиток": 1318,
      "##оны": 1319,
      "автом": 1320,
      "прямой": 1321,
      "##ств": 1322,
      "перекрыти": 1323,
      "гидро": 1324,
      "##ец": 1325,
      "##локи": 1326,
      "Кр": 1327,
      "шаровой": 1328,
      "изоляции": 1329,
      "##ивающ": 1330,
      "экра": 1331,
      "HF": 1332,
      "плос": 1333,
      "##x0": 1334,
      "SD": 1335,
      "##ерев": 1336,
      "конич": 1337,
      "коничностью": 1338,
      "41": 1339,
      "пес": 1340,
      "##бор": 1341,
      "##орон": 1342,
      "кругл": 1343,
      "рабочее": 1344,
      "##етиз": 1345,
      "##азный": 1346,
      "##рованный": 1347,
      "МК": 1348,
      "##96": 1349,
      "##ром": 1350,
      "##ческая": 1351,
      "соединения": 1352,
      "щеб": 1353,
      "##нт": 1354,
      "Тройник": 1355,
      "поворота": 1356,
      "гладкая": 1357,
      "##олод": 1358,
      "##мин": 1359,
      "корпусом": 1360,
      "160": 1361,
      "##чный": 1362,
      "##усти": 1363,
      "65": 1364,
      "##яг": 1365,
      "##нная": 1366,
      "волокон": 1367,
      "окрашенный": 1368,
      "##аркас": 1369,
      "герметичной": 1370,
      "##онеч": 1371,
      "лотков": 1372,
      "##ола": 1373,
      "Светиль": 1374,
      "красный": 1375,
      "силов": 1376,
      "нержавеющая": 1377,
      "газ": 1378,
      "резьбой": 1379,
      "тяж": 1380,
      "бесшовные": 1381,
      "каркас": 1382,
      "##ства": 1383,
      "##ах": 1384,
      "##ефор": 1385,
      "##фици": 1386,
      "сейсмостойкий": 1387,
      "##обр": 1388,
      "отоп": 1389,
      "##ованная": 1390,
      "Лоток": 1391,
      "провод": 1392,
      "окрашенная": 1393,
      "##енных": 1394,
      "##онная": 1395,
      "##ении": 1396,
      "общ": 1397,
      "марок": 1398,
      "°С": 1399,
      "##ковая": 1400,
      "##олоч": 1401,
      "уд": 1402,
      "##ыше": 1403,
      "свыше": 1404,
      "##аг": 1405,
      "108": 1406,
      "присоединения": 1407,
      "Ст3": 1408,
      "##лав": 1409,
      "панель": 1410,
      "В15": 1411,
      "фланцевое": 1412,
      "##делия": 1413,
      "##гол": 1414,
      "##лей": 1415,
      "угловой": 1416,
      "двер": 1417,
      "##груз": 1418,
      "##одуль": 1419,
      "##омп": 1420,
      "125": 1421,
      "##пиле": 1422,
      "##елого": 1423,
      "##нопро": 1424,
      "##извод": 1425,
      "присоединение": 1426,
      "лотка": 1427,
      "##ному": 1428,
      "##упа": 1429,
      "##чет": 1430,
      "герметиз": 1431,
      "##нод": 1432,
      "изоляцией": 1433,
      "##енный": 1434,
      "дост": 1435,
      "сигнальный": 1436,
      "плит": 1437,
      "зоны": 1438,
      "полипро": 1439,
      "пенополиурет": 1440,
      "##ций": 1441,
      "сер": 1442,
      "##ап": 1443,
      "доступа": 1444,
      "##ента": 1445,
      "полипропиле": 1446,
      "Опор": 1447,
      "наружного": 1448,
      "сечение": 1449,
      "##мированные": 1450,
      "вне": 1451,
      "##ерх": 1452,
      "Изделия": 1453,
      "транс": 1454,
      "45°": 1455,
      "площадью": 1456,
      "##атель": 1457,
      "##енты": 1458,
      "##ке": 1459,
      "КВ": 1460,
      "##движ": 1461,
      "##обод": 1462,
      "свобод": 1463,
      "концевая": 1464,
      "##пол": 1465,
      "сорт": 1466,
      "##льных": 1467,
      "##новая": 1468,
      "оцинкованный": 1469,
      "трубопроводу": 1470,
      "вырезному": 1471,
      "цилиндру": 1472,
      "нагруз": 1473,
      "##овым": 1474,
      "63": 1475,
      "тяжелого": 1476,
      "SDR": 1477,
      "##ир": 1478,
      "800": 1479,
      "##арт": 1480,
      "##x3": 1481,
      "Светильник": 1482,
      "вентиля": 1483,
      "##альная": 1484,
      "##рев": 1485,
      "поверх": 1486,
      "##онтаж": 1487,
      "песча": 1488,
      "кв": 1489,
      "##уж": 1490,
      "##22": 1491,
      "станд": 1492,
      "##адиатор": 1493,
      "комплекте": 1494,
      "конструкции": 1495,
      "Отводы": 1496,
      "036": 1497,
      "##шт": 1498,
      "бал": 1499,
      "прочность": 1500,
      "Крыш": 1501,
      "монтаж": 1502,
      "термо": 1503,
      "мно": 1504,
      "тока": 1505,
      "электросвар": 1506,
      "фасад": 1507,
      "элем": 1508,
      "##ентом": 1509,
      "ПЭ": 1510,
      "проход": 1511,
      "холод": 1512,
      "1200": 1513,
      "##весной": 1514,
      "БСТ": 1515,
      "или": 1516,
      "Г1": 1517,
      "прямо": 1518,
      "##±5": 1519,
      "25±5": 1520,
      "Крышка": 1521,
      "2000": 1522,
      "##егули": 1523,
      "##амп": 1524,
      "оболоч": 1525,
      "стандарт": 1526,
      "##рос": 1527,
      "300х300": 1528,
      "сечения": 1529,
      "масс": 1530,
      "углеродистой": 1531,
      "57": 1532,
      "гл": 1533,
      "##цеп": 1534,
      "##елый": 1535,
      "жест": 1536,
      "##45": 1537,
      "##иваем": 1538,
      "##нопроходной": 1539,
      "##рут": 1540,
      "сло": 1541,
      "##верд": 1542,
      "88": 1543,
      "внутренним": 1544,
      "углом": 1545,
      "08Х18Н10Т": 1546,
      "##ектор": 1547,
      "##ард": 1548,
      "неок": 1549,
      "##еформированные": 1550,
      "бок": 1551,
      "Кана": 1552,
      "##его": 1553,
      "коль": 1554,
      "изоли": 1555,
      "42": 1556,
      "Радиатор": 1557,
      "##ений": 1558,
      "производ": 1559,
      "3000": 1560,
      "привар": 1561,
      "маркиров": 1562,
      "450": 1563,
      "ввод": 1564,
      "неокрашен": 1565,
      "отд": 1566,
      "вид": 1567,
      "регули": 1568,
      "крепления": 1569,
      "чис": 1570,
      "##ара": 1571,
      "основной": 1572,
      "зажимов": 1573,
      "В25": 1574,
      "##енные": 1575,
      "раструб": 1576,
      "##вещ": 1577,
      "свободного": 1578,
      "Угол": 1579,
      "неокрашенный": 1580,
      "37": 1581,
      "Комп": 1582,
      "СТ": 1583,
      "щебне": 1584,
      "##лиф": 1585,
      "##ехни": 1586,
      "цементно": 1587,
      "Канат": 1588,
      "##устот": 1589,
      "350": 1590,
      "открыт": 1591,
      "Зад": 1592,
      "14нж": 1593,
      "Задвиж": 1594,
      "Задвижка": 1595,
      "ак": 1596,
      "##алов": 1597,
      "##ости": 1598,
      "маркировочная": 1599,
      "сечением": 1600,
      "максимальной": 1601,
      "##ивки": 1602,
      "воздуха": 1603,
      "##екция": 1604,
      "##очные": 1605,
      "##альный": 1606,
      "##руем": 1607,
      "прим": 1608,
      "крупностью": 1609,
      "##чного": 1610,
      "яч": 1611,
      "##теп": 1612,
      "300х600": 1613,
      "##дения": 1614,
      "направ": 1615,
      "герметизации": 1616,
      "муфт": 1617,
      "##аро": 1618,
      "лату": 1619,
      "контрольный": 1620,
      "##анием": 1621,
      "##х6": 1622,
      "##емы": 1623,
      "свивки": 1624,
      "перекрытия": 1625,
      "мног": 1626,
      "Секция": 1627,
      "кабелей": 1628,
      "волокна": 1629,
      "4180": 1630,
      "##ительность": 1631,
      "короба": 1632,
      "ла": 1633,
      "пожар": 1634,
      "примен": 1635,
      "##льно": 1636,
      "контактных": 1637,
      "##нный": 1638,
      "двойной": 1639,
      "33": 1640,
      "Плиты": 1641,
      "цель": 1642,
      "цок": 1643,
      "##ош": 1644,
      "квад": 1645,
      "##x500": 1646,
      "Провод": 1647,
      "СБ": 1648,
      "##ающ": 1649,
      "##коль": 1650,
      "##оншт": 1651,
      "##онштей": 1652,
      "##ПК": 1653,
      "ламп": 1654,
      "дерев": 1655,
      "135": 1656,
      "##95": 1657,
      "PE": 1658,
      "##тая": 1659,
      "##II": 1660,
      "##ния": 1661,
      "##инд": 1662,
      "##ание": 1663,
      "применения": 1664,
      "ниже": 1665,
      "##КЗ": 1666,
      "140": 1667,
      "##16": 1668,
      "180": 1669,
      "##рат": 1670,
      "##зем": 1671,
      "крышкой": 1672,
      "высокопро": 1673,
      "температуры": 1674,
      "##ярус": 1675,
      "##ивод": 1676,
      "##лог": 1677,
      "400х600": 1678,
      "сети": 1679,
      "##х50": 1680,
      "##рак": 1681,
      "ств": 1682,
      "огн": 1683,
      "##гресс": 1684,
      "наконеч": 1685,
      "##ниж": 1686,
      "##алуб": 1687,
      "чугуна": 1688,
      "шпинд": 1689,
      "##ма": 1690,
      "шпинделем": 1691,
      "освещ": 1692,
      "пониж": 1693,
      "##движным": 1694,
      "200х": 1695,
      "контактной": 1696,
      "##рутки": 1697,
      "шлиф": 1698,
      "##привод": 1699,
      "огнеупорные": 1700,
      "жилы": 1701,
      "тверд": 1702,
      "рези": 1703,
      "##грессивной": 1704,
      "ради": 1705,
      "##лиз": 1706,
      "доп": 1707,
      "##35": 1708,
      "##эф": 1709,
      "Зажим": 1710,
      "ЛК": 1711,
      "##очного": 1712,
      "##ником": 1713,
      "отопитель": 1714,
      "числом": 1715,
      "ЭП": 1716,
      "фрак": 1717,
      "горячеоцинкованный": 1718,
      "##ителем": 1719,
      "исполнения": 1720,
      "##льного": 1721,
      "##ундам": 1722,
      "БКЗ": 1723,
      "##чи": 1724,
      "автомати": 1725,
      "пот": 1726,
      "минус": 1727,
      "Флан": 1728,
      "коэф": 1729,
      "коэффици": 1730,
      "электропривод": 1731,
      "вентиляцион": 1732,
      "Вы": 1733,
      "трехслойная": 1734,
      "##ционный": 1735,
      "ПП": 1736,
      "полиэтилена": 1737,
      "прохода": 1738,
      "ствола": 1739,
      "##ую": 1740,
      "фракция": 1741,
      "##рем": 1742,
      "коробки": 1743,
      "28": 1744,
      "##ини": 1745,
      "##амот": 1746,
      "многоп": 1747,
      "квадрат": 1748,
      "58": 1749,
      "##32": 1750,
      "порош": 1751,
      "ПБ": 1752,
      "Опора": 1753,
      "сек": 1754,
      "теле": 1755,
      "##ОСТ": 1756,
      "наружная": 1757,
      "Выключ": 1758,
      "кожухом": 1759,
      "пита": 1760,
      "##орунд": 1761,
      "перем": 1762,
      "##еты": 1763,
      "стальным": 1764,
      "муллитокорунд": 1765,
      "##ческой": 1766,
      "транспор": 1767,
      "##исковая": 1768,
      "##ровочный": 1769,
      "##ехани": 1770,
      "винтовая": 1771,
      "##уго": 1772,
      "производительность": 1773,
      "агрессивной": 1774,
      "##ники": 1775,
      "встро": 1776,
      "прямых": 1777,
      "АВ": 1778,
      "защиты": 1779,
      "двухслой": 1780,
      "расцеп": 1781,
      "##земной": 1782,
      "##мм": 1783,
      "коэффициентом": 1784,
      "сбор": 1785,
      "высокопрочного": 1786,
      "образный": 1787,
      "песчаным": 1788,
      "отдел": 1789,
      "##ута": 1790,
      "##енная": 1791,
      "##ческого": 1792,
      "пониженным": 1793,
      "Переход": 1794,
      "III": 1795,
      "полиэфи": 1796,
      "усили": 1797,
      "креплением": 1798,
      "##глуш": 1799,
      "вертикальный": 1800,
      "круглый": 1801,
      "расцепителем": 1802,
      "ГОСТ": 1803,
      "сух": 1804,
      "##ре": 1805,
      "##х25": 1806,
      "##ести": 1807,
      "48": 1808,
      "12Х18Н10Т": 1809,
      "трения": 1810,
      "шлифованная": 1811,
      "форм": 1812,
      "##ких": 1813,
      "пиле": 1814,
      "конца": 1815,
      "электросварные": 1816,
      "против": 1817,
      "##соль": 1818,
      "##200": 1819,
      "##стой": 1820,
      "СП": 1821,
      "##оот": 1822,
      "расчет": 1823,
      "базальтового": 1824,
      "деревян": 1825,
      "пост": 1826,
      "древ": 1827,
      "полиэфир": 1828,
      "105": 1829,
      "алюминиевые": 1830,
      "вырезные": 1831,
      "##лот": 1832,
      "сост": 1833,
      "освещения": 1834,
      "поток": 1835,
      "##икл": 1836,
      "механи": 1837,
      "кабельные": 1838,
      "В22": 1839,
      "##итум": 1840,
      "двухкамерным": 1841,
      "273": 1842,
      "##нителя": 1843,
      "##ука": 1844,
      "лю": 1845,
      "многопустот": 1846,
      "##яд": 1847,
      "сколь": 1848,
      "встроенным": 1849,
      "##ярусный": 1850,
      "усилие": 1851,
      "белый": 1852,
      "##тяж": 1853,
      "коррозионной": 1854,
      "сплав": 1855,
      "##ешетка": 1856,
      "питания": 1857,
      "##мк": 1858,
      "верх": 1859,
      "неп": 1860,
      "##Шв": 1861,
      "##х10": 1862,
      "воздуш": 1863,
      "стойкости": 1864,
      "##оляция": 1865,
      "Изоляция": 1866,
      "##оди": 1867,
      "сплавов": 1868,
      "давления": 1869,
      "##чатая": 1870,
      "##иг": 1871,
      "полированная": 1872,
      "град": 1873,
      "части": 1874,
      "##13": 1875,
      "КЗСБ": 1876,
      "ПЭ100": 1877,
      "наконечником": 1878,
      "стакан": 1879,
      "одном": 1880,
      "##x2x0": 1881,
      "треб": 1882,
      "гидроизоляци": 1883,
      "##рный": 1884,
      "##Внг": 1885,
      "##ктери": 1886,
      "тепловой": 1887,
      "перикл": 1888,
      "периклаз": 1889,
      "блоки": 1890,
      "оконный": 1891,
      "КМ": 1892,
      "повышенными": 1893,
      "##ованиями": 1894,
      "требованиями": 1895,
      "##ета": 1896,
      "нижним": 1897,
      "крышки": 1898,
      "##ивающее": 1899,
      "##ущ": 1900,
      "##анер": 1901,
      "масса": 1902,
      "сте": 1903,
      "сет": 1904,
      "##их": 1905,
      "выдвижным": 1906,
      "экрани": 1907,
      "плоский": 1908,
      "##СП": 1909,
      "серд": 1910,
      "89": 1911,
      "оцинкованные": 1912,
      "Муфты": 1913,
      "однокамерным": 1914,
      "##оф": 1915,
      "##ника": 1916,
      "##рыв": 1917,
      "низ": 1918,
      "цельно": 1919,
      "кров": 1920,
      "##уд": 1921,
      "муллитокорундовый": 1922,
      "хара": 1923,
      "электром": 1924,
      "##устим": 1925,
      "допустим": 1926,
      "##ктеристи": 1927,
      "Провол": 1928,
      "Проволока": 1929,
      "цин": 1930,
      "##LS": 1931,
      "алюминиевых": 1932,
      "Фланец": 1933,
      "характеристи": 1934,
      "полимерный": 1935,
      "##чатые": 1936,
      "оч": 1937,
      "лаковым": 1938,
      "КП": 1939,
      "##x6": 1940,
      "напорные": 1941,
      "##отда": 1942,
      "теплоотда": 1943,
      "металлических": 1944,
      "теплоотдача": 1945,
      "сты": 1946,
      "##равли": 1947,
      "Конв": 1948,
      "лест": 1949,
      "##нти": 1950,
      "##зна": 1951,
      "круг": 1952,
      "##онент": 1953,
      "гидравли": 1954,
      "##ерс": 1955,
      "##ковый": 1956,
      "приварной": 1957,
      "Конвектор": 1958,
      "Пан": 1959,
      "##ины": 1960,
      "##РА": 1961,
      "##естой": 1962,
      "пиленая": 1963,
      "четы": 1964,
      "КУ": 1965,
      "над": 1966,
      "привод": 1967,
      "полиэтиленовые": 1968,
      "Ду": 1969,
      "битум": 1970,
      "гоф": 1971,
      "огнестой": 1972,
      "утеп": 1973,
      "##x4": 1974,
      "боковым": 1975,
      "##ешет": 1976,
      "точ": 1977,
      "смол": 1978,
      "##х5": 1979,
      "измер": 1980,
      "предел": 1981,
      "FRLS": 1982,
      "##изоли": 1983,
      "##ира": 1984,
      "380": 1985,
      "700": 1986,
      "сварной": 1987,
      "управление": 1988,
      "лампу": 1989,
      "цельносвар": 1990,
      "##форм": 1991,
      "скольжения": 1992,
      "##род": 1993,
      "##отный": 1994,
      "1770": 1995,
      "условного": 1996,
      "открытого": 1997,
      "##чения": 1998,
      "##ящ": 1999,
      "степ": 2000,
      "степень": 2001,
      "очист": 2002,
      "##анной": 2003,
      "##x150": 2004,
      "клиновая": 2005,
      "окон": 2006,
      "М3": 2007,
      "перфор": 2008,
      "##арку": 2009,
      "##тель": 2010,
      "приварку": 2011,
      "ячей": 2012,
      "##минер": 2013,
      "##абота": 2014,
      "600х": 2015,
      "Анкер": 2016,
      "##кашированные": 2017,
      "10с": 2018,
      "некашированные": 2019,
      "кованной": 2020,
      "телефонный": 2021,
      "цельносварной": 2022,
      "анкерным": 2023,
      "допустимое": 2024,
      "зда": 2025,
      "зданий": 2026,
      "уни": 2027,
      "##ями": 2028,
      "##озит": 2029,
      "лоп": 2030,
      "##Энг": 2031,
      "пенополимер": 2032,
      "пенополимерминер": 2033,
      "растяг": 2034,
      "наст": 2035,
      "рабочей": 2036,
      "##агнит": 2037,
      "##ПКВ": 2038,
      "500х": 2039,
      "НГ": 2040,
      "##сна": 2041,
      "растягивающее": 2042,
      "воды": 2043,
      "электромагнит": 2044,
      "##800": 2045,
      "цоколь": 2046,
      "одномод": 2047,
      "спира": 2048,
      "сердеч": 2049,
      "В30": 2050,
      "55": 2051,
      "##рунт": 2052,
      "фланцевый": 2053,
      "##ХЛ": 2054,
      "##нев": 2055,
      "##уп": 2056,
      "##фт": 2057,
      "комб": 2058,
      "сигнально": 2059,
      "Пв": 2060,
      "отопительные": 2061,
      "надземной": 2062,
      "пром": 2063,
      "холоднод": 2064,
      "##КС": 2065,
      "##грев": 2066,
      "##олов": 2067,
      "630": 2068,
      "УХЛ": 2069,
      "буч": 2070,
      "##оян": 2071,
      "##фер": 2072,
      "##ардированная": 2073,
      "постоян": 2074,
      "бучардированная": 2075,
      "блокировочный": 2076,
      "оболочке": 2077,
      "##кор": 2078,
      "##лин": 2079,
      "холоднодеформированные": 2080,
      "##новые": 2081,
      "групп": 2082,
      "КЗСГ": 2083,
      "лопасти": 2084,
      "##нез": 2085,
      "полнопроходной": 2086,
      "##аж": 2087,
      "##ированный": 2088,
      "Консоль": 2089,
      "##обработа": 2090,
      "дверной": 2091,
      "водоот": 2092,
      "##х7": 2093,
      "1570": 2094,
      "переменного": 2095,
      "Дос": 2096,
      "устрой": 2097,
      "смолы": 2098,
      "термообработа": 2099,
      "Заглуш": 2100,
      "##рная": 2101,
      "##омут": 2102,
      "волоконно": 2103,
      "горячеоцинкованная": 2104,
      "##емыч": 2105,
      "##екор": 2106,
      "##Пнг": 2107,
      "декор": 2108,
      "кер": 2109,
      "##сов": 2110,
      "##азем": 2111,
      "норм": 2112,
      "##ковое": 2113,
      "назна": 2114,
      "##ивные": 2115,
      "назначения": 2116,
      "Решетка": 2117,
      "##85": 2118,
      "наружной": 2119,
      "##11": 2120,
      "##пс": 2121,
      "база": 2122,
      "##бжения": 2123,
      "##няя": 2124,
      "пенополиуретанов": 2125,
      "зазем": 2126,
      "##опер": 2127,
      "обс": 2128,
      "Профи": 2129,
      "брус": 2130,
      "муфта": 2131,
      "прямоуго": 2132,
      "##цент": 2133,
      "канализ": 2134,
      "Модуль": 2135,
      "одноярусный": 2136,
      "анти": 2137,
      "длиной": 2138,
      "Ог": 2139,
      "##овод": 2140,
      "##ласт": 2141,
      "скрутки": 2142,
      "гофр": 2143,
      "термообработанная": 2144,
      "шамот": 2145,
      "##напряж": 2146,
      "комбини": 2147,
      "400x500": 2148,
      "31": 2149,
      "минералов": 2150,
      "Конвекторы": 2151,
      "минераловат": 2152,
      "##олот": 2153,
      "219": 2154,
      "##есцент": 2155,
      "стальных": 2156,
      "железобетонный": 2157,
      "бесшов": 2158,
      "лестнич": 2159,
      "решет": 2160,
      "##рования": 2161,
      "всп": 2162,
      "##литель": 2163,
      "Кронштей": 2164,
      "удлин": 2165,
      "КС": 2166,
      "##х16": 2167,
      "##гиб": 2168,
      "##Г2": 2169,
      "навесной": 2170,
      "напряжением": 2171,
      "ОК": 2172,
      "##ную": 2173,
      "##атели": 2174,
      "листовой": 2175,
      "159": 2176,
      "Ст3сп": 2177,
      "##уров": 2178,
      "сердечник": 2179,
      "325": 2180,
      "##форматор": 2181,
      "попер": 2182,
      "контр": 2183,
      "64": 2184,
      "запол": 2185,
      "одност": 2186,
      "малог": 2187,
      "36": 2188,
      "накл": 2189,
      "лег": 2190,
      "##ено": 2191,
      "##комп": 2192,
      "##незем": 2193,
      "##минесцент": 2194,
      "23": 2195,
      "электри": 2196,
      "строительства": 2197,
      "сухие": 2198,
      "##неземист": 2199,
      "рабочая": 2200,
      "кровель": 2201,
      "ост": 2202,
      "противоп": 2203,
      "люминесцент": 2204,
      "постоянного": 2205,
      "Со": 2206,
      "##х35": 2207,
      "мост": 2208,
      "меж": 2209,
      "##х120": 2210,
      "исполнении": 2211,
      "КМП": 2212,
      "попереч": 2213,
      "малогабаритный": 2214,
      "Уст": 2215,
      "тон": 2216,
      "хв": 2217,
      "##аш": 2218,
      "основа": 2219,
      "преднапряж": 2220,
      "##ровкой": 2221,
      "1500": 2222,
      "сварного": 2223,
      "прочности": 2224,
      "фасадный": 2225,
      "полиэфирной": 2226,
      "одномодовых": 2227,
      "##17п": 2228,
      "##атериал": 2229,
      "Раз": 2230,
      "кле": 2231,
      "противопожар": 2232,
      "ЕК": 2233,
      "##ряд": 2234,
      "96": 2235,
      "1020": 2236,
      "заполнителя": 2237,
      "Под": 2238,
      "декорат": 2239,
      "85": 2240,
      "груз": 2241,
      "1600": 2242,
      "КЗСА": 2243,
      "900": 2244,
      "цап": 2245,
      "##него": 2246,
      "##чатый": 2247,
      "##росс": 2248,
      "##гран": 2249,
      "##техни": 2250,
      "рул": 2251,
      "##ивный": 2252,
      "металлические": 2253,
      "##ляющ": 2254,
      "общего": 2255,
      "##Г2С": 2256,
      "##ников": 2257,
      "переходная": 2258,
      "экрана": 2259,
      "26": 2260,
      "W4": 2261,
      "##пред": 2262,
      "медно": 2263,
      "цапковое": 2264,
      "09": 2265,
      "напор": 2266,
      "двум": 2267,
      "Заглушка": 2268,
      "двумя": 2269,
      "отно": 2270,
      "гибкий": 2271,
      "балк": 2272,
      "Ограж": 2273,
      "М2": 2274,
      "##олет": 2275,
      "Ск": 2276,
      "модуль": 2277,
      "##низ": 2278,
      "##ольные": 2279,
      "##нные": 2280,
      "кожухе": 2281,
      "универ": 2282,
      "Щеб": 2283,
      "вводы": 2284,
      "многопустотная": 2285,
      "экранировкой": 2286,
      "Щебень": 2287,
      "двухслойный": 2288,
      "отделка": 2289,
      "нормальной": 2290,
      "##чная": 2291,
      "универс": 2292,
      "##ПП": 2293,
      "гибкие": 2294,
      "##ундамент": 2295,
      "38": 2296,
      "минераловатных": 2297,
      "основание": 2298,
      "##ускат": 2299,
      "каналов": 2300,
      "утеплитель": 2301,
      "##оруж": 2302,
      "62": 2303,
      "##нут": 2304,
      "повивной": 2305,
      "акусти": 2306,
      "##есины": 2307,
      "стеклопластиковый": 2308,
      "муллитокрем": 2309,
      "древесины": 2310,
      "муллитокремнеземист": 2311,
      "нес": 2312,
      "Перемыч": 2313,
      "Материал": 2314,
      "гай": 2315,
      "##х100": 2316,
      "маг": 2317,
      "Блоки": 2318,
      "##HF": 2319,
      "##ционные": 2320,
      "##олятор": 2321,
      "FRHF": 2322,
      "##компонент": 2323,
      "##рам": 2324,
      "##порная": 2325,
      "Доска": 2326,
      "шести": 2327,
      "##150": 2328,
      "##шение": 2329,
      "безопалуб": 2330,
      "формования": 2331,
      "безопалубочного": 2332,
      "точности": 2333,
      "##ту": 2334,
      "связи": 2335,
      "блок": 2336,
      "##ку": 2337,
      "расчетное": 2338,
      "кабельного": 2339,
      "Кронштейн": 2340,
      "угол": 2341,
      "поверхност": 2342,
      "КГ": 2343,
      "номинальным": 2344,
      "силового": 2345,
      "Профиль": 2346,
      "34": 2347,
      "металлический": 2348,
      "Радиаторы": 2349,
      "2500": 2350,
      "##пиль": 2351,
      "обрат": 2352,
      "электромагнитный": 2353,
      "##роб": 2354,
      "##ивания": 2355,
      "верхней": 2356,
      "отношение": 2357,
      "шах": 2358,
      "стандартное": 2359,
      "направления": 2360,
      "##предели": 2361,
      "Пускат": 2362,
      "клад": 2363,
      "##цемент": 2364,
      "##х150": 2365,
      "##лек": 2366,
      "размерное": 2367,
      "работ": 2368,
      "нагрузки": 2369,
      "В40": 2370,
      "##ими": 2371,
      "высот": 2372,
      "панели": 2373,
      "резьбы": 2374,
      "Ст3пс": 2375,
      "глуб": 2376,
      "резинов": 2377,
      "дор": 2378,
      "##вест": 2379,
      "внутренни": 2380,
      "111": 2381,
      "силовых": 2382,
      "Пускатель": 2383,
      "сторон": 2384,
      "балконный": 2385,
      "##x120": 2386,
      "переходной": 2387,
      "##айб": 2388,
      "05": 2389,
      "##ья": 2390,
      "пласти": 2391,
      "оцинкованном": 2392,
      "##ук": 2393,
      "пенополиуретана": 2394,
      "вспен": 2395,
      "шестигран": 2396,
      "дорог": 2397,
      "##ВБ": 2398,
      "поворот": 2399,
      "##лая": 2400,
      "##х2х0": 2401,
      "##енной": 2402,
      "##ацион": 2403,
      "##27": 2404,
      "одноп": 2405,
      "двухд": 2406,
      "##сатор": 2407,
      "Клемм": 2408,
      "бур": 2409,
      "##льной": 2410,
      "вла": 2411,
      "##ала": 2412,
      "130": 2413,
      "чер": 2414,
      "##льная": 2415,
      "листв": 2416,
      "##вич": 2417,
      "пруж": 2418,
      "##x7": 2419,
      "10000": 2420,
      "подвесной": 2421,
      "##ирпи": 2422,
      "двухдисковая": 2423,
      "Комплект": 2424,
      "алюминиевого": 2425,
      "##энд": 2426,
      "огнеупорная": 2427,
      "монтажа": 2428,
      "глух": 2429,
      "##эндвич": 2430,
      "композит": 2431,
      "стеклопластиковые": 2432,
      "Выключатель": 2433,
      "##утав": 2434,
      "трещ": 2435,
      "пожарной": 2436,
      "наклонная": 2437,
      "Бал": 2438,
      "##тами": 2439,
      "извест": 2440,
      "газопровод": 2441,
      "190": 2442,
      "ИА": 2443,
      "##x90": 2444,
      "горизонтальный": 2445,
      "колод": 2446,
      "##ельная": 2447,
      "много": 2448,
      "##ращ": 2449,
      "ответвитель": 2450,
      "измеритель": 2451,
      "11165": 2452,
      "подкат": 2453,
      "сейсмостойком": 2454,
      "керами": 2455,
      "подкатегория": 2456,
      "##x5": 2457,
      "##овое": 2458,
      "##ема": 2459,
      "полиурет": 2460,
      "##слойные": 2461,
      "ячейки": 2462,
      "46": 2463,
      "##ии": 2464,
      "светоди": 2465,
      "Перемычка": 2466,
      "светодиод": 2467,
      "##еф": 2468,
      "гидравлическим": 2469,
      "пружин": 2470,
      "##пресс": 2471,
      "вспененного": 2472,
      "##71": 2473,
      "оконцев": 2474,
      "шв": 2475,
      "уплот": 2476,
      "защитным": 2477,
      "оконцевания": 2478,
      "##зий": 2479,
      "проходной": 2480,
      "##чные": 2481,
      "##ачи": 2482,
      "гранитном": 2483,
      "IP20": 2484,
      "Щит": 2485,
      "##ащ": 2486,
      "четыр": 2487,
      "пластиков": 2488,
      "##важ": 2489,
      "С3": 2490,
      "##лятор": 2491,
      "армату": 2492,
      "##х70": 2493,
      "##чив": 2494,
      "сооруж": 2495,
      "##x250": 2496,
      "##алю": 2497,
      "109": 2498,
      "КЗСВ": 2499,
      "##ПКВт": 2500,
      "ПвПнг": 2501,
      "жалю": 2502,
      "ин": 2503,
      "##ВС": 2504,
      "зап": 2505,
      "133": 2506,
      "##луж": 2507,
      "##ойчив": 2508,
      "распредели": 2509,
      "##цевой": 2510,
      "146": 2511,
      "нагрузка": 2512,
      "цинковым": 2513,
      "бы": 2514,
      "рель": 2515,
      "##х8": 2516,
      "сталем": 2517,
      "##истра": 2518,
      "крест": 2519,
      "##ерсивный": 2520,
      "сталемед": 2521,
      "стерж": 2522,
      "свариваем": 2523,
      "сооружений": 2524,
      "ЭН": 2525,
      "печ": 2526,
      "пенополиуретановая": 2527,
      "жалюзий": 2528,
      "240": 2529,
      "вз": 2530,
      "уси": 2531,
      "##авкой": 2532,
      "прямошовные": 2533,
      "##льные": 2534,
      "##x100": 2535,
      "Изолятор": 2536,
      "автоматический": 2537,
      "водоотвод": 2538,
      "Коль": 2539,
      "техни": 2540,
      "##яз": 2541,
      "##одерж": 2542,
      "Кам": 2543,
      "##ница": 2544,
      "профилей": 2545,
      "цветной": 2546,
      "периклазовый": 2547,
      "66": 2548,
      "##реп": 2549,
      "железнод": 2550,
      "горячед": 2551,
      "повив": 2552,
      "АВВГнг": 2553,
      "железнодорож": 2554,
      "##уль": 2555,
      "Панели": 2556,
      "04": 2557,
      "750": 2558,
      "6000": 2559,
      "##верж": 2560,
      "ручным": 2561,
      "##x2000": 2562,
      "сварные": 2563,
      "составе": 2564,
      "приводом": 2565,
      "огнестойкости": 2566,
      "##опод": 2567,
      "##ителя": 2568,
      "##x200": 2569,
      "Крест": 2570,
      "ЭПРА": 2571,
      "контрольных": 2572,
      "полипропиленов": 2573,
      "потол": 2574,
      "ПС": 2575,
      "клап": 2576,
      "рав": 2577,
      "##нос": 2578,
      "52": 2579,
      "Ленты": 2580,
      "##ообр": 2581,
      "##цы": 2582,
      "арми": 2583,
      "устройства": 2584,
      "Уз": 2585,
      "тор": 2586,
      "очистки": 2587,
      "Хомут": 2588,
      "##ностой": 2589,
      "##ерживающ": 2590,
      "горизонтальная": 2591,
      "бесшовный": 2592,
      "высотой": 2593,
      "225": 2594,
      "голов": 2595,
      "##руго": 2596,
      "металлическая": 2597,
      "##x50": 2598,
      "##ровки": 2599,
      "напольные": 2600,
      "полиуретанов": 2601,
      "нер": 2602,
      "сж": 2603,
      "##14": 2604,
      "прод": 2605,
      "регулируем": 2606,
      "##КБ": 2607,
      "закрыт": 2608,
      "стекло": 2609,
      "##руг": 2610,
      "двойная": 2611,
      "АС": 2612,
      "##юч": 2613,
      "навес": 2614,
      "вентиляционная": 2615,
      "##азон": 2616,
      "##окс": 2617,
      "корот": 2618,
      "##инами": 2619,
      "част": 2620,
      "растяж": 2621,
      "полипропилена": 2622,
      "вентиляционных": 2623,
      "кладки": 2624,
      "##едачи": 2625,
      "отверж": 2626,
      "##x190": 2627,
      "##оподъем": 2628,
      "номер": 2629,
      "горизонтального": 2630,
      "стеклопластиковая": 2631,
      "секций": 2632,
      "обслуж": 2633,
      "печей": 2634,
      "чугунный": 2635,
      "обслуживания": 2636,
      "##ыв": 2637,
      "##олем": 2638,
      "подключения": 2639,
      "##маль": 2640,
      "Трубки": 2641,
      "128": 2642,
      "медные": 2643,
      "горизонтальной": 2644,
      "кольцевая": 2645,
      "акустического": 2646,
      "жалюзийная": 2647,
      "кА": 2648,
      "жесткость": 2649,
      "заполн": 2650,
      "усилен": 2651,
      "Нак": 2652,
      "IP5": 2653,
      "Ге": 2654,
      "содерж": 2655,
      "коррозионностой": 2656,
      "грузоподъем": 2657,
      "бурения": 2658,
      "ред": 2659,
      "сд": 2660,
      "##лет": 2661,
      "управлением": 2662,
      "Разветвитель": 2663,
      "свариваемости": 2664,
      "##анж": 2665,
      "##х19": 2666,
      "люминесцентную": 2667,
      "6х3": 2668,
      "ТК": 2669,
      "сэндвич": 2670,
      "##енци": 2671,
      "##лочный": 2672,
      "конструкций": 2673,
      "МКС": 2674,
      "панельные": 2675,
      "##тный": 2676,
      "подвес": 2677,
      "трой": 2678,
      "##x150x90": 2679,
      "известня": 2680,
      "530": 2681,
      "##Шп": 2682,
      "шарни": 2683,
      "##лава": 2684,
      "электропер": 2685,
      "цилиндри": 2686,
      "термоус": 2687,
      "##олб": 2688,
      "##рованной": 2689,
      "##лекс": 2690,
      "##ированного": 2691,
      "рулонный": 2692,
      "продоль": 2693,
      "Элект": 2694,
      "диф": 2695,
      "60°": 2696,
      "##анера": 2697,
      "##шив": 2698,
      "грузоподъемность": 2699,
      "ас": 2700,
      "грунт": 2701,
      "##лы": 2702,
      "панелью": 2703,
      "Пес": 2704,
      "##900": 2705,
      "##еллер": 2706,
      "лестничного": 2707,
      "горячедеформированные": 2708,
      "##х95": 2709,
      "##ателем": 2710,
      "##изо": 2711,
      "полиэтиленовой": 2712,
      "влаго": 2713,
      "КН": 2714,
      "##БШв": 2715,
      "##ПБ": 2716,
      "стеклов": 2717,
      "Тройники": 2718,
      "изолированный": 2719,
      "латунный": 2720,
      "Клеммник": 2721,
      "быст": 2722,
      "крестообр": 2723,
      "электропередачи": 2724,
      "бор": 2725,
      "грав": 2726,
      "##ох": 2727,
      "##ованные": 2728,
      "клеммы": 2729,
      "кровельный": 2730,
      "магистра": 2731,
      "АП": 2732,
      "ввер": 2733,
      "манс": 2734,
      "##х40": 2735,
      "##ект": 2736,
      "##ковыми": 2737,
      "трубчатая": 2738,
      "металлической": 2739,
      "стойкий": 2740,
      "мансард": 2741,
      "нерев": 2742,
      "максимальная": 2743,
      "муфтой": 2744,
      "шамотные": 2745,
      "круглые": 2746,
      "Устрой": 2747,
      "термоусаж": 2748,
      "вверх": 2749,
      "##ыка": 2750,
      "##осы": 2751,
      "полиэтиленовая": 2752,
      "кром": 2753,
      "отверстий": 2754,
      "распределитель": 2755,
      "##тного": 2756,
      "пенополимерминеральной": 2757,
      "51": 2758,
      "БС": 2759,
      "##ирпич": 2760,
      "отверждения": 2761,
      "нереверсивный": 2762,
      "##олист": 2763,
      "##75": 2764,
      "кауч": 2765,
      "деревянный": 2766,
      "##костью": 2767,
      "слоя": 2768,
      "М350": 2769,
      "коррозионностойкой": 2770,
      "влагостой": 2771,
      "417": 2772,
      "##уко": 2773,
      "1400": 2774,
      "перекрытий": 2775,
      "гип": 2776,
      "##ыш": 2777,
      "стекла": 2778,
      "преднапряженная": 2779,
      "5000": 2780,
      "воздей": 2781,
      "14нж0": 2782,
      "тонк": 2783,
      "##оя": 2784,
      "сплава": 2785,
      "шарнирная": 2786,
      "69": 2787,
      "30°": 2788,
      "##Х13": 2789,
      "кольц": 2790,
      "дом": 2791,
      "##унт": 2792,
      "##лош": 2793,
      "пресс": 2794,
      "железобетонных": 2795,
      "материала": 2796,
      "полиэтиленовый": 2797,
      "##ильз": 2798,
      "характеристика": 2799,
      "##ференци": 2800,
      "остек": 2801,
      "дифференци": 2802,
      "4178": 2803,
      "550": 2804,
      "РК": 2805,
      "##луч": 2806,
      "##отки": 2807,
      "материалов": 2808,
      "гибкость": 2809,
      "обществ": 2810,
      "##III": 2811,
      "вниз": 2812,
      "уч": 2813,
      "##лями": 2814,
      "алюминиевый": 2815,
      "Фанера": 2816,
      "средняя": 2817,
      "защитного": 2818,
      "обратный": 2819,
      "##стви": 2820,
      "##етри": 2821,
      "стойкой": 2822,
      "##олистовой": 2823,
      "315": 2824,
      "##опо": 2825,
      "##ентов": 2826,
      "отопления": 2827,
      "КВВГ": 2828,
      "##цией": 2829,
      "бруса": 2830,
      "##технических": 2831,
      "##охра": 2832,
      "4000": 2833,
      "##ВЭ": 2834,
      "##цевые": 2835,
      "порист": 2836,
      "температур": 2837,
      "426": 2838,
      "перфорированный": 2839,
      "54": 2840,
      "Лист": 2841,
      "эласти": 2842,
      "##кана": 2843,
      "битумно": 2844,
      "пролет": 2845,
      "БКЗК": 2846,
      "##рас": 2847,
      "##ние": 2848,
      "IIIв": 2849,
      "плен": 2850,
      "##ателей": 2851,
      "упруго": 2852,
      "Конструк": 2853,
      "системе": 2854,
      "Выключатели": 2855,
      "растяжении": 2856,
      "одина": 2857,
      "SDR11": 2858,
      "лит": 2859,
      "трос": 2860,
      "##тил": 2861,
      "железных": 2862,
      "Возд": 2863,
      "реле": 2864,
      "##вижная": 2865,
      "##устойчив": 2866,
      "гидротехнических": 2867,
      "электроприводом": 2868,
      "Кол": 2869,
      "пож": 2870,
      "односторон": 2871,
      "09Г2С": 2872,
      "воздействи": 2873,
      "пожаро": 2874,
      "##лого": 2875,
      "##онагрев": 2876,
      "##ушения": 2877,
      "РН": 2878,
      "блочный": 2879,
      "дросс": 2880,
      "фанер": 2881,
      "эп": 2882,
      "##то": 2883,
      "##ветвления": 2884,
      "Соединитель": 2885,
      "гравия": 2886,
      "Габ": 2887,
      "ге": 2888,
      "воздействию": 2889,
      "замыка": 2890,
      "##утавр": 2891,
      "С345": 2892,
      "92": 2893,
      "лент": 2894,
      "##уктор": 2895,
      "##овыми": 2896,
      "общественных": 2897,
      "Филь": 2898,
      "издели": 2899,
      "двухкомпонент": 2900,
      "##оксид": 2901,
      "цент": 2902,
      "эма": 2903,
      "##ойных": 2904,
      "токопо": 2905,
      "раструбные": 2906,
      "токопоисковая": 2907,
      "DN": 2908,
      "кра": 2909,
      "##хслойная": 2910,
      "##лор": 2911,
      "##ёхслойная": 2912,
      "изгиб": 2913,
      "сто": 2914,
      "шпунт": 2915,
      "транспортного": 2916,
      "фанеры": 2917,
      "W2": 2918,
      "##тушения": 2919,
      "трубопровода": 2920,
      "тепловая": 2921,
      "##ежут": 2922,
      "проводов": 2923,
      "промежут": 2924,
      "хвойных": 2925,
      "сталемедная": 2926,
      "пожаротушения": 2927,
      "6х19": 2928,
      "##той": 2929,
      "##24": 2930,
      "размером": 2931,
      "##епи": 2932,
      "##x400": 2933,
      "скваж": 2934,
      "##виг": 2935,
      "44": 2936,
      "сплош": 2937,
      "образ": 2938,
      "условное": 2939,
      "##нское": 2940,
      "кронштей": 2941,
      "сварная": 2942,
      "##укав": 2943,
      "29": 2944,
      "##IN": 2945,
      "##очаст": 2946,
      "шириной": 2947,
      "крупность": 2948,
      "эпоксид": 2949,
      "##аном": 2950,
      "##67": 2951,
      "##рож": 2952,
      "##опроводов": 2953,
      "переходные": 2954,
      "##ство": 2955,
      "##19": 2956,
      "##енными": 2957,
      "##каф": 2958,
      "разветвитель": 2959,
      "покрытий": 2960,
      "##вающ": 2961,
      "зв": 2962,
      "реб": 2963,
      "##34": 2964,
      "##x25": 2965,
      "покрытие": 2966,
      "горячего": 2967,
      "несущ": 2968,
      "редуктор": 2969,
      "##Гц": 2970,
      "диап": 2971,
      "технические": 2972,
      "Кал": 2973,
      "##еров": 2974,
      "ручка": 2975,
      "характеристики": 2976,
      "##71фт": 2977,
      "головкой": 2978,
      "##ата": 2979,
      "##аем": 2980,
      "стан": 2981,
      "##ированной": 2982,
      "круглого": 2983,
      "##рядная": 2984,
      "диапазон": 2985,
      "280": 2986,
      "Манж": 2987,
      "пласт": 2988,
      "##х20": 2989,
      "свин": 2990,
      "##основ": 2991,
      "порошковым": 2992,
      "гидроизоляционный": 2993,
      "Полот": 2994,
      "##28": 2995,
      "##LT": 2996,
      "##лев": 2997,
      "шахт": 2998,
      "влагостойкой": 2999,
      "участ": 3000,
      "DIN": 3001,
      "##еци": 3002,
      "бетонный": 3003,
      "##осна": 3004,
      "полимерным": 3005,
      "##егулятор": 3006,
      "проводной": 3007,
      "2В": 3008,
      "##стан": 3009,
      "##обиль": 3010,
      "выход": 3011,
      "термоусаживаем": 3012,
      "С2": 3013,
      "##кар": 3014,
      "сосна": 3015,
      "полос": 3016,
      "фут": 3017,
      "шты": 3018,
      "заклад": 3019,
      "##еталли": 3020,
      "каучука": 3021,
      "Манжета": 3022,
      "ПР": 3023,
      "виб": 3024,
      "подоснов": 3025,
      "сварным": 3026,
      "строительные": 3027,
      "круглая": 3028,
      "В20": 3029,
      "вставкой": 3030,
      "обшив": 3031,
      "##пуск": 3032,
      "##00х3": 3033,
      "##ольный": 3034,
      "теплосна": 3035,
      "SN4": 3036,
      "фасадов": 3037,
      "Ограждения": 3038,
      "##LTx": 3039,
      "73": 3040,
      "##ушитель": 3041,
      "коррозионно": 3042,
      "##IIIв": 3043,
      "СС": 3044,
      "##жиль": 3045,
      "стор": 3046,
      "Комплекс": 3047,
      "сжати": 3048,
      "тонколистовой": 3049,
      "теплоснабжения": 3050,
      "##юб": 3051,
      "##альное": 3052,
      "дорожный": 3053,
      "доб": 3054,
      "##цо": 3055,
      "##рованного": 3056,
      "антикор": 3057,
      "##пильки": 3058,
      "Кольцо": 3059,
      "регулируемая": 3060,
      "##ПВ": 3061,
      "##овор": 3062,
      "##иней": 3063,
      "ТПП": 3064,
      "508": 3065,
      "##яжки": 3066,
      "##ози": 3067,
      "категор": 3068,
      "трансформатор": 3069,
      "ППУ": 3070,
      "группе": 3071,
      "Д1": 3072,
      "Скоб": 3073,
      "IP54": 3074,
      "43": 3075,
      "##сные": 3076,
      "полимерные": 3077,
      "МЛ": 3078,
      "##700": 3079,
      "##стир": 3080,
      "конц": 3081,
      "##ческими": 3082,
      "ограж": 3083,
      "##эп": 3084,
      "14нж9": 3085,
      "Наконеч": 3086,
      "##чик": 3087,
      "наклад": 3088,
      "##егм": 3089,
      "274": 3090,
      "синтетического": 3091,
      "ТС": 3092,
      "хр": 3093,
      "##нак": 3094,
      "##евой": 3095,
      "полю": 3096,
      "пожарно": 3097,
      "подоснове": 3098,
      "Риг": 3099,
      "##мс": 3100,
      "обор": 3101,
      "выше": 3102,
      "##00х2": 3103,
      "##прес": 3104,
      "опорах": 3105,
      "нижней": 3106,
      "Опоры": 3107,
      "потолочный": 3108,
      "06": 3109,
      "ВН": 3110,
      "пат": 3111,
      "рем": 3112,
      "сх": 3113,
      "##31": 3114,
      "##рон": 3115,
      "##ск": 3116,
      "неизоли": 3117,
      "##елями": 3118,
      "окрашенные": 3119,
      "изолированная": 3120,
      "автоматические": 3121,
      "##ВЭВнг": 3122,
      "##оснабжения": 3123,
      "отвод": 3124,
      "##рующая": 3125,
      "УХЛ4": 3126,
      "легкого": 3127,
      "уплотнитель": 3128,
      "##фальт": 3129,
      "100х100": 3130,
      "яче": 3131,
      "квадратные": 3132,
      "мостов": 3133,
      "швеллер": 3134,
      "##айки": 3135,
      "IV": 3136,
      "вытяж": 3137,
      "136": 3138,
      "полюсов": 3139,
      "##рот": 3140,
      "температурный": 3141,
      "однослойные": 3142,
      "клинов": 3143,
      "##изотил": 3144,
      "Воздух": 3145,
      "редуктором": 3146,
      "##гу": 3147,
      "##ковые": 3148,
      "пределом": 3149,
      "720": 3150,
      "М8": 3151,
      "##ТТ": 3152,
      "##емб": 3153,
      "##кос": 3154,
      "три": 3155,
      "##очастотный": 3156,
      "56": 3157,
      "входной": 3158,
      "##стер": 3159,
      "762": 3160,
      "асфальт": 3161,
      "стекловолок": 3162,
      "дроссельная": 3163,
      "Бур": 3164,
      "ГВС": 3165,
      "Тран": 3166,
      "Фундамент": 3167,
      "конус": 3168,
      "##х12": 3169,
      "##ъемная": 3170,
      "##ционная": 3171,
      "порошковыми": 3172,
      "пенополимерминеральная": 3173,
      "внутренних": 3174,
      "##рные": 3175,
      "##рованных": 3176,
      "комм": 3177,
      "канализацион": 3178,
      "##нутый": 3179,
      "##оящ": 3180,
      "##евые": 3181,
      "штока": 3182,
      "дорожного": 3183,
      "оборуд": 3184,
      "Транс": 3185,
      "линей": 3186,
      "пут": 3187,
      "консо": 3188,
      "бетонных": 3189,
      "чугун": 3190,
      "воздушных": 3191,
      "светодиодный": 3192,
      "пластм": 3193,
      "##чным": 3194,
      "##стоя": 3195,
      "##танг": 3196,
      "##кид": 3197,
      "створ": 3198,
      "расстоя": 3199,
      "алюминиевая": 3200,
      "окна": 3201,
      "дорожных": 3202,
      "763": 3203,
      "промыш": 3204,
      "муллитокремнеземистой": 3205,
      "категории": 3206,
      "хризотил": 3207,
      "промышлен": 3208,
      "хризотилцемент": 3209,
      "ПК": 3210,
      "гран": 3211,
      "##x60": 3212,
      "распа": 3213,
      "полиэстер": 3214,
      "панельный": 3215,
      "латунные": 3216,
      "периклазовая": 3217,
      "крестообразный": 3218,
      "мансардный": 3219,
      "мк": 3220,
      "##ащит": 3221,
      "жестких": 3222,
      "Прутки": 3223,
      "ре": 3224,
      "ска": 3225,
      "ор": 3226,
      "##кол": 3227,
      "##ковом": 3228,
      "контрольного": 3229,
      "частота": 3230,
      "известняковом": 3231,
      "РО": 3232,
      "##х80": 3233,
      "обм": 3234,
      "автомобиль": 3235,
      "скважин": 3236,
      "##кладки": 3237,
      "стойкостью": 3238,
      "IP65": 3239,
      "удерживающ": 3240,
      "стыков": 3241,
      "трещин": 3242,
      "Шр": 3243,
      "дуб": 3244,
      "##оустойчив": 3245,
      "##енц": 3246,
      "##струд": 3247,
      "механический": 3248,
      "ТППэп": 3249,
      "##енцес": 3250,
      "Бол": 3251,
      "дым": 3252,
      "ож": 3253,
      "##есь": 3254,
      "полки": 3255,
      "гипс": 3256,
      "47": 3257,
      "##тов": 3258,
      "##ющим": 3259,
      "непр": 3260,
      "##ащи": 3261,
      "температурным": 3262,
      "Конструкции": 3263,
      "##рафи": 3264,
      "##альные": 3265,
      "углеродистая": 3266,
      "Устройство": 3267,
      "39": 3268,
      "4х1": 3269,
      "кар": 3270,
      "шайб": 3271,
      "##ык": 3272,
      "фланцевая": 3273,
      "воздуховод": 3274,
      "строительных": 3275,
      "группы": 3276,
      "стоек": 3277,
      "схемы": 3278,
      "Трансформатор": 3279,
      "ЛС": 3280,
      "НН": 3281,
      "ФС": 3282,
      "##АБ": 3283,
      "##рованием": 3284,
      "509": 3285,
      "двухслойная": 3286,
      "опалуб": 3287,
      "перехода": 3288,
      "Панель": 3289,
      "декоратив": 3290,
      "борта": 3291,
      "распаш": 3292,
      "##тация": 3293,
      "Ст20": 3294,
      "кВА": 3295,
      "коробчатая": 3296,
      "закрытого": 3297,
      "##онагревателей": 3298,
      "Полотенцес": 3299,
      "кД": 3300,
      "ули": 3301,
      "сжатие": 3302,
      "кДж": 3303,
      "320": 3304,
      "820": 3305,
      "##арь": 3306,
      "моно": 3307,
      "стыка": 3308,
      "эмалями": 3309,
      "воздуховодов": 3310,
      "ми": 3311,
      "##циона": 3312,
      "поверхности": 3313,
      "Узел": 3314,
      "ВБШв": 3315,
      "Пр": 3316,
      "Роз": 3317,
      "фланца": 3318,
      "10с3": 3319,
      "пластмасс": 3320,
      "##елев": 3321,
      "акри": 3322,
      "##руемых": 3323,
      "твердые": 3324,
      "стороне": 3325,
      "обмотки": 3326,
      "##яющ": 3327,
      "крепеж": 3328,
      "настенный": 3329,
      "Песок": 3330,
      "футеров": 3331,
      "##нист": 3332,
      "##енсатор": 3333,
      "подъем": 3334,
      "КВВГЭнг": 3335,
      "Фильтр": 3336,
      "полосовой": 3337,
      "обшивочная": 3338,
      "асфальтобетон": 3339,
      "Ем": 3340,
      "ЕР": 3341,
      "УКС": 3342,
      "углов": 3343,
      "чугунная": 3344,
      "W8": 3345,
      "Ру": 3346,
      "филь": 3347,
      "##тка": 3348,
      "##x300": 3349,
      "##нита": 3350,
      "##ерыв": 3351,
      "##рубного": 3352,
      "сваро": 3353,
      "опасности": 3354,
      "##17ст": 3355,
      "##вини": 3356,
      "гофрированные": 3357,
      "глухой": 3358,
      "Шкаф": 3359,
      "см3": 3360,
      "низкого": 3361,
      "непрерыв": 3362,
      "миним": 3363,
      "93": 3364,
      "Манс": 3365,
      "РТТ": 3366,
      "##x10": 3367,
      "##уровское": 3368,
      "14нж017п": 3369,
      "Ригели": 3370,
      "Полотенцесушитель": 3371,
      "Мансуровское": 3372,
      "Ввод": 3373,
      "Об": 3374,
      "шум": 3375,
      "##ская": 3376,
      "104": 3377,
      "напол": 3378,
      "контролем": 3379,
      "Пуд": 3380,
      "эмаль": 3381,
      "полов": 3382,
      "заземляющ": 3383,
      "штырев": 3384,
      "##арьер": 3385,
      "RT": 3386,
      "Рукав": 3387,
      "рек": 3388,
      "##лам": 3389,
      "кроме": 3390,
      "Листы": 3391,
      "74": 3392,
      "Вентиля": 3393,
      "СК": 3394,
      "специ": 3395,
      "220В": 3396,
      "модульная": 3397,
      "взрыв": 3398,
      "мкм": 3399,
      "##стран": 3400,
      "##ине": 3401,
      "##альным": 3402,
      "бетоне": 3403,
      "##пира": 3404,
      "воздухонагревателей": 3405,
      "способность": 3406,
      "состав": 3407,
      "Воз": 3408,
      "##ровой": 3409,
      "##митация": 3410,
      "##акси": 3411,
      "коакси": 3412,
      "комбинированный": 3413,
      "клее": 3414,
      "G13": 3415,
      "В3": 3416,
      "Грунт": 3417,
      "ТЗ": 3418,
      "подвижная": 3419,
      "##полю": 3420,
      "Балка": 3421,
      "Камни": 3422,
      "Каш": 3423,
      "##68": 3424,
      "##ляем": 3425,
      "элементом": 3426,
      "##рождение": 3427,
      "непрерывной": 3428,
      "Возрождение": 3429,
      "Джиль": 3430,
      "Кур": 3431,
      "##уруп": 3432,
      "##250": 3433,
      "##тау": 3434,
      "стациона": 3435,
      "##тинское": 3436,
      "##ожское": 3437,
      "гора": 3438,
      "##ваара": 3439,
      "фаской": 3440,
      "винтовой": 3441,
      "слоем": 3442,
      "древес": 3443,
      "воздушный": 3444,
      "четыре": 3445,
      "равнопроходной": 3446,
      "изделий": 3447,
      "Калгу": 3448,
      "Пудожское": 3449,
      "Кашина": 3450,
      "Джильтау": 3451,
      "Куртинское": 3452,
      "Калгуваара": 3453,
      "Знак": 3454,
      "элементов": 3455,
      "настенные": 3456,
      "##невой": 3457,
      "гильз": 3458,
      "сня": 3459,
      "##ностоящ": 3460,
      "##алле": 3461,
      "##00х1": 3462,
      "противопожарный": 3463,
      "доменных": 3464,
      "Вентилятор": 3465,
      "000": 3466,
      "Зат": 3467,
      "кам": 3468,
      "намот": 3469,
      "пос": 3470,
      "##ению": 3471,
      "фланец": 3472,
      "МКР": 3473,
      "##x63": 3474,
      "##ПКВтнг": 3475,
      "##стирола": 3476,
      "намотки": 3477,
      "КО": 3478,
      "аэ": 3479,
      "мом": 3480,
      "##х60": 3481,
      "поливини": 3482,
      "кольцом": 3483,
      "снятой": 3484,
      "вол": 3485,
      "ем": 3486,
      "мрам": 3487,
      "уль": 3488,
      "##елья": 3489,
      "защ": 3490,
      "одним": 3491,
      "механиз": 3492,
      "мрамор": 3493,
      "фундамент": 3494,
      "##бШв": 3495,
      "##новское": 3496,
      "##акуш": 3497,
      "термостойкости": 3498,
      "6х36": 3499,
      "Емелья": 3500,
      "Затвор": 3501,
      "Емельяновское": 3502,
      "вращ": 3503,
      "ракуш": 3504,
      "##ечника": 3505,
      "115": 3506,
      "заполнением": 3507,
      "магистральных": 3508,
      "ракушечника": 3509,
      "230": 3510,
      "АК": 3511,
      "РП": 3512,
      "вход": 3513,
      "нит": 3514,
      "##64": 3515,
      "##ким": 3516,
      "##лении": 3517,
      "прогиб": 3518,
      "Стойки": 3519,
      "средн": 3520,
      "термостойкие": 3521,
      "муллитовый": 3522,
      "поперечин": 3523,
      "49": 3524,
      "ВК": 3525,
      "##овоз": 3526,
      "маркер": 3527,
      "перед": 3528,
      "монтажный": 3529,
      "элементы": 3530,
      "пленкой": 3531,
      "##карб": 3532,
      "коаксиальный": 3533,
      "фик": 3534,
      "##офор": 3535,
      "##гани": 3536,
      "столб": 3537,
      "экструд": 3538,
      "анкеров": 3539,
      "МКБ": 3540,
      "железнодорожного": 3541,
      "безна": 3542,
      "полимерных": 3543,
      "Проход": 3544,
      "53": 3545,
      "5ок": 3546,
      "Ар": 3547,
      "мик": 3548,
      "рев": 3549,
      "##олимер": 3550,
      "сили": 3551,
      "прямая": 3552,
      "полости": 3553,
      "водост": 3554,
      "паралле": 3555,
      "Крас": 3556,
      "нераз": 3557,
      "добав": 3558,
      "Проходка": 3559,
      "##голь": 3560,
      "перим": 3561,
      "##х240": 3562,
      "шпона": 3563,
      "оборудования": 3564,
      "мас": 3565,
      "##нот": 3566,
      "меди": 3567,
      "вертикального": 3568,
      "377": 3569,
      "стеновые": 3570,
      "газопроводных": 3571,
      "расстояние": 3572,
      "Кирпич": 3573,
      "##онка": 3574,
      "##евое": 3575,
      "трубам": 3576,
      "компрес": 3577,
      "реклам": 3578,
      "компресси": 3579,
      "Нас": 3580,
      "вит": 3581,
      "венти": 3582,
      "полот": 3583,
      "элемента": 3584,
      "многопустотные": 3585,
      "решеткой": 3586,
      "блоком": 3587,
      "клапаном": 3588,
      "периметр": 3589,
      "59": 3590,
      "дроб": 3591,
      "пс": 3592,
      "##иком": 3593,
      "##x40": 3594,
      "##НД": 3595,
      "##ерез": 3596,
      "разрыв": 3597,
      "двутавр": 3598,
      "фундам": 3599,
      "час": 3600,
      "##остав": 3601,
      "концевые": 3602,
      "водоснабжения": 3603,
      "термор": 3604,
      "рельс": 3605,
      "170": 3606,
      "86": 3607,
      "Состав": 3608,
      "тв": 3609,
      "##ёр": 3610,
      "##етки": 3611,
      "вывод": 3612,
      "запира": 3613,
      "плоские": 3614,
      "электрические": 3615,
      "навесных": 3616,
      "83": 3617,
      "чё": 3618,
      "##чных": 3619,
      "##пп": 3620,
      "кони": 3621,
      "резьба": 3622,
      "Ограждение": 3623,
      "одностороннего": 3624,
      "##ащищ": 3625,
      "среднеп": 3626,
      "##карбона": 3627,
      "туф": 3628,
      "##дости": 3629,
      "двуст": 3630,
      "Плитка": 3631,
      "канала": 3632,
      "сеткой": 3633,
      "колодцев": 3634,
      "четырёхслойная": 3635,
      "эластичная": 3636,
      "кронштейна": 3637,
      "маркерный": 3638,
      "Краска": 3639,
      "фундамента": 3640,
      "твёр": 3641,
      "чёрный": 3642,
      "среднеповор": 3643,
      "туфа": 3644,
      "твёрдости": 3645,
      "##x9": 3646,
      "##рун": 3647,
      "поликарбона": 3648,
      "прямого": 3649,
      "##айка": 3650,
      "универсальный": 3651,
      "78": 3652,
      "##ЭВЭВнг": 3653,
      "внутрит": 3654,
      "50Гц": 3655,
      "сварки": 3656,
      "максимальное": 3657,
      "каркасом": 3658,
      "транспорта": 3659,
      "межд": 3660,
      "БСЛ": 3661,
      "68": 3662,
      "АМ": 3663,
      "Шайб": 3664,
      "ест": 3665,
      "иск": 3666,
      "пог": 3667,
      "затяжки": 3668,
      "радиус": 3669,
      "сдвиг": 3670,
      "ШВ": 3671,
      "дут": 3672,
      "нетка": 3673,
      "##вращ": 3674,
      "##онных": 3675,
      "разд": 3676,
      "1220": 3677,
      "кожуха": 3678,
      "напорным": 3679,
      "шестигранной": 3680,
      "концентри": 3681,
      "В45": 3682,
      "бим": 3683,
      "иг": 3684,
      "##x8": 3685,
      "##наж": 3686,
      "двухст": 3687,
      "SDR17": 3688,
      "##родром": 3689,
      "блоков": 3690,
      "аэродром": 3691,
      "естеств": 3692,
      "биметалли": 3693,
      "87": 3694,
      "Уголь": 3695,
      "##ита": 3696,
      "##Пу": 3697,
      "##астная": 3698,
      "металлическим": 3699,
      "шту": 3700,
      "жесткости": 3701,
      "муфтовое": 3702,
      "##x190x120": 3703,
      "ячеек": 3704,
      "Колод": 3705,
      "ККБ": 3706,
      "трав": 3707,
      "щелев": 3708,
      "##креп": 3709,
      "##хлор": 3710,
      "##остов": 3711,
      "##нительный": 3712,
      "##кань": 3713,
      "стойки": 3714,
      "##ающей": 3715,
      "хвостов": 3716,
      "листвен": 3717,
      "арматурой": 3718,
      "##аемой": 3719,
      "патруб": 3720,
      "М10": 3721,
      "друг": 3722,
      "##гов": 3723,
      "##42": 3724,
      "##КV": 3725,
      "дис": 3726,
      "1100": 3727,
      "панелями": 3728,
      "оболочки": 3729,
      "УХЛ1": 3730,
      "стержневой": 3731,
      "ограждения": 3732,
      "##оустойчивый": 3733,
      "экструдированного": 3734,
      "##ино": 3735,
      "##нию": 3736,
      "##ейств": 3737,
      "горных": 3738,
      "четырех": 3739,
      "полипропиленовый": 3740,
      "тройников": 3741,
      "антикоррозион": 3742,
      "запирающим": 3743,
      "W6": 3744,
      "им": 3745,
      "лип": 3746,
      "нав": 3747,
      "алюминия": 3748,
      "150x150x90": 3749,
      "воздухопроводов": 3750,
      "##ПВХ": 3751,
      "вентили": 3752,
      "дутья": 3753,
      "М400": 3754,
      "Сегм": 3755,
      "воз": 3756,
      "##ранный": 3757,
      "водопро": 3758,
      "##грег": 3759,
      "предохра": 3760,
      "встра": 3761,
      "Наконечник": 3762,
      "поливинил": 3763,
      "Брус": 3764,
      "ВР": 3765,
      "УФ": 3766,
      "вырыв": 3767,
      "трубчатые": 3768,
      "одной": 3769,
      "шаровый": 3770,
      "общая": 3771,
      "латунная": 3772,
      "расчетная": 3773,
      "заполнителях": 3774,
      "##канальный": 3775,
      "момента": 3776,
      "У2": 3777,
      "бу": 3778,
      "грун": 3779,
      "##Ат": 3780,
      "##рони": 3781,
      "##раны": 3782,
      "LSLTx": 3783,
      "балки": 3784,
      "СТА": 3785,
      "секционный": 3786,
      "гранями": 3787,
      "брони": 3788,
      "пров": 3789,
      "обеч": 3790,
      "откры": 3791,
      "распол": 3792,
      "АПв": 3793,
      "звуко": 3794,
      "##овозвращ": 3795,
      "располож": 3796,
      "дол": 3797,
      "##кому": 3798,
      "##ипп": 3799,
      "слоями": 3800,
      "КУГ": 3801,
      "вентилируемых": 3802,
      "82": 3803,
      "берез": 3804,
      "##опас": 3805,
      "##ального": 3806,
      "##роводов": 3807,
      "##пряг": 3808,
      "решетчатые": 3809,
      "безнапорные": 3810,
      "водопропуск": 3811,
      "встраиваем": 3812,
      "79": 3813,
      "##емые": 3814,
      "##авка": 3815,
      "подкос": 3816,
      "##нители": 3817,
      "окра": 3818,
      "##ражающ": 3819,
      "глубина": 3820,
      "автомобильных": 3821,
      "аэродромных": 3822,
      "##хлорид": 3823,
      "расс": 3824,
      "КМПЭВЭВнг": 3825,
      "оснований": 3826,
      "черный": 3827,
      "измерительного": 3828,
      "короткому": 3829,
      "замыканию": 3830,
      "клееного": 3831,
      "навивные": 3832,
      "61": 3833,
      "У3": 3834,
      "ал": 3835,
      "мел": 3836,
      "##38": 3837,
      "##44": 3838,
      "основания": 3839,
      "облицовка": 3840,
      "радиочастотный": 3841,
      "АВВГ": 3842,
      "КПС": 3843,
      "колодца": 3844,
      "продольном": 3845,
      "##коу": 3846,
      "переходный": 3847,
      "транспорти": 3848,
      "прямоугольного": 3849,
      "хвостовиком": 3850,
      "проволок": 3851,
      "07": 3852,
      "3х1": 3853,
      "Т8": 3854,
      "хром": 3855,
      "##енс": 3856,
      "##езопас": 3857,
      "##ковой": 3858,
      "проема": 3859,
      "стеклом": 3860,
      "соединении": 3861,
      "КВВГнг": 3862,
      "резиновым": 3863,
      "разветвительная": 3864,
      "вибро": 3865,
      "клиновым": 3866,
      "скальный": 3867,
      "емкость": 3868,
      "##ппар": 3869,
      "окраше": 3870,
      "EI": 3871,
      "дета": 3872,
      "световозвращ": 3873,
      "открытой": 3874,
      "квадратного": 3875,
      "поливинилхлорид": 3876,
      "транспортировки": 3877,
      "67": 3878,
      "B25": 3879,
      "В1": 3880,
      "СВ": 3881,
      "сана": 3882,
      "##онт": 3883,
      "стати": 3884,
      "SN16": 3885,
      "зажимами": 3886,
      "SDS": 3887,
      "дверного": 3888,
      "3332": 3889,
      "твердая": 3890,
      "##ренаж": 3891,
      "заземлением": 3892,
      "консольный": 3893,
      "асфальтобетонные": 3894,
      "санации": 3895,
      "3332и": 3896,
      "М1": 3897,
      "Пу": 3898,
      "##воз": 3899,
      "##фоб": 3900,
      "##уск": 3901,
      "##елые": 3902,
      "ручкой": 3903,
      "гайкой": 3904,
      "полиуретановым": 3905,
      "распашной": 3906,
      "механизм": 3907,
      "среднеповоротный": 3908,
      "##АтV": 3909,
      "RD": 3910,
      "ОС": 3911,
      "пустот": 3912,
      "фур": 3913,
      "##мож": 3914,
      "##вед": 3915,
      "##анси": 3916,
      "114": 3917,
      "баланси": 3918,
      "лаки": 3919,
      "пористых": 3920,
      "после": 3921,
      "возмож": 3922,
      "ВТ": 3923,
      "нев": 3924,
      "фиб": 3925,
      "##х65": 3926,
      "симм": 3927,
      "прочая": 3928,
      "направляющ": 3929,
      "удлинением": 3930,
      "##прягаемой": 3931,
      "Маты": 3932,
      "риг": 3933,
      "##есущ": 3934,
      "##катур": 3935,
      "системы": 3936,
      "гидрофоб": 3937,
      "регулирования": 3938,
      "стены": 3939,
      "обсад": 3940,
      "пружинный": 3941,
      "Воздуховод": 3942,
      "симметри": 3943,
      "Пол": 3944,
      "Элем": 3945,
      "##63": 3946,
      "##овка": 3947,
      "##ода": 3948,
      "неоцинкован": 3949,
      "##ственных": 3950,
      "Балки": 3951,
      "АСБ": 3952,
      "внутритрубного": 3953,
      "Эк": 3954,
      "##азопровод": 3955,
      "##ровая": 3956,
      "компа": 3957,
      "бессвар": 3958,
      "преднапряженные": 3959,
      "радиусом": 3960,
      "возможностью": 3961,
      "2р": 3962,
      "штанг": 3963,
      "##х30": 3964,
      "##озащищ": 3965,
      "парап": 3966,
      "направлении": 3967,
      "отопительный": 3968,
      "канализации": 3969,
      "вращения": 3970,
      "А2": 3971,
      "ель": 3972,
      "моду": 3973,
      "##72": 3974,
      "горюч": 3975,
      "##ПКВтп": 3976,
      "Скоба": 3977,
      "монолит": 3978,
      "480": 3979,
      "паро": 3980,
      "##очной": 3981,
      "сейсмостойкость": 3982,
      "теплонос": 3983,
      "##Х17": 3984,
      "листов": 3985,
      "полипропиленовая": 3986,
      "упругости": 3987,
      "Сегменты": 3988,
      "фурнит": 3989,
      "PN": 3990,
      "Ворон": 3991,
      "разветвления": 3992,
      "прибор": 3993,
      "двухкамер": 3994,
      "смеси": 3995,
      "##урой": 3996,
      "фильт": 3997,
      "ПСП": 3998,
      "ана": 3999,
      "##бро": 4000,
      "откид": 4001,
      "##ированных": 4002,
      "Ответвитель": 4003,
      "раструбный": 4004,
      "спирально": 4005,
      "##Х17Н": 4006,
      "Воронка": 4007,
      "F1": 4008,
      "Г4": 4009,
      "##ион": 4010,
      "натяж": 4011,
      "конс": 4012,
      "1800": 4013,
      "красками": 4014,
      "непод": 4015,
      "измерительный": 4016,
      "Габбро": 4017,
      "невы": 4018,
      "хомут": 4019,
      "##CA": 4020,
      "##осевое": 4021,
      "контак": 4022,
      "пенополистирола": 4023,
      "приварная": 4024,
      "межосевое": 4025,
      "Колено": 4026,
      "Грунтовка": 4027,
      "ульт": 4028,
      "ФК": 4029,
      "##ПЭ": 4030,
      "##онесущ": 4031,
      "разм": 4032,
      "присоединением": 4033,
      "Установ": 4034,
      "содержание": 4035,
      "световозвращающей": 4036,
      "теплоносителя": 4037,
      "3С": 4038,
      "Краны": 4039,
      "##иф": 4040,
      "##возд": 4041,
      "##пит": 4042,
      "толщине": 4043,
      "стру": 4044,
      "##новой": 4045,
      "##ворчатый": 4046,
      "шток": 4047,
      "трещинами": 4048,
      "стеклонит": 4049,
      "взрывозащищ": 4050,
      "игровой": 4051,
      "фурнитурой": 4052,
      "ультрафи": 4053,
      "М300": 4054,
      "брон": 4055,
      "галь": 4056,
      "##ключения": 4057,
      "поверхностная": 4058,
      "190x150x90": 4059,
      "##прессов": 4060,
      "акрилов": 4061,
      "штукатур": 4062,
      "ТУ": 4063,
      "##бетон": 4064,
      "##ИП": 4065,
      "номинальная": 4066,
      "отс": 4067,
      "102": 4068,
      "теплоизоли": 4069,
      "##цовая": 4070,
      "оконных": 4071,
      "усиленная": 4072,
      "##юбель": 4073,
      "концентрический": 4074,
      "стеклонитей": 4075,
      "М600": 4076,
      "Пок": 4077,
      "Т5": 4078,
      "тро": 4079,
      "щит": 4080,
      "##аны": 4081,
      "##во": 4082,
      "##2л": 4083,
      "##x600": 4084,
      "излуч": 4085,
      "зад": 4086,
      "##амид": 4087,
      "плотных": 4088,
      "скреп": 4089,
      "способностью": 4090,
      "устройств": 4091,
      "антипи": 4092,
      "остеклен": 4093,
      "G5": 4094,
      "МС": 4095,
      "нипп": 4096,
      "##мату": 4097,
      "##зра": 4098,
      "##лу": 4099,
      "##ходные": 4100,
      "12Г2С": 4101,
      "##елки": 4102,
      "##туар": 4103,
      "ультрафиолет": 4104,
      "Сва": 4105,
      "действ": 4106,
      "подст": 4107,
      "##ечные": 4108,
      "##40x1": 4109,
      "сквоз": 4110,
      "сдво": 4111,
      "Армату": 4112,
      "биметаллический": 4113,
      "тротуар": 4114,
      "Сваи": 4115,
      "ИКБ": 4116,
      "Шпильки": 4117,
      "##ечная": 4118,
      "цементе": 4119,
      "содержанием": 4120,
      "Электро": 4121,
      "удерживающей": 4122,
      "Розетка": 4123,
      "витраж": 4124,
      "поликарбоната": 4125,
      "компаунд": 4126,
      "77": 4127,
      "920": 4128,
      "врез": 4129,
      "ряд": 4130,
      "##21": 4131,
      "распорный": 4132,
      "185": 4133,
      "газон": 4134,
      "уголками": 4135,
      "пролетных": 4136,
      "##ведения": 4137,
      "М150": 4138,
      "кноп": 4139,
      "полнот": 4140,
      "##рующий": 4141,
      "##17р": 4142,
      "гладкий": 4143,
      "световой": 4144,
      "гидроизоляционная": 4145,
      "керамический": 4146,
      "D1": 4147,
      "##коп": 4148,
      "1250": 4149,
      "1300": 4150,
      "##ломоустойчивый": 4151,
      "провода": 4152,
      "изолированные": 4153,
      "##лизации": 4154,
      "контроли": 4155,
      "ответвительный": 4156,
      "взломоустойчивый": 4157,
      "##ембра": 4158,
      "силикат": 4159,
      "B15": 4160,
      "Зам": 4161,
      "НС": 4162,
      "Регулятор": 4163,
      "вс": 4164,
      "дренаж": 4165,
      "258": 4166,
      "водог": 4167,
      "поворотный": 4168,
      "соединение": 4169,
      "SN32": 4170,
      "##967": 4171,
      "##x35": 4172,
      "потока": 4173,
      "сетей": 4174,
      "очистного": 4175,
      "10с967": 4176,
      "торцевая": 4177,
      "свинц": 4178,
      "SN48": 4179,
      "режим": 4180,
      "водогазопровод": 4181,
      "84": 4182,
      "М200": 4183,
      "бум": 4184,
      "зер": 4185,
      "##ач": 4186,
      "пропит": 4187,
      "##егород": 4188,
      "болт": 4189,
      "SN24": 4190,
      "М250": 4191,
      "естественной": 4192,
      "патрубка": 4193,
      "##КМ": 4194,
      "##рытие": 4195,
      "прочие": 4196,
      "SN12": 4197,
      "##четчик": 4198,
      "виде": 4199,
      "спираль": 4200,
      "водоотведения": 4201,
      "дифференциальный": 4202,
      "полотна": 4203,
      "искус": 4204,
      "двухсторон": 4205,
      "сдвоенные": 4206,
      "бук": 4207,
      "заб": 4208,
      "##цем": 4209,
      "##ути": 4210,
      "##ющая": 4211,
      "крив": 4212,
      "стеклот": 4213,
      "самонесущ": 4214,
      "чугунные": 4215,
      "щебено": 4216,
      "спиральношовные": 4217,
      "излучению": 4218,
      "антипире": 4219,
      "W12": 4220,
      "ВС": 4221,
      "Маш": 4222,
      "Сетка": 4223,
      "Т1": 4224,
      "##Кт": 4225,
      "##УС": 4226,
      "нагрев": 4227,
      "##ители": 4228,
      "##обезопас": 4229,
      "##x1000": 4230,
      "противопожарных": 4231,
      "линейный": 4232,
      "алм": 4233,
      "штоком": 4234,
      "##ембрана": 4235,
      "260": 4236,
      "цир": 4237,
      "шин": 4238,
      "##кВ": 4239,
      "##ПС": 4240,
      "##насти": 4241,
      "##лощ": 4242,
      "тре": 4243,
      "50х50": 4244,
      "2012": 4245,
      "сигнализации": 4246,
      "##янут": 4247,
      "удар": 4248,
      "массив": 4249,
      "огнестойкого": 4250,
      "##куля": 4251,
      "стороны": 4252,
      "опалубки": 4253,
      "погруж": 4254,
      "грунта": 4255,
      "циркуля": 4256,
      "3P": 4257,
      "лами": 4258,
      "##шивные": 4259,
      "прошивные": 4260,
      "Трубка": 4261,
      "скры": 4262,
      "плитками": 4263,
      "##ПКВКт": 4264,
      "##робеж": 4265,
      "центробеж": 4266,
      "##говрем": 4267,
      "долговрем": 4268,
      "ламини": 4269,
      "лаз": 4270,
      "##цвет": 4271,
      "##очным": 4272,
      "обрез": 4273,
      "##пита": 4274,
      "Смесь": 4275,
      "SN64": 4276,
      "##омпозит": 4277,
      "поверхность": 4278,
      "цилиндрический": 4279,
      "прессованные": 4280,
      "ленточные": 4281,
      "стекловолоконный": 4282,
      "столбам": 4283,
      "встраиваемый": 4284,
      "Покрытие": 4285,
      "ультрафиолетового": 4286,
      "антипиренов": 4287,
      "Машины": 4288,
      "долговременный": 4289,
      "Дв": 4290,
      "##чно": 4291,
      "##очными": 4292,
      "однорядная": 4293,
      "##х200": 4294,
      "бето": 4295,
      "раствор": 4296,
      "автомат": 4297,
      "ребра": 4298,
      "Пор": 4299,
      "Рас": 4300,
      "метр": 4301,
      "##еная": 4302,
      "##ун": 4303,
      "##фазный": 4304,
      "##авки": 4305,
      "оси": 4306,
      "установка": 4307,
      "скор": 4308,
      "дорожное": 4309,
      "гофрированная": 4310,
      "Электрод": 4311,
      "чугунной": 4312,
      "бронированный": 4313,
      "Воздуховоды": 4314,
      "компаунда": 4315,
      "1ПКВтнг": 4316,
      "LO": 4317,
      "Агрег": 4318,
      "Грав": 4319,
      "зон": 4320,
      "##59": 4321,
      "##ерепи": 4322,
      "##лений": 4323,
      "дверных": 4324,
      "##x130": 4325,
      "ручного": 4326,
      "средней": 4327,
      "цветная": 4328,
      "низкол": 4329,
      "параллель": 4330,
      "неразъемная": 4331,
      "Гравий": 4332,
      "низколег": 4333,
      "атом": 4334,
      "ходу": 4335,
      "##нее": 4336,
      "##ателя": 4337,
      "конд": 4338,
      "подвод": 4339,
      "15600": 4340,
      "165": 4341,
      "Клапаны": 4342,
      "##никами": 4343,
      "2200": 4344,
      "##x2500": 4345,
      "##00х3000": 4346,
      "##полюсные": 4347,
      "балансировочный": 4348,
      "АД": 4349,
      "моди": 4350,
      "стяж": 4351,
      "##отовая": 4352,
      "подземной": 4353,
      "HF1": 4354,
      "одинар": 4355,
      "центра": 4356,
      "дисковый": 4357,
      "витражные": 4358,
      "ПТ": 4359,
      "пом": 4360,
      "##готов": 4361,
      "##изог": 4362,
      "круто": 4363,
      "анкерные": 4364,
      "СБПБ": 4365,
      "секции": 4366,
      "Камень": 4367,
      "троса": 4368,
      "коммута": 4369,
      "крутоизог": 4370,
      "Р65": 4371,
      "Свер": 4372,
      "ШС": 4373,
      "щита": 4374,
      "##шир": 4375,
      "##лич": 4376,
      "##онструк": 4377,
      "##атой": 4378,
      "стр": 4379,
      "фасонные": 4380,
      "SN96": 4381,
      "КВВБ": 4382,
      "СПА": 4383,
      "пластика": 4384,
      "Узлы": 4385,
      "шайбой": 4386,
      "обсадные": 4387,
      "Установки": 4388,
      "Замок": 4389,
      "98": 4390,
      "Шн": 4391,
      "фр": 4392,
      "##чное": 4393,
      "##41": 4394,
      "##овина": 4395,
      "свер": 4396,
      "шиной": 4397,
      "поя": 4398,
      "стойкая": 4399,
      "поверхностью": 4400,
      "отдель": 4401,
      "##тепроводов": 4402,
      "##ефтепроводов": 4403,
      "ребр": 4404,
      "несущей": 4405,
      "Арматура": 4406,
      "газонефтепроводов": 4407,
      "модифици": 4408,
      "В35": 4409,
      "Ок": 4410,
      "чист": 4411,
      "шаг": 4412,
      "##омута": 4413,
      "двухрядная": 4414,
      "##локонструк": 4415,
      "КГН": 4416,
      "быстро": 4417,
      "Колодец": 4418,
      "липа": 4419,
      "штанги": 4420,
      "парапет": 4421,
      "3СIIIв": 4422,
      "560": 4423,
      "81": 4424,
      "ат": 4425,
      "хомута": 4426,
      "##мос": 4427,
      "##ках": 4428,
      "обык": 4429,
      "400x250": 4430,
      "компонент": 4431,
      "IIв": 4432,
      "креплениями": 4433,
      "##IIв": 4434,
      "319": 4435,
      "2ВIIIв": 4436,
      "2ВIIв": 4437,
      "##АтVТ": 4438,
      "контролируем": 4439,
      "обыкнов": 4440,
      "4х4": 4441,
      "ЛП": 4442,
      "лента": 4443,
      "##орез": 4444,
      "##остойкости": 4445,
      "##ланг": 4446,
      "облицовки": 4447,
      "корпусе": 4448,
      "соединительный": 4449,
      "Габион": 4450,
      "##67р": 4451,
      "хризотилцементные": 4452,
      "мраморная": 4453,
      "10с967р": 4454,
      "F300": 4455,
      "ВВГ": 4456,
      "В12": 4457,
      "мор": 4458,
      "##вания": 4459,
      "##рата": 4460,
      "стальное": 4461,
      "основанием": 4462,
      "проводников": 4463,
      "муфту": 4464,
      "сборе": 4465,
      "обечайки": 4466,
      "Элемент": 4467,
      "2з": 4468,
      "К2": 4469,
      "ТА": 4470,
      "тка": 4471,
      "##льное": 4472,
      "крем": 4473,
      "250х120": 4474,
      "профили": 4475,
      "конструктив": 4476,
      "строений": 4477,
      "6х37": 4478,
      "изгибом": 4479,
      "станций": 4480,
      "##урупы": 4481,
      "лиственница": 4482,
      "консоли": 4483,
      "действия": 4484,
      "К1": 4485,
      "##оу": 4486,
      "##нер": 4487,
      "##ена": 4488,
      "##арфор": 4489,
      "трубчат": 4490,
      "стенкой": 4491,
      "##ционных": 4492,
      "##ционного": 4493,
      "14нж17п": 4494,
      "керам": 4495,
      "14нж917п": 4496,
      "АМг": 4497,
      "вибропресс": 4498,
      "2х1": 4499,
      "3х50": 4500,
      "СИП": 4501,
      "буров": 4502,
      "дефор": 4503,
      "лак": 4504,
      "тра": 4505,
      "##Б1": 4506,
      "##92": 4507,
      "##бы": 4508,
      "##ейки": 4509,
      "концевой": 4510,
      "внутренняя": 4511,
      "##идная": 4512,
      "однокамер": 4513,
      "##х3000": 4514,
      "защитная": 4515,
      "скоб": 4516,
      "стандартным": 4517,
      "сетки": 4518,
      "##х75": 4519,
      "поверхностей": 4520,
      "невыдвижным": 4521,
      "помещ": 4522,
      "ААБ": 4523,
      "В27": 4524,
      "##x70": 4525,
      "##ометри": 4526,
      "##еся": 4527,
      "IP00": 4528,
      "песчаная": 4529,
      "СБЗ": 4530,
      "прямоугольный": 4531,
      "подвески": 4532,
      "полиэстера": 4533,
      "органи": 4534,
      "ПуГ": 4535,
      "E600": 4536,
      "Эмаль": 4537,
      "ветр": 4538,
      "нас": 4539,
      "отключения": 4540,
      "консоль": 4541,
      "наружными": 4542,
      "##делитель": 4543,
      "Светильники": 4544,
      "лиственных": 4545,
      "остеклением": 4546,
      "микрот": 4547,
      "Насосы": 4548,
      "горючести": 4549,
      "водогазопроводные": 4550,
      "МГ": 4551,
      "М12": 4552,
      "рам": 4553,
      "##ят": 4554,
      "##них": 4555,
      "##олст": 4556,
      "проем": 4557,
      "одного": 4558,
      "ширины": 4559,
      "резьбовым": 4560,
      "КМПВнг": 4561,
      "промышленных": 4562,
      "подкосом": 4563,
      "деталей": 4564,
      "Уг": 4565,
      "пли": 4566,
      "##бШп": 4567,
      "##ъярусный": 4568,
      "##окрас": 4569,
      "103": 4570,
      "плотностью": 4571,
      "полок": 4572,
      "##форма": 4573,
      "##ластика": 4574,
      "соединительные": 4575,
      "277": 4576,
      "прокладками": 4577,
      "гибких": 4578,
      "##пилька": 4579,
      "рельсов": 4580,
      "Шайба": 4581,
      "неоцинкованные": 4582,
      "щебеночно": 4583,
      "Электроды": 4584,
      "лакокрас": 4585,
      "99": 4586,
      "М16": 4587,
      "тав": 4588,
      "##снов": 4589,
      "##66": 4590,
      "##асл": 4591,
      "ответвления": 4592,
      "##нителем": 4593,
      "##x16": 4594,
      "3500": 4595,
      "##х36": 4596,
      "##елоб": 4597,
      "##опротив": 4598,
      "силовая": 4599,
      "Зажимы": 4600,
      "комбинированная": 4601,
      "минимальной": 4602,
      "имп": 4603,
      "210": 4604,
      "3х2": 4605,
      "ИКС": 4606,
      "Основ": 4607,
      "ТП": 4608,
      "ох": 4609,
      "##лли": 4610,
      "прот": 4611,
      "выключ": 4612,
      "лицевой": 4613,
      "трехфазный": 4614,
      "SDR9": 4615,
      "отделкой": 4616,
      "универсальные": 4617,
      "шестигранные": 4618,
      "пластиковый": 4619,
      "полнотелый": 4620,
      "стеклоткань": 4621,
      "отдельностоящ": 4622,
      "31996": 4623,
      "ИКСЛ": 4624,
      "4х2": 4625,
      "91": 4626,
      "Пред": 4627,
      "С1": 4628,
      "кирпич": 4629,
      "##бр": 4630,
      "##МС": 4631,
      "##нистой": 4632,
      "ключ": 4633,
      "подд": 4634,
      "##сплу": 4635,
      "жид": 4636,
      "медная": 4637,
      "##атора": 4638,
      "допол": 4639,
      "ПБС": 4640,
      "деревянная": 4641,
      "композитной": 4642,
      "прессу": 4643,
      "створками": 4644,
      "подъема": 4645,
      "сварочные": 4646,
      "Предохра": 4647,
      "W14": 4648,
      "Гайка": 4649,
      "ИТ": 4650,
      "Сд": 4651,
      "аппар": 4652,
      "вту": 4653,
      "жел": 4654,
      "заглуш": 4655,
      "двуп": 4656,
      "осина": 4657,
      "##лопастная": 4658,
      "##х300": 4659,
      "175": 4660,
      "##амеры": 4661,
      "200х50": 4662,
      "сборные": 4663,
      "##x496": 4664,
      "футеровочные": 4665,
      "Уголок": 4666,
      "97": 4667,
      "Мембрана": 4668,
      "Эм": 4669,
      "##шит": 4670,
      "##опог": 4671,
      "##ющие": 4672,
      "##х32": 4673,
      "##агности": 4674,
      "радиацион": 4675,
      "внутренние": 4676,
      "информа": 4677,
      "Крестовина": 4678,
      "ремонт": 4679,
      "Обрам": 4680,
      "буро": 4681,
      "натяжной": 4682,
      "радиационно": 4683,
      "3х35": 4684,
      "8000": 4685,
      "D400": 4686,
      "Засл": 4687,
      "О1": 4688,
      "ПСТ": 4689,
      "метиз": 4690,
      "пет": 4691,
      "##мобезопас": 4692,
      "##26": 4693,
      "##ступ": 4694,
      "диагности": 4695,
      "##ровых": 4696,
      "разбор": 4697,
      "##илиз": 4698,
      "прямые": 4699,
      "бескана": 4700,
      "цветными": 4701,
      "эксплу": 4702,
      "шамотный": 4703,
      "Болт": 4704,
      "нитей": 4705,
      "травмобезопас": 4706,
      "##ПКВтпнг": 4707,
      "бронз": 4708,
      "параллельными": 4709,
      "стрело": 4710,
      "контролируемого": 4711,
      "бесканальной": 4712,
      "2P": 4713,
      "М4": 4714,
      "##шный": 4715,
      "##сть": 4716,
      "##епро": 4717,
      "##очками": 4718,
      "##отовый": 4719,
      "##екционный": 4720,
      "внутреннего": 4721,
      "1000х1": 4722,
      "##гряз": 4723,
      "МКСТ": 4724,
      "оболочка": 4725,
      "стандартнопроходной": 4726,
      "цоколем": 4727,
      "непер": 4728,
      "клеев": 4729,
      "распределительные": 4730,
      "упругость": 4731,
      "двухкомпонентная": 4732,
      "МЛСТ": 4733,
      "14нж017п32": 4734,
      "МКБСТ": 4735,
      "алмаз": 4736,
      "зоне": 4737,
      "##грязн": 4738,
      "3х95": 4739,
      "##55": 4740,
      "##фф": 4741,
      "##енное": 4742,
      "##ктур": 4743,
      "двиг": 4744,
      "##адочные": 4745,
      "теплового": 4746,
      "1700": 4747,
      "механическим": 4748,
      "электрическим": 4749,
      "уличный": 4750,
      "элементами": 4751,
      "звукоизоли": 4752,
      "искусств": 4753,
      "трубчатой": 4754,
      "неперфор": 4755,
      "сопротив": 4756,
      "##крыти": 4757,
      "загрязн": 4758,
      "однокомпонент": 4759,
      "цементной": 4760,
      "SDR7": 4761,
      "экранированный": 4762,
      "вытяжных": 4763,
      "штыревой": 4764,
      "между": 4765,
      "бессварного": 4766,
      "скорость": 4767,
      "коммутационная": 4768,
      "1з": 4769,
      "3х120": 4770,
      "94": 4771,
      "гвозд": 4772,
      "имитация": 4773,
      "соп": 4774,
      "шва": 4775,
      "##совые": 4776,
      "##23": 4777,
      "##орешетка": 4778,
      "##опуск": 4779,
      "##ительного": 4780,
      "##ольная": 4781,
      "полимербетон": 4782,
      "напряжения": 4783,
      "ковша": 4784,
      "фольг": 4785,
      "дверные": 4786,
      "число": 4787,
      "огнез": 4788,
      "Фланцы": 4789,
      "однопут": 4790,
      "керамические": 4791,
      "Георешетка": 4792,
      "Болты": 4793,
      "10с367р": 4794,
      "##яющий": 4795,
      "эмалью": 4796,
      "Угольник": 4797,
      "антикоррозионным": 4798,
      "##коулов": 4799,
      "14нж917п34": 4800,
      "буроопуск": 4801,
      "метизы": 4802,
      "буроопускная": 4803,
      "3х70": 4804,
      "570": 4805,
      "E27": 4806,
      "Счетчик": 4807,
      "пле": 4808,
      "выпус": 4809,
      "металлоп": 4810,
      "039": 4811,
      "оптическими": 4812,
      "##х400": 4813,
      "гайками": 4814,
      "сплошного": 4815,
      "Окно": 4816,
      "Плен": 4817,
      "зеле": 4818,
      "ней": 4819,
      "тяг": 4820,
      "##440": 4821,
      "##ополот": 4822,
      "100х50": 4823,
      "коры": 4824,
      "гранита": 4825,
      "##ливания": 4826,
      "каркасе": 4827,
      "водоотводный": 4828,
      "двухкомпонентный": 4829,
      "лакированной": 4830,
      "аналог": 4831,
      "Сверло": 4832,
      "27772": 4833,
      "тавровая": 4834,
      "##шитого": 4835,
      "##крытия": 4836,
      "Пленка": 4837,
      "Камеры": 4838,
      "фарфор": 4839,
      "дистан": 4840,
      "натри": 4841,
      "##лави": 4842,
      "пропита": 4843,
      "40х40": 4844,
      "кран": 4845,
      "переходных": 4846,
      "анкерная": 4847,
      "серый": 4848,
      "сортовой": 4849,
      "##верде": 4850,
      "твердых": 4851,
      "газопроводные": 4852,
      "водоотводной": 4853,
      "специальная": 4854,
      "контактами": 4855,
      "ниппель": 4856,
      "бумаж": 4857,
      "14нж17п28": 4858,
      "диагностирования": 4859,
      "ГПа": 4860,
      "Д3": 4861,
      "ДСП": 4862,
      "ад": 4863,
      "дина": 4864,
      "шпильки": 4865,
      "##гез": 4866,
      "##КП": 4867,
      "##ентр": 4868,
      "сид": 4869,
      "##образ": 4870,
      "##ающая": 4871,
      "радиальный": 4872,
      "##ульт": 4873,
      "водосточных": 4874,
      "березы": 4875,
      "тротуарная": 4876,
      "3х25": 4877,
      "готовая": 4878,
      "ленты": 4879,
      "оц": 4880,
      "прут": 4881,
      "##огр": 4882,
      "##тп": 4883,
      "##x80": 4884,
      "##ВЭнг": 4885,
      "##ельные": 4886,
      "простран": 4887,
      "полочками": 4888,
      "трехст": 4889,
      "стеклопакетами": 4890,
      "гладкие": 4891,
      "горизонтальное": 4892,
      "пара": 4893,
      "регулированием": 4894,
      "Компенсатор": 4895,
      "Хомуты": 4896,
      "неизолированная": 4897,
      "10с371фт": 4898,
      "других": 4899,
      "расположения": 4900,
      "ударного": 4901,
      "барьер": 4902,
      "дБ": 4903,
      "##ированием": 4904,
      "##жи": 4905,
      "##онн": 4906,
      "проб": 4907,
      "полимерной": 4908,
      "Сталь": 4909,
      "дорожная": 4910,
      "##ярусного": 4911,
      "квадратный": 4912,
      "прямоугольные": 4913,
      "шахты": 4914,
      "участка": 4915,
      "стационарные": 4916,
      "окрашены": 4917,
      "пустотелый": 4918,
      "сквозным": 4919,
      "сверления": 4920,
      "деформа": 4921,
      "##ометрическая": 4922,
      "корытный": 4923,
      "5х1": 4924,
      "руко": 4925,
      "тя": 4926,
      "##рных": 4927,
      "##холст": 4928,
      "##18": 4929,
      "##ью": 4930,
      "##фнасти": 4931,
      "переп": 4932,
      "##цевым": 4933,
      "##x2x2": 4934,
      "строительной": 4935,
      "стеклохолст": 4936,
      "##x190x100": 4937,
      "термоусаживаемая": 4938,
      "симметричный": 4939,
      "LOCA": 4940,
      "атомных": 4941,
      "тягой": 4942,
      "780": 4943,
      "К38": 4944,
      "Масти": 4945,
      "гнутый": 4946,
      "##тяг": 4947,
      "##еталь": 4948,
      "безус": 4949,
      "отраж": 4950,
      "горение": 4951,
      "40Х13": 4952,
      "смот": 4953,
      "компози": 4954,
      "светофор": 4955,
      "##изводительность": 4956,
      "твердого": 4957,
      "ПБЗ": 4958,
      "Геополот": 4959,
      "конусная": 4960,
      "створкой": 4961,
      "древесина": 4962,
      "добавками": 4963,
      "предохранительный": 4964,
      "Регуляторы": 4965,
      "динасовые": 4966,
      "сидень": 4967,
      "Геополотно": 4968,
      "5х2": 4969,
      "71": 4970,
      "Дис": 4971,
      "ПД": 4972,
      "ПРА": 4973,
      "Терм": 4974,
      "клен": 4975,
      "##иеся": 4976,
      "сталей": 4977,
      "выступ": 4978,
      "кабельное": 4979,
      "##ольз": 4980,
      "стекля": 4981,
      "электротяг": 4982,
      "термометрическая": 4983,
      "канальный": 4984,
      "многол": 4985,
      "двухслойные": 4986,
      "цинк": 4987,
      "380x190x120": 4988,
      "отводов": 4989,
      "канализационных": 4990,
      "передвиж": 4991,
      "грунтах": 4992,
      "безусадочные": 4993,
      "1х16": 4994,
      "510": 4995,
      "Дюбель": 4996,
      "Кот": 4997,
      "мат": 4998,
      "топ": 4999,
      "##рад": 5000,
      "протяж": 5001,
      "сейсмостойкое": 5002,
      "нена": 5003,
      "##ольтный": 5004,
      "плотности": 5005,
      "##рующие": 5006,
      "355": 5007,
      "2400": 5008,
      "##x350": 5009,
      "отделки": 5010,
      "потоков": 5011,
      "магистральный": 5012,
      "краном": 5013,
      "ремонта": 5014,
      "водопропускные": 5015,
      "аппарат": 5016,
      "##опоглощ": 5017,
      "информационный": 5018,
      "травмобезопасным": 5019,
      "Мастика": 5020,
      "электротяговый": 5021,
      "1х1": 5022,
      "3х4": 5023,
      "АБ": 5024,
      "желоб": 5025,
      "скат": 5026,
      "##82": 5027,
      "##МП": 5028,
      "##олит": 5029,
      "##изны": 5030,
      "##оскоп": 5031,
      "Прокладки": 5032,
      "##уму": 5033,
      "способности": 5034,
      "электросварная": 5035,
      "спиральный": 5036,
      "ОКЛ": 5037,
      "##ульс": 5038,
      "крана": 5039,
      "изгибами": 5040,
      "рекламный": 5041,
      "##амидных": 5042,
      "кривизны": 5043,
      "конструктивной": 5044,
      "полимербетонный": 5045,
      "ненапрягаемой": 5046,
      "А4": 5047,
      "Фик": 5048,
      "##еив": 5049,
      "##елая": 5050,
      "##пти": 5051,
      "##ерный": 5052,
      "##ества": 5053,
      "системой": 5054,
      "фасонных": 5055,
      "##простран": 5056,
      "форма": 5057,
      "10с71фт": 5058,
      "канализа": 5059,
      "легкие": 5060,
      "поворотом": 5061,
      "клапан": 5062,
      "шпунтовый": 5063,
      "свинцовые": 5064,
      "мороз": 5065,
      "натриев": 5066,
      "2х2": 5067,
      "3х16": 5068,
      "900х": 5069,
      "ТД": 5070,
      "сшитого": 5071,
      "##хит": 5072,
      "светиль": 5073,
      "алюминиевым": 5074,
      "архит": 5075,
      "базой": 5076,
      "##слойным": 5077,
      "крышка": 5078,
      "дорожные": 5079,
      "универсальная": 5080,
      "##станция": 5081,
      "гильзами": 5082,
      "РПШ": 5083,
      "дробления": 5084,
      "зерен": 5085,
      "ИТГ": 5086,
      "Фиксатор": 5087,
      "архитект": 5088,
      "Бр": 5089,
      "ПО": 5090,
      "ПМ": 5091,
      "Свет": 5092,
      "кед": 5093,
      "плав": 5094,
      "слив": 5095,
      "укладки": 5096,
      "##ax": 5097,
      "##льным": 5098,
      "##етона": 5099,
      "##рации": 5100,
      "##евов": 5101,
      "20Х13": 5102,
      "использ": 5103,
      "полками": 5104,
      "переклад": 5105,
      "резиновые": 5106,
      "квадратная": 5107,
      "Подстанция": 5108,
      "однопольный": 5109,
      "трансформаторная": 5110,
      "##ротверде": 5111,
      "рассеив": 5112,
      "отсевов": 5113,
      "лакокрасочным": 5114,
      "Основание": 5115,
      "Диск": 5116,
      "Котлы": 5117,
      "архитектур": 5118,
      "А1": 5119,
      "Гильз": 5120,
      "ЩО": 5121,
      "паз": 5122,
      "фини": 5123,
      "##ацией": 5124,
      "##нка": 5125,
      "ответ": 5126,
      "проект": 5127,
      "перви": 5128,
      "металлов": 5129,
      "природ": 5130,
      "теплостой": 5131,
      "30Х13": 5132,
      "компенсатор": 5133,
      "комплектом": 5134,
      "условный": 5135,
      "Кольца": 5136,
      "короткой": 5137,
      "ЛС59": 5138,
      "14нж017п31": 5139,
      "терморегулятор": 5140,
      "парапетного": 5141,
      "##ллипти": 5142,
      "отражателем": 5143,
      "кедр": 5144,
      "первичный": 5145,
      "2х0": 5146,
      "650": 5147,
      "Реле": 5148,
      "квар": 5149,
      "рт": 5150,
      "эллипти": 5151,
      "##73": 5152,
      "##при": 5153,
      "##цевое": 5154,
      "1420": 5155,
      "медный": 5156,
      "лифт": 5157,
      "цветные": 5158,
      "высокой": 5159,
      "цементные": 5160,
      "комплектная": 5161,
      "щебень": 5162,
      "КВТ": 5163,
      "производственных": 5164,
      "СБВБ": 5165,
      "лампами": 5166,
      "утеплен": 5167,
      "декоративные": 5168,
      "##ерживающий": 5169,
      "цилиндрической": 5170,
      "материалах": 5171,
      "шпунтованная": 5172,
      "МЛС": 5173,
      "неизолированный": 5174,
      "##нистые": 5175,
      "масла": 5176,
      "раздель": 5177,
      "самонесущий": 5178,
      "хомутами": 5179,
      "натриевую": 5180,
      "теплостойкость": 5181,
      "ртут": 5182,
      "Ав": 5183,
      "Барьер": 5184,
      "Клей": 5185,
      "Ламп": 5186,
      "ПНД": 5187,
      "##ских": 5188,
      "##га": 5189,
      "##вани": 5190,
      "##вента": 5191,
      "##бус": 5192,
      "##er": 5193,
      "##оллей": 5194,
      "##емый": 5195,
      "установок": 5196,
      "контактов": 5197,
      "плоская": 5198,
      "##ПКр": 5199,
      "резиновая": 5200,
      "верхний": 5201,
      "измерения": 5202,
      "унифици": 5203,
      "Скваж": 5204,
      "##прессор": 5205,
      "арматурная": 5206,
      "инвента": 5207,
      "распределительный": 5208,
      "шахтных": 5209,
      "треуго": 5210,
      "Предохранители": 5211,
      "смотровых": 5212,
      "Лампы": 5213,
      "##оллейбус": 5214,
      "Скважина": 5215,
      "1P": 5216,
      "215": 5217,
      "W20": 5218,
      "max": 5219,
      "ВЛ": 5220,
      "Имитация": 5221,
      "М20": 5222,
      "ОР": 5223,
      "Раст": 5224,
      "Шп": 5225,
      "деф": 5226,
      "опорный": 5227,
      "спор": 5228,
      "##аго": 5229,
      "##сы": 5230,
      "##ву": 5231,
      "##еры": 5232,
      "##рованным": 5233,
      "троллейбус": 5234,
      "50x50": 5235,
      "неф": 5236,
      "стеклок": 5237,
      "##x219": 5238,
      "##кладка": 5239,
      "породы": 5240,
      "термоп": 5241,
      "##тивный": 5242,
      "монтажные": 5243,
      "##ающие": 5244,
      "удлиненными": 5245,
      "лиственные": 5246,
      "пластиковым": 5247,
      "закрытый": 5248,
      "быстротверде": 5249,
      "дифференциального": 5250,
      "##ерепица": 5251,
      "поясов": 5252,
      "360": 5253,
      "8АтVТ": 5254,
      "cх": 5255,
      "Зв": 5256,
      "Шурупы": 5257,
      "пнев": 5258,
      "##180": 5259,
      "##ув": 5260,
      "150х150": 5261,
      "##х2000": 5262,
      "08Х18Н10": 5263,
      "глубок": 5264,
      "геос": 5265,
      "сплошные": 5266,
      "МКРС": 5267,
      "компрессионные": 5268,
      "Агрегаты": 5269,
      "вибропрессованная": 5270,
      "рассеивателем": 5271,
      "стеклокомпозит": 5272,
      "cхема": 5273,
      "фаль": 5274,
      "##за": 5275,
      "##станов": 5276,
      "##новый": 5277,
      "1050": 5278,
      "арамидных": 5279,
      "##ермети": 5280,
      "электрод": 5281,
      "##1500": 5282,
      "соединительным": 5283,
      "панелей": 5284,
      "крышей": 5285,
      "материалом": 5286,
      "встык": 5287,
      "герметичное": 5288,
      "##нтус": 5289,
      "дверей": 5290,
      "14нж17ст": 5291,
      "200х100": 5292,
      "обратные": 5293,
      "угловая": 5294,
      "скрепления": 5295,
      "эксплуата": 5296,
      "выступом": 5297,
      "геосотовый": 5298,
      "960": 5299,
      "Шпилька": 5300,
      "ЭТ": 5301,
      "вор": 5302,
      "тянут": 5303,
      "##насо": 5304,
      "##лива": 5305,
      "100x100": 5306,
      "сила": 5307,
      "168": 5308,
      "##х15": 5309,
      "##х140": 5310,
      "14Х17Н": 5311,
      "##х250": 5312,
      "газовый": 5313,
      "герметизи": 5314,
      "электросварных": 5315,
      "электромагнитные": 5316,
      "спиральная": 5317,
      "##рядный": 5318,
      "поворотно": 5319,
      "ответвительная": 5320,
      "##ектоскоп": 5321,
      "пористость": 5322,
      "термоусаживаемых": 5323,
      "Скобы": 5324,
      "гальвани": 5325,
      "морозостой": 5326,
      "тянутые": 5327,
      "14Х17Н2": 5328,
      "АА": 5329,
      "ОП": 5330,
      "У1": 5331,
      "ХПВХ": 5332,
      "мемб": 5333,
      "##сВБ": 5334,
      "##ощ": 5335,
      "##ояч": 5336,
      "диз": 5337,
      "##лочная": 5338,
      "##очное": 5339,
      "трёхслойная": 5340,
      "одино": 5341,
      "##х100х": 5342,
      "жильных": 5343,
      "Профнасти": 5344,
      "##жимная": 5345,
      "цоколя": 5346,
      "резиновыми": 5347,
      "швов": 5348,
      "известняка": 5349,
      "геояч": 5350,
      "подставкой": 5351,
      "циркуляцией": 5352,
      "Двутавр": 5353,
      "заглушкой": 5354,
      "Профнастил": 5355,
      "геоячейки": 5356,
      "6х25": 5357,
      "гус": 5358,
      "динами": 5359,
      "счет": 5360,
      "##анд": 5361,
      "дисп": 5362,
      "прорез": 5363,
      "запор": 5364,
      "##х13": 5365,
      "Столб": 5366,
      "##ехно": 5367,
      "установочный": 5368,
      "водопроводов": 5369,
      "круглых": 5370,
      "полипропиленовые": 5371,
      "элемент": 5372,
      "слож": 5373,
      "дерева": 5374,
      "ячейковый": 5375,
      "Доски": 5376,
      "муллитокремнеземистый": 5377,
      "работе": 5378,
      "##00х2000": 5379,
      "шума": 5380,
      "рядовой": 5381,
      "крутоизогнутый": 5382,
      "двупольный": 5383,
      "однопутная": 5384,
      "гусени": 5385,
      "700х": 5386,
      "ЗП": 5387,
      "ФЛ": 5388,
      "лм": 5389,
      "##52": 5390,
      "##те": 5391,
      "##РН": 5392,
      "##каливания": 5393,
      "накаливания": 5394,
      "##едка": 5395,
      "##евод": 5396,
      "бетонным": 5397,
      "резер": 5398,
      "цветных": 5399,
      "ввода": 5400,
      "камня": 5401,
      "щелевой": 5402,
      "одинарной": 5403,
      "дополнитель": 5404,
      "Светофор": 5405,
      "электродвиг": 5406,
      "Анти": 5407,
      "Метал": 5408,
      "СГ": 5409,
      "ти": 5410,
      "шланг": 5411,
      "##аков": 5412,
      "##яной": 5413,
      "##бой": 5414,
      "##М2": 5415,
      "##ори": 5416,
      "##екла": 5417,
      "наружных": 5418,
      "оцинкованное": 5419,
      "оголов": 5420,
      "##x296": 5421,
      "220x190x100": 5422,
      "пенополиуретановой": 5423,
      "конденс": 5424,
      "1х10": 5425,
      "КШ": 5426,
      "анг": 5427,
      "сери": 5428,
      "##ПРА": 5429,
      "##арская": 5430,
      "прозра": 5431,
      "##ексти": 5432,
      "Стек": 5433,
      "сварное": 5434,
      "водопровод": 5435,
      "защитной": 5436,
      "245": 5437,
      "самоходные": 5438,
      "двойным": 5439,
      "##ающий": 5440,
      "низков": 5441,
      "тонн": 5442,
      "##ащитная": 5443,
      "пластмассовой": 5444,
      "пропиткой": 5445,
      "ЭмПРА": 5446,
      "адгез": 5447,
      "##пространяющий": 5448,
      "лифтов": 5449,
      "треугольной": 5450,
      "##агона": 5451,
      "ангарская": 5452,
      "Гл": 5453,
      "Сиб": 5454,
      "Трав": 5455,
      "кирпи": 5456,
      "нан": 5457,
      "##куму": 5458,
      "##гор": 5459,
      "##x20": 5460,
      "##пШп": 5461,
      "##роп": 5462,
      "медных": 5463,
      "##лопро": 5464,
      "угла": 5465,
      "условная": 5466,
      "##ирское": 5467,
      "##чиком": 5468,
      "потолоч": 5469,
      "##ерса": 5470,
      "уплотн": 5471,
      "сталемедный": 5472,
      "Устройства": 5473,
      "14нж917ст": 5474,
      "щелевая": 5475,
      "дефектоскоп": 5476,
      "быстротвердеющие": 5477,
      "Сибирское": 5478,
      "нанес": 5479,
      "##кумулятор": 5480,
      "мА": 5481,
      "мяг": 5482,
      "фа": 5483,
      "##ТС": 5484,
      "##ителей": 5485,
      "##ческом": 5486,
      "стальными": 5487,
      "конец": 5488,
      "труба": 5489,
      "##x196": 5490,
      "листа": 5491,
      "листовая": 5492,
      "##огра": 5493,
      "винтовыми": 5494,
      "##x396": 5495,
      "раструбом": 5496,
      "двухслойным": 5497,
      "полипропиленовое": 5498,
      "дробле": 5499,
      "погружные": 5500,
      "клеевых": 5501,
      "Раствор": 5502,
      "270": 5503,
      "Лю": 5504,
      "М100": 5505,
      "Т3": 5506,
      "ви": 5507,
      "гли": 5508,
      "инд": 5509,
      "лощ": 5510,
      "##нных": 5511,
      "##тной": 5512,
      "##жектор": 5513,
      "##400х": 5514,
      "##ницы": 5515,
      "##ностекла": 5516,
      "1200х": 5517,
      "трам": 5518,
      "двухлопастная": 5519,
      "комплек": 5520,
      "пеностекла": 5521,
      "системах": 5522,
      "##даления": 5523,
      "деревянные": 5524,
      "нерас": 5525,
      "свинцовая": 5526,
      "канализационного": 5527,
      "карниз": 5528,
      "теплоизолированных": 5529,
      "врезки": 5530,
      "быстрого": 5531,
      "атмос": 5532,
      "барьерного": 5533,
      "3х150": 5534,
      "ФБ": 5535,
      "довод": 5536,
      "##37": 5537,
      "##ский": 5538,
      "##TP": 5539,
      "##ЭШ": 5540,
      "##онным": 5541,
      "диагона": 5542,
      "50x100": 5543,
      "##ечный": 5544,
      "##ированное": 5545,
      "основани": 5546,
      "##х14": 5547,
      "армированные": 5548,
      "опорные": 5549,
      "##атором": 5550,
      "площадкой": 5551,
      "сборных": 5552,
      "экранами": 5553,
      "ленточного": 5554,
      "сторона": 5555,
      "компенсатором": 5556,
      "дефектоскопа": 5557,
      "нераспространяющий": 5558,
      "330": 5559,
      "С440": 5560,
      "кис": 5561,
      "шпри": 5562,
      "##реб": 5563,
      "##дон": 5564,
      "##ерси": 5565,
      "##анный": 5566,
      "##новит": 5567,
      "##ктов": 5568,
      "12000": 5569,
      "##ектив": 5570,
      "##цевидная": 5571,
      "двухс": 5572,
      "базе": 5573,
      "присоединитель": 5574,
      "полиэтиленовым": 5575,
      "свободностоящ": 5576,
      "приварные": 5577,
      "поперечном": 5578,
      "пружинными": 5579,
      "армированной": 5580,
      "открыв": 5581,
      "гидрофобным": 5582,
      "шприцевидная": 5583,
      "7х7": 5584,
      "800х": 5585,
      "Вст": 5586,
      "М500": 5587,
      "белые": 5588,
      "хими": 5589,
      "##клави": 5590,
      "##ити": 5591,
      "##зер": 5592,
      "##пт": 5593,
      "##леум": 5594,
      "##изи": 5595,
      "самоз": 5596,
      "резьбовые": 5597,
      "зажимы": 5598,
      "вертикальная": 5599,
      "соединениями": 5600,
      "люб": 5601,
      "КУПЭ": 5602,
      "сжатой": 5603,
      "подвесных": 5604,
      "крестообраз": 5605,
      "ФСФ": 5606,
      "угловые": 5607,
      "защел": 5608,
      "фиксатор": 5609,
      "мелко": 5610,
      "ребрист": 5611,
      "сопротивление": 5612,
      "серии": 5613,
      "640": 5614,
      "F5": 5615,
      "F2": 5616,
      "PP": 5617,
      "Yн": 5618,
      "В7": 5619,
      "Фундам": 5620,
      "Шиб": 5621,
      "вос": 5622,
      "роз": 5623,
      "сектор": 5624,
      "##мнг": 5625,
      "##вели": 5626,
      "##ерная": 5627,
      "##олочный": 5628,
      "##аяся": 5629,
      "теплопро": 5630,
      "трубчатый": 5631,
      "перемыч": 5632,
      "горлов": 5633,
      "температуре": 5634,
      "гибкости": 5635,
      "##х4х1": 5636,
      "муфтовый": 5637,
      "FRLSLTx": 5638,
      "##x700": 5639,
      "композитных": 5640,
      "ККБС": 5641,
      "механизмом": 5642,
      "стяжными": 5643,
      "Фундаменты": 5644,
      "3x2": 5645,
      "E40": 5646,
      "Косы": 5647,
      "М6": 5648,
      "Пат": 5649,
      "ан": 5650,
      "культ": 5651,
      "пути": 5652,
      "ха": 5653,
      "##х9": 5654,
      "##х90": 5655,
      "##x30": 5656,
      "##кими": 5657,
      "##каз": 5658,
      "##ейка": 5659,
      "100х80": 5660,
      "##цинк": 5661,
      "153": 5662,
      "001": 5663,
      "окрашенное": 5664,
      "##рующими": 5665,
      "прочностью": 5666,
      "1900": 5667,
      "4182": 5668,
      "##цепные": 5669,
      "СТД": 5670,
      "освещением": 5671,
      "стеновой": 5672,
      "битумный": 5673,
      "Подъем": 5674,
      "пластиката": 5675,
      "мансардное": 5676,
      "##колон": 5677,
      "удерживающая": 5678,
      "карм": 5679,
      "МКБС": 5680,
      "остекленные": 5681,
      "Шнек": 5682,
      "Звено": 5683,
      "диагональ": 5684,
      "Косынка": 5685,
      "культур": 5686,
      "4182и": 5687,
      "B30": 5688,
      "Гор": 5689,
      "Кач": 5690,
      "ПФ": 5691,
      "УЗ": 5692,
      "бел": 5693,
      "гнут": 5694,
      "зав": 5695,
      "укреп": 5696,
      "##ача": 5697,
      "##раб": 5698,
      "##зящ": 5699,
      "##AL": 5700,
      "##руч": 5701,
      "##опор": 5702,
      "##кового": 5703,
      "##епс": 5704,
      "вылет": 5705,
      "##естав": 5706,
      "стенка": 5707,
      "плотным": 5708,
      "полук": 5709,
      "теплоизоляцией": 5710,
      "мач": 5711,
      "цветочных": 5712,
      "штепс": 5713,
      "сухой": 5714,
      "кровельная": 5715,
      "продольная": 5716,
      "конусно": 5717,
      "микротонн": 5718,
      "сополимер": 5719,
      "Шибер": 5720,
      "1х25": 5721,
      "Гид": 5722,
      "Л63": 5723,
      "РЦ": 5724,
      "глав": 5725,
      "увели": 5726,
      "##огрев": 5727,
      "##лый": 5728,
      "##абилиз": 5729,
      "##рывающ": 5730,
      "##остабилиз": 5731,
      "##евый": 5732,
      "##порка": 5733,
      "нефт": 5734,
      "теплос": 5735,
      "устойчив": 5736,
      "ковкого": 5737,
      "шарового": 5738,
      "Стальной": 5739,
      "IP44": 5740,
      "##одуктов": 5741,
      "кольцевое": 5742,
      "СБП": 5743,
      "порошковая": 5744,
      "ПБШ": 5745,
      "противов": 5746,
      "##оотражающ": 5747,
      "Соедин": 5748,
      "декоративный": 5749,
      "Клемма": 5750,
      "С235": 5751,
      "гипсовая": 5752,
      "проемов": 5753,
      "импульс": 5754,
      "втулочная": 5755,
      "алмазное": 5756,
      "плеча": 5757,
      "защелкой": 5758,
      "хаус": 5759,
      "B20": 5760,
      "Сп": 5761,
      "СА": 5762,
      "оцинк": 5763,
      "тур": 5764,
      "##500х": 5765,
      "##труб": 5766,
      "##КВ": 5767,
      "##адочный": 5768,
      "кач": 5769,
      "коробов": 5770,
      "275": 5771,
      "скам": 5772,
      "дорожной": 5773,
      "холодно": 5774,
      "200х400": 5775,
      "резины": 5776,
      "КМПВЭнг": 5777,
      "##ницаем": 5778,
      "одинарный": 5779,
      "монолитный": 5780,
      "фильтрующим": 5781,
      "силикатный": 5782,
      "спиральновит": 5783,
      "унифицированная": 5784,
      "теплопроизводительность": 5785,
      "спиральновитые": 5786,
      "1х6": 5787,
      "710": 5788,
      "F900": 5789,
      "УГ": 5790,
      "белая": 5791,
      "эфф": 5792,
      "##Гнг": 5793,
      "##чном": 5794,
      "##асло": 5795,
      "сита": 5796,
      "двухъярусный": 5797,
      "упаков": 5798,
      "IP66": 5799,
      "##x3000": 5800,
      "гидроизоляционные": 5801,
      "##ешетки": 5802,
      "мостовая": 5803,
      "гайки": 5804,
      "керамическая": 5805,
      "фундаментная": 5806,
      "ПСПБ": 5807,
      "неподвиж": 5808,
      "центробежные": 5809,
      "неперфорированный": 5810,
      "загрязнения": 5811,
      "ртутную": 5812,
      "спортивный": 5813,
      "Траверса": 5814,
      "лощеная": 5815,
      "СБПЗ": 5816,
      "борт": 5817,
      "опрессов": 5818,
      "шуруп": 5819,
      "##оной": 5820,
      "##защит": 5821,
      "##цер": 5822,
      "налив": 5823,
      "распорные": 5824,
      "##аника": 5825,
      "##х18": 5826,
      "##елка": 5827,
      "стеклопластика": 5828,
      "профилем": 5829,
      "бесцвет": 5830,
      "##кторы": 5831,
      "КПГ": 5832,
      "привода": 5833,
      "Профили": 5834,
      "гайка": 5835,
      "стержня": 5836,
      "ТППэпБ": 5837,
      "штыревыми": 5838,
      "неподвижная": 5839,
      "400x250x120": 5840,
      "##оудаления": 5841,
      "звукоизолирующая": 5842,
      "прорезанием": 5843,
      "горловины": 5844,
      "540": 5845,
      "950": 5846,
      "B22": 5847,
      "Ди": 5848,
      "Киб": 5849,
      "Скор": 5850,
      "аро": 5851,
      "вм": 5852,
      "##кет": 5853,
      "##ои": 5854,
      "##луп": 5855,
      "двутав": 5856,
      "подача": 5857,
      "расшир": 5858,
      "города": 5859,
      "порта": 5860,
      "мощностью": 5861,
      "##резка": 5862,
      "##икс": 5863,
      "отверстиями": 5864,
      "прокладкой": 5865,
      "сером": 5866,
      "бесшовная": 5867,
      "люминесцентными": 5868,
      "водоотводного": 5869,
      "равнопро": 5870,
      "промежуточные": 5871,
      "ШВУ": 5872,
      "3х185": 5873,
      "разметки": 5874,
      "устройствами": 5875,
      "скрыт": 5876,
      "архитектурно": 5877,
      "##донское": 5878,
      "##итинг": 5879,
      "холодноката": 5880,
      "Кибик": 5881,
      "Скорлуп": 5882,
      "Скорлупы": 5883,
      "ВД": 5884,
      "КТ": 5885,
      "Лино": 5886,
      "Штанг": 5887,
      "##т3": 5888,
      "##лоч": 5889,
      "разли": 5890,
      "сиф": 5891,
      "##яжущ": 5892,
      "смес": 5893,
      "полу": 5894,
      "##катной": 5895,
      "электротехни": 5896,
      "##аторы": 5897,
      "300х100": 5898,
      "Извещ": 5899,
      "скруч": 5900,
      "##х4х0": 5901,
      "##1200": 5902,
      "##тепр": 5903,
      "муллитокорундовые": 5904,
      "КУН": 5905,
      "558": 5906,
      "поперечная": 5907,
      "поворотная": 5908,
      "Наклад": 5909,
      "дымоудаления": 5910,
      "хомутовая": 5911,
      "взрывозащищенный": 5912,
      "Распорка": 5913,
      "чистящ": 5914,
      "искусственный": 5915,
      "трехстворчатый": 5916,
      "переплет": 5917,
      "нефтепр": 5918,
      "дисперси": 5919,
      "гусеничном": 5920,
      "конденсата": 5921,
      "свободностоящие": 5922,
      "карманный": 5923,
      "Линолеум": 5924,
      "Бес": 5925,
      "ДН": 5926,
      "ККС": 5927,
      "Лак": 5928,
      "МП": 5929,
      "СВС": 5930,
      "бас": 5931,
      "вещ": 5932,
      "прав": 5933,
      "сор": 5934,
      "сан": 5935,
      "цепи": 5936,
      "##мость": 5937,
      "##БбШв": 5938,
      "##веллер": 5939,
      "##паника": 5940,
      "##каб": 5941,
      "отбой": 5942,
      "##20н": 5943,
      "##аку": 5944,
      "132": 5945,
      "##роволочными": 5946,
      "трехлуч": 5947,
      "IP40": 5948,
      "##движной": 5949,
      "волокнами": 5950,
      "##естимость": 5951,
      "точечная": 5952,
      "перфорацией": 5953,
      "литым": 5954,
      "изделие": 5955,
      "накладной": 5956,
      "масля": 5957,
      "динамический": 5958,
      "Антипаника": 5959,
      "вместимость": 5960,
      "##кетб": 5961,
      "баскетб": 5962,
      "460": 5963,
      "Врезка": 5964,
      "Пос": 5965,
      "Пласт": 5966,
      "Швеллер": 5967,
      "зна": 5968,
      "план": 5969,
      "риф": 5970,
      "энер": 5971,
      "##36": 5972,
      "##злом": 5973,
      "##шлиф": 5974,
      "##флан": 5975,
      "напрессов": 5976,
      "перегород": 5977,
      "1000х2": 5978,
      "объемная": 5979,
      "водостойкости": 5980,
      "опорная": 5981,
      "фланцем": 5982,
      "теплоизоляционный": 5983,
      "кабелем": 5984,
      "032": 5985,
      "##дапт": 5986,
      "стандартный": 5987,
      "##х10ок": 5988,
      "контроля": 5989,
      "магнит": 5990,
      "грунтованная": 5991,
      "закладной": 5992,
      "Наконечники": 5993,
      "минимальная": 5994,
      "наполнителя": 5995,
      "двухсторонним": 5996,
      "бетонов": 5997,
      "Обрамления": 5998,
      "зеленый": 5999,
      "стеклокомпозитная": 6000,
      "любым": 6001,
      "##колончатые": 6002,
      "Беседка": 6003,
      "Посадочный": 6004,
      "7х0": 6005,
      "КСП": 6006,
      "М700": 6007,
      "Сист": 6008,
      "втор": 6009,
      "врем": 6010,
      "дет": 6011,
      "сегм": 6012,
      "##мест": 6013,
      "##шко": 6014,
      "##фта": 6015,
      "##элект": 6016,
      "##Е3": 6017,
      "202": 6018,
      "25А": 6019,
      "кали": 6020,
      "гибкая": 6021,
      "светоотражающ": 6022,
      "вентиляционные": 6023,
      "холодного": 6024,
      "сбора": 6025,
      "сборного": 6026,
      "механическая": 6027,
      "композитная": 6028,
      "пластиковые": 6029,
      "кольцами": 6030,
      "уплотнительным": 6031,
      "##полюс": 6032,
      "компрессионная": 6033,
      "##ПКВКтЭнг": 6034,
      "бронзы": 6035,
      "металлополимер": 6036,
      "##кабель": 6037,
      "2600": 6038,
      "7х1": 6039,
      "C250": 6040,
      "Зем": 6041,
      "МА": 6042,
      "зем": 6043,
      "мок": 6044,
      "цеп": 6045,
      "##х500": 6046,
      "##стра": 6047,
      "##нищ": 6048,
      "##ораз": 6049,
      "##органи": 6050,
      "вып": 6051,
      "сос": 6052,
      "15Х": 6053,
      "металлоконструк": 6054,
      "оконные": 6055,
      "30ч": 6056,
      "Коронка": 6057,
      "облицован": 6058,
      "458": 6059,
      "11с": 6060,
      "коле": 6061,
      "трехслойные": 6062,
      "конструкцион": 6063,
      "SN8": 6064,
      "армированная": 6065,
      "вывода": 6066,
      "пространства": 6067,
      "ОРЦ": 6068,
      "морозостойкость": 6069,
      "увелич": 6070,
      "##электри": 6071,
      "4х0": 6072,
      "ВА": 6073,
      "Вор": 6074,
      "Держ": 6075,
      "Ко": 6076,
      "олов": 6077,
      "шла": 6078,
      "##Ш1": 6079,
      "##ТК": 6080,
      "##аренных": 6081,
      "стального": 6082,
      "##отроп": 6083,
      "50К": 6084,
      "152": 6085,
      "##x1500": 6086,
      "4500": 6087,
      "358": 6088,
      "контактом": 6089,
      "воздуху": 6090,
      "высокочастотный": 6091,
      "400х100": 6092,
      "регулировки": 6093,
      "ППГнг": 6094,
      "гидроизоляции": 6095,
      "500х100": 6096,
      "Подвес": 6097,
      "АСК": 6098,
      "швеллера": 6099,
      "ТППэпЗ": 6100,
      "задней": 6101,
      "СБЗПБ": 6102,
      "ключом": 6103,
      "поддерживающий": 6104,
      "использования": 6105,
      "открыванием": 6106,
      "восстанов": 6107,
      "противовзлом": 6108,
      "нефтепродуктов": 6109,
      "сантехни": 6110,
      "Пластина": 6111,
      "Ворота": 6112,
      "противовзломной": 6113,
      "025": 6114,
      "2П": 6115,
      "4х6": 6116,
      "В10": 6117,
      "ЗТ": 6118,
      "С35": 6119,
      "ТЛ": 6120,
      "па": 6121,
      "уз": 6122,
      "##ики": 6123,
      "##ОС": 6124,
      "##ъеди": 6125,
      "стопор": 6126,
      "покрас": 6127,
      "##х110": 6128,
      "Стол": 6129,
      "145": 6130,
      "##иликат": 6131,
      "##x18": 6132,
      "##ебр": 6133,
      "связке": 6134,
      "крупно": 6135,
      "строительная": 6136,
      "пескоулов": 6137,
      "вводных": 6138,
      "перемещ": 6139,
      "стеновая": 6140,
      "КУВ": 6141,
      "Заглушки": 6142,
      "брусковая": 6143,
      "клеевые": 6144,
      "66кВ": 6145,
      "стекловаренных": 6146,
      "эластичный": 6147,
      "эпоксидным": 6148,
      "Пресс": 6149,
      "ВСт3": 6150,
      "автоматов": 6151,
      "отдельностоящий": 6152,
      "желто": 6153,
      "мембранный": 6154,
      "дробленый": 6155,
      "4х25": 6156,
      "6х7": 6157,
      "7000": 6158,
      "М5": 6159,
      "НПВХ": 6160,
      "СО": 6161,
      "Сая": 6162,
      "Черепица": 6163,
      "днищ": 6164,
      "мет": 6165,
      "ут": 6166,
      "учет": 6167,
      "##58": 6168,
      "##ска": 6169,
      "##они": 6170,
      "##оном": 6171,
      "##ба": 6172,
      "##НИ": 6173,
      "##этиле": 6174,
      "##лож": 6175,
      "##евая": 6176,
      "100x300": 6177,
      "##отексти": 6178,
      "##осетка": 6179,
      "142": 6180,
      "минераль": 6181,
      "компрессор": 6182,
      "Кордонское": 6183,
      "400x350": 6184,
      "управляем": 6185,
      "300х50": 6186,
      "пиг": 6187,
      "горячекатаного": 6188,
      "предвар": 6189,
      "##чатка": 6190,
      "Перегород": 6191,
      "удерж": 6192,
      "200х80": 6193,
      "сборный": 6194,
      "стенов": 6195,
      "кровля": 6196,
      "600х100": 6197,
      "заполнения": 6198,
      "стыкового": 6199,
      "крепежных": 6200,
      "статический": 6201,
      "все": 6202,
      "нагреватель": 6203,
      "фрик": 6204,
      "скобя": 6205,
      "эксплуатации": 6206,
      "атмосфер": 6207,
      "эффектив": 6208,
      "Штанга": 6209,
      "Саянское": 6210,
      "400x350x130": 6211,
      "2x2": 6212,
      "2х36": 6213,
      "Гермети": 6214,
      "К52": 6215,
      "Лента": 6216,
      "Л68": 6217,
      "тикс": 6218,
      "##язи": 6219,
      "##ИД": 6220,
      "##нивающ": 6221,
      "##роения": 6222,
      "вынос": 6223,
      "бетонная": 6224,
      "Ст2": 6225,
      "##нометалли": 6226,
      "облицовкой": 6227,
      "болтами": 6228,
      "профиль": 6229,
      "масти": 6230,
      "анкерно": 6231,
      "наконечниками": 6232,
      "##чика": 6233,
      "битумной": 6234,
      "противопожарная": 6235,
      "литой": 6236,
      "наполнителем": 6237,
      "заземляющим": 6238,
      "заделки": 6239,
      "Горка": 6240,
      "оловян": 6241,
      "Герметик": 6242,
      "тиксотроп": 6243,
      "2х2х0": 6244,
      "520": 6245,
      "˚С": 6246,
      "АЗ": 6247,
      "##зит": 6248,
      "##товый": 6249,
      "##лат": 6250,
      "##x95": 6251,
      "##бив": 6252,
      "##фит": 6253,
      "##ниц": 6254,
      "##анда": 6255,
      "##ему": 6256,
      "127": 6257,
      "1500х": 6258,
      "4050": 6259,
      "##рующих": 6260,
      "##ливки": 6261,
      "вентиляции": 6262,
      "деревянных": 6263,
      "105x63": 6264,
      "КПсВБ": 6265,
      "гидравлическое": 6266,
      "измерений": 6267,
      "черепи": 6268,
      "Геосетка": 6269,
      "грунтов": 6270,
      "С245": 6271,
      "ТСА": 6272,
      "Розетки": 6273,
      "двусторон": 6274,
      "направляющее": 6275,
      "двухкамерный": 6276,
      "##готовки": 6277,
      "ремонтные": 6278,
      "дистанцион": 6279,
      "ПМБ": 6280,
      "теплосети": 6281,
      "бортовые": 6282,
      "колеи": 6283,
      "1х2": 6284,
      "3х6": 6285,
      "4х95": 6286,
      "VI": 6287,
      "КР": 6288,
      "На": 6289,
      "ба": 6290,
      "лока": 6291,
      "##вая": 6292,
      "##бк": 6293,
      "##роцемент": 6294,
      "струж": 6295,
      "пере": 6296,
      "##нополочный": 6297,
      "лотки": 6298,
      "фланцевым": 6299,
      "Конд": 6300,
      "##ографи": 6301,
      "условия": 6302,
      "каркасные": 6303,
      "проводника": 6304,
      "##движные": 6305,
      "квадрата": 6306,
      "порошковой": 6307,
      "ПБВ": 6308,
      "АВБШв": 6309,
      "одномодовыми": 6310,
      "акустическая": 6311,
      "железнодорожных": 6312,
      "ТКП": 6313,
      "асб": 6314,
      "##изоци": 6315,
      "##тоном": 6316,
      "280x190x120": 6317,
      "антикоррози": 6318,
      "промышленный": 6319,
      "М4П": 6320,
      "##орифер": 6321,
      "потолочные": 6322,
      "3ПКВтпнг": 6323,
      "Венти": 6324,
      "Деталь": 6325,
      "Е40": 6326,
      "Конта": 6327,
      "Решетки": 6328,
      "##350": 6329,
      "##кч": 6330,
      "##2х0": 6331,
      "##еня": 6332,
      "##атлев": 6333,
      "##рай": 6334,
      "##лаж": 6335,
      "пропуск": 6336,
      "покры": 6337,
      "##елирования": 6338,
      "двухп": 6339,
      "30с": 6340,
      "##онарез": 6341,
      "лифта": 6342,
      "током": 6343,
      "трехполюсные": 6344,
      "канат": 6345,
      "023": 6346,
      "холодной": 6347,
      "стандартными": 6348,
      "вводно": 6349,
      "аккумулятор": 6350,
      "пожарный": 6351,
      "##укава": 6352,
      "КУП": 6353,
      "закладная": 6354,
      "путевые": 6355,
      "гипсовые": 6356,
      "футеровки": 6357,
      "фиброцемент": 6358,
      "1ПКВтнг6": 6359,
      "нейло": 6360,
      "белом": 6361,
      "микротоннелирования": 6362,
      "скрытого": 6363,
      "Извещатель": 6364,
      "светоотражающие": 6365,
      "черепицы": 6366,
      "4П": 6367,
      "Сэндвич": 6368,
      "##кг": 6369,
      "##Нтп": 6370,
      "##ера": 6371,
      "##онки": 6372,
      "##инуд": 6373,
      "принуд": 6374,
      "##ительности": 6375,
      "прик": 6376,
      "окрас": 6377,
      "одноканальный": 6378,
      "металлическом": 6379,
      "фланцевые": 6380,
      "полиэтиленовых": 6381,
      "трехслойным": 6382,
      "24В": 6383,
      "актив": 6384,
      "гофра": 6385,
      "очистное": 6386,
      "останов": 6387,
      "Сооруж": 6388,
      "глубины": 6389,
      "торцовая": 6390,
      "Конструкция": 6391,
      "образная": 6392,
      "разветвительные": 6393,
      "линейные": 6394,
      "двухкамерными": 6395,
      "шинная": 6396,
      "250х120х65": 6397,
      "керамогра": 6398,
      "насос": 6399,
      "антив": 6400,
      "качества": 6401,
      "условиях": 6402,
      "Сооружение": 6403,
      "3х240": 6404,
      "4з": 6405,
      "4P": 6406,
      "440": 6407,
      "ЛА": 6408,
      "во": 6409,
      "вин": 6410,
      "мал": 6411,
      "манж": 6412,
      "нож": 6413,
      "радиатор": 6414,
      "чаш": 6415,
      "чув": 6416,
      "##х600": 6417,
      "##тры": 6418,
      "##x96": 6419,
      "##танный": 6420,
      "##аситель": 6421,
      "##анья": 6422,
      "диэлектри": 6423,
      "##опастная": 6424,
      "разделитель": 6425,
      "разливки": 6426,
      "перестав": 6427,
      "Прокладка": 6428,
      "Связи": 6429,
      "самонарез": 6430,
      "##улка": 6431,
      "прочных": 6432,
      "внешней": 6433,
      "авт": 6434,
      "винтовых": 6435,
      "газа": 6436,
      "135°": 6437,
      "ЭПУ": 6438,
      "##читанный": 6439,
      "сердцев": 6440,
      "##фера": 6441,
      "##корост": 6442,
      "заземления": 6443,
      "ЭНТ": 6444,
      "ТКМ": 6445,
      "Фильтры": 6446,
      "Калорифер": 6447,
      "участок": 6448,
      "ячеист": 6449,
      "прогибом": 6450,
      "анкеровки": 6451,
      "рекламными": 6452,
      "рассчитанный": 6453,
      "приборов": 6454,
      "режиме": 6455,
      "лазанья": 6456,
      "1ПКВтнг10": 6457,
      "кирпичным": 6458,
      "Заслонка": 6459,
      "стеклянная": 6460,
      "многолопастная": 6461,
      "кислот": 6462,
      "присоединительная": 6463,
      "перемычек": 6464,
      "УЗО": 6465,
      "ТЛК": 6466,
      "чувств": 6467,
      "1х70": 6468,
      "5А": 6469,
      "850": 6470,
      "В2": 6471,
      "ОД": 6472,
      "Тум": 6473,
      "ЦП": 6474,
      "Ящ": 6475,
      "плет": 6476,
      "тар": 6477,
      "##товые": 6478,
      "##Пв": 6479,
      "##АШп": 6480,
      "##нии": 6481,
      "##азмер": 6482,
      "##цид": 6483,
      "##еделка": 6484,
      "открытия": 6485,
      "10Х17Н": 6486,
      "движ": 6487,
      "20П": 6488,
      "##лапковые": 6489,
      "##ворный": 6490,
      "нижний": 6491,
      "трехканальный": 6492,
      "Стан": 6493,
      "SDR13": 6494,
      "боковые": 6495,
      "кольцевой": 6496,
      "ОККМ": 6497,
      "многослойные": 6498,
      "головками": 6499,
      "водосточный": 6500,
      "Шайбы": 6501,
      "Угольники": 6502,
      "PN25": 6503,
      "автоматиз": 6504,
      "трап": 6505,
      "ААБл": 6506,
      "ПуГВ": 6507,
      "плитами": 6508,
      "протектор": 6509,
      "бумажной": 6510,
      "светильников": 6511,
      "##клавишный": 6512,
      "упаковка": 6513,
      "восстановления": 6514,
      "удерживающее": 6515,
      "эффективности": 6516,
      "асбест": 6517,
      "самонарезающие": 6518,
      "10Х17Н13": 6519,
      "К42": 6520,
      "ЭЦ": 6521,
      "вес": 6522,
      "вяжущ": 6523,
      "игл": 6524,
      "мол": 6525,
      "укор": 6526,
      "центр": 6527,
      "##алог": 6528,
      "##кп": 6529,
      "##АС": 6530,
      "изолятор": 6531,
      "100x400": 6532,
      "осевой": 6533,
      "##ворчатые": 6534,
      "фланц": 6535,
      "##х26": 6536,
      "теплоизоляционная": 6537,
      "##цепная": 6538,
      "##х595": 6539,
      "комбинированного": 6540,
      "ОКК": 6541,
      "односто": 6542,
      "влаж": 6543,
      "многоярусного": 6544,
      "инъ": 6545,
      "Колон": 6546,
      "огражд": 6547,
      "дымовых": 6548,
      "##есьма": 6549,
      "##ляемый": 6550,
      "фольгированные": 6551,
      "деформационного": 6552,
      "светофора": 6553,
      "канализационные": 6554,
      "Гильзы": 6555,
      "водопроводных": 6556,
      "Патруб": 6557,
      "главной": 6558,
      "ДР": 6559,
      "буг": 6560,
      "весьма": 6561,
      "фиг": 6562,
      "##ИМ": 6563,
      "##таж": 6564,
      "напрягаемой": 6565,
      "##окле": 6566,
      "толст": 6567,
      "20х20": 6568,
      "##х11": 6569,
      "оград": 6570,
      "электронасо": 6571,
      "самокле": 6572,
      "контактного": 6573,
      "Переходы": 6574,
      "гофрированных": 6575,
      "удлинение": 6576,
      "##ащитный": 6577,
      "дифференциальным": 6578,
      "##рожковый": 6579,
      "патрон": 6580,
      "консольных": 6581,
      "РТТ5": 6582,
      "ламинированной": 6583,
      "разборно": 6584,
      "Вставки": 6585,
      "равнопроход": 6586,
      "управляемое": 6587,
      "чувствительности": 6588,
      "иглопро": 6589,
      "укороч": 6590,
      "фигур": 6591,
      "1х50": 6592,
      "420": 6593,
      "4x2x0": 6594,
      "Вазон": 6595,
      "ВУС": 6596,
      "КБ": 6597,
      "РВ": 6598,
      "Угл": 6599,
      "##нутр": 6600,
      "##971фт": 6601,
      "##НО": 6602,
      "##онной": 6603,
      "##енка": 6604,
      "##рованное": 6605,
      "10х1": 6606,
      "121": 6607,
      "особ": 6608,
      "##оскорост": 6609,
      "##катор": 6610,
      "324": 6611,
      "##ушители": 6612,
      "профильная": 6613,
      "высокоскорост": 6614,
      "радиографи": 6615,
      "##чики": 6616,
      "лестниц": 6617,
      "10с971фт": 6618,
      "лестничная": 6619,
      "несколь": 6620,
      "поверхностями": 6621,
      "глухие": 6622,
      "промежуточное": 6623,
      "несущему": 6624,
      "##левой": 6625,
      "добор": 6626,
      "составная": 6627,
      "окрашена": 6628,
      "остекленный": 6629,
      "подводом": 6630,
      "трактор": 6631,
      "однокамерный": 6632,
      "помещения": 6633,
      "ААБ2л": 6634,
      "комплекта": 6635,
      "Система": 6636,
      "фрикционные": 6637,
      "переставной": 6638,
      "ЭЦВ": 6639,
      "4х120": 6640,
      "W16": 6641,
      "ПН": 6642,
      "дем": 6643,
      "пайка": 6644,
      "##гин": 6645,
      "##125": 6646,
      "##x800": 6647,
      "##ПМ": 6648,
      "##нине": 6649,
      "##одом": 6650,
      "станине": 6651,
      "стяжки": 6652,
      "разъеди": 6653,
      "необ": 6654,
      "железобетону": 6655,
      "жилых": 6656,
      "замковый": 6657,
      "медной": 6658,
      "1140x1": 6659,
      "автоном": 6660,
      "штуч": 6661,
      "свето": 6662,
      "плоскости": 6663,
      "раструбная": 6664,
      "200х200": 6665,
      "защитный": 6666,
      "микро": 6667,
      "Электрокабель": 6668,
      "лазерная": 6669,
      "керамзит": 6670,
      "ПуГВнг": 6671,
      "прессуемый": 6672,
      "ниппельном": 6673,
      "Швеллеры": 6674,
      "сегментов": 6675,
      "мокром": 6676,
      "оловянно": 6677,
      "электронасосные": 6678,
      "высокоскоростное": 6679,
      "радиографическая": 6680,
      "015": 6681,
      "4х70": 6682,
      "UTP": 6683,
      "ВЦ": 6684,
      "Г2": 6685,
      "ЛМ": 6686,
      "Нд": 6687,
      "Шту": 6688,
      "дном": 6689,
      "друго": 6690,
      "су": 6691,
      "##йной": 6692,
      "##ПЭнг": 6693,
      "##ъединитель": 6694,
      "##нок": 6695,
      "##емой": 6696,
      "##азу": 6697,
      "##лощад": 6698,
      "разно": 6699,
      "прол": 6700,
      "два": 6701,
      "Ступ": 6702,
      "теплозащит": 6703,
      "##елгин": 6704,
      "каш": 6705,
      "пола": 6706,
      "110В": 6707,
      "##ластиковые": 6708,
      "соединений": 6709,
      "материалами": 6710,
      "газо": 6711,
      "КПо": 6712,
      "##ерсивные": 6713,
      "Анкеры": 6714,
      "настрой": 6715,
      "##олото": 6716,
      "Кронштейны": 6717,
      "Скам": 6718,
      "внутренними": 6719,
      "технический": 6720,
      "усиленный": 6721,
      "продольное": 6722,
      "Песоч": 6723,
      "14нж017р": 6724,
      "замыкающая": 6725,
      "скважинные": 6726,
      "ФСА": 6727,
      "добавок": 6728,
      "штукатурные": 6729,
      "прессуемые": 6730,
      "инвентарный": 6731,
      "нанесения": 6732,
      "масляная": 6733,
      "Коелгин": 6734,
      "пескоуловителя": 6735,
      "Контакторы": 6736,
      "сердцевина": 6737,
      "самоклеящ": 6738,
      "Углы": 6739,
      "другое": 6740,
      "Коелгинское": 6741,
      "4х50": 6742,
      "4х35": 6743,
      "БП": 6744,
      "КД": 6745,
      "сб": 6746,
      "шта": 6747,
      "шкаф": 6748,
      "##уника": 6749,
      "##урата": 6750,
      "##x45": 6751,
      "##никовый": 6752,
      "##анурата": 6753,
      "налич": 6754,
      "##поразмер": 6755,
      "дос": 6756,
      "##нителей": 6757,
      "освет": 6758,
      "1000х3": 6759,
      "##глеродист": 6760,
      "131": 6761,
      "графит": 6762,
      "облицовочного": 6763,
      "##щитовой": 6764,
      "пенополиизоци": 6765,
      "листом": 6766,
      "плоским": 6767,
      "Компози": 6768,
      "цельнометалли": 6769,
      "СБВГнг": 6770,
      "скользящ": 6771,
      "Разъединитель": 6772,
      "резиновой": 6773,
      "вибрации": 6774,
      "фильтр": 6775,
      "ТЗП": 6776,
      "однокомпонентный": 6777,
      "аппаратные": 6778,
      "троллейбуса": 6779,
      "Металлоконструк": 6780,
      "типоразмер": 6781,
      "фактур": 6782,
      "Люк": 6783,
      "трамвая": 6784,
      "основанию": 6785,
      "скрученными": 6786,
      "##этилен": 6787,
      "пенополиизоцианурата": 6788,
      "Композиция": 6789,
      "2х4": 6790,
      "3х0": 6791,
      "9000": 6792,
      "Долото": 6793,
      "Ка": 6794,
      "УВ": 6795,
      "ку": 6796,
      "пб": 6797,
      "палуб": 6798,
      "шли": 6799,
      "##62": 6800,
      "##ОП": 6801,
      "##ТЛ": 6802,
      "##эк": 6803,
      "##онными": 6804,
      "##енз": 6805,
      "износ": 6806,
      "разъем": 6807,
      "##инета": 6808,
      "100x500": 6809,
      "подзем": 6810,
      "##егом": 6811,
      "205": 6812,
      "горка": 6813,
      "Стел": 6814,
      "теплоустойчив": 6815,
      "Прожектор": 6816,
      "площадки": 6817,
      "резьбовая": 6818,
      "креплений": 6819,
      "##ещенный": 6820,
      "контуров": 6821,
      "высоков": 6822,
      "низкоу": 6823,
      "600х50": 6824,
      "600х80": 6825,
      "гофрированный": 6826,
      "распределит": 6827,
      "армирования": 6828,
      "навесом": 6829,
      "геотексти": 6830,
      "уплотнительное": 6831,
      "хризотилцементных": 6832,
      "##АБпШп": 6833,
      "опалубочных": 6834,
      "декоративных": 6835,
      "уличного": 6836,
      "74x63": 6837,
      "реверсивный": 6838,
      "коническим": 6839,
      "##x980": 6840,
      "Экстра": 6841,
      "паронита": 6842,
      "откидное": 6843,
      "кнопками": 6844,
      "забив": 6845,
      "скрытой": 6846,
      "компонентов": 6847,
      "буровая": 6848,
      "##быт": 6849,
      "консольной": 6850,
      "консольные": 6851,
      "пропитанная": 6852,
      "сиденьями": 6853,
      "скатом": 6854,
      "финиш": 6855,
      "карнизное": 6856,
      "увеличенной": 6857,
      "локальное": 6858,
      "кашированием": 6859,
      "Песочница": 6860,
      "сбегом": 6861,
      "Металлоконструкции": 6862,
      "палубой": 6863,
      "низкоуглеродист": 6864,
      "1х4": 6865,
      "1х35": 6866,
      "Пе": 6867,
      "вяз": 6868,
      "держ": 6869,
      "кинета": 6870,
      "опрес": 6871,
      "пайки": 6872,
      "##ОЛ": 6873,
      "##фат": 6874,
      "##етами": 6875,
      "##лесо": 6876,
      "##кис": 6877,
      "избыт": 6878,
      "##опластиковые": 6879,
      "##ейные": 6880,
      "##обетона": 6881,
      "100х100х": 6882,
      "##ловая": 6883,
      "10КV": 6884,
      "##цевый": 6885,
      "##ольш": 6886,
      "##изоляционная": 6887,
      "водно": 6888,
      "опорно": 6889,
      "болты": 6890,
      "##жимной": 6891,
      "лотками": 6892,
      "базальтопластиковые": 6893,
      "наплав": 6894,
      "строения": 6895,
      "вертикальные": 6896,
      "удлиненный": 6897,
      "удлиненная": 6898,
      "ОКБ": 6899,
      "##x72": 6900,
      "редук": 6901,
      "шумопоглощ": 6902,
      "заземляющий": 6903,
      "АКВ": 6904,
      "фикс": 6905,
      "рельса": 6906,
      "другую": 6907,
      "Бруски": 6908,
      "780x1": 6909,
      "Вентиль": 6910,
      "избыточного": 6911,
      "4х16": 6912,
      "5х6": 6913,
      "ТГ": 6914,
      "ТМ": 6915,
      "касс": 6916,
      "##кли": 6917,
      "##уля": 6918,
      "##46": 6919,
      "##PC": 6920,
      "##наруж": 6921,
      "##ними": 6922,
      "##онное": 6923,
      "##ельное": 6924,
      "пре": 6925,
      "прит": 6926,
      "закреп": 6927,
      "2015": 6928,
      "корунд": 6929,
      "##озащитная": 6930,
      "14х1": 6931,
      "3050": 6932,
      "##пала": 6933,
      "контактными": 6934,
      "цветовая": 6935,
      "пилом": 6936,
      "песко": 6937,
      "плиты": 6938,
      "нагрузок": 6939,
      "фасадной": 6940,
      "воздушная": 6941,
      "гидравлического": 6942,
      "лестничный": 6943,
      "декоративной": 6944,
      "муллитокремнеземистая": 6945,
      "##2700": 6946,
      "полиуретановая": 6947,
      "станционный": 6948,
      "Шкафы": 6949,
      "нетканое": 6950,
      "поливинилхлорида": 6951,
      "акриловых": 6952,
      "нагрева": 6953,
      "выпуском": 6954,
      "передвижные": 6955,
      "топлив": 6956,
      "Автом": 6957,
      "счетчиком": 6958,
      "уплотнением": 6959,
      "калиб": 6960,
      "Налич": 6961,
      "##раймер": 6962,
      "распределителем": 6963,
      "Пенополи": 6964,
      "Битум": 6965,
      "К73": 6966,
      "ЛЭ": 6967,
      "Теп": 6968,
      "УТ": 6969,
      "ЭИМ": 6970,
      "бут": 6971,
      "пасс": 6972,
      "пеш": 6973,
      "ту": 6974,
      "таб": 6975,
      "##год": 6976,
      "##Бл": 6977,
      "##x65": 6978,
      "##фанов": 6979,
      "нату": 6980,
      "##рош": 6981,
      "##езд": 6982,
      "5050": 6983,
      "широ": 6984,
      "200x200": 6985,
      "комплекс": 6986,
      "Оттяж": 6987,
      "обраб": 6988,
      "высокого": 6989,
      "вертикальным": 6990,
      "силовые": 6991,
      "боковая": 6992,
      "изолированных": 6993,
      "500х80": 6994,
      "сердечником": 6995,
      "##имися": 6996,
      "шестигранная": 6997,
      "эмали": 6998,
      "станции": 6999,
      "коммуника": 7000,
      "ВБШвнг": 7001,
      "сварочная": 7002,
      "конической": 7003,
      "лиственницы": 7004,
      "симметричным": 7005,
      "гальфанов": 7006,
      "ТУТ": 7007,
      "обыкновенного": 7008,
      "помещений": 7009,
      "органических": 7010,
      "низковольтный": 7011,
      "дисперсионная": 7012,
      "М550": 7013,
      "нагревательный": 7014,
      "тарель": 7015,
      "бугелем": 7016,
      "шлицем": 7017,
      "пешеход": 7018,
      "натура": 7019,
      "гальфановым": 7020,
      "040": 7021,
      "Бокс": 7022,
      "Гц": 7023,
      "ГГц": 7024,
      "Двер": 7025,
      "Дросс": 7026,
      "кры": 7027,
      "штор": 7028,
      "##рь": 7029,
      "##6000": 7030,
      "##тей": 7031,
      "##трубного": 7032,
      "##лон": 7033,
      "##вяз": 7034,
      "##ГП": 7035,
      "##TE": 7036,
      "##4000": 7037,
      "##МР": 7038,
      "##облоки": 7039,
      "##инг": 7040,
      "##отделитель": 7041,
      "12КV": 7042,
      "смещенный": 7043,
      "1140": 7044,
      "опорной": 7045,
      "клинкер": 7046,
      "18П": 7047,
      "лицевые": 7048,
      "горячекатаной": 7049,
      "##чатого": 7050,
      "SN6": 7051,
      "холодоснабжения": 7052,
      "стык": 7053,
      "электрического": 7054,
      "межтрубного": 7055,
      "##x796": 7056,
      "пружинные": 7057,
      "##x250x200": 7058,
      "подключениями": 7059,
      "распределительного": 7060,
      "гипсо": 7061,
      "образным": 7062,
      "эпоксидная": 7063,
      "заземляющего": 7064,
      "волнистой": 7065,
      "реверсивные": 7066,
      "разрыве": 7067,
      "коническая": 7068,
      "ОСК": 7069,
      "лакированная": 7070,
      "приборами": 7071,
      "охранный": 7072,
      "перекладинами": 7073,
      "сосны": 7074,
      "##скав": 7075,
      "керамогранит": 7076,
      "особо": 7077,
      "Дроссель": 7078,
      "1х95": 7079,
      "340": 7080,
      "370": 7081,
      "934": 7082,
      "PG": 7083,
      "В60": 7084,
      "В55": 7085,
      "Ушко": 7086,
      "бух": 7087,
      "жаро": 7088,
      "лет": 7089,
      "##еления": 7090,
      "##200х": 7091,
      "##x900": 7092,
      "##жд": 7093,
      "##АО": 7094,
      "##орас": 7095,
      "##омб": 7096,
      "##ометр": 7097,
      "##лег": 7098,
      "разветв": 7099,
      "выдвижные": 7100,
      "##нийоргани": 7101,
      "##ительные": 7102,
      "прием": 7103,
      "однос": 7104,
      "среднего": 7105,
      "переходах": 7106,
      "верш": 7107,
      "максимальный": 7108,
      "##опрозра": 7109,
      "##фицированного": 7110,
      "боковое": 7111,
      "##ающего": 7112,
      "##мм²": 7113,
      "##значный": 7114,
      "гидравлические": 7115,
      "##невые": 7116,
      "бесшовных": 7117,
      "модульные": 7118,
      "муллитокремнеземистые": 7119,
      "глухая": 7120,
      "##x54": 7121,
      "##ефлектор": 7122,
      "бортами": 7123,
      "дуба": 7124,
      "ФСБ": 7125,
      "ТЗГ": 7126,
      "пневм": 7127,
      "сложной": 7128,
      "тоннелей": 7129,
      "доводчика": 7130,
      "Качели": 7131,
      "С355": 7132,
      "методом": 7133,
      "Перегородка": 7134,
      "движения": 7135,
      "одностоечные": 7136,
      "иглопробив": 7137,
      "Скамья": 7138,
      "досок": 7139,
      "цельнометаллические": 7140,
      "Оттяжка": 7141,
      "415": 7142,
      "4100": 7143,
      "5х4": 7144,
      "Дн": 7145,
      "Рель": 7146,
      "инт": 7147,
      "соч": 7148,
      "срывающ": 7149,
      "фос": 7150,
      "##мп": 7151,
      "##чок": 7152,
      "##чаты": 7153,
      "##460": 7154,
      "##РС": 7155,
      "##ТИ": 7156,
      "##енси": 7157,
      "##рогод": 7158,
      "старогод": 7159,
      "##раг": 7160,
      "##яжке": 7161,
      "25х25": 7162,
      "нешлиф": 7163,
      "150х100": 7164,
      "##x2x1": 7165,
      "112": 7166,
      "##х220": 7167,
      "ковров": 7168,
      "300х80": 7169,
      "затяжке": 7170,
      "стеклопластикового": 7171,
      "светопрозра": 7172,
      "37x63": 7173,
      "цельные": 7174,
      "промежуточная": 7175,
      "ПРТ": 7176,
      "трансформатором": 7177,
      "гильзой": 7178,
      "направляющий": 7179,
      "низколегированной": 7180,
      "АМг5": 7181,
      "Заслонки": 7182,
      "кирпича": 7183,
      "опрессовку": 7184,
      "Накладка": 7185,
      "##акуум": 7186,
      "выпук": 7187,
      "винтами": 7188,
      "манжеты": 7189,
      "лестницей": 7190,
      "теплозащитные": 7191,
      "забивная": 7192,
      "пиломатери": 7193,
      "Пенополиэтилен": 7194,
      "срывающимися": 7195,
      "Аппар": 7196,
      "НО": 7197,
      "Техно": 7198,
      "оцинков": 7199,
      "пы": 7200,
      "соб": 7201,
      "##центри": 7202,
      "##узи": 7203,
      "##Пмнг": 7204,
      "##47": 7205,
      "##МТ": 7206,
      "##фПмнг": 7207,
      "##at": 7208,
      "##енно": 7209,
      "##рако": 7210,
      "##ранич": 7211,
      "##лона": 7212,
      "разрядный": 7213,
      "отражающ": 7214,
      "объемный": 7215,
      "качеств": 7216,
      "водоблоки": 7217,
      "компенси": 7218,
      "##отаранный": 7219,
      "террако": 7220,
      "каналы": 7221,
      "1928": 7222,
      "светостабилиз": 7223,
      "газового": 7224,
      "##ошок": 7225,
      "противотаранный": 7226,
      "сетчатый": 7227,
      "##х500х": 7228,
      "IP53": 7229,
      "##x400x150": 7230,
      "##вающий": 7231,
      "вытяжки": 7232,
      "скальных": 7233,
      "стационарная": 7234,
      "фибры": 7235,
      "ИКБнг": 7236,
      "обрезная": 7237,
      "обрезные": 7238,
      "двигатель": 7239,
      "протяжкой": 7240,
      "глубокой": 7241,
      "КУПЭфПмнг": 7242,
      "нефтяной": 7243,
      "Соединение": 7244,
      "460x400x150": 7245,
      "металлоконструкций": 7246,
      "стеновое": 7247,
      "Штуцер": 7248,
      "гипсокар": 7249,
      "19281": 7250,
      "4х2х0": 7251,
      "4x10": 7252,
      "625": 7253,
      "940x1": 7254,
      "Масло": 7255,
      "Площад": 7256,
      "Форм": 7257,
      "уров": 7258,
      "шн": 7259,
      "##сцентри": 7260,
      "##шеч": 7261,
      "##43": 7262,
      "##Вт": 7263,
      "##РВ": 7264,
      "изм": 7265,
      "стар": 7266,
      "##остати": 7267,
      "обвяз": 7268,
      "100х35": 7269,
      "##ющий": 7270,
      "123": 7271,
      "давлением": 7272,
      "трубка": 7273,
      "раскли": 7274,
      "##способ": 7275,
      "##ечных": 7276,
      "40x70": 7277,
      "##х180": 7278,
      "##х100х1": 7279,
      "Плинтус": 7280,
      "приспособ": 7281,
      "##ланд": 7282,
      "повтор": 7283,
      "полимерного": 7284,
      "СвЗ": 7285,
      "коуш": 7286,
      "муллитовые": 7287,
      "проволочный": 7288,
      "крупный": 7289,
      "37x60": 7290,
      "многом": 7291,
      "поставки": 7292,
      "сетчатые": 7293,
      "минераловатные": 7294,
      "М24": 7295,
      "высоты": 7296,
      "пластиной": 7297,
      "однопольные": 7298,
      "рельеф": 7299,
      "пленки": 7300,
      "шпунтовая": 7301,
      "промежуточной": 7302,
      "сплошным": 7303,
      "коммути": 7304,
      "РП1": 7305,
      "кронштейнами": 7306,
      "паропро": 7307,
      "структур": 7308,
      "штукатурный": 7309,
      "болтовыми": 7310,
      "400x250x130": 7311,
      "фарфоровая": 7312,
      "Глушители": 7313,
      "двухскатной": 7314,
      "М6П": 7315,
      "завод": 7316,
      "баскетбольная": 7317,
      "рифле": 7318,
      "металлополимерных": 7319,
      "ВСт3сп": 7320,
      "дистанционное": 7321,
      "фланцами": 7322,
      "влажности": 7323,
      "сочлен": 7324,
      "водоблокирующими": 7325,
      "030": 7326,
      "4х150": 7327,
      "5х16": 7328,
      "760": 7329,
      "F3": 7330,
      "R4": 7331,
      "W10": 7332,
      "Гаситель": 7333,
      "КФ": 7334,
      "М50": 7335,
      "М75": 7336,
      "Р50": 7337,
      "Фрез": 7338,
      "нез": 7339,
      "рис": 7340,
      "форт": 7341,
      "##рно": 7342,
      "##ованием": 7343,
      "##абор": 7344,
      "##окол": 7345,
      "##50x200": 7346,
      "ответв": 7347,
      "полиами": 7348,
      "##остойкой": 7349,
      "задвиж": 7350,
      "20Ш1": 7351,
      "перв": 7352,
      "##х125": 7353,
      "маш": 7354,
      "Контр": 7355,
      "192": 7356,
      "19х1": 7357,
      "##рием": 7358,
      "400х80": 7359,
      "слоев": 7360,
      "боковой": 7361,
      "СБВГ": 7362,
      "СБ2л": 7363,
      "непро": 7364,
      "##етали": 7365,
      "кровли": 7366,
      "КПЭ": 7367,
      "Перемычки": 7368,
      "термоусаживающ": 7369,
      "ССА": 7370,
      "вытяжной": 7371,
      "путь": 7372,
      "крепежный": 7373,
      "расположением": 7374,
      "КУГПЭ": 7375,
      "водопропускной": 7376,
      "щитов": 7377,
      "метров": 7378,
      "##МСР": 7379,
      "петлевой": 7380,
      "выпуска": 7381,
      "гальваническим": 7382,
      "арочной": 7383,
      "нейлоновые": 7384,
      "принудительного": 7385,
      "несколькими": 7386,
      "демп": 7387,
      "высоковольтный": 7388,
      "коммуникаций": 7389,
      "повторной": 7390,
      "многомод": 7391,
      "рисун": 7392,
      "КУГПЭПнг": 7393,
      "1х2х0": 7394,
      "670": 7395,
      "SS": 7396,
      "МО": 7397,
      "МД": 7398,
      "П1": 7399,
      "авар": 7400,
      "дюбель": 7401,
      "инж": 7402,
      "луж": 7403,
      "циф": 7404,
      "##3000": 7405,
      "##кост": 7406,
      "##9ТЛ": 7407,
      "##Гсп": 7408,
      "##щенный": 7409,
      "набор": 7410,
      "##рубный": 7411,
      "100x200": 7412,
      "##ловые": 7413,
      "12Х18Н": 7414,
      "полистирола": 7415,
      "заготовки": 7416,
      "пери": 7417,
      "15кч": 7418,
      "16П": 7419,
      "40x40": 7420,
      "14х0": 7421,
      "двухмест": 7422,
      "упро": 7423,
      "150x150": 7424,
      "##x27": 7425,
      "однорожковый": 7426,
      "18Б1": 7427,
      "##исим": 7428,
      "защитные": 7429,
      "соединением": 7430,
      "Перевод": 7431,
      "400х50": 7432,
      "клеммная": 7433,
      "Ст3Гсп": 7434,
      "##х63": 7435,
      "200х35": 7436,
      "КУПП": 7437,
      "огнестойкостью": 7438,
      "светодиодными": 7439,
      "##67п": 7440,
      "участком": 7441,
      "С285": 7442,
      "##жильных": 7443,
      "шайбы": 7444,
      "декоративными": 7445,
      "Насос": 7446,
      "кнопок": 7447,
      "дренажные": 7448,
      "центральная": 7449,
      "СБПБбШв": 7450,
      "СБПБбШп": 7451,
      "тяга": 7452,
      "стеклохолстом": 7453,
      "желобов": 7454,
      "мелкозер": 7455,
      "отбойника": 7456,
      "11с67п": 7457,
      "Держатель": 7458,
      "автоматизированное": 7459,
      "автономное": 7460,
      "Наличник": 7461,
      "12Х18Н9ТЛ": 7462,
      "4x4": 7463,
      "S460": 7464,
      "БНД": 7465,
      "В50": 7466,
      "Кат": 7467,
      "Мат": 7468,
      "ШТС": 7469,
      "ант": 7470,
      "мл": 7471,
      "фрез": 7472,
      "этаж": 7473,
      "##аТ": 7474,
      "##нет": 7475,
      "##ыс": 7476,
      "##NH": 7477,
      "##ТП": 7478,
      "##льник": 7479,
      "##омог": 7480,
      "##новения": 7481,
      "обнаруж": 7482,
      "кабельными": 7483,
      "перено": 7484,
      "железобетонное": 7485,
      "Ст0": 7486,
      "высоких": 7487,
      "##атывания": 7488,
      "##х21": 7489,
      "35x35": 7490,
      "##х350": 7491,
      "соединительными": 7492,
      "термостати": 7493,
      "##айке": 7494,
      "МКШ": 7495,
      "КВК": 7496,
      "нагрузкой": 7497,
      "монтажной": 7498,
      "пониженной": 7499,
      "сухая": 7500,
      "СППК": 7501,
      "##нителями": 7502,
      "##невый": 7503,
      "Изоляторы": 7504,
      "нерав": 7505,
      "эпоксидной": 7506,
      "##ециев": 7507,
      "обечайке": 7508,
      "ригеля": 7509,
      "откидной": 7510,
      "Шнур": 7511,
      "фронта": 7512,
      "ребрами": 7513,
      "кремнийоргани": 7514,
      "СБЗПу": 7515,
      "выключатель": 7516,
      "фольгированием": 7517,
      "##образов": 7518,
      "матра": 7519,
      "дополнительным": 7520,
      "ДНаТ": 7521,
      "пропускная": 7522,
      "трапециев": 7523,
      "КПоПЭнг": 7524,
      "S460NH": 7525,
      "1х0": 7526,
      "2А": 7527,
      "430": 7528,
      "9600": 7529,
      "C2": 7530,
      "ДО": 7531,
      "Ли": 7532,
      "РЕ": 7533,
      "ШЛ": 7534,
      "вок": 7535,
      "ватой": 7536,
      "гр": 7537,
      "неси": 7538,
      "саль": 7539,
      "##сид": 7540,
      "##м2": 7541,
      "##600х": 7542,
      "##зированной": 7543,
      "##98": 7544,
      "##броб": 7545,
      "насти": 7546,
      "##азву": 7547,
      "размерами": 7548,
      "##евого": 7549,
      "##ависим": 7550,
      "##ноструж": 7551,
      "##тразву": 7552,
      "##фиброб": 7553,
      "бетонными": 7554,
      "покров": 7555,
      "##х130": 7556,
      "003": 7557,
      "замковыми": 7558,
      "30х30": 7559,
      "спин": 7560,
      "горячей": 7561,
      "##рующее": 7562,
      "СвО": 7563,
      "Связ": 7564,
      "##ушный": 7565,
      "300х200": 7566,
      "средний": 7567,
      "##х360": 7568,
      "горизонтальными": 7569,
      "##онечные": 7570,
      "телеф": 7571,
      "##ажир": 7572,
      "шамотная": 7573,
      "вспомог": 7574,
      "резиновый": 7575,
      "буриль": 7576,
      "ответвительные": 7577,
      "Щиток": 7578,
      "регулируемые": 7579,
      "стеклофиброб": 7580,
      "усиленным": 7581,
      "Воздушный": 7582,
      "накладками": 7583,
      "стекловолокном": 7584,
      "##оустойчивые": 7585,
      "уличные": 7586,
      "древесноструж": 7587,
      "входят": 7588,
      "модулями": 7589,
      "##янутой": 7590,
      "Порошок": 7591,
      "АД1": 7592,
      "##41нж": 7593,
      "тканое": 7594,
      "природного": 7595,
      "утепленным": 7596,
      "ворс": 7597,
      "##огрева": 7598,
      "антиванд": 7599,
      "Патрубок": 7600,
      "ДРЛ": 7601,
      "пиломатериала": 7602,
      "двигательным": 7603,
      "луже": 7604,
      "обнаружения": 7605,
      "вокруг": 7606,
      "несиловая": 7607,
      "вспомогатель": 7608,
      "290": 7609,
      "3х10": 7610,
      "490": 7611,
      "5х35": 7612,
      "C1": 7613,
      "Cat": 7614,
      "АЦ": 7615,
      "Голов": 7616,
      "Круг": 7617,
      "М22": 7618,
      "НФ": 7619,
      "Пласти": 7620,
      "УК": 7621,
      "анод": 7622,
      "вет": 7623,
      "габар": 7624,
      "ромб": 7625,
      "##х800": 7626,
      "##ВО": 7627,
      "##on": 7628,
      "##овин": 7629,
      "##никовая": 7630,
      "разъемная": 7631,
      "прист": 7632,
      "обжимной": 7633,
      "##порных": 7634,
      "откос": 7635,
      "##остойкая": 7636,
      "подвиж": 7637,
      "50x80": 7638,
      "##истки": 7639,
      "поруч": 7640,
      "##х37": 7641,
      "27х1": 7642,
      "##аркет": 7643,
      "##ленные": 7644,
      "парной": 7645,
      "##еформи": 7646,
      "125х26": 7647,
      "SDR26": 7648,
      "вентилятор": 7649,
      "электросварной": 7650,
      "жесткие": 7651,
      "регулирующие": 7652,
      "37х1": 7653,
      "14нж17р": 7654,
      "##арошеч": 7655,
      "##лизатора": 7656,
      "непласти": 7657,
      "одномест": 7658,
      "##х54": 7659,
      "ПвБ": 7660,
      "электрической": 7661,
      "межфлан": 7662,
      "газопровода": 7663,
      "скважины": 7664,
      "отводом": 7665,
      "стекловолокна": 7666,
      "4х185": 7667,
      "декоративная": 7668,
      "ультразву": 7669,
      "ревизи": 7670,
      "У220н": 7671,
      "ригелей": 7672,
      "АСБл": 7673,
      "профилированного": 7674,
      "однокамерными": 7675,
      "раздельными": 7676,
      "резерву": 7677,
      "мягкие": 7678,
      "##полюсный": 7679,
      "##нивающиеся": 7680,
      "ограждений": 7681,
      "необрез": 7682,
      "кассетами": 7683,
      "ПРТО": 7684,
      "коммутируем": 7685,
      "инжен": 7686,
      "матрац": 7687,
      "Лифт": 7688,
      "Связь": 7689,
      "1р": 7690,
      "4х10": 7691,
      "4x16": 7692,
      "5500": 7693,
      "DK": 7694,
      "В5": 7695,
      "Доб": 7696,
      "Д16": 7697,
      "Ком": 7698,
      "СЛ": 7699,
      "СМ": 7700,
      "ШУ": 7701,
      "ЩРН": 7702,
      "адапт": 7703,
      "бар": 7704,
      "знак": 7705,
      "зоной": 7706,
      "##аф": 7707,
      "##агрессивной": 7708,
      "##метр": 7709,
      "##86": 7710,
      "##хающего": 7711,
      "##тели": 7712,
      "##ура": 7713,
      "##шип": 7714,
      "##СО": 7715,
      "##ВП": 7716,
      "##as": 7717,
      "##епти": 7718,
      "##отор": 7719,
      "106": 7720,
      "##атухающего": 7721,
      "Стенка": 7722,
      "##x1800": 7723,
      "облицовочные": 7724,
      "Коробки": 7725,
      "60х60": 7726,
      "одноярусного": 7727,
      "3200": 7728,
      "внешними": 7729,
      "##ованного": 7730,
      "максимальным": 7731,
      "##х410": 7732,
      "вертикально": 7733,
      "плоских": 7734,
      "серая": 7735,
      "латун": 7736,
      "пиленые": 7737,
      "полиэфирное": 7738,
      "уголки": 7739,
      "поверхностного": 7740,
      "многоцвет": 7741,
      "полиуретановый": 7742,
      "усиленные": 7743,
      "##00х3300": 7744,
      "##00х3800": 7745,
      "крепежом": 7746,
      "силико": 7747,
      "контакта": 7748,
      "акриловая": 7749,
      "обыкновенные": 7750,
      "ветроустойчивые": 7751,
      "однокомпонентная": 7752,
      "##заход": 7753,
      "ворот": 7754,
      "герметизирующая": 7755,
      "ААШв": 7756,
      "адгезия": 7757,
      "самозатухающего": 7758,
      "полукруг": 7759,
      "сорта": 7760,
      "тупи": 7761,
      "разветвителя": 7762,
      "иглопробивное": 7763,
      "уровня": 7764,
      "##ландцемент": 7765,
      "ревизионный": 7766,
      "инженерных": 7767,
      "##афраг": 7768,
      "1кВ": 7769,
      "390": 7770,
      "4x2": 7771,
      "580": 7772,
      "Детали": 7773,
      "КЛ": 7774,
      "НК": 7775,
      "П2": 7776,
      "ПГ": 7777,
      "СЦ": 7778,
      "белого": 7779,
      "лод": 7780,
      "ник": 7781,
      "ов": 7782,
      "чуш": 7783,
      "##септи": 7784,
      "##окий": 7785,
      "##гии": 7786,
      "##нной": 7787,
      "##БК": 7788,
      "##тый": 7789,
      "##ека": 7790,
      "##шей": 7791,
      "##М1": 7792,
      "##ЕК": 7793,
      "##олег": 7794,
      "##опти": 7795,
      "##раст": 7796,
      "столя": 7797,
      "стема": 7798,
      "##ображ": 7799,
      "##етонными": 7800,
      "проката": 7801,
      "##ейся": 7802,
      "горки": 7803,
      "неар": 7804,
      "40x50": 7805,
      "##опроводящ": 7806,
      "##оса": 7807,
      "##x1200": 7808,
      "##литом": 7809,
      "1150": 7810,
      "сильф": 7811,
      "однолет": 7812,
      "сварку": 7813,
      "рабочий": 7814,
      "35Т": 7815,
      "##х310": 7816,
      "токопроводящ": 7817,
      "##чатое": 7818,
      "высоколег": 7819,
      "##х450": 7820,
      "условным": 7821,
      "##роконечные": 7822,
      "углеродистых": 7823,
      "63А": 7824,
      "кольца": 7825,
      "регулирующий": 7826,
      "цельная": 7827,
      "шлифов": 7828,
      "комбинированные": 7829,
      "остроконечные": 7830,
      "глубокий": 7831,
      "композитными": 7832,
      "полиуретановых": 7833,
      "заполняющ": 7834,
      "уплотнительные": 7835,
      "рельсовых": 7836,
      "липким": 7837,
      "береза": 7838,
      "фильтра": 7839,
      "анализатора": 7840,
      "##унк": 7841,
      "##готовления": 7842,
      "плинтус": 7843,
      "##огреб": 7844,
      "пазогреб": 7845,
      "термопластика": 7846,
      "глинистой": 7847,
      "сополимеров": 7848,
      "сифоном": 7849,
      "знаков": 7850,
      "напрессовочные": 7851,
      "днища": 7852,
      "пигм": 7853,
      "фиброцементными": 7854,
      "разделительная": 7855,
      "наличника": 7856,
      "наплавляемый": 7857,
      "ЛЭЗ": 7858,
      "клинкерными": 7859,
      "керамогранитными": 7860,
      "терракоты": 7861,
      "гипсокарт": 7862,
      "независим": 7863,
      "полиамида": 7864,
      "стеклофибробетонными": 7865,
      "непластифицированного": 7866,
      "Добавка": 7867,
      "чушках": 7868,
      "стемалитом": 7869,
      "однолетних": 7870,
      "заполняющими": 7871,
      "310": 7872,
      "3100": 7873,
      "5100": 7874,
      "535": 7875,
      "940": 7876,
      "D1200": 7877,
      "Па": 7878,
      "ША": 7879,
      "банда": 7880,
      "нег": 7881,
      "посы": 7882,
      "##33": 7883,
      "##рель": 7884,
      "##ика": 7885,
      "##икатор": 7886,
      "##91": 7887,
      "##фр": 7888,
      "##an": 7889,
      "##нием": 7890,
      "##оры": 7891,
      "изображ": 7892,
      "облег": 7893,
      "10А": 7894,
      "перевод": 7895,
      "##ительный": 7896,
      "##х160": 7897,
      "алюмос": 7898,
      "металлом": 7899,
      "жилой": 7900,
      "прицепные": 7901,
      "двухполюсные": 7902,
      "графи": 7903,
      "полая": 7904,
      "Втулка": 7905,
      "##ебед": 7906,
      "ПВС": 7907,
      "##единители": 7908,
      "отверд": 7909,
      "растянутой": 7910,
      "стойками": 7911,
      "011": 7912,
      "напольный": 7913,
      "вертикальных": 7914,
      "##ортландцемент": 7915,
      "глазу": 7916,
      "переменное": 7917,
      "##стойкие": 7918,
      "##одического": 7919,
      "битумная": 7920,
      "##х700": 7921,
      "поперечное": 7922,
      "глухим": 7923,
      "##x596": 7924,
      "109x60": 7925,
      "железнодорожным": 7926,
      "тройника": 7927,
      "цилиндрические": 7928,
      "каучу": 7929,
      "одинарная": 7930,
      "тросы": 7931,
      "выходом": 7932,
      "асфальтобетонных": 7933,
      "##x996": 7934,
      "нетканого": 7935,
      "разделе": 7936,
      "ригель": 7937,
      "ИКСЛнг": 7938,
      "Обрамление": 7939,
      "стрелочных": 7940,
      "прутков": 7941,
      "пневмати": 7942,
      "Стеклоп": 7943,
      "укрепляющ": 7944,
      "Диафраг": 7945,
      "электротехнические": 7946,
      "магнитный": 7947,
      "компрессорных": 7948,
      "остановок": 7949,
      "светоопти": 7950,
      "пролета": 7951,
      "кула": 7952,
      "пассажир": 7953,
      "изменя": 7954,
      "термоусаживающаяся": 7955,
      "многомодовых": 7956,
      "аварий": 7957,
      "периодического": 7958,
      "упроч": 7959,
      "полукруглой": 7960,
      "лодж": 7961,
      "посып": 7962,
      "облегч": 7963,
      "алюмосиликат": 7964,
      "4А": 7965,
      "425": 7966,
      "4x1": 7967,
      "4x50": 7968,
      "4х240": 7969,
      "RAL": 7970,
      "ГК": 7971,
      "Лест": 7972,
      "ПЗ": 7973,
      "би": 7974,
      "дат": 7975,
      "даль": 7976,
      "пла": 7977,
      "ры": 7978,
      "ящ": 7979,
      "##сной": 7980,
      "##шарошеч": 7981,
      "##яда": 7982,
      "##ерст": 7983,
      "##окомпозит": 7984,
      "обогрева": 7985,
      "концев": 7986,
      "##сох": 7987,
      "бетону": 7988,
      "255": 7989,
      "основного": 7990,
      "15000": 7991,
      "##акри": 7992,
      "##неля": 7993,
      "##елых": 7994,
      "##x180": 7995,
      "1180": 7996,
      "80х80": 7997,
      "одножильных": 7998,
      "водогр": 7999,
      "кабины": 8000,
      "прочих": 8001,
      "защитное": 8002,
      "трехшарошеч": 8003,
      "наполн": 8004,
      "МКЭШ": 8005,
      "проводки": 8006,
      "пенополиуретаном": 8007,
      "массой": 8008,
      "открытым": 8009,
      "цинка": 8010,
      "##упен": 8011,
      "брусья": 8012,
      "##нутые": 8013,
      "Пескоулов": 8014,
      "домк": 8015,
      "дроссель": 8016,
      "закладными": 8017,
      "##00х2100": 8018,
      "распашные": 8019,
      "пластмассовые": 8020,
      "наполнитель": 8021,
      "гидрофобиз": 8022,
      "щитом": 8023,
      "забивные": 8024,
      "растворителей": 8025,
      "низколегированная": 8026,
      "микротруб": 8027,
      "аппаратный": 8028,
      "финишный": 8029,
      "витая": 8030,
      "ребристые": 8031,
      "бесцветное": 8032,
      "Землесо": 8033,
      "земли": 8034,
      "крупнощитовой": 8035,
      "утол": 8036,
      "Станки": 8037,
      "Тепло": 8038,
      "Дверь": 8039,
      "ковровое": 8040,
      "отражающе": 8041,
      "Форма": 8042,
      "заводских": 8043,
      "СППК4": 8044,
      "покровом": 8045,
      "резервуар": 8046,
      "независимым": 8047,
      "изображением": 8048,
      "переводов": 8049,
      "разделенных": 8050,
      "трехшарошечное": 8051,
      "Пескоуловитель": 8052,
      "1шт": 8053,
      "2У": 8054,
      "ВБбШв": 8055,
      "ГТК": 8056,
      "Е27": 8057,
      "техно": 8058,
      "шип": 8059,
      "##57": 8060,
      "##5М": 8061,
      "##осп": 8062,
      "##нущ": 8063,
      "##Бнг": 8064,
      "##29": 8065,
      "##OR": 8066,
      "##us": 8067,
      "##олю": 8068,
      "##инации": 8069,
      "##отражающ": 8070,
      "##екст": 8071,
      "50х35": 8072,
      "40А": 8073,
      "испол": 8074,
      "144": 8075,
      "оксид": 8076,
      "20000": 8077,
      "11000": 8078,
      "полиэтилен": 8079,
      "##аторов": 8080,
      "колюч": 8081,
      "система": 8082,
      "системами": 8083,
      "##ованный": 8084,
      "анкерных": 8085,
      "МКВ": 8086,
      "каркаса": 8087,
      "проводе": 8088,
      "частичным": 8089,
      "блокировки": 8090,
      "стыком": 8091,
      "перфорированная": 8092,
      "комбинации": 8093,
      "наклонными": 8094,
      "Соединители": 8095,
      "противопожарные": 8096,
      "груза": 8097,
      "пластин": 8098,
      "поворотной": 8099,
      "С390": 8100,
      "литерный": 8101,
      "DN100": 8102,
      "трансформатора": 8103,
      "клиновид": 8104,
      "Воздухорас": 8105,
      "933": 8106,
      "пс5": 8107,
      "##x81": 8108,
      "Брусчатка": 8109,
      "открывания": 8110,
      "звукоотражающ": 8111,
      "АСБ2л": 8112,
      "Экскав": 8113,
      "модулей": 8114,
      "PN40": 8115,
      "самонесущих": 8116,
      "центробежный": 8117,
      "низколегированных": 8118,
      "быстросох": 8119,
      "тканая": 8120,
      "АМг2": 8121,
      "гвоздем": 8122,
      "огнезащит": 8123,
      "рукоят": 8124,
      "желоба": 8125,
      "фальш": 8126,
      "##х140х2": 8127,
      "ребристая": 8128,
      "1000х290": 8129,
      "202х140х2": 8130,
      "конструкционно": 8131,
      "Ящик": 8132,
      "центрами": 8133,
      "толстолистовой": 8134,
      "бандаж": 8135,
      "графическим": 8136,
      "светооптическими": 8137,
      "Воздухораспредели": 8138,
      "быстросохнущ": 8139,
      "4р": 8140,
      "595": 8141,
      "R1": 8142,
      "Ак": 8143,
      "Каб": 8144,
      "Кросс": 8145,
      "ШСП": 8146,
      "ЭМП": 8147,
      "больш": 8148,
      "вини": 8149,
      "нед": 8150,
      "сад": 8151,
      "##56": 8152,
      "##кон": 8153,
      "##ха": 8154,
      "##ич": 8155,
      "##лаб": 8156,
      "##ОСП": 8157,
      "##леп": 8158,
      "##лажи": 8159,
      "раздвижной": 8160,
      "##ить": 8161,
      "##епроводов": 8162,
      "соеди": 8163,
      "подва": 8164,
      "внутри": 8165,
      "##10П": 8166,
      "##ированными": 8167,
      "##х1000": 8168,
      "металлоч": 8169,
      "##учие": 8170,
      "##ольной": 8171,
      "302": 8172,
      "смаз": 8173,
      "##x160": 8174,
      "пота": 8175,
      "сварных": 8176,
      "водной": 8177,
      "##х325": 8178,
      "##х330": 8179,
      "эксцентри": 8180,
      "каната": 8181,
      "шпатлев": 8182,
      "тяжелые": 8183,
      "радиов": 8184,
      "сборно": 8185,
      "ячейками": 8186,
      "УХЛ3": 8187,
      "постоянное": 8188,
      "тоннеля": 8189,
      "светодиодным": 8190,
      "пружинным": 8191,
      "горячедеформи": 8192,
      "железнодорожные": 8193,
      "##шивная": 8194,
      "быстрос": 8195,
      "БСМ": 8196,
      "##озиционного": 8197,
      "отводами": 8198,
      "путепроводов": 8199,
      "расстоянием": 8200,
      "Ру16": 8201,
      "АКП": 8202,
      "нитепро": 8203,
      "теплоизолированные": 8204,
      "рядовые": 8205,
      "ламинированная": 8206,
      "Агрегат": 8207,
      "шагом": 8208,
      "кремнеземист": 8209,
      "ниппельных": 8210,
      "рукоход": 8211,
      "##ницаемая": 8212,
      "аккумуляторов": 8213,
      "диэлектрический": 8214,
      "Стеллажи": 8215,
      "теплоустойчивой": 8216,
      "обработки": 8217,
      "Аппараты": 8218,
      "расклинивающиеся": 8219,
      "Фреза": 8220,
      "демпфера": 8221,
      "неарми": 8222,
      "водогрейные": 8223,
      "исполнительный": 8224,
      "Экскаваторы": 8225,
      "нитепрошивная": 8226,
      "1А": 8227,
      "2х35": 8228,
      "4x25": 8229,
      "5х50": 8230,
      "Вент": 8231,
      "МВт": 8232,
      "ОА": 8233,
      "Седелка": 8234,
      "Уп": 8235,
      "Фитинг": 8236,
      "лат": 8237,
      "мг": 8238,
      "туп": 8239,
      "##6бр": 8240,
      "##ионная": 8241,
      "##защи": 8242,
      "##уемой": 8243,
      "##2000": 8244,
      "##ется": 8245,
      "##асшир": 8246,
      "##стиро": 8247,
      "стока": 8248,
      "обой": 8249,
      "##кот": 8250,
      "простой": 8251,
      "подок": 8252,
      "оцинкованных": 8253,
      "##вернут": 8254,
      "двухканальный": 8255,
      "полосы": 8256,
      "70x2": 8257,
      "##ластировки": 8258,
      "профильные": 8259,
      "лоток": 8260,
      "пено": 8261,
      "018": 8262,
      "термостойкая": 8263,
      "IP31": 8264,
      "газовые": 8265,
      "песчаные": 8266,
      "балластировки": 8267,
      "##х610": 8268,
      "Провода": 8269,
      "ПБП": 8270,
      "##оотвод": 8271,
      "##тяжели": 8272,
      "500х500": 8273,
      "лестничные": 8274,
      "шахтный": 8275,
      "##укопоглощ": 8276,
      "##х88": 8277,
      "АСЦ": 8278,
      "кромки": 8279,
      "тонкост": 8280,
      "стоечный": 8281,
      "образных": 8282,
      "звукопоглощ": 8283,
      "##00х220": 8284,
      "чугунных": 8285,
      "##бШвнг": 8286,
      "терморасшир": 8287,
      "Брусья": 8288,
      "КВВБГ": 8289,
      "КВВБН": 8290,
      "отдельностоящая": 8291,
      "стрелочный": 8292,
      "протяжки": 8293,
      "шланговый": 8294,
      "##М2Т": 8295,
      "крестообразным": 8296,
      "гнутого": 8297,
      "штепсельные": 8298,
      "15Х5М": 8299,
      "облицованные": 8300,
      "предварительного": 8301,
      "скобяными": 8302,
      "10Х17Н13М2Т": 8303,
      "широкой": 8304,
      "##МРП": 8305,
      "термостатическим": 8306,
      "древесностружечные": 8307,
      "##заходный": 8308,
      "садовая": 8309,
      "подвалов": 8310,
      "металлочерепи": 8311,
      "Вентзащи": 8312,
      "Вентзащита": 8313,
      "010": 8314,
      "1Н": 8315,
      "1х240": 8316,
      "6500": 8317,
      "SC": 8318,
      "Гайки": 8319,
      "Дюб": 8320,
      "КЦ": 8321,
      "КК": 8322,
      "Орос": 8323,
      "Портландцемент": 8324,
      "С5": 8325,
      "Срок": 8326,
      "Шланг": 8327,
      "фаз": 8328,
      "цем": 8329,
      "##уз": 8330,
      "##РО": 8331,
      "##Тп": 8332,
      "##ДП": 8333,
      "##lus": 8334,
      "изнутр": 8335,
      "##гофр": 8336,
      "##евым": 8337,
      "##альд": 8338,
      "прост": 8339,
      "10С": 8340,
      "полистир": 8341,
      "##ожж": 8342,
      "длины": 8343,
      "2013": 8344,
      "корич": 8345,
      "##озы": 8346,
      "негофр": 8347,
      "##ъемным": 8348,
      "305": 8349,
      "120x2": 8350,
      "шаром": 8351,
      "016": 8352,
      "95x2": 8353,
      "400х300": 8354,
      "общей": 8355,
      "монтажная": 8356,
      "фасадная": 8357,
      "200х200х": 8358,
      "многопроволочными": 8359,
      "деревянным": 8360,
      "низкой": 8361,
      "600х600": 8362,
      "##невых": 8363,
      "ОКТ": 8364,
      "КГЭШ": 8365,
      "шестигранный": 8366,
      "швед": 8367,
      "ПСПКр": 8368,
      "разветвительный": 8369,
      "##аемый": 8370,
      "##оворот": 8371,
      "неизолированные": 8372,
      "швеллерная": 8373,
      "АПвПу": 8374,
      "циркуляционные": 8375,
      "##епроница": 8376,
      "1000х160": 8377,
      "пробкой": 8378,
      "многолет": 8379,
      "канализационный": 8380,
      "БрО": 8381,
      "##трубной": 8382,
      "времени": 8383,
      "перемещением": 8384,
      "антикоррозий": 8385,
      "износостойкости": 8386,
      "пневмокол": 8387,
      "Рельсы": 8388,
      "##чатых": 8389,
      "светостабилизированного": 8390,
      "##ебедки": 8391,
      "утолщенный": 8392,
      "резервуаров": 8393,
      "технолог": 8394,
      "тонкостенный": 8395,
      "Дюбели": 8396,
      "Ороситель": 8397,
      "цемента": 8398,
      "изнутри": 8399,
      "негофрированный": 8400,
      "пневмоколес": 8401,
      "2x2x0": 8402,
      "3ПКВтп": 8403,
      "5х25": 8404,
      "5х70": 8405,
      "F4": 8406,
      "F10": 8407,
      "Е600": 8408,
      "ЛВ": 8409,
      "ЛД": 8410,
      "НТ": 8411,
      "Оп": 8412,
      "План": 8413,
      "ПУС": 8414,
      "Поворот": 8415,
      "УС": 8416,
      "УН": 8417,
      "ну": 8418,
      "сед": 8419,
      "фитинг": 8420,
      "цик": 8421,
      "##ажимная": 8422,
      "##хов": 8423,
      "##220": 8424,
      "##шовые": 8425,
      "##Эон": 8426,
      "##it": 8427,
      "##етуш": 8428,
      "##олновый": 8429,
      "наб": 8430,
      "накид": 8431,
      "##ковшовые": 8432,
      "обд": 8433,
      "проемы": 8434,
      "заг": 8435,
      "марш": 8436,
      "##шень": 8437,
      "##оза": 8438,
      "##х190": 8439,
      "##х195": 8440,
      "алюм": 8441,
      "Ст22": 8442,
      "спар": 8443,
      "##x1180": 8444,
      "температурой": 8445,
      "одноковшовые": 8446,
      "мости": 8447,
      "опоре": 8448,
      "##рующей": 8449,
      "электроп": 8450,
      "лицевым": 8451,
      "шаровым": 8452,
      "термостойкого": 8453,
      "анкерный": 8454,
      "анкеруемой": 8455,
      "горизонтально": 8456,
      "##полов": 8457,
      "стандартного": 8458,
      "вводов": 8459,
      "огнетуш": 8460,
      "коэффициент": 8461,
      "расчетным": 8462,
      "##x66": 8463,
      "М3р": 8464,
      "ПвПу": 8465,
      "М2р": 8466,
      "черная": 8467,
      "многос": 8468,
      "уплотнителем": 8469,
      "пластиковая": 8470,
      "пролетные": 8471,
      "выходных": 8472,
      "##озиционный": 8473,
      "14нж917р": 8474,
      "отвода": 8475,
      "Обои": 8476,
      "фикси": 8477,
      "СВЛ": 8478,
      "М1р": 8479,
      "М1ф": 8480,
      "Экран": 8481,
      "атм": 8482,
      "терморегулятора": 8483,
      "эллиптическим": 8484,
      "глубокого": 8485,
      "14нж17ст19": 8486,
      "одиночным": 8487,
      "запорной": 8488,
      "оголовком": 8489,
      "14нж917ст7": 8490,
      "самозажимная": 8491,
      "неподвижных": 8492,
      "различных": 8493,
      "приклей": 8494,
      "14нж017р32": 8495,
      "корундовые": 8496,
      "жаростой": 8497,
      "##х100х110": 8498,
      "структурированной": 8499,
      "П1б": 8500,
      "ветви": 8501,
      "14нж17р28": 8502,
      "столярных": 8503,
      "посыпкой": 8504,
      "рыча": 8505,
      "радиоволновый": 8506,
      "кремнеземистые": 8507,
      "тупым": 8508,
      "пенобетон": 8509,
      "##оотводчик": 8510,
      "полистиролб": 8511,
      "многолетних": 8512,
      "3ПКВтпБнг": 8513,
      "##Эонг": 8514,
      "Ст22К": 8515,
      "050": 8516,
      "1х120": 8517,
      "2х16": 8518,
      "3600": 8519,
      "3300": 8520,
      "410": 8521,
      "690": 8522,
      "D600": 8523,
      "PR": 8524,
      "Гвозд": 8525,
      "Лам": 8526,
      "М800": 8527,
      "Сер": 8528,
      "Уд": 8529,
      "ФО": 8530,
      "ФА": 8531,
      "аль": 8532,
      "вала": 8533,
      "дуг": 8534,
      "мая": 8535,
      "фрам": 8536,
      "##мент": 8537,
      "##110": 8538,
      "##48": 8539,
      "##К1": 8540,
      "##фаз": 8541,
      "##льха": 8542,
      "##ерей": 8543,
      "##кинг": 8544,
      "наг": 8545,
      "##ополит": 8546,
      "10x2x0": 8547,
      "##екуля": 8548,
      "15°": 8549,
      "Строения": 8550,
      "150х50": 8551,
      "##лителя": 8552,
      "полимерными": 8553,
      "опорного": 8554,
      "1800х": 8555,
      "коробчатый": 8556,
      "2440": 8557,
      "##акеты": 8558,
      "горячекатаные": 8559,
      "195": 8560,
      "194": 8561,
      "##х45": 8562,
      "400х200": 8563,
      "SDR21": 8564,
      "ЭПП": 8565,
      "автоматического": 8566,
      "2800": 8567,
      "##мм2": 8568,
      "##ихся": 8569,
      "КПД": 8570,
      "прямоугольных": 8571,
      "ОКГ": 8572,
      "однопроволочными": 8573,
      "частью": 8574,
      "подвеса": 8575,
      "тройной": 8576,
      "КВВГЭ": 8577,
      "пролетом": 8578,
      "закладных": 8579,
      "Комплексы": 8580,
      "фундаментной": 8581,
      "импор": 8582,
      "проволокой": 8583,
      "Полоса": 8584,
      "всех": 8585,
      "трекинг": 8586,
      "метрополит": 8587,
      "##олитовые": 8588,
      "Гильза": 8589,
      "СБВБбШвнг": 8590,
      "Авт": 8591,
      "герметизирующие": 8592,
      "Глушитель": 8593,
      "устойчивая": 8594,
      "6х7х19": 8595,
      "АЗЕ": 8596,
      "##НтпБ": 8597,
      "ячеистых": 8598,
      "штучная": 8599,
      "штамп": 8600,
      "ТМЛ": 8601,
      "буты": 8602,
      "табло": 8603,
      "машин": 8604,
      "коммутируемый": 8605,
      "кулачок": 8606,
      "потайной": 8607,
      "обойма": 8608,
      "Гвозди": 8609,
      "трекингу": 8610,
      "2х6": 8611,
      "3x2x0": 8612,
      "F9": 8613,
      "UPC": 8614,
      "Дефлектор": 8615,
      "Зна": 8616,
      "Лебедки": 8617,
      "М25": 8618,
      "СН": 8619,
      "вед": 8620,
      "ваг": 8621,
      "дуго": 8622,
      "ольха": 8623,
      "рейка": 8624,
      "сгор": 8625,
      "улуч": 8626,
      "фл": 8627,
      "функ": 8628,
      "##300х": 8629,
      "##ненная": 8630,
      "##шения": 8631,
      "##билиз": 8632,
      "##ЭИД": 8633,
      "##УТ": 8634,
      "##ЕМ": 8635,
      "##овентиля": 8636,
      "##азка": 8637,
      "прос": 8638,
      "свай": 8639,
      "##изии": 8640,
      "наружные": 8641,
      "##255": 8642,
      "спуск": 8643,
      "##x13": 8644,
      "1350": 8645,
      "150x300": 8646,
      "##ранения": 8647,
      "однозаходный": 8648,
      "опорное": 8649,
      "##х300х": 8650,
      "пенополистиро": 8651,
      "цвета": 8652,
      "трехъярусный": 8653,
      "##ленное": 8654,
      "оптическая": 8655,
      "термоди": 8656,
      "##айн": 8657,
      "листовое": 8658,
      "способа": 8659,
      "SN10": 8660,
      "##огнутый": 8661,
      "##голов": 8662,
      "##x380": 8663,
      "оболочкой": 8664,
      "37х0": 8665,
      "ППС": 8666,
      "ПвВнг": 8667,
      "УХЛ2": 8668,
      "##корпус": 8669,
      "прямоугольник": 8670,
      "мостам": 8671,
      "##туры": 8672,
      "пластик": 8673,
      "##утавры": 8674,
      "навесные": 8675,
      "кромкой": 8676,
      "распределительная": 8677,
      "одинарные": 8678,
      "92x496": 8679,
      "92x296": 8680,
      "92x196": 8681,
      "92x396": 8682,
      "##юбинг": 8683,
      "ТСС": 8684,
      "канализационной": 8685,
      "дымовентиля": 8686,
      "шайбами": 8687,
      "МКРГП": 8688,
      "грунтом": 8689,
      "поливинилхлоридный": 8690,
      "фибр": 8691,
      "модуля": 8692,
      "устройством": 8693,
      "сквозного": 8694,
      "Поруч": 8695,
      "250х120х88": 8696,
      "С120": 8697,
      "##ффузи": 8698,
      "двигателем": 8699,
      "пространств": 8700,
      "Стекло": 8701,
      "кирпичной": 8702,
      "##рабатывания": 8703,
      "трехлучевой": 8704,
      "цепей": 8705,
      "покраской": 8706,
      "мастичный": 8707,
      "КУПР": 8708,
      "автод": 8709,
      "##ПвЭ": 8710,
      "##ОЛЬ": 8711,
      "выпуклый": 8712,
      "ответвлений": 8713,
      "сальниковый": 8714,
      "бурильные": 8715,
      "АЦЭИД": 8716,
      "Пластины": 8717,
      "СЦБ": 8718,
      "фальшполов": 8719,
      "быстросъемным": 8720,
      "Уплот": 8721,
      "Знаки": 8722,
      "сгорания": 8723,
      "термодиффузи": 8724,
      "термодиффузионным": 8725,
      "F8": 8726,
      "А12": 8727,
      "Дом": 8728,
      "ИП": 8729,
      "Мпа": 8730,
      "Ом": 8731,
      "апер": 8732,
      "крош": 8733,
      "лив": 8734,
      "рукав": 8735,
      "тум": 8736,
      "хол": 8737,
      "хлор": 8738,
      "##ские": 8739,
      "##мыв": 8740,
      "##вы": 8741,
      "##де": 8742,
      "##йный": 8743,
      "##Вг": 8744,
      "##нап": 8745,
      "##ерные": 8746,
      "##кауч": 8747,
      "##асси": 8748,
      "##очно": 8749,
      "##отов": 8750,
      "##альных": 8751,
      "проник": 8752,
      "10х2": 8753,
      "##екс": 8754,
      "распор": 8755,
      "203": 8756,
      "##усор": 8757,
      "14х2": 8758,
      "30x2x0": 8759,
      "полной": 8760,
      "70x2x2": 8761,
      "сечений": 8762,
      "опорами": 8763,
      "##х230": 8764,
      "120x2x2": 8765,
      "##окачеств": 8766,
      "растворов": 8767,
      "прочистки": 8768,
      "услож": 8769,
      "2700": 8770,
      "95x2x2": 8771,
      "гладкой": 8772,
      "##иваемая": 8773,
      "сборная": 8774,
      "люком": 8775,
      "электромехани": 8776,
      "500х50": 8777,
      "пенополиуретановые": 8778,
      "вспуч": 8779,
      "удлиненным": 8780,
      "##ряды": 8781,
      "рулон": 8782,
      "резиновое": 8783,
      "дорогах": 8784,
      "однополю": 8785,
      "черной": 8786,
      "равнополочный": 8787,
      "торш": 8788,
      "##тилкауч": 8789,
      "##онагреватели": 8790,
      "полоса": 8791,
      "Ригель": 8792,
      "хризотилцементная": 8793,
      "поглощ": 8794,
      "##x850": 8795,
      "АПвВг": 8796,
      "подкоса": 8797,
      "Элементы": 8798,
      "ТПВнг": 8799,
      "ремонтных": 8800,
      "1000х1000": 8801,
      "прутка": 8802,
      "дизельные": 8803,
      "14нж917ст25": 8804,
      "индикатор": 8805,
      "фиксатора": 8806,
      "Гидро": 8807,
      "вещества": 8808,
      "трехлучевые": 8809,
      "энерго": 8810,
      "детский": 8811,
      "сантехнический": 8812,
      "минеральными": 8813,
      "Колонны": 8814,
      "равнопроходная": 8815,
      "крыль": 8816,
      "первый": 8817,
      "поручня": 8818,
      "Стеклопакеты": 8819,
      "пассажирский": 8820,
      "обделки": 8821,
      "14нж917р34": 8822,
      "дугостойкие": 8823,
      "дымовентиляционных": 8824,
      "автодорож": 8825,
      "##мываль": 8826,
      "усложн": 8827,
      "поглощающая": 8828,
      "2М": 8829,
      "3x0": 8830,
      "F25": 8831,
      "Ат": 8832,
      "Бак": 8833,
      "ГП": 8834,
      "ЗАО": 8835,
      "Маном": 8836,
      "ТР": 8837,
      "ШБ": 8838,
      "гим": 8839,
      "рукава": 8840,
      "##Б2": 8841,
      "##МД": 8842,
      "##al": 8843,
      "##кал": 8844,
      "##опласти": 8845,
[...]
