[PAD]
[UNK]
[CLS]
[SEP]
[MASK]
!
"
%
&
'
(
)
*
+
,
-
.
/
0
1
2
3
4
5
6
7
8
9
:
;
<
=
A
B
C
D
E
F
G
H
I
J
K
L
M
N
O
P
Q
R
S
T
U
V
W
X
Y
Z
[
\
]
_
a
b
c
d
e
f
g
h
i
j
k
l
m
n
o
p
q
r
s
t
u
v
w
x
y
z
|
«
®
°
±
²
³
·
»
Æ
Ö
×
Ø
˚
·
λ
А
Б
В
Г
Д
Е
Ж
З
И
Й
К
Л
М
Н
О
П
Р
С
Т
У
Ф
Х
Ц
Ч
Ш
Щ
Ы
Ь
Э
Ю
Я
а
б
в
г
д
е
ж
з
и
й
к
л
м
н
о
п
р
с
т
у
ф
х
ц
ч
ш
щ
ъ
ы
ь
э
ю
я
ё
–
—
№
∅
∙
√
≈
⌀
□
##5
##3
##а
##р
##к
##с
##о
##м
##г
##н
##8
##6
##0
##х
##1
##Б
##и
##з
##т
##л
##ц
##е
##ы
##в
##у
##2
##9
##N
##x
##д
##7
##З
##ь
##Г
##Ц
##й
##ш
##ч
##я
##п
##б
##Ф
##П
##T
##ж
##4
##К
##Л
##С
##щ
##Ш
##Э
##В
##Н
##Р
##О
##Т
##У
##Д
##А
##ю
##Ь
##М
##ф
##И
##P
##R
##X
##E
##C
##э
##A
##t
##d
##ъ
##I
##G
##Х
##±
##p
##i
##m
##a
##D
##K
##F
##k
##∙
##Ч
##Щ
##O
##U
##×
##№
##Е
##M
##h
##z
##g
##o
##e
##B
##S
##u
##W
##b
##s
##L
##c
##l
##°
##v
##n
##Ж
##V
##Й
##²
##Ы
##r
##f
##ё
##y
##Я
##®
##Y
##Q
##w
##Ю
##H
##Z
##J
##j
##³
##q
##˚
##ны
##но
##на
##ов
##ст
##ль
мм
##ни
##ер
##ет
##ол
##00
##ор
##ный
##та
##ам
##ой
##ли
##он
##ом
##од
##ле
##ас
##ная
##ки
##ен
##ру
##ной
##ан
##ка
##ина
##ные
ди
##ля
##етр
на
##аметр
диаметр
##ат
##ем
из
##ро
##ель
##сти
##аз
ста
##ени
##оп
##ар
для
##го
##аб
##ес
##ров
##ци
##ок
##ез
##ра
тол
толщ
##ей
##мер
##ми
##асс
ст
##ла
толщина
##ло
##ры
раз
##ных
кл
класс
##ти
без
##ит
##ед
##нов
размер
##ост
##ков
##об
##абель
##ев
##ин
##ного
##ав
##лени
##50
##оли
##руб
пр
##еп
##ност
##ая
##оч
##ности
##чес
ном
об
##ным
##иналь
номиналь
##ность
100
сталь
##лов
##ко
безоп
##пор
##от
##асности
си
безопасности
##ющ
##етон
стали
##кт
##ение
##ения
##еле
##рован
от
##аль
про
##ал
вы
##ход
##ив
10
12
##ное
кг
##ек
##овы
##тр
вн
до
св
поли
##руж
##из
##остой
кон
за
##ату
##мостой
м3
##Па
наруж
МПа
Кабель
##ух
##ление
##ами
дав
##со
##ний
теп
со
##ком
##чески
##лю
##ест
дв
номинальный
пло
под
размеры
##цин
##нит
мар
давление
##цинков
##ож
##им
##цинкован
труб
##00х
##ад
дли
кабель
ос
##ейс
##лект
##утр
сейс
сейсмостой
##кой
внутр
##ровод
рас
##ег
тр
##10
внутрен
##оля
50
##20
##ип
##рыти
##ый
длина
##сп
##нд
20
##ент
##фи
пер
##онный
гор
##еч
кор
бетон
стен
##яж
##ани
##ными
##ерж
##ые
##оляци
##шен
25
оцинкован
##ирован
основ
##ус
Труб
тип
##кости
##елез
желез
##лой
##пр
стенки
°C
##оз
##етал
15
##ист
пок
##ее
не
##итель
16
##обетон
##ловой
40
од
##цев
покрыти
##х1
##олн
алю
##ъем
алюми
метал
алюмини
ши
##уч
Пли
##ети
жи
исп
железобетон
##нг
##ления
##оль
алюминиев
##опровод
##рав
при
##ым
00
##000
исполн
##порный
наружный
ар
жил
##ос
Ст
##лад
##альной
##лап
##аве
номинальное
мин
##вод
кр
##ия
высо
##анов
14
высота
##ого
кВ
ок
1000
зам
##ак
##атуры
стек
##80
##или
##уф
##егор
##итный
нерж
##авеющ
нержавеющ
плот
##ели
##кая
Клап
##не
##иж
##абар
##вер
##ном
объем
##абаритный
##гл
Клапан
сейсмостойкости
##льный
##пер
расход
арм
Плита
внутренний
##ерм
тепло
двух
замком
##егория
уст
Трубы
плотность
##25
##ел
##вет
ог
##очная
##един
мед
кат
##ник
##орож
##яч
##руп
##лан
30
сп
см
арматуры
##x1
элект
силовой
##ид
габаритный
##аты
500
ка
тем
исполнение
минер
##ех
марка
горяч
темпер
##ых
основе
##фонный
90
##ноп
руч
марки
уп
жилами
ком
##пряж
стальные
пор
##ением
##лок
##она
##ческий
категория
##илинд
пов
##рашен
##ери
13
полиэ
##ур
##ям
##60
##цов
150
##ания
##лит
##овой
##лоп
прям
##па
##аст
стальной
##ое
##ции
200
шир
установ
м2
полимер
нержавеющей
покрытием
гра
##40
##лем
##изоляци
Кор
##онные
ваты
обли
облицов
400
##уг
45
горяче
слой
##x2
##ость
##нитель
##еш
запорный
##озд
11
силь
250
##30
напряж
##ва
##онта
пол
##кат
сильфонный
минеральной
рез
Вт
70
##кий
баз
##пус
##ран
стеклоп
Короб
80
##иб
##инт
##600
##си
##иной
ширина
##фор
по
температу
##ласти
60
установки
Муф
диаметром
##еб
одно
свар
сеч
Блок
##кость
раб
вод
##еля
железобетонная
##еход
##кое
трубопровод
Стой
##вор
##неу
##клад
огнеу
ПВ
##атери
##рыш
##рой
мо
опор
окрашен
##зи
##ностью
флан
##тиле
управ
возд
##70
##люч
ручной
##олок
##дение
Про
32
##ВГ
##ключ
##х2
толщиной
##еси
облицовочная
##еди
##ут
##рующ
##слой
полиэтиле
металли
ков
Св
##пи
##уш
бол
##ча
Стойка
##альт
##овый
оцинкованной
повы
корпус
электро
##ати
повышен
теплоизоляци
напряжение
медными
##ированные
##15
##щад
##единитель
##атор
##виж
##стру
мощ
гранит
##рез
ко
300
##овых
площад
бет
комп
##ней
##ред
##кер
рабоч
##жим
профи
присо
ма
мощность
лот
пород
110
герм
мест
##кан
##елем
груп
отвер
300х
##ты
базальт
металла
##Х1
изоляци
Муфта
35
присоедин
отверсти
Цилинд
Цилиндры
температура
бетона
более
сам
##СТ
теплов
сред
##щит
каб
##ция
##ним
месторож
месторождение
теплоизоляционные
Из
См
120
матери
##х3
##ота
мм2
оп
##лив
площадь
КЗ
кли
##ул
##ока
##ированная
угл
##шов
конта
##ровол
##ива
##нкер
бес
##струк
##овая
LS
КЗС
прив
кгс
##ьб
фланцев
резьб
03
стальная
пе
раст
##очных
18
стой
типа
проч
короб
##ум
##лер
##90
см2
##ис
##ик
##вар
переход
ли
шар
##ся
##шированные
гранитная
волок
ус
соединитель
кол
ток
контакт
вер
свя
27
17
креп
##ками
##нополи
кру
##еств
Смеси
##300
##цион
зат
##ыми
##гна
сигна
пенополи
выс
защит
От
отверстия
##ерных
цвет
##ческие
уг
ниж
##кого
75
##ката
тер
##ВГнг
##емент
кВт
гориз
гид
горизонта
##ластиков
ск
##гр
##амер
полиэтиленов
ковш
##нич
##оток
##рующим
##угу
повышенной
пан
чугу
##ца
01
95
кабельный
трех
##ади
крыш
##арк
24
##8Н
##Х18Н
термостой
##100
##лен
Кон
тепловым
##вес
##свар
само
внеш
группа
повор
ПВХ
синт
синтети
##ещ
##унд
600
##Х18Н10
##порные
##акет
кабельная
воздух
вырез
##стем
систем
синтетичес
Ста
проклад
нап
##да
конструк
##ана
##воров
##лемм
ковшей
##рованная
##ветв
##ливочных
##азливочных
сталер
сталеразливочных
##очный
##сирующим
##есс
##три
шиб
##гой
затворов
шиберных
IP
пи
управления
##шовные
##фик
##камер
самофик
##сирующимся
самофиксирующимся
##ень
##рози
эк
соедин
фоль
##Х18Н10Т
гиб
опти
терм
стеклопакет
##ходной
кана
подключ
##ован
Отвод
горячеката
##анс
##уб
##ай
##17
##елей
стро
лист
конт
обр
##ви
##цевая
соединительная
II
##енти
##ующ
покрытия
##руз
##особ
##рус
##акс
##лением
##ня
##иль
##том
материал
огнеупорный
##ше
##ян
внешний
##оцинкован
##ентри
связ
линий
макс
максим
пред
##дели
##енным
##розион
глад
способ
фольгой
72
##ие
контро
##500
##кры
Трой
полимерная
профиля
##чат
алюминиевой
базальтовых
Труба
##кие
##оду
анкер
660
мул
муллит
##рованные
220
Коробка
фас
##урет
шп
Прокат
##уст
##ожух
связующ
кН
бетонные
муф
железобетонные
кожух
##ий
трубопроводов
провол
##ования
##ассы
кашированные
SN
90°
22
##65
##тив
##ктор
трассы
##честв
связующем
высок
За
Стакан
19
прокладки
синтетическом
класса
##асти
##ческое
горизонталь
цилинд
крас
##лом
опоры
оптический
##х4
##тор
##ри
Пер
цемент
21
Кран
горячекатаный
нак
перек
##ог
двой
горячеоцинкован
##ожар
среды
##еж
##лектор
стеклопакетом
вст
##ело
оцинкованная
##ивной
тепл
##ковым
комплект
##оки
##етка
сейсмостойкая
##камерным
стеклопластиков
ав
08
круп
##овые
##ерод
классу
проволоки
##орм
##ации
##чной
коли
##х0
коррозион
##мати
количеств
трубы
##слойная
02
##раж
##опро
количество
гермети
теплопровод
##еродист
мен
менее
теплопроводность
центри
строитель
##фуг
центрифуг
400х
коллектор
шт
##крыт
##про
##ентиля
пар
Свая
дорож
##ское
76
услов
клемм
центрифугированная
##400
алюминиевыми
кабеля
##ового
наружным
##ческим
климати
термостойкость
кабельной
свет
внутренней
##ветвитель
зажим
##тика
вертика
климатическое
##нж
##енного
##рок
##егу
подключением
FR
##етиль
кабельных
углеродист
##жения
##орт
ВВГнг
##12
##ческих
корпуса
винт
муллиток
##оны
автом
прямой
##ств
перекрыти
гидро
##ец
##локи
Кр
шаровой
изоляции
##ивающ
экра
HF
плос
##x0
SD
##ерев
конич
коничностью
41
пес
##бор
##орон
кругл
рабочее
##етиз
##азный
##рованный
МК
##96
##ром
##ческая
соединения
щеб
##нт
Тройник
поворота
гладкая
##олод
##мин
корпусом
160
##чный
##усти
65
##яг
##нная
волокон
окрашенный
##аркас
герметичной
##онеч
лотков
##ола
Светиль
красный
силов
нержавеющая
газ
резьбой
тяж
бесшовные
каркас
##ства
##ах
##ефор
##фици
сейсмостойкий
##обр
отоп
##ованная
Лоток
провод
окрашенная
##енных
##онная
##ении
общ
марок
°С
##ковая
##олоч
уд
##ыше
свыше
##аг
108
присоединения
Ст3
##лав
панель
В15
фланцевое
##делия
##гол
##лей
угловой
двер
##груз
##одуль
##омп
125
##пиле
##елого
##нопро
##извод
присоединение
лотка
##ному
##упа
##чет
герметиз
##нод
изоляцией
##енный
дост
сигнальный
плит
зоны
полипро
пенополиурет
##ций
сер
##ап
доступа
##ента
полипропиле
Опор
наружного
сечение
##мированные
вне
##ерх
Изделия
транс
45°
площадью
##атель
##енты
##ке
КВ
##движ
##обод
свобод
концевая
##пол
сорт
##льных
##новая
оцинкованный
трубопроводу
вырезному
цилиндру
нагруз
##овым
63
тяжелого
SDR
##ир
800
##арт
##x3
Светильник
вентиля
##альная
##рев
поверх
##онтаж
песча
кв
##уж
##22
станд
##адиатор
комплекте
конструкции
Отводы
036
##шт
бал
прочность
Крыш
монтаж
термо
мно
тока
электросвар
фасад
элем
##ентом
ПЭ
проход
холод
1200
##весной
БСТ
или
Г1
прямо
##±5
25±5
Крышка
2000
##егули
##амп
оболоч
стандарт
##рос
300х300
сечения
масс
углеродистой
57
гл
##цеп
##елый
жест
##45
##иваем
##нопроходной
##рут
сло
##верд
88
внутренним
углом
08Х18Н10Т
##ектор
##ард
неок
##еформированные
бок
Кана
##его
коль
изоли
42
Радиатор
##ений
производ
3000
привар
маркиров
450
ввод
неокрашен
отд
вид
регули
крепления
чис
##ара
основной
зажимов
В25
##енные
раструб
##вещ
свободного
Угол
неокрашенный
37
Комп
СТ
щебне
##лиф
##ехни
цементно
Канат
##устот
350
открыт
Зад
14нж
Задвиж
Задвижка
ак
##алов
##ости
маркировочная
сечением
максимальной
##ивки
воздуха
##екция
##очные
##альный
##руем
прим
крупностью
##чного
яч
##теп
300х600
##дения
направ
герметизации
муфт
##аро
лату
контрольный
##анием
##х6
##емы
свивки
перекрытия
мног
Секция
кабелей
волокна
4180
##ительность
короба
ла
пожар
примен
##льно
контактных
##нный
двойной
33
Плиты
цель
цок
##ош
квад
##x500
Провод
СБ
##ающ
##коль
##оншт
##онштей
##ПК
ламп
дерев
135
##95
PE
##тая
##II
##ния
##инд
##ание
применения
ниже
##КЗ
140
##16
180
##рат
##зем
крышкой
высокопро
температуры
##ярус
##ивод
##лог
400х600
сети
##х50
##рак
ств
огн
##гресс
наконеч
##ниж
##алуб
чугуна
шпинд
##ма
шпинделем
освещ
пониж
##движным
200х
контактной
##рутки
шлиф
##привод
огнеупорные
жилы
тверд
рези
##грессивной
ради
##лиз
доп
##35
##эф
Зажим
ЛК
##очного
##ником
отопитель
числом
ЭП
фрак
горячеоцинкованный
##ителем
исполнения
##льного
##ундам
БКЗ
##чи
автомати
пот
минус
Флан
коэф
коэффици
электропривод
вентиляцион
Вы
трехслойная
##ционный
ПП
полиэтилена
прохода
ствола
##ую
фракция
##рем
коробки
28
##ини
##амот
многоп
квадрат
58
##32
порош
ПБ
Опора
сек
теле
##ОСТ
наружная
Выключ
кожухом
пита
##орунд
перем
##еты
стальным
муллитокорунд
##ческой
транспор
##исковая
##ровочный
##ехани
винтовая
##уго
производительность
агрессивной
##ники
встро
прямых
АВ
защиты
двухслой
расцеп
##земной
##мм
коэффициентом
сбор
высокопрочного
образный
песчаным
отдел
##ута
##енная
##ческого
пониженным
Переход
III
полиэфи
усили
креплением
##глуш
вертикальный
круглый
расцепителем
ГОСТ
сух
##ре
##х25
##ести
48
12Х18Н10Т
трения
шлифованная
форм
##ких
пиле
конца
электросварные
против
##соль
##200
##стой
СП
##оот
расчет
базальтового
деревян
пост
древ
полиэфир
105
алюминиевые
вырезные
##лот
сост
освещения
поток
##икл
механи
кабельные
В22
##итум
двухкамерным
273
##нителя
##ука
лю
многопустот
##яд
сколь
встроенным
##ярусный
усилие
белый
##тяж
коррозионной
сплав
##ешетка
питания
##мк
верх
неп
##Шв
##х10
воздуш
стойкости
##оляция
Изоляция
##оди
сплавов
давления
##чатая
##иг
полированная
град
части
##13
КЗСБ
ПЭ100
наконечником
стакан
одном
##x2x0
треб
гидроизоляци
##рный
##Внг
##ктери
тепловой
перикл
периклаз
блоки
оконный
КМ
повышенными
##ованиями
требованиями
##ета
нижним
крышки
##ивающее
##ущ
##анер
масса
сте
сет
##их
выдвижным
экрани
плоский
##СП
серд
89
оцинкованные
Муфты
однокамерным
##оф
##ника
##рыв
низ
цельно
кров
##уд
муллитокорундовый
хара
электром
##устим
допустим
##ктеристи
Провол
Проволока
цин
##LS
алюминиевых
Фланец
характеристи
полимерный
##чатые
оч
лаковым
КП
##x6
напорные
##отда
теплоотда
металлических
теплоотдача
сты
##равли
Конв
лест
##нти
##зна
круг
##онент
гидравли
##ерс
##ковый
приварной
Конвектор
Пан
##ины
##РА
##естой
пиленая
четы
КУ
над
привод
полиэтиленовые
Ду
битум
гоф
огнестой
утеп
##x4
боковым
##ешет
точ
смол
##х5
измер
предел
FRLS
##изоли
##ира
380
700
сварной
управление
лампу
цельносвар
##форм
скольжения
##род
##отный
1770
условного
открытого
##чения
##ящ
степ
степень
очист
##анной
##x150
клиновая
окон
М3
перфор
##арку
##тель
приварку
ячей
##минер
##абота
600х
Анкер
##кашированные
10с
некашированные
кованной
телефонный
цельносварной
анкерным
допустимое
зда
зданий
уни
##ями
##озит
лоп
##Энг
пенополимер
пенополимерминер
растяг
наст
рабочей
##агнит
##ПКВ
500х
НГ
##сна
растягивающее
воды
электромагнит
##800
цоколь
одномод
спира
сердеч
В30
55
##рунт
фланцевый
##ХЛ
##нев
##уп
##фт
комб
сигнально
Пв
отопительные
надземной
пром
холоднод
##КС
##грев
##олов
630
УХЛ
буч
##оян
##фер
##ардированная
постоян
бучардированная
блокировочный
оболочке
##кор
##лин
холоднодеформированные
##новые
групп
КЗСГ
лопасти
##нез
полнопроходной
##аж
##ированный
Консоль
##обработа
дверной
водоот
##х7
1570
переменного
Дос
устрой
смолы
термообработа
Заглуш
##рная
##омут
волоконно
горячеоцинкованная
##емыч
##екор
##Пнг
декор
кер
##сов
##азем
норм
##ковое
назна
##ивные
назначения
Решетка
##85
наружной
##11
##пс
база
##бжения
##няя
пенополиуретанов
зазем
##опер
обс
Профи
брус
муфта
прямоуго
##цент
канализ
Модуль
одноярусный
анти
длиной
Ог
##овод
##ласт
скрутки
гофр
термообработанная
шамот
##напряж
комбини
400x500
31
минералов
Конвекторы
минераловат
##олот
219
##есцент
стальных
железобетонный
бесшов
лестнич
решет
##рования
всп
##литель
Кронштей
удлин
КС
##х16
##гиб
##Г2
навесной
напряжением
ОК
##ную
##атели
листовой
159
Ст3сп
##уров
сердечник
325
##форматор
попер
контр
64
запол
одност
малог
36
накл
лег
##ено
##комп
##незем
##минесцент
23
электри
строительства
сухие
##неземист
рабочая
кровель
ост
противоп
люминесцент
постоянного
Со
##х35
мост
меж
##х120
исполнении
КМП
попереч
малогабаритный
Уст
тон
хв
##аш
основа
преднапряж
##ровкой
1500
сварного
прочности
фасадный
полиэфирной
одномодовых
##17п
##атериал
Раз
кле
противопожар
ЕК
##ряд
96
1020
заполнителя
Под
декорат
85
груз
1600
КЗСА
900
цап
##него
##чатый
##росс
##гран
##техни
рул
##ивный
металлические
##ляющ
общего
##Г2С
##ников
переходная
экрана
26
W4
##пред
медно
цапковое
09
напор
двум
Заглушка
двумя
отно
гибкий
балк
Ограж
М2
##олет
Ск
модуль
##низ
##ольные
##нные
кожухе
универ
Щеб
вводы
многопустотная
экранировкой
Щебень
двухслойный
отделка
нормальной
##чная
универс
##ПП
гибкие
##ундамент
38
минераловатных
основание
##ускат
каналов
утеплитель
##оруж
62
##нут
повивной
акусти
##есины
стеклопластиковый
муллитокрем
древесины
муллитокремнеземист
нес
Перемыч
Материал
гай
##х100
маг
Блоки
##HF
##ционные
##олятор
FRHF
##компонент
##рам
##порная
Доска
шести
##150
##шение
безопалуб
формования
безопалубочного
точности
##ту
связи
блок
##ку
расчетное
кабельного
Кронштейн
угол
поверхност
КГ
номинальным
силового
Профиль
34
металлический
Радиаторы
2500
##пиль
обрат
электромагнитный
##роб
##ивания
верхней
отношение
шах
стандартное
направления
##предели
Пускат
клад
##цемент
##х150
##лек
размерное
работ
нагрузки
В40
##ими
высот
панели
резьбы
Ст3пс
глуб
резинов
дор
##вест
внутренни
111
силовых
Пускатель
сторон
балконный
##x120
переходной
##айб
05
##ья
пласти
оцинкованном
##ук
пенополиуретана
вспен
шестигран
дорог
##ВБ
поворот
##лая
##х2х0
##енной
##ацион
##27
одноп
двухд
##сатор
Клемм
бур
##льной
вла
##ала
130
чер
##льная
листв
##вич
пруж
##x7
10000
подвесной
##ирпи
двухдисковая
Комплект
алюминиевого
##энд
огнеупорная
монтажа
глух
##эндвич
композит
стеклопластиковые
Выключатель
##утав
трещ
пожарной
наклонная
Бал
##тами
извест
газопровод
190
ИА
##x90
горизонтальный
колод
##ельная
много
##ращ
ответвитель
измеритель
11165
подкат
сейсмостойком
керами
подкатегория
##x5
##овое
##ема
полиурет
##слойные
ячейки
46
##ии
светоди
Перемычка
светодиод
##еф
гидравлическим
пружин
##пресс
вспененного
##71
оконцев
шв
уплот
защитным
оконцевания
##зий
проходной
##чные
##ачи
гранитном
IP20
Щит
##ащ
четыр
пластиков
##важ
С3
##лятор
армату
##х70
##чив
сооруж
##x250
##алю
109
КЗСВ
##ПКВт
ПвПнг
жалю
ин
##ВС
зап
133
##луж
##ойчив
распредели
##цевой
146
нагрузка
цинковым
бы
рель
##х8
сталем
##истра
крест
##ерсивный
сталемед
стерж
свариваем
сооружений
ЭН
печ
пенополиуретановая
жалюзий
240
вз
уси
##авкой
прямошовные
##льные
##x100
Изолятор
автоматический
водоотвод
Коль
техни
##яз
##одерж
Кам
##ница
профилей
цветной
периклазовый
66
##реп
железнод
горячед
повив
АВВГнг
железнодорож
##уль
Панели
04
750
6000
##верж
ручным
##x2000
сварные
составе
приводом
огнестойкости
##опод
##ителя
##x200
Крест
ЭПРА
контрольных
полипропиленов
потол
ПС
клап
рав
##нос
52
Ленты
##ообр
##цы
арми
устройства
Уз
тор
очистки
Хомут
##ностой
##ерживающ
горизонтальная
бесшовный
высотой
225
голов
##руго
металлическая
##x50
##ровки
напольные
полиуретанов
нер
сж
##14
прод
регулируем
##КБ
закрыт
стекло
##руг
двойная
АС
##юч
навес
вентиляционная
##азон
##окс
корот
##инами
част
растяж
полипропилена
вентиляционных
кладки
##едачи
отверж
##x190
##оподъем
номер
горизонтального
стеклопластиковая
секций
обслуж
печей
чугунный
обслуживания
##ыв
##олем
подключения
##маль
Трубки
128
медные
горизонтальной
кольцевая
акустического
жалюзийная
кА
жесткость
заполн
усилен
Нак
IP5
Ге
содерж
коррозионностой
грузоподъем
бурения
ред
сд
##лет
управлением
Разветвитель
свариваемости
##анж
##х19
люминесцентную
6х3
ТК
сэндвич
##енци
##лочный
конструкций
МКС
панельные
##тный
подвес
трой
##x150x90
известня
530
##Шп
шарни
##лава
электропер
цилиндри
термоус
##олб
##рованной
##лекс
##ированного
рулонный
продоль
Элект
диф
60°
##анера
##шив
грузоподъемность
ас
грунт
##лы
панелью
Пес
##900
##еллер
лестничного
горячедеформированные
##х95
##ателем
##изо
полиэтиленовой
влаго
КН
##БШв
##ПБ
стеклов
Тройники
изолированный
латунный
Клеммник
быст
крестообр
электропередачи
бор
грав
##ох
##ованные
клеммы
кровельный
магистра
АП
ввер
манс
##х40
##ект
##ковыми
трубчатая
металлической
стойкий
мансард
нерев
максимальная
муфтой
шамотные
круглые
Устрой
термоусаж
вверх
##ыка
##осы
полиэтиленовая
кром
отверстий
распределитель
##тного
пенополимерминеральной
51
БС
##ирпич
отверждения
нереверсивный
##олист
##75
кауч
деревянный
##костью
слоя
М350
коррозионностойкой
влагостой
417
##уко
1400
перекрытий
гип
##ыш
стекла
преднапряженная
5000
воздей
14нж0
тонк
##оя
сплава
шарнирная
69
30°
##Х13
кольц
дом
##унт
##лош
пресс
железобетонных
материала
полиэтиленовый
##ильз
характеристика
##ференци
остек
дифференци
4178
550
РК
##луч
##отки
материалов
гибкость
обществ
##III
вниз
уч
##лями
алюминиевый
Фанера
средняя
защитного
обратный
##стви
##етри
стойкой
##олистовой
315
##опо
##ентов
отопления
КВВГ
##цией
бруса
##технических
##охра
4000
##ВЭ
##цевые
порист
температур
426
перфорированный
54
Лист
эласти
##кана
битумно
пролет
БКЗК
##рас
##ние
IIIв
плен
##ателей
упруго
Конструк
системе
Выключатели
растяжении
одина
SDR11
лит
трос
##тил
железных
Возд
реле
##вижная
##устойчив
гидротехнических
электроприводом
Кол
пож
односторон
09Г2С
воздействи
пожаро
##лого
##онагрев
##ушения
РН
блочный
дросс
фанер
эп
##то
##ветвления
Соединитель
гравия
Габ
ге
воздействию
замыка
##утавр
С345
92
лент
##уктор
##овыми
общественных
Филь
издели
двухкомпонент
##оксид
цент
эма
##ойных
токопо
раструбные
токопоисковая
DN
кра
##хслойная
##лор
##ёхслойная
изгиб
сто
шпунт
транспортного
фанеры
W2
##тушения
трубопровода
тепловая
##ежут
проводов
промежут
хвойных
сталемедная
пожаротушения
6х19
##той
##24
размером
##епи
##x400
скваж
##виг
44
сплош
образ
условное
##нское
кронштей
сварная
##укав
29
##IN
##очаст
шириной
крупность
эпоксид
##аном
##67
##рож
##опроводов
переходные
##ство
##19
##енными
##каф
разветвитель
покрытий
##вающ
зв
реб
##34
##x25
покрытие
горячего
несущ
редуктор
##Гц
диап
технические
Кал
##еров
ручка
характеристики
##71фт
головкой
##ата
##аем
стан
##ированной
круглого
##рядная
диапазон
280
Манж
пласт
##х20
свин
##основ
порошковым
гидроизоляционный
Полот
##28
##LT
##лев
шахт
влагостойкой
участ
DIN
##еци
бетонный
##осна
полимерным
##егулятор
проводной
2В
##стан
##обиль
выход
термоусаживаем
С2
##кар
сосна
полос
фут
шты
заклад
##еталли
каучука
Манжета
ПР
виб
подоснов
сварным
строительные
круглая
В20
вставкой
обшив
##пуск
##00х3
##ольный
теплосна
SN4
фасадов
Ограждения
##LTx
73
##ушитель
коррозионно
##IIIв
СС
##жиль
стор
Комплекс
сжати
тонколистовой
теплоснабжения
##юб
##альное
дорожный
доб
##цо
##рованного
антикор
##пильки
Кольцо
регулируемая
##ПВ
##овор
##иней
ТПП
508
##яжки
##ози
категор
трансформатор
ППУ
группе
Д1
Скоб
IP54
43
##сные
полимерные
МЛ
##700
##стир
конц
##ческими
ограж
##эп
14нж9
Наконеч
##чик
наклад
##егм
274
синтетического
ТС
хр
##нак
##евой
полю
пожарно
подоснове
Риг
##мс
обор
выше
##00х2
##прес
опорах
нижней
Опоры
потолочный
06
ВН
пат
рем
сх
##31
##рон
##ск
неизоли
##елями
окрашенные
изолированная
автоматические
##ВЭВнг
##оснабжения
отвод
##рующая
УХЛ4
легкого
уплотнитель
##фальт
100х100
яче
квадратные
мостов
швеллер
##айки
IV
вытяж
136
полюсов
##рот
температурный
однослойные
клинов
##изотил
Воздух
редуктором
##гу
##ковые
пределом
720
М8
##ТТ
##емб
##кос
три
##очастотный
56
входной
##стер
762
асфальт
стекловолок
дроссельная
Бур
ГВС
Тран
Фундамент
конус
##х12
##ъемная
##ционная
порошковыми
пенополимерминеральная
внутренних
##рные
##рованных
комм
канализацион
##нутый
##оящ
##евые
штока
дорожного
оборуд
Транс
линей
пут
консо
бетонных
чугун
воздушных
светодиодный
пластм
##чным
##стоя
##танг
##кид
створ
расстоя
алюминиевая
окна
дорожных
763
промыш
муллитокремнеземистой
категории
хризотил
промышлен
хризотилцемент
ПК
гран
##x60
распа
полиэстер
панельный
латунные
периклазовая
крестообразный
мансардный
мк
##ащит
жестких
Прутки
ре
ска
ор
##кол
##ковом
контрольного
частота
известняковом
РО
##х80
обм
автомобиль
скважин
##кладки
стойкостью
IP65
удерживающ
стыков
трещин
Шр
дуб
##оустойчив
##енц
##струд
механический
ТППэп
##енцес
Бол
дым
ож
##есь
полки
гипс
47
##тов
##ющим
непр
##ащи
температурным
Конструкции
##рафи
##альные
углеродистая
Устройство
39
4х1
кар
шайб
##ык
фланцевая
воздуховод
строительных
группы
стоек
схемы
Трансформатор
ЛС
НН
ФС
##АБ
##рованием
509
двухслойная
опалуб
перехода
Панель
декоратив
борта
распаш
##тация
Ст20
кВА
коробчатая
закрытого
##онагревателей
Полотенцес
кД
ули
сжатие
кДж
320
820
##арь
моно
стыка
эмалями
воздуховодов
ми
##циона
поверхности
Узел
ВБШв
Пр
Роз
фланца
10с3
пластмасс
##елев
акри
##руемых
твердые
стороне
обмотки
##яющ
крепеж
настенный
Песок
футеров
##нист
##енсатор
подъем
КВВГЭнг
Фильтр
полосовой
обшивочная
асфальтобетон
Ем
ЕР
УКС
углов
чугунная
W8
Ру
филь
##тка
##x300
##нита
##ерыв
##рубного
сваро
опасности
##17ст
##вини
гофрированные
глухой
Шкаф
см3
низкого
непрерыв
миним
93
Манс
РТТ
##x10
##уровское
14нж017п
Ригели
Полотенцесушитель
Мансуровское
Ввод
Об
шум
##ская
104
напол
контролем
Пуд
эмаль
полов
заземляющ
штырев
##арьер
RT
Рукав
рек
##лам
кроме
Листы
74
Вентиля
СК
специ
220В
модульная
взрыв
мкм
##стран
##ине
##альным
бетоне
##пира
воздухонагревателей
способность
состав
Воз
##ровой
##митация
##акси
коакси
комбинированный
клее
G13
В3
Грунт
ТЗ
подвижная
##полю
Балка
Камни
Каш
##68
##ляем
элементом
##рождение
непрерывной
Возрождение
Джиль
Кур
##уруп
##250
##тау
стациона
##тинское
##ожское
гора
##ваара
фаской
винтовой
слоем
древес
воздушный
четыре
равнопроходной
изделий
Калгу
Пудожское
Кашина
Джильтау
Куртинское
Калгуваара
Знак
элементов
настенные
##невой
гильз
сня
##ностоящ
##алле
##00х1
противопожарный
доменных
Вентилятор
000
Зат
кам
намот
пос
##ению
фланец
МКР
##x63
##ПКВтнг
##стирола
намотки
КО
аэ
мом
##х60
поливини
кольцом
снятой
вол
ем
мрам
уль
##елья
защ
одним
механиз
мрамор
фундамент
##бШв
##новское
##акуш
термостойкости
6х36
Емелья
Затвор
Емельяновское
вращ
ракуш
##ечника
115
заполнением
магистральных
ракушечника
230
АК
РП
вход
нит
##64
##ким
##лении
прогиб
Стойки
средн
термостойкие
муллитовый
поперечин
49
ВК
##овоз
маркер
перед
монтажный
элементы
пленкой
##карб
коаксиальный
фик
##офор
##гани
столб
экструд
анкеров
МКБ
железнодорожного
безна
полимерных
Проход
53
5ок
Ар
мик
рев
##олимер
сили
прямая
полости
водост
паралле
Крас
нераз
добав
Проходка
##голь
перим
##х240
шпона
оборудования
мас
##нот
меди
вертикального
377
стеновые
газопроводных
расстояние
Кирпич
##онка
##евое
трубам
компрес
реклам
компресси
Нас
вит
венти
полот
элемента
многопустотные
решеткой
блоком
клапаном
периметр
59
дроб
пс
##иком
##x40
##НД
##ерез
разрыв
двутавр
фундам
час
##остав
концевые
водоснабжения
термор
рельс
170
86
Состав
тв
##ёр
##етки
вывод
запира
плоские
электрические
навесных
83
чё
##чных
##пп
кони
резьба
Ограждение
одностороннего
##ащищ
среднеп
##карбона
туф
##дости
двуст
Плитка
канала
сеткой
колодцев
четырёхслойная
эластичная
кронштейна
маркерный
Краска
фундамента
твёр
чёрный
среднеповор
туфа
твёрдости
##x9
##рун
поликарбона
прямого
##айка
универсальный
78
##ЭВЭВнг
внутрит
50Гц
сварки
максимальное
каркасом
транспорта
межд
БСЛ
68
АМ
Шайб
ест
иск
пог
затяжки
радиус
сдвиг
ШВ
дут
нетка
##вращ
##онных
разд
1220
кожуха
напорным
шестигранной
концентри
В45
бим
иг
##x8
##наж
двухст
SDR17
##родром
блоков
аэродром
естеств
биметалли
87
Уголь
##ита
##Пу
##астная
металлическим
шту
жесткости
муфтовое
##x190x120
ячеек
Колод
ККБ
трав
щелев
##креп
##хлор
##остов
##нительный
##кань
стойки
##ающей
хвостов
листвен
арматурой
##аемой
патруб
М10
друг
##гов
##42
##КV
дис
1100
панелями
оболочки
УХЛ1
стержневой
ограждения
##оустойчивый
экструдированного
##ино
##нию
##ейств
горных
четырех
полипропиленовый
тройников
антикоррозион
запирающим
W6
им
лип
нав
алюминия
150x150x90
воздухопроводов
##ПВХ
вентили
дутья
М400
Сегм
воз
##ранный
водопро
##грег
предохра
встра
Наконечник
поливинил
Брус
ВР
УФ
вырыв
трубчатые
одной
шаровый
общая
латунная
расчетная
заполнителях
##канальный
момента
У2
бу
грун
##Ат
##рони
##раны
LSLTx
балки
СТА
секционный
гранями
брони
пров
обеч
откры
распол
АПв
звуко
##овозвращ
располож
дол
##кому
##ипп
слоями
КУГ
вентилируемых
82
берез
##опас
##ального
##роводов
##пряг
решетчатые
безнапорные
водопропуск
встраиваем
79
##емые
##авка
подкос
##нители
окра
##ражающ
глубина
автомобильных
аэродромных
##хлорид
расс
КМПЭВЭВнг
оснований
черный
измерительного
короткому
замыканию
клееного
навивные
61
У3
ал
мел
##38
##44
основания
облицовка
радиочастотный
АВВГ
КПС
колодца
продольном
##коу
переходный
транспорти
прямоугольного
хвостовиком
проволок
07
3х1
Т8
хром
##енс
##езопас
##ковой
проема
стеклом
соединении
КВВГнг
резиновым
разветвительная
вибро
клиновым
скальный
емкость
##ппар
окраше
EI
дета
световозвращ
открытой
квадратного
поливинилхлорид
транспортировки
67
B25
В1
СВ
сана
##онт
стати
SN16
зажимами
SDS
дверного
3332
твердая
##ренаж
заземлением
консольный
асфальтобетонные
санации
3332и
М1
Пу
##воз
##фоб
##уск
##елые
ручкой
гайкой
полиуретановым
распашной
механизм
среднеповоротный
##АтV
RD
ОС
пустот
фур
##мож
##вед
##анси
114
баланси
лаки
пористых
после
возмож
ВТ
нев
фиб
##х65
симм
прочая
направляющ
удлинением
##прягаемой
Маты
риг
##есущ
##катур
системы
гидрофоб
регулирования
стены
обсад
пружинный
Воздуховод
симметри
Пол
Элем
##63
##овка
##ода
неоцинкован
##ственных
Балки
АСБ
внутритрубного
Эк
##азопровод
##ровая
компа
бессвар
преднапряженные
радиусом
возможностью
2р
штанг
##х30
##озащищ
парап
направлении
отопительный
канализации
вращения
А2
ель
моду
##72
горюч
##ПКВтп
Скоба
монолит
480
паро
##очной
сейсмостойкость
теплонос
##Х17
листов
полипропиленовая
упругости
Сегменты
фурнит
PN
Ворон
разветвления
прибор
двухкамер
смеси
##урой
фильт
ПСП
ана
##бро
откид
##ированных
Ответвитель
раструбный
спирально
##Х17Н
Воронка
F1
Г4
##ион
натяж
конс
1800
красками
непод
измерительный
Габбро
невы
хомут
##CA
##осевое
контак
пенополистирола
приварная
межосевое
Колено
Грунтовка
ульт
ФК
##ПЭ
##онесущ
разм
присоединением
Установ
содержание
световозвращающей
теплоносителя
3С
Краны
##иф
##возд
##пит
толщине
стру
##новой
##ворчатый
шток
трещинами
стеклонит
взрывозащищ
игровой
фурнитурой
ультрафи
М300
брон
галь
##ключения
поверхностная
190x150x90
##прессов
акрилов
штукатур
ТУ
##бетон
##ИП
номинальная
отс
102
теплоизоли
##цовая
оконных
усиленная
##юбель
концентрический
стеклонитей
М600
Пок
Т5
тро
щит
##аны
##во
##2л
##x600
излуч
зад
##амид
плотных
скреп
способностью
устройств
антипи
остеклен
G5
МС
нипп
##мату
##зра
##лу
##ходные
12Г2С
##елки
##туар
ультрафиолет
Сва
действ
подст
##ечные
##40x1
сквоз
сдво
Армату
биметаллический
тротуар
Сваи
ИКБ
Шпильки
##ечная
цементе
содержанием
Электро
удерживающей
Розетка
витраж
поликарбоната
компаунд
77
920
врез
ряд
##21
распорный
185
газон
уголками
пролетных
##ведения
М150
кноп
полнот
##рующий
##17р
гладкий
световой
гидроизоляционная
керамический
D1
##коп
1250
1300
##ломоустойчивый
провода
изолированные
##лизации
контроли
ответвительный
взломоустойчивый
##ембра
силикат
B15
Зам
НС
Регулятор
вс
дренаж
258
водог
поворотный
соединение
SN32
##967
##x35
потока
сетей
очистного
10с967
торцевая
свинц
SN48
режим
водогазопровод
84
М200
бум
зер
##ач
пропит
##егород
болт
SN24
М250
естественной
патрубка
##КМ
##рытие
прочие
SN12
##четчик
виде
спираль
водоотведения
дифференциальный
полотна
искус
двухсторон
сдвоенные
бук
заб
##цем
##ути
##ющая
крив
стеклот
самонесущ
чугунные
щебено
спиральношовные
излучению
антипире
W12
ВС
Маш
Сетка
Т1
##Кт
##УС
нагрев
##ители
##обезопас
##x1000
противопожарных
линейный
алм
штоком
##ембрана
260
цир
шин
##кВ
##ПС
##насти
##лощ
тре
50х50
2012
сигнализации
##янут
удар
массив
огнестойкого
##куля
стороны
опалубки
погруж
грунта
циркуля
3P
лами
##шивные
прошивные
Трубка
скры
плитками
##ПКВКт
##робеж
центробеж
##говрем
долговрем
ламини
лаз
##цвет
##очным
обрез
##пита
Смесь
SN64
##омпозит
поверхность
цилиндрический
прессованные
ленточные
стекловолоконный
столбам
встраиваемый
Покрытие
ультрафиолетового
антипиренов
Машины
долговременный
Дв
##чно
##очными
однорядная
##х200
бето
раствор
автомат
ребра
Пор
Рас
метр
##еная
##ун
##фазный
##авки
оси
установка
скор
дорожное
гофрированная
Электрод
чугунной
бронированный
Воздуховоды
компаунда
1ПКВтнг
LO
Агрег
Грав
зон
##59
##ерепи
##лений
дверных
##x130
ручного
средней
цветная
низкол
параллель
неразъемная
Гравий
низколег
атом
ходу
##нее
##ателя
конд
подвод
15600
165
Клапаны
##никами
2200
##x2500
##00х3000
##полюсные
балансировочный
АД
моди
стяж
##отовая
подземной
HF1
одинар
центра
дисковый
витражные
ПТ
пом
##готов
##изог
круто
анкерные
СБПБ
секции
Камень
троса
коммута
крутоизог
Р65
Свер
ШС
щита
##шир
##лич
##онструк
##атой
стр
фасонные
SN96
КВВБ
СПА
пластика
Узлы
шайбой
обсадные
Установки
Замок
98
Шн
фр
##чное
##41
##овина
свер
шиной
поя
стойкая
поверхностью
отдель
##тепроводов
##ефтепроводов
ребр
несущей
Арматура
газонефтепроводов
модифици
В35
Ок
чист
шаг
##омута
двухрядная
##локонструк
КГН
быстро
Колодец
липа
штанги
парапет
3СIIIв
560
81
ат
хомута
##мос
##ках
обык
400x250
компонент
IIв
креплениями
##IIв
319
2ВIIIв
2ВIIв
##АтVТ
контролируем
обыкнов
4х4
ЛП
лента
##орез
##остойкости
##ланг
облицовки
корпусе
соединительный
Габион
##67р
хризотилцементные
мраморная
10с967р
F300
ВВГ
В12
мор
##вания
##рата
стальное
основанием
проводников
муфту
сборе
обечайки
Элемент
2з
К2
ТА
тка
##льное
крем
250х120
профили
конструктив
строений
6х37
изгибом
станций
##урупы
лиственница
консоли
действия
К1
##оу
##нер
##ена
##арфор
трубчат
стенкой
##ционных
##ционного
14нж17п
керам
14нж917п
АМг
вибропресс
2х1
3х50
СИП
буров
дефор
лак
тра
##Б1
##92
##бы
##ейки
концевой
внутренняя
##идная
однокамер
##х3000
защитная
скоб
стандартным
сетки
##х75
поверхностей
невыдвижным
помещ
ААБ
В27
##x70
##ометри
##еся
IP00
песчаная
СБЗ
прямоугольный
подвески
полиэстера
органи
ПуГ
E600
Эмаль
ветр
нас
отключения
консоль
наружными
##делитель
Светильники
лиственных
остеклением
микрот
Насосы
горючести
водогазопроводные
МГ
М12
рам
##ят
##них
##олст
проем
одного
ширины
резьбовым
КМПВнг
промышленных
подкосом
деталей
Уг
пли
##бШп
##ъярусный
##окрас
103
плотностью
полок
##форма
##ластика
соединительные
277
прокладками
гибких
##пилька
рельсов
Шайба
неоцинкованные
щебеночно
Электроды
лакокрас
99
М16
тав
##снов
##66
##асл
ответвления
##нителем
##x16
3500
##х36
##елоб
##опротив
силовая
Зажимы
комбинированная
минимальной
имп
210
3х2
ИКС
Основ
ТП
ох
##лли
прот
выключ
лицевой
трехфазный
SDR9
отделкой
универсальные
шестигранные
пластиковый
полнотелый
стеклоткань
отдельностоящ
31996
ИКСЛ
4х2
91
Пред
С1
кирпич
##бр
##МС
##нистой
ключ
подд
##сплу
жид
медная
##атора
допол
ПБС
деревянная
композитной
прессу
створками
подъема
сварочные
Предохра
W14
Гайка
ИТ
Сд
аппар
вту
жел
заглуш
двуп
осина
##лопастная
##х300
175
##амеры
200х50
сборные
##x496
футеровочные
Уголок
97
Мембрана
Эм
##шит
##опог
##ющие
##х32
##агности
радиацион
внутренние
информа
Крестовина
ремонт
Обрам
буро
натяжной
радиационно
3х35
8000
D400
Засл
О1
ПСТ
метиз
пет
##мобезопас
##26
##ступ
диагности
##ровых
разбор
##илиз
прямые
бескана
цветными
эксплу
шамотный
Болт
нитей
травмобезопас
##ПКВтпнг
бронз
параллельными
стрело
контролируемого
бесканальной
2P
М4
##шный
##сть
##епро
##очками
##отовый
##екционный
внутреннего
1000х1
##гряз
МКСТ
оболочка
стандартнопроходной
цоколем
непер
клеев
распределительные
упругость
двухкомпонентная
МЛСТ
14нж017п32
МКБСТ
алмаз
зоне
##грязн
3х95
##55
##фф
##енное
##ктур
двиг
##адочные
теплового
1700
механическим
электрическим
уличный
элементами
звукоизоли
искусств
трубчатой
неперфор
сопротив
##крыти
загрязн
однокомпонент
цементной
SDR7
экранированный
вытяжных
штыревой
между
бессварного
скорость
коммутационная
1з
3х120
94
гвозд
имитация
соп
шва
##совые
##23
##орешетка
##опуск
##ительного
##ольная
полимербетон
напряжения
ковша
фольг
дверные
число
огнез
Фланцы
однопут
керамические
Георешетка
Болты
10с367р
##яющий
эмалью
Угольник
антикоррозионным
##коулов
14нж917п34
буроопуск
метизы
буроопускная
3х70
570
E27
Счетчик
пле
выпус
металлоп
039
оптическими
##х400
гайками
сплошного
Окно
Плен
зеле
ней
тяг
##440
##ополот
100х50
коры
гранита
##ливания
каркасе
водоотводный
двухкомпонентный
лакированной
аналог
Сверло
27772
тавровая
##шитого
##крытия
Пленка
Камеры
фарфор
дистан
натри
##лави
пропита
40х40
кран
переходных
анкерная
серый
сортовой
##верде
твердых
газопроводные
водоотводной
специальная
контактами
ниппель
бумаж
14нж17п28
диагностирования
ГПа
Д3
ДСП
ад
дина
шпильки
##гез
##КП
##ентр
сид
##образ
##ающая
радиальный
##ульт
водосточных
березы
тротуарная
3х25
готовая
ленты
оц
прут
##огр
##тп
##x80
##ВЭнг
##ельные
простран
полочками
трехст
стеклопакетами
гладкие
горизонтальное
пара
регулированием
Компенсатор
Хомуты
неизолированная
10с371фт
других
расположения
ударного
барьер
дБ
##ированием
##жи
##онн
проб
полимерной
Сталь
дорожная
##ярусного
квадратный
прямоугольные
шахты
участка
стационарные
окрашены
пустотелый
сквозным
сверления
деформа
##ометрическая
корытный
5х1
руко
тя
##рных
##холст
##18
##ью
##фнасти
переп
##цевым
##x2x2
строительной
стеклохолст
##x190x100
термоусаживаемая
симметричный
LOCA
атомных
тягой
780
К38
Масти
гнутый
##тяг
##еталь
безус
отраж
горение
40Х13
смот
компози
светофор
##изводительность
твердого
ПБЗ
Геополот
конусная
створкой
древесина
добавками
предохранительный
Регуляторы
динасовые
сидень
Геополотно
5х2
71
Дис
ПД
ПРА
Терм
клен
##иеся
сталей
выступ
кабельное
##ольз
стекля
электротяг
термометрическая
канальный
многол
двухслойные
цинк
380x190x120
отводов
канализационных
передвиж
грунтах
безусадочные
1х16
510
Дюбель
Кот
мат
топ
##рад
протяж
сейсмостойкое
нена
##ольтный
плотности
##рующие
355
2400
##x350
отделки
потоков
магистральный
краном
ремонта
водопропускные
аппарат
##опоглощ
информационный
травмобезопасным
Мастика
электротяговый
1х1
3х4
АБ
желоб
скат
##82
##МП
##олит
##изны
##оскоп
Прокладки
##уму
способности
электросварная
спиральный
ОКЛ
##ульс
крана
изгибами
рекламный
##амидных
кривизны
конструктивной
полимербетонный
ненапрягаемой
А4
Фик
##еив
##елая
##пти
##ерный
##ества
системой
фасонных
##простран
форма
10с71фт
канализа
легкие
поворотом
клапан
шпунтовый
свинцовые
мороз
натриев
2х2
3х16
900х
ТД
сшитого
##хит
светиль
алюминиевым
архит
базой
##слойным
крышка
дорожные
универсальная
##станция
гильзами
РПШ
дробления
зерен
ИТГ
Фиксатор
архитект
Бр
ПО
ПМ
Свет
кед
плав
слив
укладки
##ax
##льным
##етона
##рации
##евов
20Х13
использ
полками
переклад
резиновые
квадратная
Подстанция
однопольный
трансформаторная
##ротверде
рассеив
отсевов
лакокрасочным
Основание
Диск
Котлы
архитектур
А1
Гильз
ЩО
паз
фини
##ацией
##нка
ответ
проект
перви
металлов
природ
теплостой
30Х13
компенсатор
комплектом
условный
Кольца
короткой
ЛС59
14нж017п31
терморегулятор
парапетного
##ллипти
отражателем
кедр
первичный
2х0
650
Реле
квар
рт
эллипти
##73
##при
##цевое
1420
медный
лифт
цветные
высокой
цементные
комплектная
щебень
КВТ
производственных
СБВБ
лампами
утеплен
декоративные
##ерживающий
цилиндрической
материалах
шпунтованная
МЛС
неизолированный
##нистые
масла
раздель
самонесущий
хомутами
натриевую
теплостойкость
ртут
Ав
Барьер
Клей
Ламп
ПНД
##ских
##га
##вани
##вента
##бус
##er
##оллей
##емый
установок
контактов
плоская
##ПКр
резиновая
верхний
измерения
унифици
Скваж
##прессор
арматурная
инвента
распределительный
шахтных
треуго
Предохранители
смотровых
Лампы
##оллейбус
Скважина
1P
215
W20
max
ВЛ
Имитация
М20
ОР
Раст
Шп
деф
опорный
спор
##аго
##сы
##ву
##еры
##рованным
троллейбус
50x50
неф
стеклок
##x219
##кладка
породы
термоп
##тивный
монтажные
##ающие
удлиненными
лиственные
пластиковым
закрытый
быстротверде
дифференциального
##ерепица
поясов
360
8АтVТ
cх
Зв
Шурупы
пнев
##180
##ув
150х150
##х2000
08Х18Н10
глубок
геос
сплошные
МКРС
компрессионные
Агрегаты
вибропрессованная
рассеивателем
стеклокомпозит
cхема
фаль
##за
##станов
##новый
1050
арамидных
##ермети
электрод
##1500
соединительным
панелей
крышей
материалом
встык
герметичное
##нтус
дверей
14нж17ст
200х100
обратные
угловая
скрепления
эксплуата
выступом
геосотовый
960
Шпилька
ЭТ
вор
тянут
##насо
##лива
100x100
сила
168
##х15
##х140
14Х17Н
##х250
газовый
герметизи
электросварных
электромагнитные
спиральная
##рядный
поворотно
ответвительная
##ектоскоп
пористость
термоусаживаемых
Скобы
гальвани
морозостой
тянутые
14Х17Н2
АА
ОП
У1
ХПВХ
мемб
##сВБ
##ощ
##ояч
диз
##лочная
##очное
трёхслойная
одино
##х100х
жильных
Профнасти
##жимная
цоколя
резиновыми
швов
известняка
геояч
подставкой
циркуляцией
Двутавр
заглушкой
Профнастил
геоячейки
6х25
гус
динами
счет
##анд
дисп
прорез
запор
##х13
Столб
##ехно
установочный
водопроводов
круглых
полипропиленовые
элемент
слож
дерева
ячейковый
Доски
муллитокремнеземистый
работе
##00х2000
шума
рядовой
крутоизогнутый
двупольный
однопутная
гусени
700х
ЗП
ФЛ
лм
##52
##те
##РН
##каливания
накаливания
##едка
##евод
бетонным
резер
цветных
ввода
камня
щелевой
одинарной
дополнитель
Светофор
электродвиг
Анти
Метал
СГ
ти
шланг
##аков
##яной
##бой
##М2
##ори
##екла
наружных
оцинкованное
оголов
##x296
220x190x100
пенополиуретановой
конденс
1х10
КШ
анг
сери
##ПРА
##арская
прозра
##ексти
Стек
сварное
водопровод
защитной
245
самоходные
двойным
##ающий
низков
тонн
##ащитная
пластмассовой
пропиткой
ЭмПРА
адгез
##пространяющий
лифтов
треугольной
##агона
ангарская
Гл
Сиб
Трав
кирпи
нан
##куму
##гор
##x20
##пШп
##роп
медных
##лопро
угла
условная
##ирское
##чиком
потолоч
##ерса
уплотн
сталемедный
Устройства
14нж917ст
щелевая
дефектоскоп
быстротвердеющие
Сибирское
нанес
##кумулятор
мА
мяг
фа
##ТС
##ителей
##ческом
стальными
конец
труба
##x196
листа
листовая
##огра
винтовыми
##x396
раструбом
двухслойным
полипропиленовое
дробле
погружные
клеевых
Раствор
270
Лю
М100
Т3
ви
гли
инд
лощ
##нных
##тной
##жектор
##400х
##ницы
##ностекла
1200х
трам
двухлопастная
комплек
пеностекла
системах
##даления
деревянные
нерас
свинцовая
канализационного
карниз
теплоизолированных
врезки
быстрого
атмос
барьерного
3х150
ФБ
довод
##37
##ский
##TP
##ЭШ
##онным
диагона
50x100
##ечный
##ированное
основани
##х14
армированные
опорные
##атором
площадкой
сборных
экранами
ленточного
сторона
компенсатором
дефектоскопа
нераспространяющий
330
С440
кис
шпри
##реб
##дон
##ерси
##анный
##новит
##ктов
12000
##ектив
##цевидная
двухс
базе
присоединитель
полиэтиленовым
свободностоящ
приварные
поперечном
пружинными
армированной
открыв
гидрофобным
шприцевидная
7х7
800х
Вст
М500
белые
хими
##клави
##ити
##зер
##пт
##леум
##изи
самоз
резьбовые
зажимы
вертикальная
соединениями
люб
КУПЭ
сжатой
подвесных
крестообраз
ФСФ
угловые
защел
фиксатор
мелко
ребрист
сопротивление
серии
640
F5
F2
PP
Yн
В7
Фундам
Шиб
вос
роз
сектор
##мнг
##вели
##ерная
##олочный
##аяся
теплопро
трубчатый
перемыч
горлов
температуре
гибкости
##х4х1
муфтовый
FRLSLTx
##x700
композитных
ККБС
механизмом
стяжными
Фундаменты
3x2
E40
Косы
М6
Пат
ан
культ
пути
ха
##х9
##х90
##x30
##кими
##каз
##ейка
100х80
##цинк
153
001
окрашенное
##рующими
прочностью
1900
4182
##цепные
СТД
освещением
стеновой
битумный
Подъем
пластиката
мансардное
##колон
удерживающая
карм
МКБС
остекленные
Шнек
Звено
диагональ
Косынка
культур
4182и
B30
Гор
Кач
ПФ
УЗ
бел
гнут
зав
укреп
##ача
##раб
##зящ
##AL
##руч
##опор
##кового
##епс
вылет
##естав
стенка
плотным
полук
теплоизоляцией
мач
цветочных
штепс
сухой
кровельная
продольная
конусно
микротонн
сополимер
Шибер
1х25
Гид
Л63
РЦ
глав
увели
##огрев
##лый
##абилиз
##рывающ
##остабилиз
##евый
##порка
нефт
теплос
устойчив
ковкого
шарового
Стальной
IP44
##одуктов
кольцевое
СБП
порошковая
ПБШ
противов
##оотражающ
Соедин
декоративный
Клемма
С235
гипсовая
проемов
импульс
втулочная
алмазное
плеча
защелкой
хаус
B20
Сп
СА
оцинк
тур
##500х
##труб
##КВ
##адочный
кач
коробов
275
скам
дорожной
холодно
200х400
резины
КМПВЭнг
##ницаем
одинарный
монолитный
фильтрующим
силикатный
спиральновит
унифицированная
теплопроизводительность
спиральновитые
1х6
710
F900
УГ
белая
эфф
##Гнг
##чном
##асло
сита
двухъярусный
упаков
IP66
##x3000
гидроизоляционные
##ешетки
мостовая
гайки
керамическая
фундаментная
ПСПБ
неподвиж
центробежные
неперфорированный
загрязнения
ртутную
спортивный
Траверса
лощеная
СБПЗ
борт
опрессов
шуруп
##оной
##защит
##цер
налив
распорные
##аника
##х18
##елка
стеклопластика
профилем
бесцвет
##кторы
КПГ
привода
Профили
гайка
стержня
ТППэпБ
штыревыми
неподвижная
400x250x120
##оудаления
звукоизолирующая
прорезанием
горловины
540
950
B22
Ди
Киб
Скор
аро
вм
##кет
##ои
##луп
двутав
подача
расшир
города
порта
мощностью
##резка
##икс
отверстиями
прокладкой
сером
бесшовная
люминесцентными
водоотводного
равнопро
промежуточные
ШВУ
3х185
разметки
устройствами
скрыт
архитектурно
##донское
##итинг
холодноката
Кибик
Скорлуп
Скорлупы
ВД
КТ
Лино
Штанг
##т3
##лоч
разли
сиф
##яжущ
смес
полу
##катной
электротехни
##аторы
300х100
Извещ
скруч
##х4х0
##1200
##тепр
муллитокорундовые
КУН
558
поперечная
поворотная
Наклад
дымоудаления
хомутовая
взрывозащищенный
Распорка
чистящ
искусственный
трехстворчатый
переплет
нефтепр
дисперси
гусеничном
конденсата
свободностоящие
карманный
Линолеум
Бес
ДН
ККС
Лак
МП
СВС
бас
вещ
прав
сор
сан
цепи
##мость
##БбШв
##веллер
##паника
##каб
отбой
##20н
##аку
132
##роволочными
трехлуч
IP40
##движной
волокнами
##естимость
точечная
перфорацией
литым
изделие
накладной
масля
динамический
Антипаника
вместимость
##кетб
баскетб
460
Врезка
Пос
Пласт
Швеллер
зна
план
риф
энер
##36
##злом
##шлиф
##флан
напрессов
перегород
1000х2
объемная
водостойкости
опорная
фланцем
теплоизоляционный
кабелем
032
##дапт
стандартный
##х10ок
контроля
магнит
грунтованная
закладной
Наконечники
минимальная
наполнителя
двухсторонним
бетонов
Обрамления
зеленый
стеклокомпозитная
любым
##колончатые
Беседка
Посадочный
7х0
КСП
М700
Сист
втор
врем
дет
сегм
##мест
##шко
##фта
##элект
##Е3
202
25А
кали
гибкая
светоотражающ
вентиляционные
холодного
сбора
сборного
механическая
композитная
пластиковые
кольцами
уплотнительным
##полюс
компрессионная
##ПКВКтЭнг
бронзы
металлополимер
##кабель
2600
7х1
C250
Зем
МА
зем
мок
цеп
##х500
##стра
##нищ
##ораз
##органи
вып
сос
15Х
металлоконструк
оконные
30ч
Коронка
облицован
458
11с
коле
трехслойные
конструкцион
SN8
армированная
вывода
пространства
ОРЦ
морозостойкость
увелич
##электри
4х0
ВА
Вор
Держ
Ко
олов
шла
##Ш1
##ТК
##аренных
стального
##отроп
50К
152
##x1500
4500
358
контактом
воздуху
высокочастотный
400х100
регулировки
ППГнг
гидроизоляции
500х100
Подвес
АСК
швеллера
ТППэпЗ
задней
СБЗПБ
ключом
поддерживающий
использования
открыванием
восстанов
противовзлом
нефтепродуктов
сантехни
Пластина
Ворота
противовзломной
025
2П
4х6
В10
ЗТ
С35
ТЛ
па
уз
##ики
##ОС
##ъеди
стопор
покрас
##х110
Стол
145
##иликат
##x18
##ебр
связке
крупно
строительная
пескоулов
вводных
перемещ
стеновая
КУВ
Заглушки
брусковая
клеевые
66кВ
стекловаренных
эластичный
эпоксидным
Пресс
ВСт3
автоматов
отдельностоящий
желто
мембранный
дробленый
4х25
6х7
7000
М5
НПВХ
СО
Сая
Черепица
днищ
мет
ут
учет
##58
##ска
##они
##оном
##ба
##НИ
##этиле
##лож
##евая
100x300
##отексти
##осетка
142
минераль
компрессор
Кордонское
400x350
управляем
300х50
пиг
горячекатаного
предвар
##чатка
Перегород
удерж
200х80
сборный
стенов
кровля
600х100
заполнения
стыкового
крепежных
статический
все
нагреватель
фрик
скобя
эксплуатации
атмосфер
эффектив
Штанга
Саянское
400x350x130
2x2
2х36
Гермети
К52
Лента
Л68
тикс
##язи
##ИД
##нивающ
##роения
вынос
бетонная
Ст2
##нометалли
облицовкой
болтами
профиль
масти
анкерно
наконечниками
##чика
битумной
противопожарная
литой
наполнителем
заземляющим
заделки
Горка
оловян
Герметик
тиксотроп
2х2х0
520
˚С
АЗ
##зит
##товый
##лат
##x95
##бив
##фит
##ниц
##анда
##ему
127
1500х
4050
##рующих
##ливки
вентиляции
деревянных
105x63
КПсВБ
гидравлическое
измерений
черепи
Геосетка
грунтов
С245
ТСА
Розетки
двусторон
направляющее
двухкамерный
##готовки
ремонтные
дистанцион
ПМБ
теплосети
бортовые
колеи
1х2
3х6
4х95
VI
КР
На
ба
лока
##вая
##бк
##роцемент
струж
пере
##нополочный
лотки
фланцевым
Конд
##ографи
условия
каркасные
проводника
##движные
квадрата
порошковой
ПБВ
АВБШв
одномодовыми
акустическая
железнодорожных
ТКП
асб
##изоци
##тоном
280x190x120
антикоррози
промышленный
М4П
##орифер
потолочные
3ПКВтпнг
Венти
Деталь
Е40
Конта
Решетки
##350
##кч
##2х0
##еня
##атлев
##рай
##лаж
пропуск
покры
##елирования
двухп
30с
##онарез
лифта
током
трехполюсные
канат
023
холодной
стандартными
вводно
аккумулятор
пожарный
##укава
КУП
закладная
путевые
гипсовые
футеровки
фиброцемент
1ПКВтнг6
нейло
белом
микротоннелирования
скрытого
Извещатель
светоотражающие
черепицы
4П
Сэндвич
##кг
##Нтп
##ера
##онки
##инуд
принуд
##ительности
прик
окрас
одноканальный
металлическом
фланцевые
полиэтиленовых
трехслойным
24В
актив
гофра
очистное
останов
Сооруж
глубины
торцовая
Конструкция
образная
разветвительные
линейные
двухкамерными
шинная
250х120х65
керамогра
насос
антив
качества
условиях
Сооружение
3х240
4з
4P
440
ЛА
во
вин
мал
манж
нож
радиатор
чаш
чув
##х600
##тры
##x96
##танный
##аситель
##анья
диэлектри
##опастная
разделитель
разливки
перестав
Прокладка
Связи
самонарез
##улка
прочных
внешней
авт
винтовых
газа
135°
ЭПУ
##читанный
сердцев
##фера
##корост
заземления
ЭНТ
ТКМ
Фильтры
Калорифер
участок
ячеист
прогибом
анкеровки
рекламными
рассчитанный
приборов
режиме
лазанья
1ПКВтнг10
кирпичным
Заслонка
стеклянная
многолопастная
кислот
присоединительная
перемычек
УЗО
ТЛК
чувств
1х70
5А
850
В2
ОД
Тум
ЦП
Ящ
плет
тар
##товые
##Пв
##АШп
##нии
##азмер
##цид
##еделка
открытия
10Х17Н
движ
20П
##лапковые
##ворный
нижний
трехканальный
Стан
SDR13
боковые
кольцевой
ОККМ
многослойные
головками
водосточный
Шайбы
Угольники
PN25
автоматиз
трап
ААБл
ПуГВ
плитами
протектор
бумажной
светильников
##клавишный
упаковка
восстановления
удерживающее
эффективности
асбест
самонарезающие
10Х17Н13
К42
ЭЦ
вес
вяжущ
игл
мол
укор
центр
##алог
##кп
##АС
изолятор
100x400
осевой
##ворчатые
фланц
##х26
теплоизоляционная
##цепная
##х595
комбинированного
ОКК
односто
влаж
многоярусного
инъ
Колон
огражд
дымовых
##есьма
##ляемый
фольгированные
деформационного
светофора
канализационные
Гильзы
водопроводных
Патруб
главной
ДР
буг
весьма
фиг
##ИМ
##таж
напрягаемой
##окле
толст
20х20
##х11
оград
электронасо
самокле
контактного
Переходы
гофрированных
удлинение
##ащитный
дифференциальным
##рожковый
патрон
консольных
РТТ5
ламинированной
разборно
Вставки
равнопроход
управляемое
чувствительности
иглопро
укороч
фигур
1х50
420
4x2x0
Вазон
ВУС
КБ
РВ
Угл
##нутр
##971фт
##НО
##онной
##енка
##рованное
10х1
121
особ
##оскорост
##катор
324
##ушители
профильная
высокоскорост
радиографи
##чики
лестниц
10с971фт
лестничная
несколь
поверхностями
глухие
промежуточное
несущему
##левой
добор
составная
окрашена
остекленный
подводом
трактор
однокамерный
помещения
ААБ2л
комплекта
Система
фрикционные
переставной
ЭЦВ
4х120
W16
ПН
дем
пайка
##гин
##125
##x800
##ПМ
##нине
##одом
станине
стяжки
разъеди
необ
железобетону
жилых
замковый
медной
1140x1
автоном
штуч
свето
плоскости
раструбная
200х200
защитный
микро
Электрокабель
лазерная
керамзит
ПуГВнг
прессуемый
ниппельном
Швеллеры
сегментов
мокром
оловянно
электронасосные
высокоскоростное
радиографическая
015
4х70
UTP
ВЦ
Г2
ЛМ
Нд
Шту
дном
друго
су
##йной
##ПЭнг
##ъединитель
##нок
##емой
##азу
##лощад
разно
прол
два
Ступ
теплозащит
##елгин
каш
пола
110В
##ластиковые
соединений
материалами
газо
КПо
##ерсивные
Анкеры
настрой
##олото
Кронштейны
Скам
внутренними
технический
усиленный
продольное
Песоч
14нж017р
замыкающая
скважинные
ФСА
добавок
штукатурные
прессуемые
инвентарный
нанесения
масляная
Коелгин
пескоуловителя
Контакторы
сердцевина
самоклеящ
Углы
другое
Коелгинское
4х50
4х35
БП
КД
сб
шта
шкаф
##уника
##урата
##x45
##никовый
##анурата
налич
##поразмер
дос
##нителей
освет
1000х3
##глеродист
131
графит
облицовочного
##щитовой
пенополиизоци
листом
плоским
Компози
цельнометалли
СБВГнг
скользящ
Разъединитель
резиновой
вибрации
фильтр
ТЗП
однокомпонентный
аппаратные
троллейбуса
Металлоконструк
типоразмер
фактур
Люк
трамвая
основанию
скрученными
##этилен
пенополиизоцианурата
Композиция
2х4
3х0
9000
Долото
Ка
УВ
ку
пб
палуб
шли
##62
##ОП
##ТЛ
##эк
##онными
##енз
износ
разъем
##инета
100x500
подзем
##егом
205
горка
Стел
теплоустойчив
Прожектор
площадки
резьбовая
креплений
##ещенный
контуров
высоков
низкоу
600х50
600х80
гофрированный
распределит
армирования
навесом
геотексти
уплотнительное
хризотилцементных
##АБпШп
опалубочных
декоративных
уличного
74x63
реверсивный
коническим
##x980
Экстра
паронита
откидное
кнопками
забив
скрытой
компонентов
буровая
##быт
консольной
консольные
пропитанная
сиденьями
скатом
финиш
карнизное
увеличенной
локальное
кашированием
Песочница
сбегом
Металлоконструкции
палубой
низкоуглеродист
1х4
1х35
Пе
вяз
держ
кинета
опрес
пайки
##ОЛ
##фат
##етами
##лесо
##кис
избыт
##опластиковые
##ейные
##обетона
100х100х
##ловая
10КV
##цевый
##ольш
##изоляционная
водно
опорно
болты
##жимной
лотками
базальтопластиковые
наплав
строения
вертикальные
удлиненный
удлиненная
ОКБ
##x72
редук
шумопоглощ
заземляющий
АКВ
фикс
рельса
другую
Бруски
780x1
Вентиль
избыточного
4х16
5х6
ТГ
ТМ
касс
##кли
##уля
##46
##PC
##наруж
##ними
##онное
##ельное
пре
прит
закреп
2015
корунд
##озащитная
14х1
3050
##пала
контактными
цветовая
пилом
песко
плиты
нагрузок
фасадной
воздушная
гидравлического
лестничный
декоративной
муллитокремнеземистая
##2700
полиуретановая
станционный
Шкафы
нетканое
поливинилхлорида
акриловых
нагрева
выпуском
передвижные
топлив
Автом
счетчиком
уплотнением
калиб
Налич
##раймер
распределителем
Пенополи
Битум
К73
ЛЭ
Теп
УТ
ЭИМ
бут
пасс
пеш
ту
таб
##год
##Бл
##x65
##фанов
нату
##рош
##езд
5050
широ
200x200
комплекс
Оттяж
обраб
высокого
вертикальным
силовые
боковая
изолированных
500х80
сердечником
##имися
шестигранная
эмали
станции
коммуника
ВБШвнг
сварочная
конической
лиственницы
симметричным
гальфанов
ТУТ
обыкновенного
помещений
органических
низковольтный
дисперсионная
М550
нагревательный
тарель
бугелем
шлицем
пешеход
натура
гальфановым
040
Бокс
Гц
ГГц
Двер
Дросс
кры
штор
##рь
##6000
##тей
##трубного
##лон
##вяз
##ГП
##TE
##4000
##МР
##облоки
##инг
##отделитель
12КV
смещенный
1140
опорной
клинкер
18П
лицевые
горячекатаной
##чатого
SN6
холодоснабжения
стык
электрического
межтрубного
##x796
пружинные
##x250x200
подключениями
распределительного
гипсо
образным
эпоксидная
заземляющего
волнистой
реверсивные
разрыве
коническая
ОСК
лакированная
приборами
охранный
перекладинами
сосны
##скав
керамогранит
особо
Дроссель
1х95
340
370
934
PG
В60
В55
Ушко
бух
жаро
лет
##еления
##200х
##x900
##жд
##АО
##орас
##омб
##ометр
##лег
разветв
выдвижные
##нийоргани
##ительные
прием
однос
среднего
переходах
верш
максимальный
##опрозра
##фицированного
боковое
##ающего
##мм²
##значный
гидравлические
##невые
бесшовных
модульные
муллитокремнеземистые
глухая
##x54
##ефлектор
бортами
дуба
ФСБ
ТЗГ
пневм
сложной
тоннелей
доводчика
Качели
С355
методом
Перегородка
движения
одностоечные
иглопробив
Скамья
досок
цельнометаллические
Оттяжка
415
4100
5х4
Дн
Рель
инт
соч
срывающ
фос
##мп
##чок
##чаты
##460
##РС
##ТИ
##енси
##рогод
старогод
##раг
##яжке
25х25
нешлиф
150х100
##x2x1
112
##х220
ковров
300х80
затяжке
стеклопластикового
светопрозра
37x63
цельные
промежуточная
ПРТ
трансформатором
гильзой
направляющий
низколегированной
АМг5
Заслонки
кирпича
опрессовку
Накладка
##акуум
выпук
винтами
манжеты
лестницей
теплозащитные
забивная
пиломатери
Пенополиэтилен
срывающимися
Аппар
НО
Техно
оцинков
пы
соб
##центри
##узи
##Пмнг
##47
##МТ
##фПмнг
##at
##енно
##рако
##ранич
##лона
разрядный
отражающ
объемный
качеств
водоблоки
компенси
##отаранный
террако
каналы
1928
светостабилиз
газового
##ошок
противотаранный
сетчатый
##х500х
IP53
##x400x150
##вающий
вытяжки
скальных
стационарная
фибры
ИКБнг
обрезная
обрезные
двигатель
протяжкой
глубокой
КУПЭфПмнг
нефтяной
Соединение
460x400x150
металлоконструкций
стеновое
Штуцер
гипсокар
19281
4х2х0
4x10
625
940x1
Масло
Площад
Форм
уров
шн
##сцентри
##шеч
##43
##Вт
##РВ
изм
стар
##остати
обвяз
100х35
##ющий
123
давлением
трубка
раскли
##способ
##ечных
40x70
##х180
##х100х1
Плинтус
приспособ
##ланд
повтор
полимерного
СвЗ
коуш
муллитовые
проволочный
крупный
37x60
многом
поставки
сетчатые
минераловатные
М24
высоты
пластиной
однопольные
рельеф
пленки
шпунтовая
промежуточной
сплошным
коммути
РП1
кронштейнами
паропро
структур
штукатурный
болтовыми
400x250x130
фарфоровая
Глушители
двухскатной
М6П
завод
баскетбольная
рифле
металлополимерных
ВСт3сп
дистанционное
фланцами
влажности
сочлен
водоблокирующими
030
4х150
5х16
760
F3
R4
W10
Гаситель
КФ
М50
М75
Р50
Фрез
нез
рис
форт
##рно
##ованием
##абор
##окол
##50x200
ответв
полиами
##остойкой
задвиж
20Ш1
перв
##х125
маш
Контр
192
19х1
##рием
400х80
слоев
боковой
СБВГ
СБ2л
непро
##етали
кровли
КПЭ
Перемычки
термоусаживающ
ССА
вытяжной
путь
крепежный
расположением
КУГПЭ
водопропускной
щитов
метров
##МСР
петлевой
выпуска
гальваническим
арочной
нейлоновые
принудительного
несколькими
демп
высоковольтный
коммуникаций
повторной
многомод
рисун
КУГПЭПнг
1х2х0
670
SS
МО
МД
П1
авар
дюбель
инж
луж
циф
##3000
##кост
##9ТЛ
##Гсп
##щенный
набор
##рубный
100x200
##ловые
12Х18Н
полистирола
заготовки
пери
15кч
16П
40x40
14х0
двухмест
упро
150x150
##x27
однорожковый
18Б1
##исим
защитные
соединением
Перевод
400х50
клеммная
Ст3Гсп
##х63
200х35
КУПП
огнестойкостью
светодиодными
##67п
участком
С285
##жильных
шайбы
декоративными
Насос
кнопок
дренажные
центральная
СБПБбШв
СБПБбШп
тяга
стеклохолстом
желобов
мелкозер
отбойника
11с67п
Держатель
автоматизированное
автономное
Наличник
12Х18Н9ТЛ
4x4
S460
БНД
В50
Кат
Мат
ШТС
ант
мл
фрез
этаж
##аТ
##нет
##ыс
##NH
##ТП
##льник
##омог
##новения
обнаруж
кабельными
перено
железобетонное
Ст0
высоких
##атывания
##х21
35x35
##х350
соединительными
термостати
##айке
МКШ
КВК
нагрузкой
монтажной
пониженной
сухая
СППК
##нителями
##невый
Изоляторы
нерав
эпоксидной
##ециев
обечайке
ригеля
откидной
Шнур
фронта
ребрами
кремнийоргани
СБЗПу
выключатель
фольгированием
##образов
матра
дополнительным
ДНаТ
пропускная
трапециев
КПоПЭнг
S460NH
1х0
2А
430
9600
C2
ДО
Ли
РЕ
ШЛ
вок
ватой
гр
неси
саль
##сид
##м2
##600х
##зированной
##98
##броб
насти
##азву
размерами
##евого
##ависим
##ноструж
##тразву
##фиброб
бетонными
покров
##х130
003
замковыми
30х30
спин
горячей
##рующее
СвО
Связ
##ушный
300х200
средний
##х360
горизонтальными
##онечные
телеф
##ажир
шамотная
вспомог
резиновый
буриль
ответвительные
Щиток
регулируемые
стеклофиброб
усиленным
Воздушный
накладками
стекловолокном
##оустойчивые
уличные
древесноструж
входят
модулями
##янутой
Порошок
АД1
##41нж
тканое
природного
утепленным
ворс
##огрева
антиванд
Патрубок
ДРЛ
пиломатериала
двигательным
луже
обнаружения
вокруг
несиловая
вспомогатель
290
3х10
490
5х35
C1
Cat
АЦ
Голов
Круг
М22
НФ
Пласти
УК
анод
вет
габар
ромб
##х800
##ВО
##on
##овин
##никовая
разъемная
прист
обжимной
##порных
откос
##остойкая
подвиж
50x80
##истки
поруч
##х37
27х1
##аркет
##ленные
парной
##еформи
125х26
SDR26
вентилятор
электросварной
жесткие
регулирующие
37х1
14нж17р
##арошеч
##лизатора
непласти
одномест
##х54
ПвБ
электрической
межфлан
газопровода
скважины
отводом
стекловолокна
4х185
декоративная
ультразву
ревизи
У220н
ригелей
АСБл
профилированного
однокамерными
раздельными
резерву
мягкие
##полюсный
##нивающиеся
ограждений
необрез
кассетами
ПРТО
коммутируем
инжен
матрац
Лифт
Связь
1р
4х10
4x16
5500
DK
В5
Доб
Д16
Ком
СЛ
СМ
ШУ
ЩРН
адапт
бар
знак
зоной
##аф
##агрессивной
##метр
##86
##хающего
##тели
##ура
##шип
##СО
##ВП
##as
##епти
##отор
106
##атухающего
Стенка
##x1800
облицовочные
Коробки
60х60
одноярусного
3200
внешними
##ованного
максимальным
##х410
вертикально
плоских
серая
латун
пиленые
полиэфирное
уголки
поверхностного
многоцвет
полиуретановый
усиленные
##00х3300
##00х3800
крепежом
силико
контакта
акриловая
обыкновенные
ветроустойчивые
однокомпонентная
##заход
ворот
герметизирующая
ААШв
адгезия
самозатухающего
полукруг
сорта
тупи
разветвителя
иглопробивное
уровня
##ландцемент
ревизионный
инженерных
##афраг
1кВ
390
4x2
580
Детали
КЛ
НК
П2
ПГ
СЦ
белого
лод
ник
ов
чуш
##септи
##окий
##гии
##нной
##БК
##тый
##ека
##шей
##М1
##ЕК
##олег
##опти
##раст
столя
стема
##ображ
##етонными
проката
##ейся
горки
неар
40x50
##опроводящ
##оса
##x1200
##литом
1150
сильф
однолет
сварку
рабочий
35Т
##х310
токопроводящ
##чатое
высоколег
##х450
условным
##роконечные
углеродистых
63А
кольца
регулирующий
цельная
шлифов
комбинированные
остроконечные
глубокий
композитными
полиуретановых
заполняющ
уплотнительные
рельсовых
липким
береза
фильтра
анализатора
##унк
##готовления
плинтус
##огреб
пазогреб
термопластика
глинистой
сополимеров
сифоном
знаков
напрессовочные
днища
пигм
фиброцементными
разделительная
наличника
наплавляемый
ЛЭЗ
клинкерными
керамогранитными
терракоты
гипсокарт
независим
полиамида
стеклофибробетонными
непластифицированного
Добавка
чушках
стемалитом
однолетних
заполняющими
310
3100
5100
535
940
D1200
Па
ША
банда
нег
посы
##33
##рель
##ика
##икатор
##91
##фр
##an
##нием
##оры
изображ
облег
10А
перевод
##ительный
##х160
алюмос
металлом
жилой
прицепные
двухполюсные
графи
полая
Втулка
##ебед
ПВС
##единители
отверд
растянутой
стойками
011
напольный
вертикальных
##ортландцемент
глазу
переменное
##стойкие
##одического
битумная
##х700
поперечное
глухим
##x596
109x60
железнодорожным
тройника
цилиндрические
каучу
одинарная
тросы
выходом
асфальтобетонных
##x996
нетканого
разделе
ригель
ИКСЛнг
Обрамление
стрелочных
прутков
пневмати
Стеклоп
укрепляющ
Диафраг
электротехнические
магнитный
компрессорных
остановок
светоопти
пролета
кула
пассажир
изменя
термоусаживающаяся
многомодовых
аварий
периодического
упроч
полукруглой
лодж
посып
облегч
алюмосиликат
4А
425
4x1
4x50
4х240
RAL
ГК
Лест
ПЗ
би
дат
даль
пла
ры
ящ
##сной
##шарошеч
##яда
##ерст
##окомпозит
обогрева
концев
##сох
бетону
255
основного
15000
##акри
##неля
##елых
##x180
1180
80х80
одножильных
водогр
кабины
прочих
защитное
трехшарошеч
наполн
МКЭШ
проводки
пенополиуретаном
массой
открытым
цинка
##упен
брусья
##нутые
Пескоулов
домк
дроссель
закладными
##00х2100
распашные
пластмассовые
наполнитель
гидрофобиз
щитом
забивные
растворителей
низколегированная
микротруб
аппаратный
финишный
витая
ребристые
бесцветное
Землесо
земли
крупнощитовой
утол
Станки
Тепло
Дверь
ковровое
отражающе
Форма
заводских
СППК4
покровом
резервуар
независимым
изображением
переводов
разделенных
трехшарошечное
Пескоуловитель
1шт
2У
ВБбШв
ГТК
Е27
техно
шип
##57
##5М
##осп
##нущ
##Бнг
##29
##OR
##us
##олю
##инации
##отражающ
##екст
50х35
40А
испол
144
оксид
20000
11000
полиэтилен
##аторов
колюч
система
системами
##ованный
анкерных
МКВ
каркаса
проводе
частичным
блокировки
стыком
перфорированная
комбинации
наклонными
Соединители
противопожарные
груза
пластин
поворотной
С390
литерный
DN100
трансформатора
клиновид
Воздухорас
933
пс5
##x81
Брусчатка
открывания
звукоотражающ
АСБ2л
Экскав
модулей
PN40
самонесущих
центробежный
низколегированных
быстросох
тканая
АМг2
гвоздем
огнезащит
рукоят
желоба
фальш
##х140х2
ребристая
1000х290
202х140х2
конструкционно
Ящик
центрами
толстолистовой
бандаж
графическим
светооптическими
Воздухораспредели
быстросохнущ
4р
595
R1
Ак
Каб
Кросс
ШСП
ЭМП
больш
вини
нед
сад
##56
##кон
##ха
##ич
##лаб
##ОСП
##леп
##лажи
раздвижной
##ить
##епроводов
соеди
подва
внутри
##10П
##ированными
##х1000
металлоч
##учие
##ольной
302
смаз
##x160
пота
сварных
водной
##х325
##х330
эксцентри
каната
шпатлев
тяжелые
радиов
сборно
ячейками
УХЛ3
постоянное
тоннеля
светодиодным
пружинным
горячедеформи
железнодорожные
##шивная
быстрос
БСМ
##озиционного
отводами
путепроводов
расстоянием
Ру16
АКП
нитепро
теплоизолированные
рядовые
ламинированная
Агрегат
шагом
кремнеземист
ниппельных
рукоход
##ницаемая
аккумуляторов
диэлектрический
Стеллажи
теплоустойчивой
обработки
Аппараты
расклинивающиеся
Фреза
демпфера
неарми
водогрейные
исполнительный
Экскаваторы
нитепрошивная
1А
2х35
4x25
5х50
Вент
МВт
ОА
Седелка
Уп
Фитинг
лат
мг
туп
##6бр
##ионная
##защи
##уемой
##2000
##ется
##асшир
##стиро
стока
обой
##кот
простой
подок
оцинкованных
##вернут
двухканальный
полосы
70x2
##ластировки
профильные
лоток
пено
018
термостойкая
IP31
газовые
песчаные
балластировки
##х610
Провода
ПБП
##оотвод
##тяжели
500х500
лестничные
шахтный
##укопоглощ
##х88
АСЦ
кромки
тонкост
стоечный
образных
звукопоглощ
##00х220
чугунных
##бШвнг
терморасшир
Брусья
КВВБГ
КВВБН
отдельностоящая
стрелочный
протяжки
шланговый
##М2Т
крестообразным
гнутого
штепсельные
15Х5М
облицованные
предварительного
скобяными
10Х17Н13М2Т
широкой
##МРП
термостатическим
древесностружечные
##заходный
садовая
подвалов
металлочерепи
Вентзащи
Вентзащита
010
1Н
1х240
6500
SC
Гайки
Дюб
КЦ
КК
Орос
Портландцемент
С5
Срок
Шланг
фаз
цем
##уз
##РО
##Тп
##ДП
##lus
изнутр
##гофр
##евым
##альд
прост
10С
полистир
##ожж
длины
2013
корич
##озы
негофр
##ъемным
305
120x2
шаром
016
95x2
400х300
общей
монтажная
фасадная
200х200х
многопроволочными
деревянным
низкой
600х600
##невых
ОКТ
КГЭШ
шестигранный
швед
ПСПКр
разветвительный
##аемый
##оворот
неизолированные
швеллерная
АПвПу
циркуляционные
##епроница
1000х160
пробкой
многолет
канализационный
БрО
##трубной
времени
перемещением
антикоррозий
износостойкости
пневмокол
Рельсы
##чатых
светостабилизированного
##ебедки
утолщенный
резервуаров
технолог
тонкостенный
Дюбели
Ороситель
цемента
изнутри
негофрированный
пневмоколес
2x2x0
3ПКВтп
5х25
5х70
F4
F10
Е600
ЛВ
ЛД
НТ
Оп
План
ПУС
Поворот
УС
УН
ну
сед
фитинг
цик
##ажимная
##хов
##220
##шовые
##Эон
##it
##етуш
##олновый
наб
накид
##ковшовые
обд
проемы
заг
марш
##шень
##оза
##х190
##х195
алюм
Ст22
спар
##x1180
температурой
одноковшовые
мости
опоре
##рующей
электроп
лицевым
шаровым
термостойкого
анкерный
анкеруемой
горизонтально
##полов
стандартного
вводов
огнетуш
коэффициент
расчетным
##x66
М3р
ПвПу
М2р
черная
многос
уплотнителем
пластиковая
пролетные
выходных
##озиционный
14нж917р
отвода
Обои
фикси
СВЛ
М1р
М1ф
Экран
атм
терморегулятора
эллиптическим
глубокого
14нж17ст19
одиночным
запорной
оголовком
14нж917ст7
самозажимная
неподвижных
различных
приклей
14нж017р32
корундовые
жаростой
##х100х110
структурированной
П1б
ветви
14нж17р28
столярных
посыпкой
рыча
радиоволновый
кремнеземистые
тупым
пенобетон
##оотводчик
полистиролб
многолетних
3ПКВтпБнг
##Эонг
Ст22К
050
1х120
2х16
3600
3300
410
690
D600
PR
Гвозд
Лам
М800
Сер
Уд
ФО
ФА
аль
вала
дуг
мая
фрам
##мент
##110
##48
##К1
##фаз
##льха
##ерей
##кинг
наг
##ополит
10x2x0
##екуля
15°
Строения
150х50
##лителя
полимерными
опорного
1800х
коробчатый
2440
##акеты
горячекатаные
195
194
##х45
400х200
SDR21
ЭПП
автоматического
2800
##мм2
##ихся
КПД
прямоугольных
ОКГ
однопроволочными
частью
подвеса
тройной
КВВГЭ
пролетом
закладных
Комплексы
фундаментной
импор
проволокой
Полоса
всех
трекинг
метрополит
##олитовые
Гильза
СБВБбШвнг
Авт
герметизирующие
Глушитель
устойчивая
6х7х19
АЗЕ
##НтпБ
ячеистых
штучная
штамп
ТМЛ
буты
табло
машин
коммутируемый
кулачок
потайной
обойма
Гвозди
трекингу
2х6
3x2x0
F9
UPC
Дефлектор
Зна
Лебедки
М25
СН
вед
ваг
дуго
ольха
рейка
сгор
улуч
фл
функ
##300х
##ненная
##шения
##билиз
##ЭИД
##УТ
##ЕМ
##овентиля
##азка
прос
свай
##изии
наружные
##255
спуск
##x13
1350
150x300
##ранения
однозаходный
опорное
##х300х
пенополистиро
цвета
трехъярусный
##ленное
оптическая
термоди
##айн
листовое
способа
SN10
##огнутый
##голов
##x380
оболочкой
37х0
ППС
ПвВнг
УХЛ2
##корпус
прямоугольник
мостам
##туры
пластик
##утавры
навесные
кромкой
распределительная
одинарные
92x496
92x296
92x196
92x396
##юбинг
ТСС
канализационной
дымовентиля
шайбами
МКРГП
грунтом
поливинилхлоридный
фибр
модуля
устройством
сквозного
Поруч
250х120х88
С120
##ффузи
двигателем
пространств
Стекло
кирпичной
##рабатывания
трехлучевой
цепей
покраской
мастичный
КУПР
автод
##ПвЭ
##ОЛЬ
выпуклый
ответвлений
сальниковый
бурильные
АЦЭИД
Пластины
СЦБ
фальшполов
быстросъемным
Уплот
Знаки
сгорания
термодиффузи
термодиффузионным
F8
А12
Дом
ИП
Мпа
Ом
апер
крош
лив
рукав
тум
хол
хлор
##ские
##мыв
##вы
##де
##йный
##Вг
##нап
##ерные
##кауч
##асси
##очно
##отов
##альных
проник
10х2
##екс
распор
203
##усор
14х2
30x2x0
полной
70x2x2
сечений
опорами
##х230
120x2x2
##окачеств
растворов
прочистки
услож
2700
95x2x2
гладкой
##иваемая
сборная
люком
электромехани
500х50
пенополиуретановые
вспуч
удлиненным
##ряды
рулон
резиновое
дорогах
однополю
черной
равнополочный
торш
##тилкауч
##онагреватели
полоса
Ригель
хризотилцементная
поглощ
##x850
АПвВг
подкоса
Элементы
ТПВнг
ремонтных
1000х1000
прутка
дизельные
14нж917ст25
индикатор
фиксатора
Гидро
вещества
трехлучевые
энерго
детский
сантехнический
минеральными
Колонны
равнопроходная
крыль
первый
поручня
Стеклопакеты
пассажирский
обделки
14нж917р34
дугостойкие
дымовентиляционных
автодорож
##мываль
усложн
поглощающая
2М
3x0
F25
Ат
Бак
ГП
ЗАО
Маном
ТР
ШБ
гим
рукава
##Б2
##МД
##al
##кал
##опласти
##есом
##оклав
объ
##ктос
10х2х0
1280
полированного
##ечно
коррози
Трубопровод
##истый
1650
горячим
150x500
150x400
Корпус
##ранные
водо
повышенный
местного
бескорпус
фланцевом
линии
трехполюсный
крыши
канал
##ованной
анкерами
высококачеств
19х0
теплу
160А
Уголки
СТОП
200х1
твердосп
формы
воздушного
гидроизоляцией
кровельных
855
поворотными
арматурные
полипропиленовых
кранов
кронштейном
термоусаживаемой
накладная
орна
4х18
Прип
шумозащитная
защелки
Арктос
терморегули
двустворчатый
нетканая
бутилкауч
##енсат
ИКБН
Двутавры
крутоизогнутые
лентами
ИКСЛН
фарфоровой
АБС
сливной
терморегулятором
гальванизированной
дизайн
электродвигателем
сектором
укрепления
наливные
веществ
второй
ТППэпЗБ
КПсВБГ
КПсВБН
вяжущем
разноуров
Боксы
##ТИнг
КПЭТИнг
откосная
пазогребнев
гипсокартонные
бандажном
терморасширяющ
Планка
ПУСК
импортной
автодорожных
Манометр
бескорпусная
твердосплав
1П
4x6
4x35
5x2x0
5х95
D500
F150
В65
Зонт
Рез
Тм
ШК
агрег
мусор
ом
роли
х1
хода
шасси
##88
##БФ
##ильный
##ела
##унг
##шня
##бав
##AN
##mp
##емпер
##ельного
##ровый
##лац
##лочные
##алы
##алка
101
тран
50мм
оцинкованными
##истого
металлог
двухлап
##лителем
11Б
##пуска
однолапковые
одноцепная
##рующего
электроизоляционная
178
конструкция
IP68
стропиль
листовым
наклона
герметизатором
фасадные
проходческие
57х3
состоя
экранированных
Огранич
одностворчатый
люминесцентный
пластины
поворотным
многослойным
клапана
14нж017ст
односторонним
##очастот
выхода
стороной
трансформаторов
путевой
футеровкой
волнист
двустворный
нетканой
Колодка
поливинилхлоридным
бессварная
Поршень
метра
пояс
кирпичных
передвижных
природный
инвентарные
фальцевым
электродвигателя
КУПЭВ
штепсельная
импульсным
облицованная
##НИК
канатная
Тумбы
рифленая
фронтальное
Головка
никели
глазурованная
алюмосиликатный
быстросохнущая
тоннелях
металлочерепицы
шведская
апертуры
гимнасти
Тмакс
##емперату
металлогалог
1м2
2100
F100
F12
G3
SM
А15
БН
В70
С8
ЦЕМ
ШН
Шпала
бенз
вакуум
пя
рент
ряда
сф
слаб
##сб
##сси
##мя
##81
##ицион
##уБ
##ПО
##РГ
##АуБ
##М5
##норам
##оле
##омыс
##руд
изделия
##ельный
##есп
стол
##лонов
безрам
##итковая
##новских
##обм
100шт
выраб
12x2x0
зака
дву
марте
трубки
трубок
трубкой
20x2x0
##аклев
объемом
##x110
##идным
1320
одноклавишный
##кладыш
болта
изоляционные
прочей
коробкой
сигнальные
защитном
трехколончатые
конструкционные
##ующими
покрытиями
2200х
горизонтальных
цементном
Креп
тяжелых
##аги
##x32
монтажными
фасадных
стволов
потреб
287
формат
##х105
##x650x200
##x450
решеток
ОКПМ
легкой
231
##россельная
водоотводом
короткого
литые
замыкания
свинцов
шахтные
участков
74x60
поликарбонатной
междроссельная
концентрические
мелкий
ПуВ
ветроустойчивый
гвозди
плавучие
мачты
двутавра
правый
панорам
минеральных
выносная
тиксотропного
стружечных
3ПКВтпнг6
настройки
компенсирующая
сочлененный
КУППмнг
DKC
тупиковая
плинтуса
Диафрагма
звукоотражающая
##конус
ЛДСП
спаренными
приклейкой
метрополитена
проникновения
14нж017ст13
##НИКОЛЬ
рентг
##омысло
мартеновских
1х7
5x1
PV
Б1
Лотки
НЦ
ОКЗ
РС
Рукава
Тра
Тюбинг
ХВ
Шар
вогнутый
зонта
км
куп
нг
ткань
упор
шурупы
##39
##онит
##хв
##ьмя
##К2
##EK
##os
##овитковая
##нивания
##омер
##анельное
##ателями
стабилиз
##ейками
##лата
##облад
сталью
##ющей
конфи
155
##оскреп
141
##кателем
одножи
##олокнистые
кова
300х35
тепловых
колон
17с
цветов
##ленная
##ленных
внешнего
оптического
термоскреп
листами
листах
предельная
##500С
анкерными
400х400
пары
многовитковая
##161
500х400
легированной
049
потолков
домов
одностороннее
кронштейн
Д1П
##скоп
посад
фундаментов
ревизии
естественная
антикоррозионной
АПвБ
КПСЭнг
неоцинкованная
НСО
2х18
МГШ
выключателя
гвоздь
Термометр
ответные
эллиптические
оголовка
секторные
скамейка
наливного
холоднокатаный
конструкционной
Ступень
редукционные
преоблад
старт
Контрг
##рельс
Воздухораспределитель
##оклавный
пазогребневым
сфери
##oss
конфигу
одножильный
преобладанием
525
5х120
АРС
Б2
ЛГ
Р6
ШП
ЭКП
бест
греб
ед
левый
сум
##гба
##БО
##Мц
##амо
##остого
обклад
обесп
##алька
10х0
##екционные
20мм
основы
##ительных
##х115
металлор
широк
005
замками
электр
упак
порог
137
1340
150х80
Коромысло
117
11ч
##раншей
однолопастная
##кладчики
##х295
Смазка
переходом
прокладок
обработа
муфты
высоко
параметр
SDR6
жесткая
потерей
89х3
перфорированные
спирали
антисепти
КМПв
кладочный
##цементный
многогран
##ульфат
армированного
тройник
Коллектор
Д18
автомобильного
гипсовый
ТЗБл
стационарный
витков
##x40x0
статической
модульный
МСС
ВСЛ
втулочный
огнезащитный
химически
сополимера
шурупа
смесей
переплетами
правая
скобяных
сусп
низкоуглеродистой
тарельчатый
оцинкованием
Площадка
неравнополочный
луженый
ККПС
технологи
циклов
нагнет
фибролитовые
Уплотнитель
холостого
коррозии
терморегулирующим
бутилкаучу
##лацет
конфигурации
бестраншей
##гбаум
1x2x0
5х150
B12
FC
F400
Адапт
БЗ
Ван
КИД
ЛЖ
МПП
НР
Оголов
Сем
бло
галог
кос
лес
ру
труд
##54
##рной
##гон
##уры
##чки
##ЭВ
##юма
##PT
##KO
##ec
##енную
##анные
накат
##арта
##мисси
##остроения
##инный
пристра
100А
##ловым
##ющих
отход
полированные
подклад
трюма
корон
бетонной
16x2x0
002
двухлапковые
двухцепная
горячие
##x28
120х120
##х320
пеноп
183
защитно
терми
способом
22К
Запол
21К
горячеоцинкованное
##борный
плитные
песчаной
стандарта
производств
вводами
встроенными
стыковыми
##родейств
ячейка
325х12
одностворчатые
электрический
М27
несамо
кладочные
полиуретан
жалюзийные
растяжения
быстродейств
пролетного
эпоксидный
промышленности
фундаментные
АКЛ
биметаллическая
предохранителя
деталями
горюче
двухстороннее
буровые
импост
композита
2х28
плавкие
##казатель
Соединения
КПГС
холоднокатаные
предваритель
Тумба
молекуля
керамзитовый
фиксации
односекционный
АМг5П
ворсом
габарит
пристав
П220н
лоджий
##ерстя
концевого
шипованная
недель
смазочных
##епроницаемые
улучшен
электромеханическим
вспучивающ
тканью
металлорукав
широкоп
Адаптер
Семена
Заполнитель
молекулярно
1х150
3x1
5x0
6м
665
7х2
CГ
D800
DAL
F200
FOR
LC
Py
ST
ВП
В80
Галька
ДУ
ЗПС
КИ
Каркас
МГц
ПЛ
Рог
ЭКМ
бент
включения
камер
поля
паст
праймер
съемная
##97
##76
##ГОСТ
##ях
##KA
##ставка
##абир
##ровые
##рационные
##ложения
разрез
классы
##итовый
12П
конь
закрытия
заложения
наружу
соэк
подачи
40х30
##етил
теплообм
спус
##x165
##идный
##изоляция
##ваемые
##х28
##х200х
компенс
182
стойку
шаровые
##ентированная
19х2
цилиндровый
Перг
##ежущ
крупности
коллектора
каркасы
плитная
плитки
нагрузке
200х150
состоящ
воздушные
допустимой
##х58
перфоратора
комбинированное
КС5
легкая
остат
рулонным
измерительным
##язев
ПСО
кольцо
путей
орга
##струдированными
пластмассовый
сварочный
специальные
ТЗЭ
##ляемая
древеснов
##x405
предохранитель
зерка
пропитки
искусственных
##ПКВКтнг
Расход
вибропрессованные
С110
бумажные
композиций
кварцевым
прозрачным
трамва
крестообразного
Качалка
мачтовый
ТППэпБГ
двутавровая
детей
Конденсат
##x96x3
супер
графитовым
подземный
##x72x150
АКВВГ
шторкой
##TECA
бухте
этажей
межфланцевый
высоколегированных
пигментов
наполнением
колючей
пенополистирольные
состоянии
металлогалогенную
обеспеч
накатка
несамоходные
DALI
FORTECA
##абиринт
соэкструдированными
2х25
3А
5e
5мм2
7х4
7x0
7x2x0
Dan
FT
F50
F15
R80
АIII
Вод
Гросс
Зак
ИС
Кер
МР
Трос
аз
амин
бак
беж
паркет
позиционного
шпилька
##рен
##защищ
##лые
##деталь
##п1
##бционный
##СС
##АТ
##фуз
##foss
##строй
##оллер
##тал
##новым
##обили
##еприем
##очка
##ально
полиамид
кабельным
15с
169
один
замок
двухколончатые
кажд
##онах
водя
##утеп
бесп
колот
затвор
Контей
внешних
термок
анкерного
высокочастот
строительный
МКУ
дверям
КВБбШв
телескоп
перфорированной
заземлитель
решетки
##рядные
26161
керамической
коротким
подвесные
Электровод
АПВБ
##онагреватель
образной
##192
несущего
##станции
закладного
граненая
моноб
Ру25
наполнителей
рельсового
патрубками
АПвП
КУГПвЭ
алкид
АСБГ
хомуты
тротуарные
бумаги
бетони
раствора
атомной
одинарным
модифицирующих
жидкост
дополнительный
желтый
перепад
терморегуляторами
##гораемый
факт
Растворитель
розет
чистящий
энергии
шлагбаум
учета
учетом
покрытая
##Пвнг
инъекционный
Колонна
микрофонный
Ступени
топливо
УТ2
эмалированная
приемо
фосфор
собранные
двухместная
одноместная
Компрессор
тумбы
крыльчатый
усложненной
высококачественная
транз
Оголовок
Пергола
Конденсатоотводчик
Danfoss
бакели
Контейнер
КУГПвЭПвнг
шлагбаумного
4ПКВ
4x120
5x35
680
715
880
8500
975
B1
BF
MB
M10
mm
ВКС
ЛО
ЛУ
МШ
НЛ
Н13
Праймер
С9
СУ
Т2
ФУТ
габ
доля
ни
пакет
сов
текст
##ряж
##раты
##оечная
##ги
##иков
##ицид
##ЛВ
##М3
##AS
##OS
##нах
##омасло
##емых
##ополимер
классов
##итраж
##очкой
обы
100х200
соот
подлок
распред
157
1580
неутеп
405
##учих
006
плотном
30х2х0
250x120
6050
однод
однофаз
##олокна
оплет
углерод
035
184
склонов
крыша
##дающая
SN192
света
зажимом
каркасных
серебр
массива
СБл
##ающихся
высокопрочные
потенци
транспортный
##13нж
очень
электромагнитным
ПвВГ
нормальным
брусчатка
КСФ
кровельные
мостостроения
КМПВ
инер
эпоксидных
МЛУ
гильзы
##00х1000
неразъем
антикоррозионная
открытом
парапеты
броней
свинцовыми
SN128
LOKA
выключателей
петель
разборная
пробки
5х185
кварти
ААГ
##x205
сифонной
сорбционный
перегородок
30ч6бр
##онирования
АЗД
перенапряж
покрыт
двухпозиционный
ААБлГ
керамзитобетон
настройкой
пбв
низкоуглеродистая
##кислый
пескоотделитель
пескоцементный
нешлифованная
задвижки
ПвБПнг
Связьстрой
пневматические
Лестнич
рукояткой
подоконная
нулев
полистиролбетон
ФАИ
маят
Поручни
конструкциях
бензомасло
пяти
кованые
термоскрепленное
Р6М5
суспен
##лацетат
пристраиваемая
транзитный
подлокот
Связьстройдеталь
бензомаслоотделитель
0000
080
F6
RJ
Винт
Гр
ГВ
Мости
М14
НВ
ОТ
Пет
УП
ЭМС
аб
абр
бана
мобиль
опа
секция
сотовая
срабатывания
хранения
чет
##аки
##ратор
##клер
##груж
##160
##тон
##МК
##et
##николь
##ером
##ето
##олаз
##линитель
##гоны
##есители
##лочным
100м
##ивид
##люс
трубой
трубной
трубками
расп
##спира
20х2х0
##истой
Стерж
двухклавишный
##x170
электрон
##иде
минерального
##x291
1120
250х250
водон
профиле
стойка
переходного
контактный
Концевая
IP23
встав
винтовые
каркасов
##агни
КМ1
##невая
поперечен
34А
##робезопас
Комплекты
##x55
Щиты
полипропиленового
потолка
армированный
торцевой
образные
образного
2960
4х14
подъемный
СКУ
состава
искробезопас
799
статичный
пустотелые
невыдвижной
буквы
алмазный
подводкой
охлаж
жидкое
неперфорированного
сопряж
композиционных
светофоров
Шпатлев
запорно
Металлоч
индивид
ФБС
импульсной
САМ
турник
СБПЗАШп
планкой
пигтей
малой
доборный
Автомобили
вершине
интер
светопрозрачных
Технониколь
фрезер
спинки
##акрилата
Землесосы
пластинчатый
заград
##х195х75
бутылочным
Домик
Припои
твердосплавная
##пускания
корончатая
пенопакет
Расходомер
аминного
АПВБШв
АПвПг
Компрессоры
Мостик
абраз
четвер
искробезопасном
Шпатлевка
Металлочерепица
индивиду
пигтейла
2х50
4x0
5х0
5x6
6А
610
R3
Zn
БК
Бум
Витраж
ИОС
Лесом
Мой
Насти
ОГ
С7
Сред
С100
Цемент
вт
сув
сульфат
##3300
##оцемент
##мар
##ган
##нем
##1000
##БС
##иос
##лс
##ывающий
##дания
##ятка
##по
##оволокна
##ород
##енном
##ругл
нач
излива
##мера
##инка
прожектор
вырав
129
сверх
##соедин
##имости
оспо
бетонного
##ированным
004
арго
двухполюс
##ветств
30А
##онаж
1340x1
полуф
сварка
32А
##х260
##ушки
рабочие
300х250
базальтоволокна
стойке
цвету
наполь
канатный
##1700
##ующий
##русель
высокот
400х400х
газов
##ага
##x341
песчаными
отдело
муфтового
##х600х
СБГ
##алубка
шлифованные
переменный
Ду100
точек
##х57
##ящих
##атериалы
грузов
однопольная
146x45
быт
свариваемая
IP55
##ыша
699
РКУ
шпунтованные
образными
##00х250
уплотнительными
конусный
ЛС58
декоративно
акрил
взрывобезопас
Вентиляторы
волнов
передней
четырехполюсные
мелкие
ригеле
размет
скреплений
D1400
4х4х1
ветровой
дистанционная
рукоятка
использованием
эллиптическая
СБВБПу
##ающийся
800х800
розетка
##трубных
скамейками
УГВ
УГН
расширением
окраски
кислотный
кислотоу
укороченная
ЛМц
шкафное
СБВГнгЭ
фактуре
держателем
натурального
старогодные
нешлифованные
ВСт3сп3
ВСт3сп2
трапециевидная
Cat5
ромби
необрезные
адаптеров
многоцветный
воротниковая
##раструбный
облегченного
595х595
АКПсВБ
##альдный
Опалубка
рычаг
спускным
торшерный
орнамент
рентгено
стартовым
суммар
обкладок
##ежущей
телескопи
соответств
Лесоматериалы
сувальдный
5600
6АтVТ
B2
EP
EU
KM
OS
А8
АЛ
Ант
А16
ЛН
Меле
НД
Нипп
ОКС
ПА
ТПВ
ХКП
ШТ
брев
ван
валь
гол
их
кату
кПа
нем
плава
сцеп
седелка
тони
указ
фанера
яд
##х900
##БГ
##99
##СНД
##МА
##EC
##ночный
##овки
##руш
излив
изог
##ционирования
##лоз
##осты
##евых
##олиственных
##ког
10х4
дожд
двери
50х1
##озабор
1525
##x15
##x140
##x1400
ката
прямост
Корз
##рант
одноб
водяной
##ушп
##атируемых
площадка
профильной
фланцевых
034
##903
шаров
1750
трехмер
воздухозабор
шпаклев
экраном
МКП
108х6
плиткой
КВВ
вентиляционный
монтажным
массовая
производства
СБПу
твердолиственных
ЭПМ
стаканным
##уди
КПП
круглой
##x480
##х592
600х300
600х500
одностворный
бытовые
стержни
стержней
усиления
##ообраз
торцевые
содержащ
тройным
тросостойкой
DN200
эпоксидно
Полотно
##леватор
##станций
накладок
вытяжные
оборудованием
реа
рееч
камыша
компрессионный
разрывная
штуцер
АПвВнг
пароизоляци
дренажный
центральным
##орезы
двигателя
огнезащитная
сиденьем
1х185
ОКЛм
светильника
термопласт
одиночный
одиночных
резерв
розетки
полукругл
СБПЗАБпШп
Накладки
СБЗПБбШв
СБЗПБбШп
##латформ
КУППнг
10Х17Н13М3
ААБ2лШв
ТЗПп
Карусель
вязкость
топливе
приспособления
СБВГЭ
СБ2лГ
рисунком
СБЗПуЭ
телефонная
горячедеформированных
1НФ
электропровод
огнетушащ
функцией
разноуровневых
никелированный
##АуБпШп
нагнетания
бутилкаучуковые
Ванна
древесноволокнистые
супертон
высокочастотных
бетонируем
текстур
Винты
Петля
опаловым
катуш
ядра
воздухозаборный
10Х17Н13М3Т
1х400
235
4х10ок
590
825
F90
IEK
RS
SP
Виде
Г3
Кап
Останов
Паро
Рам
ТВО
Фед
ауди
брез
баш
душ
ев
зет
клей
спр
тита
шест
##мовой
##мента
##тные
##лых
##енов
##x85
##ЗП
##ьев
##ЦП
##4А
##ДД
мм²
изготовления
##окамер
ступен
##лота
##ковых
##хода
1067
полим
подним
2011
перегор
##яжка
254
2500х
25х20
1550
16А
40х20
жильного
расходом
двухтрубной
калит
##паковые
##x210
113
250А
резки
32х25
площадок
Смола
038
27х2
27х0
крепление
полиэтиленового
##ленным
горячекатаная
19с
горизонтальные
##х400х
переключ
655
пожарные
цоколе
твердом
потери
постельная
полиэфирная
верхняя
битума
##х510
700x500
600х400
159х6
мостовые
мостовое
##x710
композитные
##x510
арматурных
арматурной
инф
водоотводных
потолочная
усиленного
Геом
пресса
уплотнительная
автомобильном
акрилат
специаль
защи
мрамора
внутритрубный
междушп
ВРГ
встраиваемые
МСБ
D1800
всас
ламинированные
скорости
модифицирующими
ТАС
##x161
ТПО
900х900
Шпунт
сложности
Гидрант
турб
турника
чистящая
металлополимерные
стружечные
переезд
Кондицион
насосов
радиаторов
1000х390
качественной
приспособлением
##x2780
Катки
КЛЛ
##ЕКТ
укрепляющих
упрочненная
Теплоизоляция
простого
пневмоколесном
##хово
##отовское
агрегата
потребляемая
##хват
АПвБШп
Контргайки
гребня
##ерстяное
распределения
однофазным
неразъемное
профилемера
Бумага
двухполюсная
Антен
Мелехово
НДГ
ОКСМ
Корзинка
реактор
полукруглый
супертонкого
Остановка
Федотовское
поднимающийся
перегорания
Кондиционеры
1х54
2300
3800
5ПКВтпнг
7х6
D1700
F7
F14
G4
ИР
М32
НЭ
ПУ
РЛ
С4
С255
Утяжели
ХЛ
ХКМ
вкладыш
дюб
мини
молот
моза
ним
ошип
сол
тис
тела
шат
##реж
##кую
##ской
##муль
##х85
##Ф6
##ПУ
##ДР
##IKO
##ЕЛ
##ST
##стр
##сточ
##олеф
##орми
##оренные
##кации
##емя
##аболи
##циям
##лаг
##рых
##ково
##ину
##инклер
приз
отрез
проника
10К
полиолеф
##остойкий
подсоедин
##ниточные
тремя
50х25
передачи
151
16Б1
Стул
14x2x0
смесь
поршня
##урьмя
прямым
установленная
полимерно
однотрубных
Проб
Прогоны
##х210
##х280
теплоизоляции
рабочих
отверстием
##х31
037
188
177
017
крышный
24П
600x500
воздухораз
IP67
##опроизводительность
коллекторов
параболи
##ивающая
герметизированная
##x3200
изолирующее
##х625
##ПКТп
##ракрас
усилием
градус
КМ5
Ду50
битумом
##родных
##снаряды
##х76
648
поперечный
рулонные
несъемная
глубиной
##x75
композитов
известковые
##х892
полиуретановой
подвесного
530х8
53086
остекления
тросостой
Колпа
штырем
концами
концентр
пластмассовая
подъемно
волнистые
вращающихся
передняя
выводом
А2А
откидным
откидными
взрывозащищенные
теплоизолированным
D1900
погружной
модифицированный
ЛПМ
АМг6
органическое
бронзовый
стрелочные
тяговым
деформационных
LOCA1
эксплуатационная
шлангом
Вставка
бесцветная
Земснаряды
Держатели
покраски
атмосферостойкая
диэлектрическая
Ящики
трактора
помещениях
фильтром
преобразов
светопрозрачная
цифры
Переводы
настилом
ультразвукового
аварийного
дальней
Аккумулятор
соединителями
многоскатной
Удлинитель
машинного
однополюс
свинцово
PVC
ШПД
блока
отходящих
состоящая
трамвай
ниш
электронным
Средство
волновода
разметочные
ЛМц58
Ниппели
вальмовой
МКПп
брезента
спринклер
Антенна
шатровой
полиолефина
воздухораздающая
1К
2х10
3з
3К
3x6
3ПКВтнг
5x95
620
7х4х1
8П
810
CM
F13
M25
Te
А3
А24
Д2
ДГ
Дат
ДКС
ИО
К60
Ката
М30
Рос
Фонта
Цикл
ЦСП
Шум
вов
емк
пул
пить
роб
эв
эласт
##кам
##ситель
##оглуш
##м3
##ил
##иционирования
##тру
##цесс
##78
##750
##О15
##in
##DM
##ME
##ЮР
##ноори
##нокислый
диод
извещ
##арителя
##новых
100х2х0
##отное
отшлиф
12х1
1225
##адка
201
2020
перев
периль
156
16000
испарителя
##осноори
Ст1
143
##неной
расхода
##x14
портом
138
200x190
45x796
##x2400
250х150
250х200
300х400
300х150
Извест
##улки
высше
95x796
95x596
95x996
трехрядный
конструкционный
конструкционная
оптических
обрам
1920
двойное
паровой
##ствия
##борник
##ромког
соединениях
##агонка
108х4
КВНтп
проходная
направление
пожарным
##кользящ
##ратной
ЛКП
телев
питающей
двухслойное
сухого
верхнего
##х500х1
М36
600х400х
500х300
630х12
брусчатые
решетками
КСк
КСПКр
ОКМС
люминесцентные
клеящ
относитель
##компонентный
глухое
светодиодная
Щитки
равными
быстр
лить
несущие
DIN9
выходное
ПРГ
ССД
конце
ремон
оребр
дымо
ФСПКр
декоративного
Приб
##x1080
##x1030
входа
592
среднеповоротное
87x54
110000
четырехрядный
стекломагни
виброформ
обсадной
Полосы
Установка
струны
щитовая
ниппелями
Электропривод
кондиционирования
ПТА
Сверла
буровых
охран
эксплуатируемых
звукоизолирующих
пропитанной
Термостабилиз
тополь
3х4ок
сливным
утепленные
стеклокомпозитов
прозрачное
низковяз
СТДК
##х1830
ТППэпБбШп
смеситель
баскетбольный
планками
рифления
тиксотропные
башен
чаши
##нутрь
разъединителями
14нж017р31
осветительный
подземных
строениях
шумопоглощающей
АКВВБ
тарельчатого
пешеходный
старогодная
паропроницаемая
наборные
мелкозернист
антенный
кремнийорганическая
Д16П
шлифовальный
ПЗК
гидрофобизированные
СППК4Р
Кабели
эксцентрический
шпатлевания
1х240мк
наборт
накидной
жаростойкой
2440х1830
##mper
гимнастические
##сбер
купольной
полями
теплообмена
оплетке
Грязев
абонент
заградителей
Мойка
АЛЮР
плавающим
термопластовых
инфракрас
тисненой
призмати
спринклерный
Temper
Фонтан
Циклон
вовнутрь
емкост
пултру
эваку
эластом
отшлифованного
##осноориентированная
высшего
##ромкоговор
оребренного
Термостабилизатор
пултрузи
020
2Н
2x0
3ВС
3МРП
5П
6100
7600
D900
IS
M8
NC
NPT
NIKO
Zн
ВМ
Виб
ГТП
ДС
Диф
ЕС
Кис
ОН
РГ
РМ
ТЕ
Ткань
ЦВ
бач
готовый
козы
лам
пл
сот
так
ушко
х20
хлад
х16
чу
##рет
##кл
##мет
##месители
##120
##БР
##тки
##шные
##чными
##СК
##щель
##es
##cов
##ZH
##нагрев
##ерной
##линд
##линей
##леивания
диск
нащель
##оплав
##оприем
##цилинд
##авт
##епар
номинальной
пропускания
##аланд
##ходовой
10х6
12x0
1285
светон
конвер
согл
подв
501
перег
бетонное
##истер
нелиней
1620
Плитки
приготовления
Стяжка
14000
303
301
##x12
##x19
упл
139
119
11КV
опорой
##х225
##атории
LSZH
резьбового
шаровых
172
17нж
защитой
нижняя
7500
##ленный
##ленного
конструкциям
##ийся
красная
028
автомоб
газовых
газобетона
##x370
##x331
регулировкой
открытый
33К
деревянными
точке
500х5
цокольные
##незд
прямоугольная
369
Подвод
Подкладка
рулонных
пружинная
133х6
041
регулируемый
##ыванием
##лучатель
промежуточных
пластина
футб
обшивкой
ТСВ
специальное
поливинилацетат
рекламной
периметром
конические
двухстворчатые
дисков
направляющие
Полоз
монолитная
монолитного
струй
##ПКВКтЭонг
бетоном
обыкновенная
Предохранитель
двупольные
матовый
топлива
РПШЭ
ответной
СБВБАБпШп
нефти
дополнительной
электродвигатель
Люки
доводчик
основаниям
двухсекционный
##клавишные
полуцилинд
чистящих
сантехнические
1х70мк
плете
плетения
тракторе
разъединителя
1140x1400
Кали
геотекстиля
опресcов
5х6ок
бухта
обвязкой
форточкой
переносной
вентиляторами
ультразвуковой
необрезная
латунными
неармированная
фиксирующий
Лампа
фрамуг
энергосбер
перепада
охлаждения
абразив
суммарная
огнетушащего
Паронит
турбинный
подсоединения
Шумоглуш
1920x1080
призматическим
ISO
Диффуз
чулок
соглас
полуцилиндры
опресcовку
энергосберег
1х37
2Ф
2х58
4x95
5к
5х10
5x25
5х10ок
730
915
A3
APC
CT
ID
LV
plus
Бар
Вата
ГР
ДК
ДД
Зав
Лабиринт
МЗ
Мар
Нат
Над
ОТТ
РЭВ
СФ
Стр
Суб
Тренаж
Унита
ХС
ЭК
бери
склад
тексти
урав
умываль
хк
чех
шти
№24
##риз
##сополимер
##мещ
##модуль
##Б3
##ып
##941нж
##ши
##чер
##49
##СМ
##ТУ
##АП
##ХНО
##od
##ём
##оребр
##лита
##лизи
##атом
##азовые
##ровочным
##авиль
1230
две
подстанций
##адгез
осад
50х2х0
##сперс
204
20х3
перего
251
25х3
неавт
40х25
Ст6
##еллю
##x146
ручные
упруг
##локс
1370
установкой
облицовочных
##x2100
полное
металлического
##пис
##атический
самос
##варные
колонный
27x2x0
трехслой
24х0
##ещения
напы
IP30
##ующего
горизонтальным
##х48
##х47
центрифугированные
400х250
4200
37х2
37x0
200х300
ППР
##инии
##иницы
сборочной
КММ
##ущий
##x610
лестницы
Ду40
утеплителем
##x4000
##x412
500х150
термообработанные
##ласта
159х8
универсальное
КГЭ
известково
колодкой
##x250x219
стержнем
часторебр
##ывания
ТКР
кромками
общественного
замыкающим
двухкомпонентным
зву
Полотна
ПРО
карб
заземляющими
клееная
КОП
ВКР
фиксирующим
Насадка
бункер
березовая
КПСВЭВнг
F170
взрывозащищенная
D1300
забивной
##ющаяся
обрезными
профилированная
профилированный
Основные
##ллиевой
поддерживающ
металлопластиков
тяговое
##ульсия
Шпалы
термопласти
14нж17ст1
счеты
водопровода
мягким
##огранич
СТДТ
##ницаемость
опрессовкой
##х188
КТП
планка
наполнителями
стопорная
##x183
крупнозер
4х25мк
100x300x2000
чашей
плетеная
100x400x2000
4х70мс
самоклеящиеся
4х35мк
100x500x2000
калибровочным
пешеходное
Площадки
15кч18
анодированные
ШУДД
овальный
##икацией
отвердителем
дальность
брусьях
домкратной
##лепки
КЦКП
БрОФ6
антикоррозийное
PRO
ведущий
просечно
крошки
поясами
единицы
обработанная
параметры
многогранная
бестраншейного
термически
Заклепки
совмещ
перенапряжений
Лестничный
Стержень
четверок
взрывобезопасном
немерной
однобол
реакторов
##мульси
##урьмянистые
градусов
питьевого
Известь
ТЕХНО
поливинилацетатная
струйная
Субмодуль
Унитаз
бериллиевой
хкщ
чехлом
штиль
перегонов
неавтоклавный
часторебристого
065
1х500
2m
2МСР
3ПС
3МСР
4400
475
5ПКВтнг
6x2x0
785
8x2x0
LD
Ral
А500С
Гип
Ин
Лаз
Пруж
РА
Скал
Указатель
Центр
Шина
ЭБ
ЭКС
вд
гров
лавка
пв
рей
рай
съем
счетчик
ук
уго
эж
##310
##аний
##служ
##нного
##ееся
##утая
##700х
##Ц4
##шающий
##бит
##Ф3
##ЛП
##ЭВнг
##Та
##УК
##АУ
##фейс
##ER
##ЧМ
##eb
##ование
##ста
##олиней
##амма
##кированным
напорный
нажимная
##ровагонка
сточных
обе
1001
100х65
##кообраз
отко
оттяж
1070
126
124
1270
##екционная
заст
запорные
##ечек
оцинкованного
1520
неоргани
##х165
прижимная
##осный
1400х
замковой
30лс
качения
минеральная
##x260
Втулки
показ
водона
водораз
ПВД
32х20
металлическими
##ушка
повышения
профильных
пести
18000
верев
173
угле
600x600
проклады
##анав
экран
##175
строга
листового
##тивных
19903
цементный
вставка
теплый
024
400х150
##ивающие
плоской
Ст3кп
125А
6320
монтажное
проходки
450x250x200
регулиров
375
наконечник
автоматики
многопанельное
транспорт
АВТ
Переходник
пилено
противос
273х10
273х11
цинков
цинковой
круга
Ду200
##x410
##х550
380В
##формат
500х250
устройство
заземлителя
325х8
36В
наклонных
Скреп
инстру
14637
046
полипропиленовой
армирующая
часть
влагостойкие
воздействия
##лучевая
учени
пористый
двухкомпонентное
DN150
сжатии
категорий
4320
##ротруб
стыковой
3960
опалубка
320х320
подъемом
угловое
мрамориз
параллельная
##ппЗП
68х13
тройникового
име
Сегмент
АПвБШв
долей
КПСнг
поливинилхлоридной
ОСГ
акрилового
отсека
действующий
подставка
D1600
дренажных
двухстороннего
ПТМ
профилированные
3х50мк
ТПппЗП
Эмульсия
пленочный
1х16ок
1х16мк
ОКЛнг
А4А
пазовая
утепленный
##закированным
14нж17ст10
##насос
мембран
неподвижно
Диаметр
различным
электротехническая
КСПВ
втори
двусторонним
двустороннее
4х95мс
3ПКВтпнг10
пропускной
ОДК
ОДОСП
укороченный
разнородных
геотекстилем
4х16мк
1х95мк
обвязка
перенос
настила
антивандальная
подвижные
датчиком
домкраты
ВБбШвнг
неармированной
латекс
коричневый
коричневая
3ПКВтпБнг6
3ПКВтпБнг10
альзакированным
штампованный
ливневые
##направ
дизайнерс
сферическая
БЗН
КПГСН
Py40
Каркасы
праймером
##етилмет
спуска
обеспечивающая
термоклей
интерфейс
аргоновым
голуб
прямостоечная
полиметилмет
специальном
##режд
отрезной
Пробка
Датчик
мелкозернистого
инфракрасный
Кислота
фрамугой
Надставка
Тренажер
ТЕХНОНИКОЛЬ
Скалолаз
эжекционный
##eber
полиметилметакрилата
1В
295
2МРП
3П
3х10ок
4м
5Н
5x70
6х4
8600
Cer
D1500
F11
FTP
Plus
UT
БФ
БТ
Банда
Вр
ВГ
ДВ
Ель
ЗШ
ЗВ
Ков
Лм
ОЛ
ОМ
Поли
Пожар
Паркет
С0
Теле
ХПП
ЭКВ
гнезд
дрен
зар
кросс
туг
х25
хлоп
цистер
шлей
шунг
эмисси
##ационный
##рш
##сек
##зов
##зам
##лами
##вяч
##xН
##ьга
##бир
##щики
##ЭК
##МБ
##ферных
##олосный
##анг
##лян
налев
##емян
##аза
##опр
##есеч
стоя
##обор
##рубные
##ностей
обез
обжимная
##ловый
##ктогр
выпуск
107
10°
122
12х0
##изит
##остойких
наружное
трубная
##егист
207
20х1
##фикатор
перлит
25х16
неот
##х145
Стп
крю
147
двухконус
огранич
30x30
##лопаст
установке
полимера
##x270
##ешивания
##онтакт
80х40
##ибра
60х40
одноцепные
##х22
##х2440
электроизоли
мало
110x72
110x66
300х400х
##отая
##улы
переходов
колес
27x0
174
сигналов
сигнализи
ковшовый
013
внешним
прокладочный
термов
термог
##500C
660x1180
связующего
224
2250
197
19x2x0
##х41
##х480
##окис
герметичный
76х3
светлая
414
газообраз
##лейки
2000х3
##росовое
##цепы
##иваемый
направо
180А
наконечников
АВО
##реобразов
лестница
Ду150
##нези
нормальный
3150
219х10
ОКП
клеевой
черда
червяч
техническая
ПСт
##носиликат
##x505
закрытой
шарнир
цилиндрических
цилиндрическая
звень
термоусаживаемый
штырь
закладные
обшивка
ТСО
ТСВнг
уплотнительный
клиновый
дубли
дубель
гипсовых
Прист
9320
СКТ
499
параллельных
неразборный
добавлением
8320
ШВП
разделения
826
821
гидрофобизи
двухкамерные
F115
взрывозащищенного
отсут
Арматурные
Электростанции
врезным
силикатная
силикатным
НСУ
водогазопроводных
кривой
щебеночного
260x50
Портал
центральный
4х4ок
ВВГЭнг
рамного
проточный
протечек
##епроницаемая
искусственного
сопротивления
загрязненных
зеленая
780x980
2х2х1
3х16мк
сливами
перекладины
ртутные
##х1525
дизель
950x600
4х6ок
пару
узк
СОАС
3х6ок
бактери
активных
равнопроходных
фигурная
доборная
1140x1180
Прожекторы
шумопоглощения
780x1180
бутовый
комплексный
##акуумметр
4х150мс
форточной
рисунка
100x200x2000
Категория
бараб
микротрубочного
##10ПИ
БрОЦ4
Серьга
пространственного
1340x980
МССД
труднос
производственный
органосиликат
моноблочные
фосфористой
4ПКВНтпБ
1577
1580х100х110
Р6М5Ф3
прожекторные
##онажные
1340x1400
высокотемперату
шпаклевочные
евровагонка
Геомембрана
защищ
мозаи
перильное
ремонтный
##esit
нащельниками
Натр
##черпаковые
##еллюлоз
металлопластиковых
Пружина
районах
угольный
откосов
ученический
мраморизованного
Ceresit
Бандажи
шлейф
шунгизит
эмиссии
налево
электроизолированная
сигнализирующий
органосиликатная
0ок
2x1
265
470
5М
B40
D300
F20
F75
M150
Громкоговор
ДМ
Желоб
Кв
Наб
Пл
Пнев
Пульт
Роли
Сосна
ТМП
УО
У10
ФЯ
Фло
Шов
иных
кп
кот
меш
нет
оформ
порож
пай
реф
рестав
рефлектор
срок
ткан
утяжели
х32
чс
элит
##сия
##суль
##оев
##мации
##89
##61
##итами
##тросовое
##ватории
##ужения
##Гпс
##черный
##КА
##ЭЭонг
##ОН
##эласт
##ti
##ic
##ac
##MA
##оло
##личи
##енер
##ельно
##гозащищ
разр
##аянных
обте
100х1
100x2x0
##отвоз
прошив
##екрывающ
зах
двускат
50x2x0
206
2021
##ительная
##х116
##х135
##х138
шифера
##учные
железобетонной
008
двухуров
30x0
##x1100
портов
200x100
##изоляционной
##x22
1195
250х100
резная
однонаправ
воде
болтов
##15нж
базальтокомпозит
саморезы
##икет
Ответв
24x0
24x2x0
самоотвоз
синтетических
пиктогр
##елейной
гладкую
высоком
высоког
19x0
21КV
##ежкой
стеклопластиковых
песком
сортового
##x36
оболочек
акватории
33КV
СБС
лампы
180х180
питание
Переходники
формованной
противо
люч
воздушника
Ду15
##х55
лопаст
500х600
##аженными
##х750
заземлит
##оперекрывающ
шамотно
ОКМТ
контроллер
649
##комплект
##композит
грузового
вспененной
запаянных
стержень
потолку
армированное
навесное
отверждение
коррозионностойкий
грунтовый
односторонний
DN300
сжатию
накладными
М8П
5632
гранул
карли
##АБп
##АБЕЛ
декоративным
Ру40
##ляемой
момент
емкости
фундаментный
494
передающая
рельсовые
четырехтросовое
тройниковых
размы
подстав
дренажным
болтовой
погружения
растворителя
16523
##41п
сверло
тканого
250х120х140
деформации
скоба
рамой
проемами
загрязнений
огнезад
пропитанные
##образной
3х25мк
ПДС
стеклянный
Фиксаторы
ответными
спортивных
##х1390
700х500х
тоннель
потолочного
виш
атмосферных
F215
перемычка
Подъемники
1х25мк
шурупом
арочный
##местная
шлаковый
Подвеска
2ПГ
перемещение
Перегородки
1х2х1
бака
ножками
вяжущего
4х120мс
графитом
Стеллаж
теплоустойчивых
780x1400
Автоматический
натуральный
стыкоперекрывающ
5х4ок
пылев
рельефные
паропроницаемость
ПВСнг
отвердителя
изменяемой
4х240мс
##x1807
МКВВЭнг
клиновидной
большой
30245
фитинги
алюмо
##x380x219
рукавов
индикатором
200х100х
##бавитель
двухлапчатый
стропильные
Ограничители
вакуумным
МГШВЭ
Термометры
быстродействующими
импостом
вспучивающейся
##х287
зеркальной
Электроводонагреватель
розеткой
715х1390
квартир
покрытые
дождеприем
шаровидным
зетобразной
параболическая
преобразователи
робинии
обрамлении
набортный
Грязевик
светонепроницаемые
конверты
автомоби
Диффузоры
##сополимера
одноболтовые
Гипс
застежкой
прокладываемые
строганого
регулировочная
противоскользящ
имеющая
дренчерный
тугоплав
##оборотный
термовст
газообразное
трудносгораемый
Громкоговоритель
Пневм
Флоат
порожки
пайку
рефлектора
элитная
базальтокомпозитная
самоотвозные
##АБЕЛЬ
0м
1x
1х36
2м
2х70
4ПКВтнг
4x70
5400
5мм²
696
6700
8А
A15
B5
B0
Son
БМ
Берез
Баки
Б3300
ВВ
ВОЛ
ГМ
ДТ
Е1
Жид
Мер
ОЗ
Пнг
РЗ
Ради
РДП
Слив
ТВ
УПВХ
Фай
ЩУ
акации
ерш
зуб
мод
молоч
оран
поч
регулятор
сетка
сепар
тун
фона
флу
цанг
шне
элеватор
##53
##5х2
##ационные
##рес
##ратором
##кв
##кра
##сВГ
##оци
##оогранич
##лнг
##лазу
##ГА
##ГМ
##плош
##пельного
##НТ
##НУ
##IV
##ХП
##±10
##mm
##ЕВ
##ra
##нообраз
##овочные
##ерт
##ерб
##оресцент
##орежущей
##лест
##ант
##антов
наличи
диаметрами
##ельной
##азут
##опоток
##абили
##ровочные
##рыз
беззам
##обум
##обазовые
стальном
##ющего
процесс
##ходная
10Х
двуж
осевое
##егазопровод
внутреннее
##фильного
перели
перовой
##озащит
15ч
нелет
неэк
16ч
##х1500
алюмин
металл
##опровода
прилаг
##лапчатое
##x17
##идные
##атывающ
150х350
установочными
45x996
118
116
полным
резные
резных
погруз
водных
Против
326
##х27
##х273
##струйный
300х300х
351
35000
беседка
##иками
переходными
литая
колонн
колотая
креплении
защитными
нижнего
горизонтали
95x96x3
трехзначный
##ленными
горячекатанный
##рузчики
предизоли
##крыв
##чатобум
анкером
шпал
22КV
##тивного
1980
Пересеч
212
накоп
08Г2С
строительным
##1250
винтовым
##ствую
Крю
проводимости
общее
108х5
##ужные
##штучные
проходок
холодная
высокопрочной
твердое
квадратными
воздушником
воздушниками
КМ2
экранирующей
##x650
##x640
##x630
700x650x200
перфорации
600х150
600х250
10с67
10с67р
500х6
500х200
500х500х
500х350
цокольный
пенополиуретановый
антиадгез
решетчатых
159х4
325х10
рулонная
акустические
несплош
Материалы
магния
055
##ационная
##x750
Балласт
известковый
многослой
многоструйный
##x580
крестовин
##одержащ
048
52х1
армировки
торец
неров
навеса
частот
растяжению
53085
пролетная
упругоза
DN400
280x190x100
вибрационные
клиновой
асфальтобетона
реак
реабили
пластмассовым
##x109
Облучатель
##пирающаяся
ТЗАШп
##00х120
камне
МКРП
аэратором
волновые
емкостью
столбы
анкеровке
##x920
игровая
траверс
бронированного
долом
монолитном
480x480
##ионным
струновой
D1000
D1100
контролируемых
НСПКр
10с967фт
свинцовый
спиральным
##ПКВКтЭЭонг
обрезной
220000
стяжные
14нж17п29
однокамерные
насад
МГУ
рамки
жидкий
3х35мк
петли
М450
деформационный
матри
Брикет
архитектурного
раздельный
троллейбусная
У110
адгезионная
дробленого
карнизная
крестообразная
мелкоштучные
нефтегазопровод
импульсный
950x650x200
расширительные
знака
металлоконструкцией
узкой
стопорный
остановочный
малый
протектором
Патрубки
фигурный
1х50мк
штучный
4х50мк
штапельного
скользящем
финишного
шумопоглощающая
приточно
##ездочка
фосфат
компенсирующее
##ющийся
рельефной
КУППлнг
5х35мк
габаритами
##овингов
подвижного
сильфонное
токопроводящими
неглазу
Землесосные
5х50мк
Шланги
мостиками
фрамужные
F83
##наполн
мусоропровода
омед
стропильная
Ограничитель
SML
С8а
слабо
безрамного
безрамным
закаленным
панорамного
панорамным
предварительной
1х150мк
бентонит
фактура
С9а
габионная
обычные
потенциалов
нулевым
банановые
2960х500х1
Настил
С7а
полуфарфор
отделочные
орнаментованные
соответствующего
тонированным
электропроводки
700x500x200
однополюсный
Россия
быстрорежущей
низковязкая
эластомера
козырь
ламина
сотового
##odec
осадков
обеих
инструмента
переносная
дизайнерских
Пожарная
Тележ
хлопчатобум
неоткры
##реобразователь
отсутствую
узкобазовые
оформлением
разреш
прошивкой
захва
пиктограмма
лопастной
Sonodec
Береза
Мертель
Файл
ершами
оранж
флуоресцент
##оограничивающие
наличии
беззамковое
двужильный
нелетучих
прилагаем
Пересечение
10с67фт
несплошного
упругозапирающаяся
реабилита
480x480x205
нефтегазопроводные
хлопчатобумаж
отсутствуют
1Б
1М
2т
2К
4700
4ПКВтпнг
5200
8х10
9x0
BK
B10
DEC
F80
F600
NK
Аэ
АI
Бето
В4
Гпа
Источ
ЛТ
МУ
Мик
Молот
ПЖ
Паст
РД
Рем
Р68
ТО
Тяг
Умываль
Шаланд
дм3
ели
здания
платформ
тент
хок
швар
шпала
##5х195х75
##рик
##кновения
##онита
##мы
##84
##БПнг
##еот
##ыкового
##вис
##яй
##бетона
##ЛЕКТ
##ШМ
##ЭН
##ВВ
##ВВнг
##Ом
##О0
##фэ
##фузи
##RCA
##BS
##стыкового
##ерниз
##ершающий
##енд
наиб
##роны
статив
##ари
##нового
##очня
обог
##отвод
10х10
##овыде
свой
подлож
подпорных
##адрат
длине
50x200
50х20
стене
железо
##озяй
40х32
арт
149
окантов
замк
плотные
двухраструбный
устанав
смыв
сменя
минеральным
9010
13000
##урма
200x500
##40Р
облицовку
400А
454
сильно
2501
полка
однотрубной
однониточные
Прогон
##х290
##пинист
теплоизоляционное
##154
##каневый
изоляция
354
средне
бесстыкового
коробка
волокном
крепи
высаженными
нижние
трехходовой
напольная
##ованным
##171
##65нж
193
196
##х46
цементного
21x0
комплектующими
08А
08кп
027
76х4
плитня
42x0
латуни
180С
200х65
200х400х
200х600х
резинот
##лизатор
ПП57
##ремни
двухслойной
стаканного
сетчатое
89х6
89х5
низко
низкот
характеристик
##x6000
КУПВ
утеплителя
##х530
600х200
600х3000
552
декора
муфтами
гофрированной
Разряд
Разбавитель
Подкладки
Подшип
КГП
работы
высоте
##x550
пластиковыми
133х8
##144
диффузи
грунтовых
влагостойкая
пленка
односторонние
несущая
участках
DIN125
футер
накладные
##00х2х0
хризотилцементным
##товное
монолита
минимальным
стационарных
каменно
выводной
открывающ
звукоизоляци
КУГВЭВнг
детали
6713
балансир
Экраны
бессварные
Электронасос
кнопкой
полнотелые
модифицированная
морская
МГП
##епроницаем
3х95мс
зеленой
пазом
проектом
раздельно
50x50x2
##ерметичный
700х700
шланга
комплектация
мелкощитовой
Патроны
##x305
гнутых
завершающий
микротоннельные
главного
СБПЗАуБпШп
равнопроходные
переплетов
напрессовочная
напрессовочный
перегородочный
уточня
мастичные
двухпут
принудительная
радиатора
асбестоцемент
молни
пролож
скользящим
скользящего
2х4ок
разъемные
1х35мк
держатели
стартовый
КПЭПнг
дюбельной
вспомогательного
##onit
СЛМ
390х190
каучуком
изменяемые
ГКЛ
АКПсВГ
##котч
ОКТМ
пневмоколесные
5х25мк
накидными
1х120мк
альпинист
вагон
крошкой
индикаторами
##опластическое
1280х100х110
терморасширяющаяся
Резист
##унгицид
столкновения
Трап
Тракторы
посадочного
улучшенной
широкополосный
жидкостей
##ASS
##etonit
вставками
сцепления
реечного
ТЗПпБПнг
1х400мк
##окамера
калитки
Утяжелители
ХЛ1
диодами
телевизи
нелинейные
Марши
упругопластическое
пестик
бактерицид
Натрий
Квадрат
Набивки
##гозащищенный
огнезадерживающий
вишневый
автомобиля
модерниз
##оциана
неровностей
2960х500х115
разрешение
флуоресцентной
NKL
Молотки
Паста
Шаланды
швартовное
шпалах
наибольш
обогащ
##овыделением
окантовкой
устанавлива
сменяемые
резинотканевый
низкотемперату
диффузионная
каменноуго
уточняется
2x4
3Р
3400
3x10
4х
4М
445
4900
4ПКВКтЭнг
6300
7x1
7x4
8700
900х2000
AST
M75
W18
БВ
БР
Баш
Газ
ГНО
ГЕК
Герб
ДСО
К10
КПК
ЛСП
Манов
НБ
НСП
ОО
Пог
Пуск
РР
Руко
С10
ТБ
Части
вечно
груб
дез
дней
золь
кок
куму
киос
мя
речная
тах
уда
фид
фунгицид
х3
хозяй
##5х90
##кр
##кремни
##онов
##ню
##01
##100х3000
##иап
##иковый
##зовый
##защитный
##вей
##94
##9х21
##Г1
##п2
##бГ
##бал
##щев
##ТА
##фектив
##BЭнг
##олец
##ороз
##оружения
##орелейной
##ругой
##руйный
##кальная
нажим
навернут
##атов
##ельник
##азовая
##азонная
##цит
##рани
ступ
##тия
безфлан
обожж
100х500х
##порной
##овыход
доз
##остойкие
сооружения
##цинковым
##имся
##оляриз
50х40
50x63
50х32
##ании
2560
железобетона
##озитный
##ительностью
161
16x0
401
40х4
40x2x0
40х60
однопро
##х17
##ольтные
00C
Стоп
##ановленными
##абарит
##идной
##идкремни
1501
полимерное
полимербетона
45x296
##x23
##x220
##x2600
80х50
##ебой
однослой
однозер
одноконус
однолучевая
водонагревателей
водостойкой
32x2x0
##15М
##струзи
компью
малого
махов
300х200х
##тырь
Издели
опов
резьбовой
переходы
шариковый
волоконный
сигнала
Отверд
012
##адиацион
243
термостойкий
синтетической
экструзи
горячекатаных
предуст
660x1400
##х426
##торы
0227
400х2х0
клеммой
160х160
654
##ягчения
силовом
газоп
##нопроходные
##кея
КВН
стандартнопроходные
массовой
неокоренные
изолирующий
450х450
37x6
350х150
##х630
лаком
33x0
##индикацией
высокопрочных
##логу
радиорелейной
##эффектив
автоматических
квадратной
верхнее
##рывным
электромонтаж
КПЛВ
КУФ
Ду250
огнестойкие
##x440
##x495
оконч
600х800
Анкерный
промыв
219х8
219х11
КС3
электрических
КМПВЭВнг
тонко
грузовой
магнези
054
газопроводов
многооборотный
керамики
044
ПС35
клапаны
армирующим
##ностойкий
борти
549
IIIвт
DN500
DN110
изгибе
294
трансформаторным
РОП
акриловой
крепежа
составом
ТЗШп
##00х140
каменных
АКК
АКВБ
часа
терморадиацион
АМЦ
нетканым
8732
61х1
направляющими
Полу
размягчения
штукатурка
щите
МССО
режима
##КМц
криволиней
шинный
бетоно
растворе
стяжек
##лички
КВВБбГ
парапетная
##ометрический
ветрозащитная
рамке
ТПМ
жидкости
желтая
##x496x8
разборные
клеевым
3х70мс
фарфоровый
барьерная
АБК
БрКМц
перекладина
природном
ОПСП
уплотнения
##x396x7
глины
##374
50x100x2000
##огреватель
устойчивость
САС
переплетом
отбойные
перегородки
1000х210
вторая
15Х15М
##ОСН
ВСт3СП
учетно
##x954
ОККМС
асбестовая
асбестовые
ограждением
доборные
1140x1600
светоиндикацией
осветительных
геотекстильное
100х100х50
фиксированного
780x1600
пыле
940x1600
940x1400
940x1180
шнуров
двухместные
антра
фрезы
гряз
межфланцевое
4х185мс
##ase
латунным
высоколегированной
940x980
негерметичный
ящиком
оксидированные
эксцентрические
АЗЕ0
энергоэффектив
ТППэпЗБбШп
роликовых
МГШВ
1374
КМПвЭВЭВнг
технологическим
широкополочный
коньковые
ТЗЭГ
ТЗЭБл
предохранительными
АКВВГЭ
бежевый
каждый
затвором
неутепленные
250x120x65
однодиап
суспензи
втул
бревен
каталогу
трехмерной
1х185мк
катушки
Видеокамера
междушпальный
трамвайных
CMOS
Катанка
стекломагниевого
пултрузионный
##x370x1807
согласованным
энергосберегающая
Ст6сп
совмещенная
рейде
цистерны
стояком
шунгизитобетон
УОНИ
##MAX
обтекателем
##х116х130
Ответвители
размыкателем
пылевла
алюмоцинковым
сепаратором
фонарных
накопительные
антиадгезионным
слабоагрессивной
реабилитационные
Источник
хоккея
сильноагрессивной
среднеагрессивной
Подшипник
футерованные
390х190х188
ASTM
ГНОМ
Мановакуумметр
ООО
Рукоход
кумуля
киоском
тахометрический
##балласт
навернутыми
безфланцевая
##оляризационная
однозеркальная
компьют
Изделие
предустановленными
терморадиационностойкий
энергоэффективного
однодиапазонная
1х
1Д
1x120
2п
2С
2ПП
2х10ок
2БФ
3п
3У
3x16
4КВ
4ПКТп
5г
5°
5x150
6х6
685
740
7ПКВКтЭнг
811
980
B3
BВГнг
EK
KR
MM
SF
А64
Бук
Буль
Вяз
Вяжущ
ГУ
ДПМ
ЖБР
ЗК
Иг
Кар
Карт
Л90
М42
Н14
ОПБ
Пиг
ФР
ХМП
ХПМ
ЦХ
Швед
ЭЛЕКТ
ам
агресс
буф
бата
внах
гар
дю
другой
зона
карт
клави
мы
мч
мех
муль
мотор
ротор
скотч
фок
целев
щело
эко
##51
##ация
##клон
##сурьмянистые
##оти
##мА
##мак
##нель
##8M
##ены
##ула
##дю
##доз
##яемых
##ФЧ
##фос
##EN
##эласти
##этаж
##IT
##ex
##S1
##ri
##yp
##овую
##овинами
##нижения
##лис
##леж
##анк
изоциана
##ститель
##ария
##гого
##оконтакт
##ранок
развернут
разрых
безбалласт
##итовая
##обои
преп
100х40
100х60
##отке
##отках
сибир
отжим
отожж
прогр
профнасти
10П
##екер
##екции
подготовки
трубчатых
##00х150
##00х6000
50х3
2010
##фид
основными
1530
162
1600х
прикреп
##ослой
14П
14x1
1000х500х
замковое
307
темати
грани
##x26
##x2200
1145
250x250
705
70х47
80x80
водный
трубопроводах
управляющ
32х3
##х219
электронагрев
мощности
рабочим
300х2х0
резьбовое
##90х220
переходным
сигналом
014
крышу
600x250x200
воздухе
IP43
строган
строгого
220x120
198
1950
краски
216
214
двойного
герметик
герметичная
светло
автомаг
перекрытием
652
##олага
##фицированные
панельных
свободная
монтажном
жесткой
боковинами
примыка
33а
##ающиеся
200х2х0
питающий
переменных
полиэфира
надеж
Ду32
##х52
перфорация
нормально
комбинированных
легкос
##х120х90
Разъем
блоксополимера
051
##ационного
светодиодные
133х4
крестовина
ТКВ
термоусад
бордю
гравий
гравии
гипсов
426х8
литых
448
299
ПРВ
подосновы
##00х350
Воздухонагреватели
720х10
оборудование
##x605
Привод
пластмассовых
МКРУ
КОГ
механизированные
мраморной
РП2
ВКП
столбу
безнапорных
полотне
выводами
двустенные
1220х2440
Колодцы
ограждениями
водопропускных
компакт
монолитных
фильтрующая
струеот
акриловый
дренажа
##ПСт
ударной
центробежного
подвода
фриз
кремовый
14нж917п35
скобян
органической
насып
бронзовые
1000х190
3х120мс
однопутный
нейлон
тяги
адрес
3х25ок
композиции
сиденья
перекладин
кварцев
##насосы
##х133
Антисепти
открывание
ККСС
магнитоконтакт
стопорные
стопорами
стенового
30с941нж
окраской
активированного
малым
чаша
разделительные
ячеистой
инъекционные
толстослой
укороченное
015П
БП1
1000х380
УТ1
вершины
вершину
##чатыми
ТехноНИКОЛЬ
шнур
5х16мк
Насосные
мелкозернистой
мелкозернистые
неравнопроходной
одноместные
многоцветная
ПГН
овальной
укрепляющая
лоджии
датчик
плаш
##екстолит
клиновидного
##x160x90
##альдег
цементах
многосекционный
ФОБ
ОКГМ
2х6ок
вагранок
А128
Гидроизоляционная
ТРТС
волнистых
выработок
подкладку
F155
Керам
азд
бежевая
водяные
беспазовая
МКУФ
серебря
подлокотников
подлокотниками
располага
фрезерным
индивидуального
сульфатостойких
выравнивающ
рентгенозащитный
акрилатная
смесью
DIN934
охранно
бачком
дискрет
Завод
уравнивания
умывальника
самосв
##служиваемый
водонапорных
17360
голубая
##реждений
826x370x1807
лючком
стыкоперекрывающий
ВОЛС
Жидкость
перелив
неэкрани
19804
матрица
тентовая
подложкой
Резисторы
устанавливаемые
зольном
нажимным
дозаторов
АКВБбШв
KRASS
Бульдоз
Шведская
агрессив
внахлест
мчПа
фокус
развернутом
разрыхлителем
профнастила
70х47х41
220x120x90
автомагистра
крестовинах
струеотклон
Антисептик
располагается
Бульдозеры
1Р
1ПП
2Д
2х150
2900
2х95
2х54
3Т
3КВ
4С
4Н
5Е
5x2
5ПБ
6П
6х8
A500C
B7
CA
D2000
F16
RG
А6
А0
АН
А96
Амм
АУК
А144
Брев
Бенз
Банк
В8
ВБ
ГС
ДП
ДВО
ЗС
ЛЕВ
НП
П3
СИ
Сед
Ту
Тор
ТОСП
ТОСН
ФП
ФВП
Флюс
ами
бав
вен
вих
зр
оката
род
ресс
сна
сход
срез
снижения
тамп
утяж
щет
эмульси
яс
##рного
##рением
##кА
##соли
##счетчик
##с13нж
##зированная
##злых
##тра
##тью
##цей
##вож
##вива
##упер
##2х2
##2x291
##9I
##длеж
##ГЭнг
##чату
##ФС
##жно
##С58
##Ш2
##НС
##РОС
##эВнг
##Al
##ХН
##S9I
##Ж60
##нозем
##овины
##еро
##онного
##енчатого
##руко
##калы
##инадлеж
диам
нанот
накрыв
##рого
##ропро
##опласта
##еситель
##мерзлых
разного
разгруж
##острением
##еви
##автом
##рубками
принадлеж
100х300х
силокс
прокалы
##алет
выкл
10У
10x0
1219
полированным
##остойкого
заострением
##ухомут
##есткие
подрельс
трубе
##лекту
раскрытия
распростран
##101
50х30
##20мм
25°
основная
154
40с
одна
испы
148
14х2х0
1000х6
двухцепные
##еллекту
##x1600
##x122
##x1700
500x300
кача
капс
##урный
##аниями
ширине
полимеркомпозит
45x196
45x596
1190
полуж
##ибу
60x60
водой
водопо
водостойкая
водостойкие
ПВКВ
опорными
328
32П
110ПУ
изоляционная
35х35
самораз
Смеситель
##х38
##х315
резьбу
18пс
1800х2000
коленчатого
1745
угля
горизонталей
склейки
##лент
Консоли
воздухопроизводительность
экскав
эквива
##уберо
листам
##ующих
##чатым
анкеры
19ч
##х425
перекрывным
##огазон
08ГА
коллекторная
плоскост
лотковый
дверцей
плитка
сервис
##x310
##x3600
балко
термоизоляционной
холодиль
холоднот
1200x600
2000х2000
слоистого
боковин
раструбное
350х300
350х250
открытых
муфтовыми
пожарных
пожарного
##95Al
48x0
постав
##одисперс
цельнолит
цинко
Ду25
##х520
600х350
600х2х0
настенного
500х800
500х2х0
спиральные
##х720
комбинированной
электрифицированные
мостовой
Подхват
грузонесущ
напорного
Скреб
##низительных
##нутых
акустическим
##пильонажные
##х150х110
053
однопанельное
влаги
##x714
клапанов
##носим
продав
Геотексти
цилиндрическим
грунтовоз
РКГМ
##ВЭВ
геор
изгиба
кронштейнов
##x254
несущих
выходная
накладкой
схв
канализационная
дымогазон
##нистая
гильзах
##00х1600
волнообраз
РП4
входного
нитр
двустенных
раздат
четырехколончатые
КПСк
СВП
СВО0
F125
штукатурки
кнопочный
стеклоткан
ШСК
ЛПО
##оукладчики
скобы
МГН
лакокрасочных
4х24
петля
травмобезопасные
искусственная
дистанционного
Компенсаторы
ПРАВ
передвижной
ОКЛН
360°
100x100x2000
##х1350
700х500
дополнительного
1х10ок
прозрачной
низковольтные
нанесении
глиня
1200х1500
1200х1200
доводчиком
химической
F510
##х90мм
Подъемы
гнутые
полуколец
1х25ок
САРОС
неподвижный
портальная
3х185мс
перегородочная
магнитного
временное
землесо
мокрого
2ПР
папильонажные
днищевой
##скал
дистанционной
антикоррозионный
антикоррозийной
двухпозиционного
30с41нж
аккумуляторная
ЛАЖ60
ДРИ
финишные
редукционный
приточной
калиброванный
обработке
шторками
интеллекту
светостабилизированным
рифленые
КФД
непропита
МДФ
спинкой
телефонные
луженые
Головки
##х377
ПвБШп
DKС
аварийно
упрочн
биспира
Теплосчетчик
огнезащитным
шпатлевочные
Фитинги
латек
звукопоглощающий
простая
мостиком
330000
Серия
МКРГПО
распорной
5х95мс
столеш
выработках
##Мц59
МССР
ЛЖС58
ЛЖМц59
косым
предварительно
бентонита
пастой
разрезные
остаток
ЛО62
углеродных
маятниковая
суспензий
##гружающиеся
фрезерования
Zn95Al
бытовой
Cat5e
АКПсВБГ
OS2
изогнут
1525х1525
590х595
Рама
душевой
переездов
F790
дюбелем
Колпачки
относительное
литьевое
NIKOMAX
хладостойкости
Шумоглушитель
A335
LVT
ЭКО
Центратор
гровер
экранное
обезвож
звеньев
дублированные
Приставка
барабана
Плети
однонаправленных
180х180х8
заземлителей
противоскользящим
##5х200х140
10ХСНД
предизолированных
омедненная
Аэратор
открывающееся
альпинистская
наибольшее
низкотемпературных
вечномерзлых
ударопро
обожженная
маховик
окончаниями
ОПСПО15
пылевлагозащищенный
кумулятивного
Вяжущее
отожженные
электронагревателями
надежности
серебряный
фокусное
Седло
бавария
зрения
окатанная
рессор
снаряды
##чатую
##рукоят
нанотрубками
накрывные
121950
полимеркомпозитной
водопонизительных
саморазгружающиеся
эквивалент
грузонесущего
Геотекстиль
грунтовозные
Zn95Al5
обезвоживания
045
1п
2ПБ
3м
395
5мк
645
7х2х0
7х4х0
8АтV
8Та
F62
F175
M35
OD
PC
А7
Би
БУ
Гли
Груп
ДПО
ЗО
ЗКП
Кли
ЛБ
Нп
Н75
Набор
ПЦ
Прут
Рота
РРВ
С6
СД
Спи
С90
У35
ХО
Шах
ЩМА
вари
глян
дл
ини
коп
лин
мазут
нос
норми
ров
русти
тм
теч
умер
фтор
флис
шина
эр
эл
эскал
##али
##аше
##рт
##рамид
##оний
##ионные
##зв
##ть
##елаж
##ывающ
##улав
##шп
##шка
##ЛЛ
##С255
##ШК
##ЭС
##ЭПЭнг
##НП
##ДМ
##МЕ
##EX
##IME
##ЕР
##еть
##олей
##онцев
##антом
диметр
##лям
натр
##абри
##есси
столи
##лай
##тиловый
##новоз
##евыми
##евское
##ностями
100x50
синий
прокал
вывернут
1060
1200х2000
##овырав
трубных
##егр
50н
50x400
20х10
горна
город
256
259
оцинкованным
типу
##озащитный
158
15Д
15нж
##истор
40н
406
покрытии
##х159
металлу
алюминием
пригл
##осборник
14x0
окном
1000х250
##нометр
150С
полимерцемент
облицовочный
облицовочное
1170
##30н
полуш
##катель
70х70
60н
одноклавишные
работа
##ворах
32x60
##х23
##пил
манометр
самовырав
##х370
187
переходное
переходник
колер
179
17000
сигнальных
пенополиэтиле
чугуновоз
синтетическая
IP41
пирамид
гибкими
##ованное
##ующим
предна
предельное
анкерной
фасонный
шпонка
проволочной
226
Защ
красно
##х44
перекрывающ
штурма
76х6
винтом
песка
##борная
газовым
удобр
800x800
##x340
##x3300
##x335
Крышки
ПЭ80
холодных
575
глаз
кольцевые
350х100
СБэВнг
##ающими
деревокомпозит
автоматическим
порошка
секционные
##угольник
сухом
форме
полиэфирным
состар
273х8
##134А
периклазовые
допустимая
##x620
Ду125
точечный
600х2000
##невыми
630х8
брусьев
антист
##оводяной
219х6
лестничных
решетчатым
ОКМБ
36П
остальных
мостовых
Подд
8568
КГтп
346
резиновых
13075
##x760
композитного
композитным
##x512
##x595
##x592
пружине
пластиковых
стержневые
водоотводные
042
полипропиленовым
ПСВ
головки
регулируемое
грунтованной
548
пленками
литья
тросов
эпоксидные
##аемого
##28МД
термоусаживаемые
##озицион
накладного
068
06ХН
линейной
ЛСР
820х10
##яющего
##00х1400
КОВ
##х605
механизированного
377х12
полотном
##x88
М10х40
расположение
618
61x0
EI30
ОСЦ
Полка
приборам
F160
консоля
консолей
##x600x2000
ниппелем
врезного
врезаемого
силикатного
болтовое
забег
параллельным
АД0
АД31
центральные
модифицированной
Оконцев
хомутах
4х4х0
рамы
рамные
аппаратуры
3х35ок
стрелочного
3х95мк
сопротивлением
металлопласт
фарфоровые
пробковый
ПДУ
Термоп
стеклянного
ПОС
плавного
резерва
адгези
присоединительными
химических
СТД134А
мачт
устойчивые
качели
скамейки
наливных
КТЗ
Системы
сегмент
цепях
15ХСНД
пескоуловителем
4х25ок
выносом
1500х1500
канатных
4П25
приклеивания
окраска
керамогранита
##асительным
автоклавный
центратора
изоляторами
фланце
##x800x2000
КПоЭПЭнг
самоклеящаяся
##x456
осветительные
фактурная
100х100х6000
ОКБН
редукционная
фиксацией
приточные
притворах
шторки
интегр
пыли
##лонах
качестве
##РВМ
##х100х115
непроходная
МДК
цифровой
кремнийорганический
УКЭ
##ast
силиконовой
35Т5
Лестница
гидрофобизированное
микротрубок
колючая
Акв
виниловые
соединителей
горячедеформированный
фазная
##РОЙ
5х70мс
жаростойкая
рычаж
дуги
ведро
ППСРВМ
распорки
однополюсные
волнистым
двузначный
Крепление
упорами
высокоэласти
КМПвВЭВнг
ВСЛМ
беспустот
фактуры
бакелит
полистиролбетонные
маятниковый
водонепроницаем
напольное
ромбического
595х595х70
KMП
OSB
ванны
##x855
всасывания
вкладыши
ошипованная
тросостойки
##DMI
ПРГН
виброформованное
эвакуационного
NCS
такелаж
1285х120х90
подвешивания
Подводка
вдоль
показывающий
Коврик
гидрофобизирующая
высокотемпературная
ФЯГ
утяжелитель
##act
подставок
2ПГ6
тугоплавкие
туннель
цанговый
##крановые
металлур
инструментальной
Тележки
захватами
Разрядник
7x4x1
хозяйств
Отвердитель
пылеулав
грязевые
суспензии
Игровой
Пигмент
скотчем
сибирская
отжиманий
Бревно
вихрев
утяжеле
полужесткие
экскаватора
##убероид
Скребок
георешетки
дымогазонепроницаемые
интеллектуальным
биспиральные
Клипс
Пруток
Ротаметр
иниции
флисовой
эскалаторов
натрия
вывернутое
пригласительным
чугуновозных
перекрывающие
деревокомпозитных
##28МДТ
06ХН28МДТ
пылеулавли
1Ф
1U
1x1
1x0
2Т
217
2х120
3Г
3ПБ
3БФ
4Т
4x150
515
5x120
5x50
6x200
675
8ПП
930
9ПБ
900х3000
D0
LAN
M15
OK
TP
UH
base
gyp
vetonit
weber
x3
Ап
БЛ
Вн
ГЦ
ГА
Гра
Дели
ДГ2
ДПС
Кл
КЕ
Касс
КИП
Киос
КЧМ
Клям
Л80
Леж
Л85
МБС
Но
НF
Поя
Преобразователь
Рев
СР
С80
Сул
Тол
Таб
Ур
Утеп
ШЧ
Шла
Шести
Южно
вварные
коз
кантом
ль
леп
моб
опер
пого
плюс
сани
солем
тыс
фот
форми
хруп
шля
№01
##ака
##аля
##рек
##сили
##неты
##6нж
##зы
##укт
##уклад
##улятор
##дов
##7х31
##ГИ
##чковый
##пан
##пулятор
##би
##больная
##450
##К3
##ШВ
##РД
##Тх
##ТН
##УЦ
##ДК
##фный
##эК
##ХГ
##°С
##ЫЙ
##етей
##олета
##тари
##таевское
##асного
##рушения
##анкер
##кани
наносим
##арный
##абль
##абочка
##оком
##рационных
##ейбольная
струн
##лоном
##еденный
##евельник
##олиф
проду
##очи
##очистки
обеденный
100М
100x96
100х600х
100х400х
##лового
безопасного
1235
1200х3000
зацеп
соз
##люми
##естро
##00х50
##00х19
длинной
кабельро
50А
50x500
50x300
50x1000
209
20x20
перех
##анипулятор
1500х3000
неформат
16Д
16х16
40Т
##етирования
прижимной
1495
14х4х1
14х4х0
##акти
стеклор
##80х300
нержавеющими
##перебой
двухполюсный
30нж
##x142
##x1171
горячая
порт
пороло
134
##урированное
150х35
150х2х0
2001
Коронки
Корабль
400x200
400x190
400x400
400x81
400x405
4543
45x96x3
1100х2100
250x190x120
полуп
7016
70x4
одноцвет
однофазный
одноосноориентированная
водоприем
##атического
##153
косо
300x250x200
300x81
композитный
малая
11060
110х2
местной
300х500х
КЗО
КЗНС
бесперебой
лирой
токоограничивающие
1700х
1720
круч
751
95x4
95x296
95x196
внешние
##ессованные
соединяющий
термина
каналом
строением
##янутая
гладким
контрольно
шпоном
проволочного
228
221
##тивной
19х4х1
19х4х0
красок
краской
##х4000
##х460
##х430
цементных
2150
двойные
комплектов
022
герметичных
400х350
условные
светлой
экранов
65х50
газобетон
каркасно
общестро
удельной
серь
КВС
##x330
балкой
проходы
2000х1500
стандартные
производительностью
маркировочный
регулирующая
раструба
37x1
СТРОЙ
350х200
350x250x200
##руемой
##руемое
335
##кольцевой
лампой
180x50
резинометалли
отопительному
288
##32п
485
12Х18Н10ТК
формальдег
полиэфирного
##мкм
верхним
верхние
##х108
стенок
899
##x612
##x671
##знач
Ду20
##x460
##x430
точечные
перфоратор
перфорированных
ячейкой
600х3
600х2
600х700
600х600х
##оловкой
630А
УХЛЗ
КС20
КС15
159х7
поперек
236
2360
Разъеди
клещев
1020х10
264
универсальным
3840
несгораемый
блоками
кладочная
052
однопозиционный
##x712
многоярусный
измерительных
измерительными
##x571
##x550x200
светодиодной
##х84
Камкабель
##носмесители
52х0
##ообразный
торкр
навесами
отвержда
заполнение
Геокомпозит
грузоподъемностью
подвесная
550x550x200
пролетным
пленкообраз
литейные
образное
пластинами
##х2080
выходного
антикорневыми
##стирол
оборотов
13663
Воздухосборник
720х9
дымовыделением
непрессованные
320х400
320х500
320х600
320х800
320х700
крепежные
##x1092
рекупер
составного
составными
##ляемыми
волейбольная
вращатель
входное
4971
экструдированная
витых
элементам
рельсам
рельсами
17066
##x971
##x997
АМС
##нажные
двухстворчатый
аэродромов
##итай
четырехзначный
виброизоли
EI60
прибору
F110
взрывозащищенным
тротуаров
##21п
газонепроницаемая
силикатные
НСПК
пропиточный
АД35
АД33
одинарными
стрел
конструктивных
АМг3
2х14
##х75х100
органического
органическими
плита
210х210
жидкая
1000х145
3х120мк
светофорная
сиденье
Термопласти
ПОСС
ответных
кварцевый
##прицепы
фальцевые
14нж17ст20
ЭТН
100x100x2500
Столбики
КШТ
3х150мс
50x100x2
50x100x3
фиксаторов
F51
F265
секторными
теплосетей
Сплит
шурупно
двутавровые
полукольцевой
электротехнический
скрученных
ККСр
земле
30ч39
11с32п
11с21п
Коуш
узла
##оническая
100x300x2500
атмосферостойкой
фиброцементных
ЛА16
ЛА11
винта
манжетами
ножевыми
радиаторный
##улканиз
Станции
Станция
асбестовый
изолятора
изоляторов
100x400x2500
трактором
разъединители
4х35ок
ТЗПэп
разъемное
100x500x2500
4х16ок
закрепляемыми
200x200x2500
крытой
##ТИЗ
выпуклые
625х625
наборного
100x200x2500
15кч19
150x150x2500
трапециевидным
анодированного
50x80x28
адаптера
сильфонная
шлифовальные
ШАК
каучуковый
Диафрагмы
изменяемый
4x185
2УТК
ГТК1
ГТК2
недели
подоконные
звукопоглощения
фазы
##ожжевельник
УСК
##x66x150
полистиролбетона
Удобр
спускной
##x1380
##x1371
150x300x2500
92x496x250
92x496x710
92x296x250
92x296x510
92x196x250
92x196x410
92x396x250
92x396x610
объедин
объём
150x500x2500
150x400x2500
11Б41п
2200х1500
Крепость
5х120мс
ЛГОм
##х115х60
многогранные
бестраншейной
КИДМ
косой
лесенка
габаритные
органо
Водонагреватели
##АТэК
полиамидный
колотого
Электроводонагреватели
бакелизированная
MB220
КСФЧ
RJ45
НВМ
мобильные
мобильного
секциями
вставок
сопряжении
выравнивания
400х400х12
ромбическими
пароизоляционные
Капитель
РЛСМ
тросостойками
перевода
Прибор
Приборы
башенные
емкостные
3ВСБ3
футбольные
плетеные
Баржи
##авильона
бункера
водоразборный
ПВДФ
веревкой
термоголовкой
защищенных
реставрационных
двухуровневой
15ч14
многослойных
стативов
свойств
плитняка
двухпутный
Гербицид
однопрофильного
однослойное
магнезиально
Полуприцепы
##x496x871
##x396x771
антрацит
АЗЕ088
компьютерная
EKF
Вязка
Картон
мульти
прикрепляемой
строганным
магнитоконтактный
плашечный
самосвалы
неэкранированный
струеотклоняющего
Банкетка
ЗСГ1
сходни
схватывания
раздаточное
глиняный
##рукояточный
вариант
нормируемое
ровной
##МЕТИЗ
прокалыванием
15ДК1
колерованная
предназнач
глазурированное
Оконцеватель
беспустотная
KMПBЭнг
пылеулавливающий
UHH
gyps
АпАТэК
ДГ21
КЕДР
Кассета
Киоск
Кляммер
Пояс
Султаевское
Урна
Утеплитель
Шестигран
мобильный
погонажные
шляп
##уктометр
##тарифный
зацепами
##00х1980х300
неформатного
14959
стеклоровингов
400x405x120
СТРОЙМЕТИЗ
резинометаллический
Разъединители
торкретирования
рекуператоров
30ч39р
1а
1Т
1ПБ
1х800
2Р
2х40
311
465
4х36
5x4
5х240
6а
845
900х1
Bas
Co
D200
F42
F55
F47
MA
M50
M200
RU
x20
Ø100
λб
Вкладыш
ГФ
ЗЩ
Ива
КА
МН
Меш
Мач
Можжевельник
Н60
Нап
ОСТ
Пена
Руч
Сборник
ТФ
Тонн
Фибра
ЦА
Цок
Цельно
ШР
ШО
Штор
Штырь
алиф
бад
бабочка
ве
дж
зм
лабор
меб
мерных
манипулятор
ой
офи
ори
плин
пуль
пульт
рес
сле
том
тюб
ул
уш
уголь
ушир
чеч
шпиле
##рей
##кас
##см
##ского
##сшитого
##оновой
##нным
##БбШп
##БНТ
##зБбШп
##тер
##тектор
##ули
##укладчики
##ды
##7нж
##жей
##ОД
##ДА
##АЭ
##АЯ
##МШ
##фона
##эмисси
##M30
##WG
##nt
##ro
##re
##нольно
##нинг
##амин
##ойки
##анция
диаметра
##атные
##емая
##емзов
##ейнер
ст3
##лащ
##лое
##лоты
клеть
##тицид
##останция
##обслуживаемый
пряд
100х150
100х400
100x40x0
##оты
проолиф
##алом
10x10
10кВ
12х4х0
##трид
заготов
##сос
подс
подп
марган
длитель
внутрь
##106
505
50x60
50x40x0
20х16
2014
##ечной
25х2
25x25
##прями
1500х2000
##истал
163
167
16х2х0
16кч
##х1200
алюминий
железобетонного
##ольск
009
007
0055
##осмесители
минут
высокие
1425
1000х400
стеклами
нержавеющий
##нектор
30мА
спут
##x145
##x1220
темно
горячее
13600
150х600х
200x2x0
456
1110
250x380x219
полож
80х5
80х60
##сил
##сины
однораструбный
сваренные
Протектор
32х1
32х15
##х2700
металлическое
##пилен
болтом
электротеп
электропита
300x200
профильного
11030
110х3
местами
##тыми
120x4
##х368
##ливании
бессурьмянистые
1820
18кп
стойкие
##9021
##исс
##исковый
лиана
колпа
токовые
2750
171
1792
75x40x0
трехэк
249
##сварной
напольной
оптико
термоза
стеклопакета
контейнер
связанные
предела
722х2
анкера
220х220
223
222
##риг
213
количеством
029
центрирования
клеммные
светлый
газораз
плиточный
серия
сернокислый
##движная
##x345
##2200
проходного
холодопроизводительность
2000х500х
неокрашенные
350х350
примес
направленного
муфтовые
перекрытиях
применением
200х125
твердый
ЭПДМ
фракции
##рея
постов
105х50
механической
воздушным
гидроизоляционных
стенах
Ду80
битумное
гофротруб
600х1500
настенных
500х700
500х1000
ПвзБбШп
##феры
группового
##ажи
водоотлива
декорированная
одноствор
малогабарит
234
Подушки
Подольск
балконные
балконная
несрабатывания
поверхностной
КГ1
обратного
##пределители
поворотные
##27п1
бурт
##x74
пластиковой
арматура
##х820
технического
продажи
частями
##летов
АПВ
АПРН
54±10
двухкомпонентной
##676
станционных
DIN9021
С250
##каркас
накладки
ТСН
М8х30
конуса
орт
шайба
Полотенцесушители
##нисто
##нистый
##x1036
заземляющее
древесного
##х60х65
волновая
нитями
безнапорная
водосточная
параллельные
377х6
полотен
1220х14
траверса
##38нж
КПСВВ
статическом
480х240
прибора
натяжная
размыка
размещения
струно
структ
920х10
##21бр
##копемзов
1300x600
видеов
двухсторонние
стеклоткани
ВСХ
ударно
зонд
стяжка
центральной
чистых
обыкновенный
ткани
кремнисто
кирпичом
заглушки
заглушка
ремонтная
неперфорированная
ниппельное
пруток
А48
БрБ2
БрБНТ
ПОН
1420х14
утепленная
раздельного
раздельном
силанольно
##х1500х6000
морозостойком
резерви
прозрачная
нанесением
кислоты
химический
##x700x850
##огреватели
##трубные
упаковке
различного
полуавтом
полуанкер
Извещатели
переплете
сосуд
шлаков
шлакопемзов
2П30
мастика
тиксотропный
1500х7
двусторонний
нейлоновый
ЛАД
фигурной
ЛМЗ
самоклеящимся
4х50ок
фактурный
калибровочный
калибровки
370х5
##АОН
приемной
односекционные
Рельс
оцинкования
оцинковыванием
качественная
##сцентриковый
обвязки
5х16ок
задвижка
первого
##х21мм
трапециевидные
ворса
латунь
силиконовые
сильфонным
пневматической
билетов
ящик
оксида
Воздухораспределители
больших
##х330х150
звукопоглощающие
маршрут
PRIME
маячковый
хлористый
ШБМ
объект
водоэ
терморасширяющейся
##mpact
пояса
свинцового
посадочными
ТЗБлГ
галогена
галогенов
рулонах
КИПу
компенсированной
азот
##талки
ЛО90
ЛУм
однодисковый
банановый
АПВБШвнг
EU4
указатели
##x1525
бетонируемой
бетонируемая
башня
19с38нж
переключения
всасывающий
вкладышем
проникающие
Колпачок
##илки
дымохода
виброформованные
футбола
ОТТГ
ОТТМ
трехслойный
напылением
крупнозернистые
10704
цинкование
вторичный
интерфейса
UTOR
##сектицид
перлитобетон
малообслуживаемый
чердака
котлов
тканевой
болтовом
термовставкой
Радиостанция
РДП4
##53нж
процессом
Противо
реактивной
доломитовая
неглазурованная
##наполненная
ламината
низкоэмисси
МГП1
телевизионная
каменноугольный
Башмак
Погрузчики
фунгицидными
оповещения
газопольные
БрКМцЗ
4КВНтпБ
клавишный
##фосфат
изоцианатного
тематическими
термоусадочными
насыпная
ДВО0
##евичного
принадлежностями
подрельсового
##ибуна
19ч21бр
холоднотянутая
продавливании
Глина
Группа
линзовый
##ашеная
интегрированными
водонепроницаемости
металлургии
Клипса
лепест
кабельроста
поролоновый
терминалом
общестроительного
перфораторная
ПОССу
Basic
Compact
Цельносварной
джут
чечевичного
проолифленные
марганцевой
электротепловые
электропитания
трехэксцентриковый
термозапорный
газоразрядные
БрБНТ1
силанольносшитого
полуанкерная
шлакопемзовом
1х300
1х4х1
1БФ
2ЛП
3x4
3x25
4п
4х8
4МД
5МД
860
8мм
8x200
8ПБ
900х3300
900х3800
AL
B11
CО
CE
D700
F70
F65
F68
M100
M16
NG
UV
Ака
А36
АНО
АШМ
Баля
Вой
Гиб
Груз
Див
ДМС
ДБК
ЕИ
ЗФ
Коп
Кожух
Крош
Косты
Китай
ЛБС
МТ
Масс
Моду
М900
НЖ
Нить
П5
ПХ
Печ
Пих
Понт
Павиль
РАС
Регист
С11
Секции
Тр
ТН
Таль
ТЭН
Упор
Указ
УБО
Ф5
Холст
ЦАС
ШУС
ШМТ
ЩМП
ЩРВ
ЭА
ЮНИ
бели
врубные
год
гре
ганд
детона
енд
кбит
лун
левая
лабиринт
м°С
пти
пал
режущей
служ
семян
тонов
удаления
целлюлоз
##3P
##агрег
##оно
##69
##080
##тных
##тнг
##целлюлоз
##еные
##вол
##ватывающ
##2H
##ЗПС
##ьями
##ЦМ
##ч6бр
##пола
##понка
##бе
##бул
##бивной
##Пэп
##КАБЕЛЬ
##См
##Ш3
##ЭМ
##ВВЭнг
##РСП
##О10
##МГ
##эрози
##GA
##Х4
##ХОД
##DF
##US
##BЭВнг
##LAN
##LТх
##ногор
##ерми
##ораст
##омед
##одкоп
##асовой
##енки
##качки
напряг
надвижные
##розащищ
##азочная
старых
##опленное
##армированные
##аралле
##гоб
##есодерж
##рового
##окси
##езащит
строй
стир
стре
разных
разряд
разруш
##едач
##оструж
##обето
продуктов
100Р
100х200х
##ловозы
##порность
##отвращ
отб
##альта
выходной
выдвижной
1025
10x1
10x2
10х3
10ПБ
1240
12х2х0
12х4х1
1200х3300
1200х3800
полиакри
##изол
подкладки
##имый
распорная
20шт
20кг
первая
2550
2520
25000
25х4
2542
25х15
1500х3300
1500х3800
##истая
##ительным
166
16x2
16МТ
40х16
##х175
##ъемные
приема
##осодержащ
14ХГ
окруж
оконеч
##808
нержавеющих
объемные
теплозв
двухрожковый
устранения
сплит
##x155
##идов
500x500
ручками
##онап
прямое
##астоп
200x81
##изоляционный
45х2
##x240
##ешив
250х50
полная
полые
704
##ибрационные
##сис
одночерпаковые
сечению
водоу
ПВ3
окрашенного
Проступ
32х2
32х16
##х2100
##аторный
тепловые
средах
кабеле
##х39
##улерные
бескаркас
1800х3000
1800х3300
1800х3800
стойках
прочн
##90х52
токоприем
контакты
контактная
1764
сигнальная
защитных
уголок
нижнее
нижних
##катанным
скуль
полиэтиленовыми
01676
Конц
Конус
пил
гибкое
##17х36
IIу
II2H
##няющие
предотвращ
7200
##500н
шпуров
SN2
2220
2200х3000
2200х2000
2200х3300
2200х3800
##65бк
##тивная
191
19x1
19х2х0
##огиб
##огнеу
08пс
400х500х
клеммной
##1200х
##оронний
удли
##агон
##ательные
63х32
##x375
##x368
песчаный
песчаных
2000х3000
2000х4000
2000х2700
стандартная
сеченияГОСТ
массе
жестком
жесткими
бокового
Канаты
маркировочные
отдельная
3700
СТО
##устотным
открытые
направлений
латунных
140х200
140х300
140х400
высокопрочный
##чиков
ППЭ
28П
2850
ПБК
муллитокорундовая
сборки
сухим
##х2500
48П
пиленого
273х12
##указ
частиц
КМЛ
цинковые
круглое
гидравлический
Ду65
##x420
##х56
измерение
##тельная
600х500х
600х2700
600х4000
600х3300
настенной
##х730
31ч6бр
удлинении
контррельс
наклонные
противоподкоп
мостового
Подставка
##ляющего
напорно
напорных
модульон
383
FRHF1
##компонентная
348
342
##x120x219
черные
через
190x196
многоцепные
##x57
четырьмя
печные
Камбул
529
торф
##ругления
##ючее
частей
электропередач
магистральные
692
дома
##лошар
426х10
тросом
DN160
ПРН
ПРМ
739
063
066
Воздухоотводчик
##х1250
##х1220
путевым
консольно
пластмасовой
промышленного
мкСм
гипсоструж
декоративное
стыках
крепежная
Емкость
Вводы
Обвод
шумо
RTP
СКР
специального
коаксиальные
##ляемые
##00х160
00041
МКРТ
моментом
Затворы
115А
нитро
медицин
377х10
вентильный
полотно
##НДЦ
двустенная
6897
АМц
искрозащищ
дисковые
У220
КУГВВЭнг
встраиваемая
61х0
мелкоп
КПСК
079
поливинилхлоридного
М18
ОСД
гидрофобный
F140
натяжение
броне
акриловым
отсчет
Поковки
##x600x850
скрепленных
антипирен
пропитке
2012ГОСТ
ламинированное
лаза
Распределители
метрах
кондицион
ПТС
коммутации
ТАМ
конструктивные
рамный
импуль
охватывающ
выключателем
918
поддерж
поддона
##x496x2000
##x496x1030
##x496x1036
разборный
алмазные
948
##яющийся
нейтра
3х16ок
900х1500
900х2700
900х4000
ПОГ
плавких
ответственных
компенсаторами
СБВБАуБпШп
троллейбусный
50x50x2000
запорным
оголовков
КШСП
КШЦП
прозрачный
адгезии
вил
индекс
1200х800
1200х2700
1200х4000
50x100x30
свободностоящая
фиксатором
F260
F230
F245
##х90х40
гнутым
Гидрош
1х630
расширительным
различной
вместимостью
##фланцевый
сантехническим
перемещаемой
Прессы
утопленное
оловянные
1500х2700
1500х4000
КРУ
##изоциана
Вентили
активной
антивибрационные
3х240мс
ЛАН
ножках
ячеистого
движение
вяжущих
изолятором
##х595х75
одностоечная
инъек
##х1190х220
равнопроходный
иглопробивной
ПНАЭ
самоклеящейся
самоклеящийся
шкафом
осветительного
1000х300х150
ТЗПАШп
пбс
закрепленных
корундовая
200x200x2000
пешеходных
жаропро
отражающая
рельефная
F360
Фрезы
ответвит
задвижкой
демпфер
670х315
15кч16
150x150x2000
##x27x0
этажные
МКШнг
МКШВнг
2А6
гриб
вспомогательной
вспомогательные
490х592
490х287
ромбов
пристенный
##раструбные
35Т7
ШАМ
глазурованные
наполненное
микротрубочных
звукоотражающий
огнезащиты
огнезащитной
1000х290х360
винил
##х325х75
##х330х70
01836
01839
##епроницаемый
антикоррозийная
F105
ЛВМ
ЛВЧ
набрыз
алюмомед
Ламели
дуговой
1800х1500
1800х2700
1800х4000
функциона
150x300x2000
Поручень
Домк
ливневой
203x456
203x496x2000
Трубопроводы
150x500x2000
150x400x2000
водоуказ
каналами
двухлапчатые
11Б27п1
2200х2700
2200х4000
PVDF
РСУ
колонковый
Б2400
электронный
высокоогнеу
5х150мс
трудногор
подкладные
быстродействующим
приставная
улучшенная
включениями
предохранительные
водяного
алкидный
габионные
184x496x1036
инерционная
керамзитобетонные
ГВЛ
распы
2х50мк
610х610
Настилы
##ородный
начального
полуфабри
бытовых
телескопический
соответственно
содержащие
реечном
резервных
ТЗПпПэп
текстурированная
ступенями
МСБВБ
1000х390х510
солесодерж
188x496x1030
648x3
концентрированная
PVCLS
ИОР
извещателем
относительном
5П25
Вибро
Подводки
плетеной
Калий
Калининг
абразивности
Стремян
1х500мк
785x368
неорганической
ОДОСПО15
БЗН18
заряда
кроссовый
двухконусная
двухконусные
##лопастное
2000х3300
2000х3800
шарнирным
Ролик
рефулерные
двускатная
высокогермети
противоэрози
##комплекты
49445
ОЗЛ
ЩУРН
регулятора
Крюк
траверсами
козырька
оранжевый
хлопчатобумажная
Ремкомплекты
Умывальник
молниезащит
проложенным
дезин
кокос
##атовское
тонкослой
РОП4
бетоноуклад
втулкой
811К
SFP
##стительные
безбалластного
бордюры
1220х2440х21мм
ГСИ
##ноземистый
разгруженный
силоксанов
испыта
поставляемые
столешница
течении
##шпальная
диметром
15нж65бк
мачтового
Аквастоп
утяжеленные
TP6
ДПСк
козловые
продув
создания
полуплощад
водоприемная
КЗОЦМ
крученая
формальдегидов
600х3800
600х290х52
Шестигранник
Тоннель
лабораторный
тюбин
уширенная
##тридж
заготовок
примесей
струноармированные
сосудом
ящикам
##талкивающ
UTORM30
джутовой
B11BS
Войлок
Диван
ЕИУС
Крошка
Масса
Пихта
Понтоны
Павильон
Регистры
Указатели
ЮНИОН
гандб
лунно
стройкам
14ХГНДЦ
теплозвуко
водоупорность
Проступь
скульпт
II2H3P
##x375x250
Камбулатовское
искрозащищенном
мелкопустотным
охватывающего
Гидрошпонка
670х315х295
алюмомедные
203x456x1030
полуфабриката
ТЗПпПэпБГ
солесодержания
Калининград
Стремянка
противоэрозионный
молниезащиты
070
0мм
2а
2G
2ПКВтнг
365
396
313
385
3х2х0
495
4кв
5е
5ПКВКтЭнг
6з
6Т
6Д
7А
7х10
8та
835
990
CВ
E14
G1
GX
KB
Kre
RC
SO
Ø110
АО
АПК
А32
Амп
Бир
БКМ
БТС
База
ВУ
ВЫ
Верст
Диз
Дроб
ЖК
Зп
Зон
Зазем
Клин
К11
К34
КАБЕЛЬ
М40
НТК
НАС
ОЦ
ОВ
Пи
Пром
Пара
ПКС
Платформ
РТ
Сна
Сам
Сжим
СРС
ТТ
ТРА
ФЦ
ФФ
ФВ
Фоль
Цвет
ЧДА
Шт
ШЦ
Шти
ШВГ
ЭЗ
ЭД
Э46
Элеватор
ави
бука
генер
драй
жив
зоновой
исти
кс
каль
кип
лав
мойки
негор
очи
поб
пус
полн
пят
рег
релей
рейки
син
слю
слан
сжим
снаруж
сушки
ты
тест
тир
шаб
шерстяное
элег
##3бр
##рест
##ретка
##куч
##оечные
##метри
##ге
##гай
##нутая
##850
##130
##еид
##вовой
##уми
##219
##ди
##Цс
##йные
##ший
##пГ
##плит
##бовый
##ФВ
##ЛМ
##РМ
##ДБ1
##АН
##ювовой
##фин
##ферм
##фты
##RB
##ES
##энер
##IC
##FF
##F8M
##ON
##her
##or
##Bнг
##VA
##HDMI
##нат
##овозд
##овяз
##ерного
##олера
##орти
##орегист
##тарно
##ойной
##ома
##одная
##одинами
##енности
##ензи
##енников
нарез
нашпальная
##емыми
##роз
##миа
разв
клювовой
##тий
##инели
##инец
##иненные
##авливания
##олик
прип
обрушения
100мм
100х5
сидения
##рованному
отбор
12з
1260
1200х2
##еключ
##трасс
полиамидных
загруз
заколь
подверж
подферм
##нитура
##имметри
длинные
ослаб
50х5
50х100
2050
2016
##финов
стену
25кв
основовяз
железной
##озна
15Г
164
40Х
40х1
40x4
железобетонным
алюминиевом
СтЗ
Створ
Стяжки
Ствол
Столик
высоким
высокими
окоренные
замены
##ижим
объемным
теплотехни
теплотрасс
двухгол
двухрядные
двухклавишные
30П
304
30х0
3016
минеральный
минеральные
9060
полиэт
150П
150x2x0
прямот
##паунд
2007
200шт
полимеров
Корсис
45ч
##x21
##x29
##x225
##x2800
##x2440
##305
полез
полноп
полут
полнок
7060
80н
##ластик
602
##ебный
однолапчатое
одноагрег
однораструбные
водопоглощ
водовозд
ПВБШв
моек
опора
3250
32х32
##х270
##х200х3000
Свинец
##ушной
##ушпала
300x2x0
площадками
##керные
лотку
110х63
300х3
356
температурах
средств
03НУ
1850
18Гпс
коробок
272
27x1
27х4х1
##ционной
сигнальной
высший
защите
цветности
цветное
склеивания
019
трехместная
трехлапчатое
трехкомпонентная
242
24х1
2430
24х2х0
##дающих
##енью
термостабилиз
##ованных
листу
гладких
шпура
связующим
проволока
проволочными
227
цилиндрованный
##х440
##х400х3000
218
перекрест
##оги
комплектные
086
026
парковой
ВВГнг4
##ственного
гидроак
гидрозащит
##ецеид
##ромочный
160x160x90
651
65х4
65х40
65х32
лотковые
##олаком
тяжелый
тяжелая
КВБ
КВУ
63с
песчано
балок
балласт
576
57х4
изолирующим
изолируемой
37х4х1
##руемая
квадр
##ающим
140х140
200х500х
200х3000
радиальная
автоматической
вентиляционным
квадратных
порошкообраз
секретка
IIIВ
##х255
СПРД
##136
стаканный
стена
сетчатую
низким
характеристиками
стыковые
##значная
гидравлических
Ду300
битумных
огнестойкий
##x46
##x442
##ящий
500х3
##упут
##уплекс
постоянный
##х700х
Огнет
##олотые
219х7
КСР
КС10
контргай
контролера
заполнителем
одноступен
КМПBнг
966
1020х14
Поддон
Подлож
269
напорная
3850
поверхностно
поверхностные
056
пластифици
1305х200х140
##x740
190х190
многочерпаковые
##x530
##x250x120
133х5
крестовины
стержне
свариваемой
043
750В
ПСУ
регулируемой
короткие
заполненная
продольный
асимметри
КНТп
КНАУ
##олистный
гипер
прессованных
эластичные
эластичным
##ниеотвод
DN50
крановые
промежуточного
##24q
442
сплошная
звездочка
##аемых
схема
566
путевых
чугунное
пластмассы
ПКВ
грануля
распаечная
орг
320х5
Прижим
##яющие
крепежной
Обте
штыревые
СКИП
взрывчатого
клееный
МКРФВ
мраморные
входные
параллельно
добавка
##x940
междупут
АМН
1220х10
8731
##гово
четырехкомпонентный
У330н
КПСВЭВ
статические
статичная
М1000
пустотные
ВТ1
##катурка
обсадных
Полки
Полушпала
паронит
фильтрации
F18
1800x580
штукатурная
подступен
витражами
полнотелая
видеопоток
двухсторонний
циркуляционный
параллельное
ШСУ
чистый
шагающие
парапетные
контролируемым
250х120х138
профилированному
насеч
лакокрасочными
994
жидкого
1000х135
клеевого
пленок
бумажная
##ающаяся
Термина
выступов
1х16мм²
протяжная
3х4Е3
900х600
сливного
пазами
КВТп
ОРУ
Раструб
Шпаклев
троллейбусов
Звездочка
14нж17ст11
##ливаем
100x100x3
прорезиненные
сложных
гусеничные
700х400
ЗП200
ЗП250
ЗП125
тиокол
конденсационный
тоннельный
Трава
мягкий
Растворосмесители
лощеные
комплексов
800х600
800х600х
химического
PPR
ангоб
##х91
увеличения
противовесом
1х6ок
СБПЗАуБ
шурупами
арочные
смесителем
смесительный
дисперсии
МПУ
отбойник
1000х285
временных
Земля
30ч47
увеличенным
4х25мм²
фрикционный
1500х700х
перекид
прикромочный
антивибра
чашами
автоп
автоматизированной
трапецеид
ОККс
ОККН
нескольких
Штукатурка
типоразмеров
фактурной
УВК
финишная
вязкий
кассет
закрепления
закреплением
таблички
эмалированные
летучих
приемный
иглопробивным
фосф
собой
Формы
Контроллер
дюбельное
антен
этажа
переносные
фронтальные
ШЛГ
ШЛА
сальников
антивандальный
антивандального
вспомогательными
ветвей
14нж17р29
Компаунд
##екальные
##х310х120
##х310х100
токопроводящие
облегченный
плакуч
ящиков
255x250x120
80х80х40
МКВФ
МКВУ
клиновидный
1000х290х330
305х610
200х200х6
технологии
цементации
седлов
заграж
огнетушителя
2х16мк
СНЦс
пространственном
##ПвЭBЭВнг
торшерные
поручнями
водоочистки
Припой
ШКУ
роликовой
вакуумные
изделиями
закаленные
287х592
287х892
287х287
ПуВВ
Шаровой
Контргайка
##рельсовый
##х295х70
антисептированные
производственного
импоста
приставные
КИС
остатком
обеспечения
Заклад
15с65нж
колотые
розеток
250x120x88
5х185мс
водонепроницаемый
индивидуальные
втулка
кислотоупорная
Cat5е
рентгенозащит
KMПвЭBЭВнг
1525x1525
Видеорегист
Капс
аудиопоток
аудиовыход
титановых
шестер
ступенчатая
1000х390х410
ПУА
143А
клеящая
емкостной
NIKOLAN
абразивного
Шумоглушители
звукового
поддерживающего
КТПИ
уклоном
Скрепы
Скреперы
латексная
6х4Е3
ВрБО
гнездовой
заряд
червячный
нетверде
двускатные
1195х595
тоннельным
1xRCA
зубчатыми
почтовый
погрузочные
полуфарфоровый
полуфарфоровые
неоткрыва
Бетоно
##нюю
ступенью
##x440x219
промывки
устойчивостью
батарей
мытью
целевых
##этажных
препят
прогресси
легкосъемная
фризами
Керамзит
автомагистральный
3КВТП
Аммоний
амид
венге
ясень
прокалывающий
сервисный
холодильных
цельнолитые
нитролаком
стеклотканевые
Спирт
копровые
рустированный
умеренное
эркерные
полушерстяное
состаренные
бакелитовая
хозяйственно
Лежень
ШЧУ
санитарно
формирования
хрупкости
##очистительные
##активи
бесперебойного
виброизолирующая
Удобрение
шляпный
Мешки
Шторка
офисной
ориенти
угольник
зондом
полуавтомати
1500х730
AL2
Копры
Модули
годности
предотвращения
контррельсом
кондиционера
Домкраты
водоуказателя
трудногорюч
высокогерметичными
494454
бетоноукладочного
гандбола
скульптурный
GX24q
RCT
Ампула
ВЫХОД
Верстак
Зонты
Парафин
ПКСВ
Платформы
Снаряд
ТРАС
Штифты
драйвер
истира
сжимаем
снаружи
шаблон
##инелид
закольцов
ослабление
основовязальное
Створки
теплотехническими
301629
полноколотые
одноагрегатные
водовоздушной
термостабилизированного
гидрозащитной
Огнетушитель
контргайкой
Подложка
КНАУФ
Обтекатель
Шпаклевка
ангобированное
СБПЗАуБпГ
30ч47бр
антивибрационный
Видеорегистратор
прогрессирующего
0А
090
096
1т
1N
1x4
1ДП
2с
2Б
2U
232
2ДП
2F8M
3В
3U
4а
4Д
4ПБ
4x2x1
4ПКВКтнг
5а
5с
596
5ПКВ
5х100
531
5x60
5x10
614
890
8х500
925
A500С
CP
Et
EVA
F800
F27
F38
HST
KC
KI
M12
M14
NE
RFF
Tec
TDM
XP
d20мм
pH
x1
x16
Ам
АГ
АТ
АПП
АОС
Бк
БЦ
Бп
БА
Буг
БСП
БВС
Бата
ВЧ
ВЕ
ВВП
ГАУ
ГШК
Довод
Зм
ЗМК
Инд
К0
Клен
КРА
Кала
Коса
Ла
МБ
Мед
МСП
МБК
Нл
Нар
НКЗ
Нащ
Р1
РФ
Реф
РРН
Рейка
Рубероид
Ска
С70
Сопротив
Т4
Тур
УБ
УБК
Укладчики
Фотор
Хр
ХП
Х34
ЦЛ
ЦН
ШФ
ШМ
ШРО
ШАОН
Щетка
ЯК
ани
акан
бензи
гни
гаш
деталь
драг
зим
ис
источ
ки
косты
лк
нм
ной
пру
павильона
рж
рост
рых
руд
сниз
тушения
уклад
укомплект
фле
фарт
фено
хим
холст
ходом
шел
яр
№27
№36
##325
##раз
##рис
##кН
##несущ
##83
##87
##6бк
##6x122
##хта
##защитная
##телей
##ея
##еция
##еновые
##ыключ
##вент
##веч
##уар
##2А
##900х
##NC
##xI
##дина
##деле
##7бк
##ГУ
##ГЮ
##чуг
##яные
##пад
##пласт
##полимер
##пенд
##боскоп
##ЛЦ
##ЛАН
##С3
##Э5
##НАЯ
##ОК
##ТШ
##ТЕ
##ТХП
##АЙ
##ют
##М6
##МХП
##RN
##эх0
##ъектор
##±15
##pk
##pb
##is
##O3
##ЕРГ
##hin
##en
##S2
##SB
##li
##vx0
##vnt
##net
##VGA
##нолеум
##овещ
##стек
##ниевые
##еток
##етья
##оловой
##олнитель
##олекуля
##ора
##тах
##амб
##ойлер
##лист
##онно
##онстра
##омат
##анного
##анели
##антия
##етро
##етроб
набив
##атным
##емост
##ельным
##опасности
##арные
##еса
##ровщики
##ровыключ
##роветроб
##оконическая
стел
##рываемые
развор
разбав
##ито
##новления
##осторонний
##олий
##олиб
##очев
обновления
100С
100х12
100x81
##ловых
##елепро
##еленовой
##ивер
10л
1030
10ПКВКтЭнг
сва
полиизоциана
##изолятор
конфор
закры
##атура
##сосы
подшип
##нителе
марпр
##ождения
трубке
длин
осевые
третья
##105
внутреннюю
503
##спок
20х12
перпенд
##ечным
кордонское
##усфера
1560
15х2
15Б1
15х15
##обетонные
##х1100
железобетоне
прикатанным
##осной
##осин
Стенки
##водород
1410
1490
замков
##8068
двухниточные
##25х150
медным
катионная
смеж
##x11
##x125
##x1900
##идения
##идном
капил
темный
90х75
##урного
150х200
150х125
150х450
150х300х
459
##вали
70x54
Короба
80x40
80x54
60х10
60x40
60x54
одноко
водопод
опорам
окрашенными
##х24
##пиковый
электротехнических
повышенного
300х1
35x7
присоединяемых
самост
1205х195х75
120808
##х300х120
клиновые
растений
1860
стойкое
типах
коробке
##икуля
линолеум
волокнистая
усад
колбе
27А
27ПКВКтЭнг
крут
Ответвления
гидроветроб
скругления
01А
0160
трехфаз
248
241
2400х
синтетический
вырезом
системная
пихта
гибки
гибкой
канатной
стробоскоп
##ующая
##нять
##делит
220х7
проволочные
Защит
19000
красн
красного
краситель
##х490
Переключ
перекрываемые
двойных
021
вертикальной
круглоконическая
МКТП
МКЦП
силовым
тяже
каркасной
удельный
дверь
дверка
125х100
125х80
125мкм
герметизированный
##ноди
плитным
полипропилен
серые
свободном
##x37
##x360
##x3x0
##x3800
##x346
##рева
##22нж
балла
монтажного
монтажную
ПЭ63
проходческих
холодный
8800
##ектора
бокс
боковыми
Канал
##егося
350x350
350х700
##руемый
##х600х3000
применению
336
331
334
цельной
##ошерстяное
наконечника
освещенности
200х300х
радиальные
##3581
ЛК70
285
282200
587
порошковое
##угоны
сборной
IIIу
формовочные
СП100
люка
непаралле
##х1050
градир
КММц
##удар
цинковый
КПп
##значной
надпис
##x470
##x490
##х580
380x250x219
700x400
оконными
окончат
600х900
600х300х
унита
настенное
500х63
500х23
500х136
одномодовый
##х760
декором
##855
##85x23
брусковые
прямоугольной
318
бесшовным
решетчатая
КСБК
ОКГнг
644
заполнителе
363
легков
##компенс
233
остр
поперечины
тонкой
Подушка
Поднять
266
##компонентное
шестилопаст
поверхностям
обратной
шахтного
058
059
пластичные
пластификатор
шестигранными
однополяризационная
13016
черного
череп
##x780
трещи
многотарифный
измерительно
##x599
полиуретана
пружинной
пластиковом
инвали
запас
##истрации
240х280
Кольчуг
664
Крестовой
потолочных
ПС10П
ПС10ПИ
##x502
полиуретанового
стеклообои
##оподъемные
усиленное
530х12
стекловидном
691
остекление
пористом
426х12
тросовое
Колонка
геопласти
DN40
##лород
сплошное
кронштейны
редуктора
##х205х90
##еталлические
ПРОСП
2746x122
##00х2300
швеллерные
швеллерного
М8х60
стекловолокно
гипса
393
320х550
моноспира
Емкости
углового
сварочной
##x1054
шумоотражающ
##арьером
взрывозащитная
клееной
каменной
РП101
входов
##карбидкремни
столба
неразборная
377х9
междуг
поглащ
##x892
##42р
четырехъярусный
четырехместная
ВРУ
водопропускного
хрома
хромированный
хромокис
пустотелая
пустотелых
ВТ6
ВТ9
ВТ12
##х655х90
неоцинкованных
монолитные
фильтров
F190
натяжения
хомутом
3Стп
ТУ3581
щитовыми
излучения
скрепление
Электронагрев
рядовая
дренажная
нагревателями
конденсатор
крутоизогнутых
модифицированным
чистая
чистоты
чистошерстяное
компонентные
3х50ок
буровой
насадочные
рамочной
9940
4х28
втулоч
алмазной
алмазного
алмазным
звукоизолирующий
выпусков
нейл
пропитанный
##тпнг
##x80x219
трехстворчатые
трехстоечная
трехстоечные
ПДО
510x120x219
матовая
3х4х0
скаты
Световозвращ
сливная
архитектурный
унифицированный
50x50x3000
фальцевой
1050х2100
морозостойкий
ААК
##х100х6000
динамические
запорное
Столбы
ЗП100
ЗП150
оголовник
тоннелепро
вишня
ФБП
основании
присоединительный
800х500
F57
F240
анемост
Гидром
##огревателей
УГР
бесцветный
полукис
полукомпенс
дисперсией
КСПФ
КСПВГ
цепные
сосновой
ВА47
шлака
152x150
##x1500x6000
Подвесы
стопорным
компрессорно
компрессорным
нагревательные
грунтовочный
перекачки
Кондуктор
двухполяризационная
прикле
активного
насосно
насосные
ЛА8
восп
радиаторной
##x96x380
8504
тарные
трапеция
молниеотвод
инъектора
бугельная
фигурные
тракторные
4х120мм²
демонстра
штучные
микроф
микростек
шкафов
ТЗПАБпШп
ТЗПАБп
1х4ок
держателя
наплавки
##x72x250
закрепляемый
Автомат
Наличники
Двери
крытый
##ингер
##ингалет
односекционная
Аппарат
Техноэласт
гипсокартоном
расклинивания
заводской
сочлененного
КФУЦ
непрозра
рисунков
цифровых
##костру
БНДм
грязев
490х892
вентилятором
адаптером
силиконовый
тупик
35Т6
310х90мм
негашеная
упрочняющие
ГКТ
оксидированная
рукоятями
1000х290х410
2х35мк
ОАП
##коткань
КЦТХП
КЦМХП
##РОЖ
##РОКАБЕЛЬ
1000х160х260
ЛВЦ
Оповещ
дуговые
##х45х80
Автог
Автобето
F93
пенополистирольных
ливневых
рукавная
хлорсуль
усложненным
11Б6бк
БНМ
слабых
купольная
##онитор
стабилизатор
стабилизации
525x442
##х115х40
##х295х75
обработанных
лесов
компенсационные
2х25мк
Керосин
полиамидная
15с22нж
колотым
моноблочный
алкидная
680х605
МШП
серебристая
перенапряжения
пятизначный
пятиугольник
##x553
сопряженных
Витражи
1340x1600
напольного
кислотоупорный
кислотоупорной
ПАВ
ванту
тонированный
указателем
##ECT
##руша
пароизоляцией
катушка
башни
655х655х90
переездной
Утяжелитель
молотом
молотый
трамвайные
МКПпАБп
##илка
извещателя
клеящими
литьевой
592х592
592х892
стекломагниевым
АКВВБГ
пултрузионная
ДСУ
плату
такти
переговор
перегрева
5кА
A312
ДКН
текстильный
##писанного
карбидкремни
термопластичного
термопластичные
крупнозернистой
##мульсионная
Инъектор
вдавливания
съемный
оттяжки
показателей
углекис
углеводород
СегментЛАН
мембранного
БЗН24
гнездо
##ЭКнг
ограничителя
110x72x250
110x66x250
термоголовой
260x50x250
260x50x109
высокомодуль
шамотнокарбидкремни
карликовый
растворителях
тоннельных
термовставки
16ч42р
Крюки
фосфатной
бентонитовый
Бетоносмесители
##отводной
смывной
200x500x2000
звукоизоляционные
асбестоцементные
бактерицидный
ДСО1
грубой
фидеров
одноконусная
одноконусные
экструзионное
02274
37x61
37x64
электромонтажных
бортик
1000х210х410
1000х210х310
1374x1
ТЗЭБлг
685x335
ЭЛЕКТРОКАБЕЛЬ
буфером
гарантия
дюй
примыканий
гипсоволокнистые
44845
кварцевого
датчиками
переливной
агрессивных
CAT
Бензин
СИТ
Тупиковый
Торгово
тампонаж
щеточная
распространяющие
качающийся
капсулы
волнообразные
МГНМ
изогнутым
590х595х85
Биомат
Шахта
##лайн
полимерцементной
работающих
удобрения
Поддерживающий
##x595x1000
Термопанели
адгезией
##aster
Делитель
наносимого
110604
Термопластик
свойствами
Кляммеры
Мачты
Ручка
Цоколь
бадделе
манипулятором
ушком
##исталли
спутниковый
водоэмульсионная
Противоугоны
Балясины
Костыли
Печь
белила
служебный
целлюлозы
##ЭМИ
напрягающий
оконечная
##онаполн
кабеленесущ
токоприемник
17648068
##огибочные
гипсостружечная
нитроцеллюлоз
1х630мк
жаропрочной
ромбовидной
функциональных
PVCLSнг
Виброизолятор
тюбингов
Бирки
Дробь
Сжимы
Штекер
авиационный
ксс
регистрации
тиристор
##hernet
подферменников
полиэтеленовой
водопоглощение
порошкообразная
подступенком
насечкой
Терминал
плакучая
седловидный
заграждения
Капсулы
1195х595х70
AL2O3
1NF
CPL
Ethernet
XPS
Бугель
Батарея
Индикатор
Калач
МБКГ
Скала
Сопротивление
УБТ
УБКм
Фотореле
Хризотил
акантовые
гашения
драглайн
ржав
снизу
флеш
##xIP
##падающаяся
##pkvnt
##pbvx0
стеллаж
марпреновые
перпендикуля
##25х150х220
смежный
капилля
водоподогревателей
линолеума
гидроветробарьером
стробоскопа
непараллельное
600х300х150
500х633
500х237х31
КСБКнг
шестилопастным
240х280х100х
геопластических
ПРОСПЕКТ
2746x1226
моноспирального
шумоотражающая
поглащающий
хромокислые
Электронагреватель
втулочными
тоннелепроход
анемостаты
полукислые
микростеклошар
хлорсульфи
карбидкремниевый
шамотнокарбидкремниевые
685x335x210
бадделеито
кабеленесущих
##pkvntpbvx0
перпендикулярно
075
1б
1С
1ПКВтпнг
2C
296
2ПС
2ПКВтпнг
2x36
312
316
3ПП
3x35
4300
435
4х30
4АтVТ
4МСР
4ПСт
5К
5У
5X
5300
5ПСт
6k
613
6х2х0
6х400
6кА
7x2
716
711
775
8а
8Т
840
830
896
822
813
8х2х0
970
919
900х2100
AS
BOS
D350
F60
F700
F250
F305
F855
GEN
H0
M400
Master
NT
RL
RV
TN
VII
VAL
VEN
Ø15
Ал
Аль
АУС
Асб
БД
БЖ
Баб
Во
Волок
Вилка
ГО
Дим
Жел
ИСО
К20
Ключ
КБ1
КРН
К56
К54
Лип
ЛПП
Л23
ЛБО
М9
МВС
Метро
Нит
Нож
ОУ
Пы
П4
ПШ
ПИ
Пост
П12
Посты
РУ
РТЛ
СЕ
Сир
Сгон
Т10
ТСП
Текстолит
Тали
Ф3
Фас
Х60
Х70
Х65
Х56
Чугу
Ш3
Шины
ШМР
Э50
Э42
аспира
вой
включ
ввар
варо
вулканиз
гал
др
дб
деж
дуплекс
коб
кокс
камеры
леж
локом
ман
массы
мембрана
неле
окис
пу
паль
пуст
пуд
плам
рол
решетка
рих
раков
рейками
сго
селе
сурьмянистые
улит
укрытия
фон
ход
шаро
№20
№40
№30
№22
№35
№14
##320
##сет
##оник
##оудар
##мазочная
##гид
##гированной
##ну
##800х
##6K
##08
##02
##010
##165
##БЛ
##иле
##игна
##ирования
##тро
##цети
##ысо
##вен
##урок
##NT
##доб
##7RN
##ЗИ
##шневые
##яя
##яб
##пар
##пей
##бШ
##блем
##ФА
##Птнг
##жиг
##СЦ
##СФ
##Эл
##ВР
##НК
##НЭ
##ОРОЖ
##Тр
##ТГ
##Мг
##ъект
##ъезд
##±30
##au
##FEX
##Е2
##BY
##BNC
##VI
##номи
##нами
##етектор
##орист
##орючее
##тальная
##лиц
##линт
##омный
##омобиль
##ометаллические
##одав
##лея
##енник
##рука
##лях
налива
##емкость
##рочные
##ельных
##опласт
##арат
##есные
##рова
##ровочного
##окор
##езда
##ралюми
##ейеры
стуль
стЗПС
разности
раздвижная
##едлитель
##новысо
##объект
##ева
##5050
##епр
обхват
100000
100х3000
100х480
##отлит
##ющиеся
отделит
прослой
выст
##иванием
1080
12м
12Ф
12500
полисп
полиамин
##ружатели
##остойкостью
конечный
конвей
наружную
Кабельный
##аминов
теплиц
##комна
##есть
подвер
подушка
##адная
##адочного
##ейская
трибуна
##10x940
50шт
50x5
50х100х6000
208
2030
20х2
2017
##ентная
##филь
перер
##еченный
253
25кг
##уска
Трубчатый
Трубоукладчики
типов
##прис
15П
1500х2100
16с13нж
402
40х5
40х8
40±15
##учреждений
железобетонными
##ольт
##рава
00А
арб
##ослеп
Стру
крат
##ановая
1450
14500
14ПКВКтЭнг
1000x500
1000х100
1000х150
1000x1000
1000x650
1000х520
замен
замкового
##803
двухколон
двухрукояточный
двухрельсовый
##2500
огне
огрунт
медучреждений
спец
спеченный
##x1300
500x250
902
9021
90х63
13П
##603
150х55
##литка
##лители
установочные
457
45М
45х4
45нж
45с13нж
##x24
##x230
##x290
##x268
##x273
11500
250П
250х60х65
напряженных
напряжений
полуг
полум
полочкой
полухомут
701
801
##сиры
показатель
605
водонагреватель
водородный
##ворчатая
огнеупор
опорных
32x32
##х2400
##х245
##ушителей
электростанции
электроизоляционный
электроэнер
##атических
теплоизоляционных
##15бр
300x300
рабочего
110П
110x5
300х3000
отверстие
среде
##х380
##х300х3000
опцией
033
пена
186
18Б
18М
стойких
коробчатого
коллек
контактные
276
27х4х0
17П
1735
кручения
сигнал
пенополистирол
Отсек
цветом
75х50
75х40
75МТ
015050
244
24У
Коннектор
Контро
600x300
синтетическое
прокладников
конструкцией
термометр
канатов
##аймер
##17нж
##65х91
1910x940
##лометр
##х42
##х420
##тора
цементное
##огорючее
085
083
089
##ражатель
400х3000
штекер
##пропиле
паром
паровые
пароводяной
клеммами
##400С
кабелями
климатических
свету
##еревян
круглыми
МКТС
160Р
160х460
653
газовой
проводного
108х8
дверная
##грузки
125Р
##изводственного
серо
Опорная
63х2
##ирированной
термоэласт
578
57х5
5772
изолирующая
числе
37х4х0
щебнеочистительные
##х66
##х64
##х6000
PEX
180°
##ярусные
пониженными
допуска
ЛК120
отопительно
Выпрями
ППГЭнг
282
2832
588
переменными
встроенный
АВБбШв
расцепителя
сухих
##лотный
непорист
##139
блокиров
блокировочные
сетчатая
цельноотлит
##x680
Конвейеры
битумные
огнестойкость
##x450x200
##х51
##х560
##х515
##изолированный
##изолирующий
##ящего
перфорированного
настро
500х14
500х19
500х3000
500х153
##ХЛ1
##уплот
630х595х75
##корд
водоотталкивающ
##х71
##11р
антиприс
решетчатый
159х5
одностенные
одностенными
364
наклон
##енок
электрифицированного
напоре
балконными
модульном
386
уголка
КГВВнг
##x720
композитно
Баллон
колодцы
многофазный
##x58
С375
##x250x260
##х86
печатным
железнодорожном
52х4х0
торц
торцевым
225С
##x50x28
##1450
регулируемым
АСЧМ
содержания
диффуз
грунтоцемент
распределительное
тонкодисперс
426х16
426х14
Листвен
тросу
тросовой
DN25
DN15
изгибающий
стоечные
стоимости
##2444
449
диапазоне
##левая
выходе
выходным
С21
ПРП
ПРКА
вибров
трансформаторное
ограждающих
хризо
конусным
Трансивер
линейно
ПКЛ
##колонные
стыковочная
стыковочные
гипсового
гипсобетонные
479
##товочные
ЛСВ
распашным
распашными
пластмассовыми
##елевой
##елевого
##x1050
Обмазочная
шумозащит
Пудра
составные
древесные
##00х1100
камн
##x637
КОО
экструдированный
Арка
масло
разрыву
АМР
ШВВП
раздел
##x89
874
траверт
хвостовика
М10х35
другим
##42нж
дисковая
ВРм
мелкостру
##44В
хромированные
хромоник
световозвращающими
поливинилхлоридных
статическое
пустотный
балансировочные
балансировочного
направляющих
Полухомут
модулем
##ПКВтпЭнг
F120
F130
F145
F195
F135
F1800
F185
струйной
акриловом
заднее
ультрафиолетовую
врезной
Замки
Замедлитель
зерна
видеовыход
##цемента
погружных
##х200мм
Раскладка
кондуктометр
подводных
центрального
СБПБГ
981
морские
профилированной
##x70x1
ветро
населения
проточные
протека
ИТС
ИТО
Эмблем
информационная
##ктурной
однокомпонентное
3х70мк
бумажных
трехстворный
пробковые
матового
3х4х1
900х400
БрА
А1А
ответным
квартальная
Шпингалет
быстротвердеющий
100x100x4
##х100х95
счетчика
Столбик
сложного
гусеничным
ЗПУ
##РНЫЙ
дополнительными
КШСФ
270x630
фиксаторный
F550
F570
F535
F270
F290
секторная
карманные
устойчивый
Дисперс
холоднокатаная
вещания
масляных
энерг
бетоновода
второго
время
земля
30ч3бр
Подвески
узел
покраска
покраску
крупноформат
метакри
удержания
атмосферостойкого
двусторонними
4х95мк
Нагрев
локального
##ографии
покрытой
30с65нж
фиброцементная
окрасочные
окраску
остановки
насосной
маломобиль
ножами
ножевой
изоляторах
разъединителей
ВЦП
1000х385
Калитка
##ензия
износостойкая
разъемный
подземная
финишной
1х4Е3
1х35ок
вяза
АКВА
пассив
##x654
керамогранитная
пылевой
качество
структурирированной
F320
F330
F370
F345
F385
форточками
машины
непроизводственного
многомодовым
15кч33
двухместный
термостатический
спинками
АД1Н
ворсовой
Круги
ПвБП
СМА
силиконовым
СЦс
токопроводящий
пазогребневые
отвердитель
каучуковой
датчика
концевых
концевыми
быстросохнущий
Кабины
большей
виниловых
##леплави
соединителя
внутриобъект
2х35ок
мгнов
01860
металлочерепичной
антикоррозийным
F450
F420
F470
F490
F1080
F1060
F1040
седельно
##x1180x2780
фиксирующего
2х16ок
бутылочные
F920
F960
F990
F975
вагонный
просвеч
F820
F865
##х230х160
Гидроизол
1280х150х110
крановых
орнамента
разноуровневый
терморасширяющиеся
твердосплавные
Резец
двухлапчатое
F1220
F1260
F1290
слабогорючее
выработки
закаленная
##x1102
рентгенов
Б1800
упора
колонны
кронштейну
АПвБП
сферическими
антисептиком
технологической
рупорный
отходов
приставной
приставными
компенсации
зеркальным
2х25ок
F1550
МР25
##еприемный
термокпей
алкидно
жидкостной
пакетные
неутепленный
углеродными
керамзитобетонный
нулевого
F625
F640
F675
Стержни
сопряжения
ОГК
напольных
EU5
EU3
##99нж
изогнутая
дождевой
КППГЭнг
зетовый
2500х1250
40х20х2
1000х390х610
F760
F1440
РЛНД
дюбеля
МКПпАШп
F1330
F1370
##x1450
клеящим
абонентские
3ВСЭ5
NC2444
Виброп
РГУ
хладостойкостью
подвешив
Стрингер
текстильных
трехслойной
звуковое
бункером
PROF
475х515
Инсектицид
Центраторы
гроверная
съемной
##биты
30лс41нж
30лс941нж
30лс15нж
транспортных
СегментЭН
вторичной
3ПГ
F1160
F1190
##оприт
крюком
ограничителем
##окислый
мозаичная
шлейфа
F205
F2040
100х100х3000
1195х295х70
высокогли
противоослеп
контроллером
Пневмоудар
2х70мк
ДТ350
шнековое
элеваторные
16ч6
500х650
насадкой
Тягачи
Умывальники
молниеприемный
проложенными
вагонеток
модернизированная
обогащенный
##орозетка
ступени
экструзионные
электромонтажная
бортиком
бревенчатые
6х6Е3
Буксиры
ЭЛЕКТР
аммиа
дюралюми
30732
управляющих
компактная
1000х190х230
выравнивающие
Заводы
переливом
4Сварные
F1610
F1680
ВБбШ
эмульсии
40с10
балконом
землесосные
землесосной
латексов
латексной
A335M
предизолированныхтруб
носителя
самовыравнивающ
пенополиэтиленовые
пирамидальным
618x268
консолями
сегментный
высокоэластичные
вихревой
1x185
Класс
Таблички
фото
30нж41нж
2360x1180x2780
клещевидный
15ч14п
UHH31
5х240мс
RUBY
ОСТОРОЖ
алифатического
клетьевые
подсвет
длительно
##х368х3
722х265х91
гофротруба
размыкаемыми
видеовхода
маршрутным
CED
Гибк
Холсты
греющего
птиц
##МГК1
##Х4Е3
стирола
разрушающая
противоподкопным
ПРМз
шумоизолированный
медицинских
отсчета
поддержания
785x368x345
Калининграде
2G11
Krep
НАСУС
Промрука
Фольга
пять
синяя
тыльной
сидениями
гиперпресс
ПКВтп
320х535
паронитовые
F1880
тиоколовый
трапецеидальные
80х80х40мм
неоткрываемый
трудногорючего
сжимаемость
Доводчик
Лакоткань
Турник
Х3444В
костыльного
укомплектованные
##ЕРГО
крутящий
016050
Защитные
градирен
стабилизаторами
переговорное
хлорсульфированного
1ПКВтпнг6
H07RN
RLV
VALFEX
VENT
Аллея
Баббиты
МВССК
Т10У
варочная
галерей
дежурного
кобальта
нелегированной
пальцем
пудры
сгоном
##ябина
отделителями
полиспаст
подверг
двухколонковый
45нж13нж
электроэнергии
термоэластопласта
Выпрямители
цельноотлитой
500х149х21
500х199х21
500х153х21
антиприсадочного
Лиственница
травертина
мелкоструктурной
протекающих
Эмблема
Дисперсия
маломобильных
15кч33п
внутриобъектовый
подвешивание
СегментЭНЕРГО
Пневмоударники
дюралюминиевые
ВБбШнг
618x268x270
ОСТОРОЖНО
Промрукав
0x10
1x2
1х2000
1x2x1
2х
2СП
2x50
2х240
345
3x150
3х100
3x120
4Р
422
4РГ
5Б
512
5х2х0
5ПКТп
6И
6x160
7И
790
712
795
734
7x2x1
7ПКВКтЭонг
8х4
8х8
814
819
8x160
800х1000
9Ф
9А
9И
941
At
APT
AWG
B500C
CD
DEK
Dis
EL
Kn
MNT
PL
R32
San
TO
Tas
VA
Val
Ас
АР
А72
БГ
БЭ
Бор
БЕЛ
Вд
ВЭ
Веш
ВРА
ВВС
Вагон
Го
Гар
Гров
Глад
Гоф
ГКВ
ГМТ
Д0
ДБ
ДЛ
Доп
Д20
Д30
Деф
Дрова
Жилки
ЗЭ
ЗР
ЗД
Зуб
ЗПВ
К3
Кз
Комб
Мб
Муль
М63
М175
Моно
Олов
Олиф
П8
Пло
Пакет
При
П35
Пено
ПАС
Позицион
Р2
Решет
Р75
СЭ
Сол
Соль
Сея
Топ
Т12
Триг
УМК
ФГ
Ф4
ФТ
Ц1
ЦИ
Ши
ШМА
ШМБ
Э1
бер
бле
баг
боев
груша
ду
дей
дня
жим
зас
зати
зонах
ими
куст
котор
каланд
лё
луч
лап
м³
мяч
мона
метил
новой
ног
опуска
опускания
описанного
позицион
ром
руб
расти
ровингов
суж
суд
суп
суров
слива
тс
тек
таймер
улав
урет
физи
цели
эм
эфи
этиле
№71
##370
##3бк
##рикс
##кб
##сер
##сус
##совый
##оек
##ония
##ониз
##онок
##гра
##гкая
##ненные
##8C
##820
##8бк
##625
##04
##хма
##хождения
##иро
##ило
##иент
##иновая
##товой
##лым
##леты
##цами
##вЭВ
##видный
##935
##xст
##дус
##деры
##детали
##денсат
##чев
##чивания
##бар
##Пласт
##TF
##жир
##4x2000
##4кп
##КШв
##Конт
##щелевой
##ЭЛ
##ЭТ
##Рп
##ОЭ
##Тур
##АШв
##юля
##ювет
##фон
##P8C
##RIC
##EF
##эта
##эфи
##элем
##эx0
##tec
##tri
##ICA
##ХМ
##il
##ma
##ker
##×90
##ЕО
##ЕНИ
##oc
##el
##uti
##buti
##lex
##°C
##ЖР
##ЖА
##VR
##YER
##овом
##стал
ммx1
##еранс
##оламп
##ологи
##оров
##одъем
##аска
##енения
##руйные
##анная
##анным
##ляции
навер
##емнийоргани
##азоли
##азальт
##енизированной
##опри
##ровым
##ровое
##рование
##окоограничивающие
##езчики
##езжей
##ейный
##ейфер
##ейдеры
##мику
стиро
раздвижные
разновысо
##тирования
безоб
бездоб
##едление
##остоек
##кови
##евозы
##олированная
##еплеты
##аянного
##очках
обвод
обоев
100х8
100х240
100x40
100x1000
100x796
100x596
100x996
100x600x2000
100x800x2000
##ловентиля
##отным
##откой
##отекстолит
силы
##ющими
##елеукладчики
##альцов
прок
прокат
прогрессивной
проезжей
вых
выгрузки
##ходов
##ходных
##ходим
##ходовая
##иверов
10м
1040
10мм
10x2x1
12У
12°
1217
12x6
1275
1200х2100
кгм
дози
свеч
поликомпонентный
##ружной
##изия
##остойким
конв
концент
залив
подлив
подпорной
подкрановые
маршей
трубчатыми
трубогибочные
##00х13
осью
трасс
##1040
50м
50х8
50x2000
50x600
50х3000
50x3000
50x96
50x796
50x600x2000
50x800x2000
##2080
##сперси
20сп
2065
20х4
20Г2
20х15
20x30
##фикации
##анию
25х1
25мм
25ТС
основой
железа
##прия
##пряд
##озки
15х3
15Б3
неэлектри
16х2
16мм
16кг
40П
40К
40У
40Г2
40x2000
40x1000
40x3000
однов
одновит
одну
##х1400
##х113
##х185
алюминот
##учного
##учести
##нгиб
##равляющ
прирез
0017
Ст5
Ст4кп
1470
1435
1475
около
1000x600
1000х700
замерный
замазка
замедление
##80х1190х220
##илированная
плотный
объемной
двухзаход
двухходовой
медь
медленного
##орожные
30х35
спир
спойлер
сменной
##x116
500x190
500x375x250
каусти
горячий
90НО
ручная
ручное
поршневые
##онасосы
##урные
##цовка
150х1
150х20
150х65
150х400
150х100х
##литные
##литовые
200Р
установочных
установку
полимером
400x300
453
45Г
45Х
45x496
45x396
45х45
45x496x871
45x396x771
##x263
11139
250Р
250х1
250x200
250х400
250x510
250x440x219
##ваемых
полем
полкой
резцами
70°
70x3
базовых
стеклопак
стеклопластик
8020
80х100
80х65
##сиальным
601
60АтV
60х27
одноуров
однофид
одноэтажных
сварными
водная
водос
водовод
водостойкий
водоводяной
ПВ4
Пропит
3200х1600
##ВГЭ
##ключить
##х29
##х275
##х228
##х242
##атиновый
##155
300с
300x190
площади
1105
110Я
базальтовая
самоподъемные
##СТОП
средам
Смыв
Смесители
120x3
##х34
##х335
##х385
##отами
резьбовыми
1830
стойкость
коробом
усов
колец
вермику
278
27х2х0
176
1730
крепких
высых
Отбой
цветодинами
гидром
##ластиковая
скреб
##ничные
пандус
0170
0175
9500
95x3
9581
95x496x871
95x396x771
95x96x380
трехклавишный
трехжильных
трехрядные
трехосноориентированная
трехпряд
246
24М
синтетические
##ещаний
600x65
гибком
подключений
##ующее
##ильные
предприя
724
##чатки
660В
660х300х
шпинелид
##устри
проволочная
Заготовки
##х43
Переплеты
комплектный
08Ю
##опрофильного
400х6
400х500
##процесс
паров
парный
76х76
клеммными
светлых
##нж10
Кремнийоргани
418
4198
песк
##борочные
круглым
МКПВ
щебнев
газовая
газообразный
удара
1082
##лейка
##нодеревян
плиткам
серная
серого
КВПЭ
КВ18
633
63х25
63х40
##x320
балл
монтажно
монтажных
термоизолирующий
холодные
2000x800
##вердые
##екторного
производство
видов
раструбно
350x290
аксиальным
##руемого
##х62
##х650
##х620
многопрофильного
применение
333
цельное
цельнодеревян
##x500x780
дерево
##95х95
140x146
180х90мм
##ратная
##земных
высокопроизвод
наконечн
200х250
твердыми
резино
ЛКО
##328
ПБ7
секцией
IIIБ
IIIО
##реловые
487
4800
расчетной
постаки
полиэфирных
люд
непаянного
градиент
892
89х8
##офос
##офельного
цинкового
##x660
##x670
##x643
гидравлическая
КУБ
надомный
битумопер
##x445
##x492
смолой
##х53
##х540
380x70x1
цельносварные
цельносварных
600х1000
унификации
настенная
500х1
500х4
500х750
сердечника
556
ПвКШв
холоднодеформи
постоянной
##коразмер
##линты
групповой
нормальные
##11бк
антикон
219х9
Кронштейна
325х13
64П
одноструйный
368
23000
электрическая
остывания
люминесцентных
Разделитель
противопожарной
961
Подкос
Подкрановые
Подогреватели
85x496
85x296
85x196
85x396
85x96
грузовые
2650
091
389
38х3
##нуты
поверхностях
Профильная
Пускатели
глубине
глубинный
вспененным
##273
однопарный
130x496
130x296
130x396
черт
##x76
##x778
многоц
ответвительных
##x566
##x573
##x576
468
инстал
западная
крестовые
240х300
668
##репарат
железнодорожной
750х750
##оподогреватель
##x200x17
ПСЛ
закрытые
Наклейка
##летные
##летевозы
подвесах
Электр
грунте
##х95х65
влагозащитная
КНтп
гравита
##ектом
нереверсивные
##ыкальный
кромок
распределительным
693
550х250
550x450x200
учреждений
##ствий
##ствием
##ВЭЛЛ
544
эластичное
тросостоек
Колена
09Г2СМГК1
эпра
Соединительная
геополот
ленточных
ленточной
DN20
крахма
##x400x710
293
297
##вающие
С2TE
штыри
ПР6
вибр
вибратор
738
Д1АТ
ТСД
полюсные
062
069
ремней
##фальтоукладчики
вытяжная
136x496
136x296
136x396
136x146
##оящий
створки
гранули
скважинный
скважинных
##енцесушителей
гипсометаллические
394
картридж
ЛСН
320х140
монорель
подъемные
##x300x640
непрерывного
РТТ12
штыревого
штыревых
742
Вентиляционный
СКМ
специальный
специальных
взрывом
составов
##00х1300
МКРЛ
волновой
фундаменту
230х113
входе
492
переднее
538
536
##олимера
маслопро
377х16
рекламная
полотенцесушителей
59x66
5949
59x142
59x116
##x40мм
8680
Составы
выводов
838
684
ШВМ
дутые
##x820
естественно
878
траве
##хлорвини
хвостовик
патрубком
другие
четырехтрубные
антикоррозионное
предохранители
предохранителей
мелкоразмер
КПСВВнг
КПСЭС
076
072
М125
##х65х95
Полусфера
##озащищенный
горючее
двухкамерная
F1000
невыгор
ФКА
скреплением
устройстве
устройствам
ниппелей
подстоль
Электрооб
773
920х12
врезная
врезные
##21нж
кнопочные
НС35
НС44
дренажными
зернист
50х50х3000
##питанной
АДМц
АДМг
центрах
помощ
модифицированные
модифицированного
чистой
чистовое
81x142
ЛПФ
тканой
трубчатым
бурового
скобой
помещением
##x707
СБЗВГЭ
МГК2
МГТГ
М12П
рамная
рельсовом
М16х70
4х2х1
91x496
поддоном
жидких
##опогрузчики
диагностики
946
##23нж
полимербетонная
570х25
аналоговых
##18бк
стеклохолста
отражателя
композиционный
ПДН
стеклянных
510x80x219
1х18
1х1600
1х1400
1х1200
желобчатая
светильником
светильниками
ПОО
ПОЖА
пазов
лифтовой
Авто
унифицированные
дефлектор
50x50x1000
50x50x2500
50x50x165
##x2194
360x160x90
100x100x6
168х18
гальваниз
ААШВ
прорезью
запорного
Металл
1х10мк
КШУ
сериографии
прозрачными
##гораемой
##x2050
14нж917ст8
14нж917ст17
14нж917ст26
нанесение
мягкой
вилочные
индикацией
индустри
##37х46
50x100x1000
50x100x2500
50x100x3000
50x100x165
кислород
двухсекционные
800х400
любого
фиксаторы
фиксаторами
горловин
М6х25
##х985
100х80х3000
белым
мачте
сополимере
1х2500
нефтя
эффектом
СБПЗАШв
##х18мм
бесцветного
расширения
расширенная
3х185мк
скрученной
КСПвЭВ
детских
20295
202x200
цепочках
восстановительные
сантехникой
2П1
узлов
Столы
##x1894
перемещения
М5х20
днищем
100x300x512
142x146
компрессором
200х80х3000
атмосферного
атмосферостойкий
105x63x500
105x63x2000
105x63x1000
105x63x700
105x63x1500
105x63x900
105x63x1800
105x63x1200
грунтовки
дистанционным
КРТ
КРВР
стружкой
30с76
30с15нж
фиброцементные
активатором
насоса
насосами
военизированной
сердцевины
ОДРСП
ЦП328
автоматизированные
молоток
центраторы
100x400x612
инъекционная
РТТ5К
1х50ок
420х330
КБП
комплектации
необслуж
автономные
микропроцесс
4х70мк
КД3
шкафа
цельнометаллический
типоразмера
##ОПАЙ
разъемом
разъемами
100x500x712
74x63x500
74x63x2000
74x63x1000
74x63x700
74x63x1500
74x63x900
74x63x1800
74x63x1200
забивных
держателей
закрепленные
ЛЭП
Тепловентиля
туалет
200x200x412
эмалированный
натуральных
##рьковые
##TER
##TE8M
разветвители
Дн110
25х25мм
коврово
300х80х3000
37x63x1000
37x63x700
37x63x3000
37x63x1500
37x63x900
37x63x2400
выпуклым
пиломатериалов
терракотовый
уровень
40x70x2000
40x70x1000
40x70x3000
40x70x27
40x70x165
40x70x161
40x70x183
40x70x273
##ландцемента
37x60x1000
37x60x700
37x60x1500
37x60x3200
37x60x4000
паропроница
сочлененная
КФЦ
незака
##х125х135
Контрдетали
192x196
400х80х3000
непроходной
100x200x412
40x40x3
40x40x130
упрощ
150x150x412
4x4x1
Матрикс
СППК5
ДО21
003Z
вспомогательных
5х35ок
АЦСС
анодный
50x80x2000
50x80x1000
50x80x3000
50x80x161
50x80x183
4х185мк
СМ9
40x50x2000
40x50x1000
40x50x3000
40x50x165
40x50x161
40x50x183
40x50x254
40x50x263
35Т4
токопроводящая
гипсокартонных
109x60x500
109x60x1000
109x60x700
109x60x900
109x60x3200
109x60x4000
каучуков
Стеклопластиковая
кулач
аварийным
облегченные
ПЗС
ПЗЭМИ
МКЭШнг
МКЭШВнг
гидрофобизации
шипованный
АСБ2лГ
огнезащитное
рукоятью
фальшпола
Кабина
Кабелеукладчики
винипласт
звукопоглощающая
##узыкальный
5х25ок
F435
нулевой
седловые
мостиках
огнетушителей
фиксирующие
пенобетонный
нагельная
ОКГЦ
Автопогрузчики
штампованная
просечным
150x300x512
92x496x605
92x496x778
92x296x405
92x296x637
92x196x305
92x196x566
92x396x505
92x396x707
фибрилированная
Стеклообои
ИПЛ
рукавный
хлора
ГидроКонт
150x500x712
150x400x612
Резина
ШКЛ
агрегатов
траншей
##олефинов
двуосноориентированная
потребления
74x60x500
74x60x1000
74x60x700
74x60x1500
74x60x900
5x1x1
5x185
РС16
ХВН
##хваты
стабилизатором
Б2100
электроли
электроламп
11ч3бк
11ч8бк
антисептированный
нагнетательные
бутилкаучуковая
Ванны
ру16
##KOV
##ерстяных
вспучивающегося
ПЛУК
поляриз
пастообразный
##яхиванием
разрезным
##x405x60
3А4А
Водорозетка
Водоподогреватель
Керами
МР20
15с52
затвора
совещаний
обычной
серебристый
инерционные
квартиры
00005
0806
УП7
ФБС12
ИОСК
сульфатостойкий
начальных
сверху
ЛНФ
бревна
сцепное
указателя
изогнутые
шаровидная
трехмерный
содержащая
содержащий
штуцерно
текстурированного
Рамка
душевая
ступеней
расходомера
32х25х32
Геомат
защищенный
F141
F1490
молоты
ошипованный
ошиповки
солей
##стряхиванием
однополюсного
МКПпВБ
CM080
Катализатор
РосТур
1225х325х75
перевозки
Ст1пс
Ст1кп
45x796x1180
45x796x855
45x796x1171
45x796x1092
95x796x1180
95x796x855
95x796x1171
95x796x1092
95x596x980
95x596x714
95x596x971
95x596x892
95x996x12
95x996x997
95x996x1380
95x996x1371
телевидения
600х400х50
600х400х60
600х400х40
DIN975
низковязкий
абонентская
2НЖ
бачка
платиновый
нелинейный
500х550
5кН
умывальников
##атомитовый
Ст6пс
ПРОФ
поддерживающие
15кч18п
15кч18п2
065B
уксус
##ERICA
1270х125х135
водоразбав
375x250x219
транспортерных
цинкования
##ротрубка
мембранной
ОДОСПО
ЗВИ
##зова
##х145х110
крюк
колеса
колесные
Приставки
ШВПВЭ
2x1x1
2x1x0
мешок
нетокоограничивающие
рефнеты
утяжелителей
100х100х3
контроллера
гранулами
карликовых
подставками
200х100х100
РДП6
молочного
молочным
##raf
процессе
45x996x997
45x996x1380
45x996x1371
95x96x332
95x96x318
95x96x381
многослойно
насадок
неглазурованные
Микротрубка
Тяги
50x200x2000
50x200x3000
замкнутый
МГП2
50x50x212
вагонетки
модернизированный
обогащенная
КПКВнг
НБМК
коксо
фидер
45x296x671
24334
РОП6
втулками
Буквы
ДПМД
ФРФ
аморти
буфер
картофельного
моторное
ротором
целевыми
щелоч
экономи
преполимера
програм
1000х500х800
примыкания
легкосгораемой
гравийная
толстослойные
1000х380х410
агрессивным
автомагистралях
2х150мк
6х8Е3
CARB
АНЖР
Туя
тампонажные
1000х640
500x300x250
капсюля
45x196x571
45x596x971
1190х100х115
плоскостей
балконов
цинконаполненная
КФДЦ
непропитанные
упрочненные
изогнутыми
590х595х95
ЭКОВЭЛЛ
ударопрочного
рессорной
8АтVс
носиком
фторопласта
##ывающаяся
50x400x2000
самовыравнивающиеся
Защелки
Защелка
консолях
рычажные
такелажные
вихревые
инициирования
инициирующего
Ревизия
##зырьковые
1235х195х75
50x500x2000
50x300x2000
50x1000x2000
40Т7
портландцемента
45x96x381
одноцветные
косоура
95x296x671
95x196x571
серьгой
180x50x850
180x50x1050
600х600х105
вращательно
50x100x328
625х625х75
50x80x283
50x80x284
11Б41п3
предназначена
MAYER
Вкладыши
Направляющ
веерного
мебельный
ресиверов
шпилевидный
ст3пс
16кч11р
00551
##x145x50
110302
##иссуар
контейнере
структуры
резервированием
370х565
низкоэмиссионным
лепестковый
NG310
Акация
ПХК
детонатора
ендовы
##ермитной
16x2эx0
шпуровых
импульсные
50x100x303
2А6А
648x395
дезинфици
кокосового
продувочной
Ø110х10
Дизель
Заземлитель
кальция
элегаз
развальцов
отбора
1200х295х95
подверженные
СтЗсп
двухголовые
прямоточный
45ч15нж
гидроактивный
одноступенчатые
##ливаемое
100x100x312
PPRS
перекидной
фосфата
антенн
Закладная
зарядов
нетвердеющая
препятствий
ориентированной
4Д8
596803
Tech
Амми
Медь
Нарезчики
Рефнеты
ЯКГ
анионная
гниению
пруда
роствер
рыхлители
рудничные
фартучного
химстойкие
холстом
##ТЕП
##ются
##олекулярного
набивная
##олибде
##споко
15Б1п
однокозырьковые
самостоящий
тяжеловозы
надпись
окончательной
легковесные
инвалидов
Кольчугино
междугород
Световозвращатели
непрозрачный
Оповещатель
МШП2
вантуза
##ECTRIC
высокомодульное
##исталлический
тоннелепроходческие
2CTE8M
6х400мм
91920
GENERICA
NTAN
Асботекстолит
Волоконно
Диммер
М9П
Ножницы
вварное
дрени
пустотами
пламени
роллетные
рихтовочные
улиткой
##auf
##окоррози
##ольтное
арболитовые
Струна
огнеби
цветомузыкальный
Контрольный
57837
блокировками
настроечный
тонкодисперсные
вибровстряхиванием
разделанные
крупноформатные
вязаное
АКВАСТОП
##леплавильных
ЭЛЕКТРОПАЙ
гиперпрессованный
полиспастный
CDT
DEKraf
Distri
ELECTRIC
Knauf
TOKOV
Tasker
Асфальтоукладчики
БЕЛТЕП
Вагонетки
Гладкий
Дополнитель
Д30мм
Дефектоскоп
ЗЭТА
КзП
Олово
Олифа
Прицепы
Позиционеры
Решетчатая
Триглиф
боевиков
действием
лёгкая
сужение
таймером
улавливания
целиком
##bution
##одъемники
наверш
##азолинов
безобжиг
бездобав
100x1000x2000
100x796x400
100x596x400
100x996x400
свечи
50x796x331
25ТСОЭ
15Б3р
неэлектрического
одновитковые
алюминотермитной
00173
двухзаходная
спойлером
250x510x219
водоводяные
Пропитка
Смывка
Отбойник
цветодинамический
01755
предприятий
660х300х95
Кремнийорганическая
419813
МКПВЭнг
щебневидный
КВПЭФ
цельнодеревянный
градиентным
битумоперлитовые
380x70x156
холоднодеформированная
антиконденсат
инсталляции
550х250х260
геополотна
крахмала
320х140х105
монорельсы
230х113х65
маслопропитанной
59x142x150
мелкоразмерным
КПСЭСнг
невыгорающего
81x142x250
необслуживаемая
микропроцессор
Тепловентиляторы
40x70x274
незакаливаемое
ГидроКонтур
поляризацией
РосТурПласт
95x996x1292
экономичные
CARBON
развальцованным
59680332
ЭЛЕКТРОПАЙП
Distribution
1x6
1x50
1x400
1x25
1М2
1ЛМ
3Н
3И
3x50
4Б
4600
471
4ПКВт
4х40
4pkvntpbvx0
5E
5мм
5х200
5х400
5КВ
5х600
5МСР
5х800
6р
6Б
6К
6М
6х1
6400
616
6200
770
7400
7700
7ПКВКтнг
8м
870
865
831
868
916
985
914
AD
A106
DC
F17
F22
F32
F24
F19
F34
F66
GR
HD
JBS
M5
MG
M300
M250
N1250
Pro
R2
RW
SA
SH
TVI
USB
Va
Vetonit
Weber
so
x25
±40
АУ
Агр
Анод
Алюми
Б6
Бу
Боб
Бач
Б1500
Б220
Базальт
Вос
Вним
Верев
Верх
ВГП
ГЕО
ДА
Движ
Дуб
Детектор
Ез
ЖС
ЖО
Жесть
Зсп
ЗКВ
И1
Кров
Кноп
К17
Л6
Л4
Лату
Л15
Л11
ЛМП
ММ
МЕ
Мот
Мара
МЭШ
ММК
МБР
МЭК
Мазут
Не
Нав
НПП
НПЭ
НАП
Очи
ОСП
ОПС
Пс
П6
Пла
Пак
П15
Пластиков
Плав
П11
Ры
Р4
РПВ
Р57
РТУ
Рябина
СКС
Сиф
Сигна
Тн
Тз
ТЭ
Тель
Техни
Ук
У6
УСО
УШМ
Усили
ЦТ
Ш1
ШЗ
Шта
ШПВ
ЭО
ЭМ
Э60
ап
анд
агл
амм
ацети
бе
боль
баков
брек
вост
впис
гом
гели
громкоговор
гроз
дель
засл
ирис
коди
кОм
ксил
левое
лавки
лекальные
мс
мам
мети
монах
нити
ота
опира
пист
пента
пун
плат
рк
ран
сы
сем
себ
сут
суш
снего
тюбинг
указатель
успоко
фуг
фонта
хва
шинами
шерстяных
этил
этиловый
якор
№26
∅1500
##5E
##530
##527
##агой
##афт
##рол
##роли
##ридная
##контакт
##са
##сор
##ски
##сина
##силикат
##скользящ
##оана
##оопас
##мл
##мень
##мости
##менной
##гут
##генер
##нУ
##нения
##нему
##8Е3
##6БК
##иум
##зания
##затор
##зун
##т1
##тная
##теля
##точной
##лт
##цци
##ве
##вола
##валом
##уол
##уци
##упро
##93
##9п
##9х6
##ьи
##ГГ
##ГТ
##ЦИ
##шар
##шению
##штырь
##чом
##чность
##чение
##чностью
##яемый
##пос
##бо
##бер
##блю
##блок
##бская
##ФЭ
##Птпнг
##TK
##жению
##410
##С2
##щенной
##ВЦ
##ВЛ
##ВИ
##НЫЙ
##Р6
##РТ
##О10П
##О10ПИ
##У3
##УЗ
##Дх
##ДЛ
##фрам
##фская
##функ
##ИО
##AU
##AWG
##G70
##ХФА
##Х8Е3
##±40
##DZ
##MAS
##ha
##em
##B3
##SA
##LI
##la
##VT
##rc
##ёж
##номер
##нопор
##ова
##сто
##стокислый
##льными
##нир
##нировщики
##еррос
##етек
##олные
##орегулятор
##ористой
##ордина
##лик
##ливающ
##омост
##одня
##лена
##леный
##анных
##кати
##ляционный
##ляется
диаметров
изв
изогнутый
##роката
##азполимер
##опожар
##оплетевозы
##арки
##абан
##есез
##есча
##ровоз
##ровыми
##окрыти
##окомп
##мерации
##мик
##лачом
##лоны
##лочной
##лочно
клы
класси
##тин
безриг
##итоп
##едит
##едельный
##новаты
размеров
##оствола
##ковочная
##коврем
##иненными
##инфская
##50х300
##олива
пряж
##очки
обив
оберт
обозна
100x60
100х600
100х63
100х900
##порт
##ющейся
##рованными
##рованном
выда
##ходовый
##ивного
##ивании
10а
10Б
10м2
12Л
12В
12x1
1290
12х12
12x20
12кч
полив
полиола
полиминер
полисуль
##ружиненными
концов
захват
давлений
подфор
подбив
подкра
трубный
трубчатую
##00х11
##роводной
раскат
##еград
трип
##10x25
504
50x3
50х12
5052
##205
##20x2780
2080
2090
20x50
20Б1
##фильный
горкой
горками
##ечными
коринфская
257
25x150
25х32
25х17
Трубоплетевозы
железный
15кг
##истые
необработа
16x1
1660
16x16
1600х2000
16x210
404
40X
40x20
40х17
##х170
##х172
шины
##етический
##олье
##ольное
##ольфрам
##равочно
0016
##осиликат
Стенд
##ановый
1440
14x2x1
1000x1
1000х200
1000х300
1000х2000
1000х500
1000х800
замковая
объемного
##перфор
двухупа
двухпол
двухлин
двухтрубные
двухфланцевый
##25нж
медного
30У
30М
30x1
30х8
30х20
30кг
смоля
смола
смешивания
##x112
##x185
##x1150
##x1250
электровоз
##идроп
5005
500x2000
калачом
темных
90х40
90х90
90х56
##нопокрыти
комовая
##онаблю
1310
1316
13ХФА
##урик
150x50
150х300
150х250
150х90
1505х195х75
прямолиней
2003
200x400
полимерную
##изоляционные
Корчев
400с
400x2x0
455
451
##x2250
1160
1130
250х500
##306
##30H
напряжении
##ванопокрыти
##катная
##кателя
резанная
703
70х10
70х12
70АтV
##пуском
80мм
80х12
80x60
80х32
##силокс
##сичностью
603
60х30
60x27x0
##ебных
одноряд
однооснов
однорукояточный
водораст
##елях
трубопроводы
ПВ2
моющиеся
опору
##зирующая
##олокнист
327
32х4
32x3
32мм
##х235
##х2800
повышение
электростанций
электроста
координа
300x150
мах
мали
110х50
110х75
места
300х500
300х100х3000
352
35кВ
35x15
средние
Излучатель
120С
120х228
##ливной
клин
##роволочных
привед
резьбовых
пеноди
181
189
18сп
18x260
токсичностью
контактно
верт
271
2760
27x2x1
##ционное
сигнальным
защитовые
Откры
углоз
75х20
75х75
##ничный
панелях
952
трехрожковый
трехкомпонентный
247
24ч
24А
##ленной
Концевой
600с
600x3
600x400
600x450
воздухоприт
Стабилиз
прокладке
пищ
##енья
соединенной
канатом
канальные
строг
##ующие
##ильной
связями
гладкое
##чатой
##одук
анкерное
фаски
фасовка
шплинт
кНм
2240
##тивные
1930
19ПКВКтЭнг
19лс
красителя
##рицид
21x2x0
21х1220
накле
##огружатели
горячеоцинкованные
вставки
комплектующих
стеклопластиковом
082
##опроника
герметичные
400х800
400х100х3000
коллекторные
дорожным
клеммником
винтовую
##ивающийся
41х21
МКМ
щебня
160х100
160х110
160х350
##устик
659
65°
65х12
газоснабжения
газовыделением
газосиликат
##образный
125х125
плитой
сереб
сербская
трансляционный
##ательного
КВП
КВЭл
нагрузку
63x2
песчаного
##2250
0368
баллов
2000мм
##егулирующий
573
571
574
57x3
57х140
жесткое
слое
885
изолированной
3000х200х
450х900
вводная
Компонент
СТп
350х70
##х640
##х635
лака
338
##ошип
##ошерст
140x120
140x200
140x160
140x230
180х110
##ратный
ствол
огнепр
пониженное
понижающим
твердости
автоматическом
потолок
Выход
ППТ
28000
28x27x0
порошковый
ПБ30
ПБ32
ПБ44
секционная
сборка
IIIС
488
48з
482
противогр
СПСМ
деревянного
механических
273х7
скольжению
верхними
неполированная
##х109
##игазполимер
одномач
периклазох
сетевой
##СПД
89х4
89х9
##никах
##удование
КПЛ
##x68
стыками
гидравлической
надземных
приводов
битумосодержащ
огнестойкая
##x435
##x484
380x200
380x180
##формации
##тельные
600х5
600х6
лопат
настоль
настенно
557
55x50x28
ПвБШв
630х10
##х780
антискользящ
Огнез
комбинированным
219х25
удлиненной
КСС
заполнителей
легких
легированных
238
тонкий
хватом
Размер
клею
Подготов
Подогреватель
Подмости
261
093
отношению
629
627
шестиугольник
поверхностный
глубин
резинового
пластиком
вспененный
шестигранника
двухдис
пружина
##x90мм
колодками
многофунк
измерительная
керамических
##x540
##x565
##x545
пластикового
жалюзи
информации
рельсос
##х850
##х860
печи
печати
##x100x219
##язочная
667
##x200x80
Крестовины
ПСК
равная
528
52х4х1
##147
стеклошар
АСКП
навесного
коротыш
номера
усиленной
редуци
ТКЕ
тройная
530х172
шарнирный
продольно
КНП
##ПБФ
магистральное
БСт3
БСт1
влагостойкий
домик
домоф
прессованная
550х550
550x250x260
РК75
пористые
пористого
426х9
эластичного
пленкоп
литров
пожароопасности
ленточным
двухкомпонентные
центру
DN32
краны
промежутка
44±10
291
2950
эпоксидного
эпоксидное
##вающих
звена
звсб
##x2520
станков
Манжеты
свинца
##LTI
##левый
выходов
выходами
штырная
4310
накладка
ТСЗ
064
Воздухонагреватель
56х36
асфальтовая
линейных
линейным
##кидные
промышленной
промышленные
ПКН
##x604
скал
скального
обмаз
обмоткой
стыковки
478
472
397
опалубочная
распашных
улиц
##циональные
##яющая
крепежными
КВВГЭнгLS
угловым
##x300x219
##x105
Обратный
##ламеня
746
747
СК3
СК2
СКПУ
специальным
взрывной
составы
древесно
##00х1800
камерных
МКРПБФ
КОг
КОп
КОР
КОПС
волны
механизированной
вращающ
среднем
4960
##овозы
передвижная
силикати
водоструйный
377х13
377х14
593
594
рельсовыми
двустворчатые
##x98
поликарбонатный
787
искрового
ШВК
ШВПВ
1220x2440
игровыми
##x880
877
Колодки
М10х60
четырехлучевая
четырехкомпонентное
вентилируемого
встраивания
бронированных
##38п
хромированная
поливинилхлоридная
поливинилхлоридные
СВФС
механизмов
114х12
ВТ15
фиброй
Ползун
Экструд
штанга
штангу
пароизоляционная
откидные
консер
1800x600
взрывозащищенном
гальванопокрыти
остекленное
##40x1500
сквозь
Электроплит
920х11
##копортландцемент
##ембраной
силикатной
всесез
дренажной
бумагой
видеонаблю
полотнами
ВССК
шинными
##кВт
тренаж
ударные
скрытыми
Двойной
Распорный
Расшир
АДК
АДР
ПТУ
модифицирующая
Окна
шаге
4х4Е3
кремовая
кремния
К115
трубчатого
##х3000х730
##х3000х580
##х3000х760
скобами
органическом
МГК1
МГТН
М12х50
рама
##x1650
охранные
выключатели
отдельностоящие
желт
заглушками
петлев
клеевая
звукоизолированный
гвоздём
полимербетонные
металлопроката
100х50х2000
натриевой
пропитанных
40х40х2
780х2080
цинкнаполненная
510x100x219
матовой
протяжной
##МПР
900х500
900х800
900х700
ПМК
плавкой
плавленый
ответного
кварци
унифицированной
50x50x3
Звенья
глубокопроника
1050x2100
100x100x50
герметизирующий
герметизирующей
дизельное
##х100х100
запорными
700х600
шланге
##бойники
конденсации
адгезион
мягкая
Растворонасосы
глиноземистый
глинопор
1200х600
1200х500х
1200х600х
1200х1200х
карнизные
3х150мк
любых
3x2x1
##х99
##х900х
##х920
СТД527
УЗП
##ручивающийся
##опоритовый
импульсных
Сплав
САУ
неподвижного
скрытый
холоднокатаной
холоднокатаного
Штанги
нефтепродук
МП20
знаки
планки
перегородочные
магнитной
КСПЭВ
временные
##фталевый
калия
цепной
выправочно
30ч7бк
ВАГГ
Подвеса
##x188
##x1850
метакрилата
стеновых
нагревательного
эффективным
2x2x1
выносным
тиксотропная
двусторонняя
двусторонние
4х95мм²
балочная
стружечными
Кондуктометр
Контакт
аккумуляторных
нейлоновая
3х240мк
разделительной
ОДАО
изоляторы
укороченным
лестницами
4х120мк
наличие
скользящая
2х4М2
2х4Е3
разъемы
финишных
финишное
1х4М2
1х4М1
вязкости
100х100х4
100х100х55
закрепляемой
УТЦ
широкая
широкий
широких
200x200x6
коммуникационный
пневмокамер
##47нж
##вающийся
##шечного
сочлененных
4х150мк
ответвляющего
термоусаживающиеся
670х100х110
наборной
2А4А
телефонной
бурильно
древесностружечных
антивандальным
пиломатериалах
пристенные
поручни
поручней
вентиляторов
одноместный
4х10мм²
СМК
ШУЭ
многоцветные
тупиковые
4x240
580935
НКУ
никеля
овальные
сильфонные
35Т3
негабарит
##рельсовые
4x1x1
4x1x0
ГК11
ГКЛВ
планочный
плафона
2УГП
2УВП
2УНП
##олюминесцент
1000х290х230
1000х290х430
595х605
Акустик
эксцентриковый
рукохода
терморасширяющийся
1НС
КЦП
нумерации
седельные
набух
##х190х95
690x335
2440х1220
метрополитенов
СНА
улучшения
свайно
##x1320x2780
пространственной
ИПУ
тумбовый
Гидроизоляция
Ат600
Ат400С
200х100х3000
1П60
мусороствола
##очастотные
волнистая
никелированная
гимнастическими
БНТТ
1320х310х100
Крепеж
5x1x0
Тюбинги
Шарнир
стабилизированным
колонковые
колонкового
колоннами
17с21нж
17с23нж
Б230
едкий
сумма
11ч18бк
11ч6БК
параметрам
антисептический
БЗ26
блочно
подкладкой
импостами
3x1x1
3x1x0
Py32
камерой
пастовый
разрезная
разрезки
коньковая
коньковый
спуском
трамвайный
3А2А
азоти
паркетные
паркетного
##АТИМ
перепадом
фосфорнокислый
4ПКВПтпнг
МШК2
##OSS
неутепленным
потенциала
КСФ10
##x205x90
Лестничная
нулевая
00002
ГВУ
М14х70
ОТ350
##x170x505
ФБС9
абразивный
четвертью
6АIV
129x380x219
сверхпро
аргоном
отделочная
УГВн
УГНар
595х595х42
суммарной
бревно
ванн
изливом
##x1404
прямоструйный
##903р
трехмерно
##ообразная
штуцера
штуцером
штуцерное
резервное
бетонируемыми
текстурного
текстурным
титан
титановые
2500х1200х
25х20х25
калиткой
19с53нж
19с17нж
19с47нж
переключатели
специальными
междушпального
междушпальных
мозаики
солом
##ДР12
##стренной
проникания
концентрат
нишу
8104
F137
##ine
извещателей
перевязочная
Ст1Гпс
##x1480
ЛКПн
592x592
Грязевики
абонентов
эвакуационные
ГТП1
ГТП2
РМГУ
козырек
1285х205х90
##x1920
500х537х46
36920
ID200
Барабан
МЗВ
СФТК
складной
складывающаяся
текстильным
звуковой
карбониз
15кч18р
15кч18п1
785х368х3
##3108
оттяжек
оттяжках
неорганическими
1400х2080
водоналивной
32х20х32
веревочная
углекислый
транспортером
ОСГ3
латексированный
голубой
3ПРГ
6х4М2
6х4М1
ЗВУ
Ковер
обезжир
выпускная
перлитовые
41428
червячные
ПСтО
ПСтО10
звенья
ШВПНЭ
шлейфов
шлейфовый
котла
двухуровневый
заземлителями
контроллеров
карликового
700х500х50
700х500х60
700х500х40
200х100х40
дождеприемный
дождеприемного
Е116
ОЗС
ЩУРВ
шнекового
Противопожар
колонну
500х500х100
насадки
Тележка
неоткрываемые
захвата
2КД
Микро
РДС
платформы
свойства
плитняк
200х600х200
звукоизоляции
асбестоцементных
445x170x505
Газоана
Погружной
грубошерст
дезактиви
фунгициды
газополные
тонкослойные
криволинейного
БрКМц3
САСУС
1хRCA
1хHDMI
980х2080
батаре
моторного
##ITA
безбалластной
33а17р
33а603
33а903р
адресные
Керама
дискретных
4НЭ
Аммонит
ДПЛ
щеточный
прокалывающие
10УЗ
распространения
1190х75х100
плоскостях
цельнолитой
непропитанная
БУР
Шахты
глянцевый
столиками
пенополиэтиленовый
Термопреобразователь
рычажный
Графит
Ревизии
Шлакопортландцемент
льня
оператора
солемер
фотолюминесцент
##силиката
20x20x40
пленкообразующая
вращательного
стрелы
Коуши
объединением
объединенные
органоминер
15ч14бр
900х1800
MAK
ЗЩ1
ЦАГИ
ШОВ
шпилечный
прядевых
подпружиненными
20х16х20
16кч9п
110301
одностворчатое
КГ1х10
резервирования
низкоэмиссионными
1х300мк
4х8Е3
Грузы
ЦАСБл
ЦАСБГ
стрела
окружности
окружающей
бескаркасная
бескаркасных
нейтральный
вилкой
инъекционных
демпферные
15кч16нж
15кч16п1
набрызг
набрызга
высокоогнеупорные
распыления
полуплощадкой
полуплощадками
теплозвукоизоляционной
KBK
ЖКХ
Клинья
Саморез
генератор
кипения
лаванда
негорюч
победит
слюд
приподня
150Пк
полезная
полнопиле
полутвердые
пластифицированный
Прижимы
междупутного
автополива
рентгенозащитные
шестеренная
истиранию
закольцовкой
HST3
NE3108
АППВ
исходной
источника
кишечного
##lid
подшипниках
усадкой
Переключатели
500х136х14
остря
трещиноваты
полукомпенсированной
приклеенным
молниеотводом
микрофонная
Автогидроп
углекислотный
тиристорные
ржавч
4х30мм
61386
ASME
Сирень
Чугунный
Э50А
Э42А
аспирации
вулканизационные
дуплексных
коксовых
локомо
стульчик
прослойки
конвейерных
кратковрем
огрунтованные
полуглян
огнеупорным
283200
торцом
хризотиловый
мгновенного
рентгеновские
Вибропогружатели
противоослепляющ
40с10б
подсветкой
Гарнитура
ЦИАТИМ
берего
лучам
монашка
суровая
##элемент
прокола
конвекторного
16х2эх0
16кгс
Ст5Гпс
##х275х140
усовиками
трехпрядная
пескобетон
высокопроизводительного
гравитационные
вибраторами
##хлорвиниловая
Электрообогреватель
индустриальное
нефтяное
паропроницаемые
упрощенные
кулачковые
Аммиак
междугородные
огнебиозащитный
АКВАСТОП®
DEKraft
навершия
безобжиговая
бездобавочный
ADB3
GROSS
SA106
solid
Агригазполимер
Аноды
Алюминий
Бобыш
Бачок
Базальтовая
Воск
Внимание
Веревка
Верхний
Движение
Езетек
Латуни
Марацци
МЭШДЛ
Очиститель
Пластиковый
Плавучие
Сигнализатор
Тельферы
Техническая
Укрытие
ШЗВ
Штапи
андез
аглопоритовый
аммония
белой
больничный
восточная
вписанной
гомополимер
грозозащитный
заслон
кодирования
мама
отап
пистолета
пунктов
платформа
себя
фуговочные
хвата
∅1500мм
##оопасных
##штырьковый
##G7048
##ерросили
безригельного
оберточная
выдачи
12кч11бк
полиминеральный
полисульфид
подфорточной
подбивочно
##еградительный
необработанный
двухупаковочная
двухлинзовый
Корчеватели
однорядной
одноосновная
водораствор
электросталеплавильных
120х228х99
пенодиатомитовый
Открытая
углозащитный
воздухоприточная
19лс53нж
красителями
21х1220х2440
газосиликатный
огнепреградительный
противогриб
одномачтовые
периклазохром
380x200x219
380x180x219
редуцированный
530х172х84
пленкопористой
звсбз
КОПСЭКнг
гальванопокрытием
Электроплиты
видеонаблюдения
Расширитель
глубокопроникающая
глинопорошок
СТД527А
ОДАОСПД
пневмокамерами
58093526
плафонами
690x335x310
азотистокислый
785х368х345
Газоанализатор
грубошерстный
дезактивируемая
33а603р
полнопиленые
трещиноватых
Автогидроподъемники
0г
0п
0x2
0x0
0x6
071
0х200
0x16
1с
1м
1У
1Х
1m
1x7
1ПКВт
1х19
1x70
1x16
1х4х0
1кг
1x55
1Х4Е3
2е
2ж
2p
2x6
2x25
2x16
2x18
3а
3т
3x
317
3900
3КП
3x95
3РС
3РГ
3ПКВКтЭонг
4с
4т
4U
4x18
4ПКВКтЭонг
4Та
4ПКВтпЭнг
5л
5С
5Т
522
513
514
5х40
5ПО
5ПКВКтнг
6Ф
6600
6х0
612
622
6x4
6х40
6x80
6ПКВКтЭнг
6Та
7П
7A
700х3
700х1000
700х250
700х2х0
8С
8Н
8х1
8x2
8х0
8x4
8х100
827
8х40
8х200
800х250
8фэ
800х2х0
8P8C
9м
996
9200
9700
900х1000
900х250
Al
Arc
B35
Base
BVR
Cr
Chin
C5E
DT
Es
EZ
EAS
For
G23
HI
HUS
KL
Kl
L5
M500
N6K
OR
PO
PS
PAL
R9
RQ
TR
TDZ
Un
Vу
VT
VТ
VK
WH
d8
x32
±36
Ø125
Ø219
Ø325
АИ
А25
А40
АКБ
БЧ
Бет
Боя
БК2
Ви
Вол
Ваз
Вал
ВСТ
Вода
Ваго
Ваза
Вакуумметр
Включить
Гель
Газон
ГКП
ГНУ
Д5
Дб
ДФ
Дож
ДАО
ДВП
Ев
Жим
Жгут
ЗН
ИЛ
ИМ
Ки
КЖ
Кры
КВГ
ККП
Лаги
Леса
М0
Ми
Мы
МФ
Мост
М60
Маг
Монтаж
Механи
Мука
Моди
НА
Н35
Н11
Неров
НПО
Н153
Нева
Обор
ОБО
Пар
П50
П10
П40
Прем
Пести
П21
П18
Пил
Раб
РЭС
СЗ
Спр
СКБ
С44
Сепар
Ти
Тип
Т25
Трам
Т62
Турма
УШ
УР
УКЗ
У19
Ф6
Ф1
Ф2
Ф20мм
ХК
ХН
Хем
Хок
Хлор
Цент
Шпа
ЩР
ЭВ
ЭИ
Энер
амер
амп
бн
басс
биб
бело
бута
барь
блочная
брыз
вал
вент
веш
ваго
вольфрам
губ
гара
де
дер
дух
днат
данных
ее
жак
иль
ива
ионическая
ингиб
куб
косы
ккал
ле
лев
лож
ланд
лебед
лома
мд
мэ
мПа
маты
мочев
мембраной
оф
пам
пед
пая
пуч
парк
пень
плави
польз
пунк
рв
риз
реч
рого
рук
реци
рути
ранд
режущ
сч
сель
слт
тов
тет
того
тех
торм
тамб
уборочные
ухваты
фла
фист
ферм
флиз
фекальные
худ
цех
целей
шер
шлан
шарошеч
эти
элев
яп
№80
№90
№100
№23
№33
∅10
∅15
##520
##580
##5х330х70
##3сп
##380
##340
##ац
##аца
##рин
##рными
##кок
##кей
##кручивающийся
##сн
##сим
##сфор
##смин
##секционный
##сарный
##оит
##оап
##онос
##оцид
##оезд
##оаминов
##мб
##мот
##мута
##ментов
##муника
##моний
##гат
##гиз
##гаемый
##нки
##нкт
##нение
##нном
##нты
##нпропиле
##8х6
##623
##6Е3
##6х410
##03
##190
##116
##иколь
##ируемый
##зад
##зации
##зрыв
##терм
##лодная
##еу
##еев
##еек
##еолит
##еобразов
##ычки
##вни
##вированный
##ватели
##ватом
##уру
##260
##230
##2бр
##2Е3
##200х220
##2x341
##990
##xi
##дно
##довый
##довым
##деприем
##дорожные
##ьми
##ьерные
##шафт
##ч2бр
##яв
##под
##пласти
##позит
##полье
##бж
##брас
##блон
##бовки
##ПЦ
##П4
##жка
##жат
##4нж
##485
##Кл
##К4
##КпШп
##ЛСЦ
##щик
##щика
##ШГ
##Ш4
##ЭБ
##Эп
##ЭКС
##ВК
##ВЕ
##НЕ
##НТП
##Николь
##РК
##ОМ
##ОЙ
##ТО
##юра
##фа
##фесси
##ИЛ
##ИС
##ИИ
##PR
##ELS
##эстер
##ta
##ter
##ds
##±50
##pi
##ik
##max
##mex
##KT
##FTP
##OL
##×68
##×97
##S0
##SL
##ua
##WF
##sf
##ЖЕНИ
##Ы63
##нонасосы
##набив
##наторы
##ово
##овками
##ована
##оводу
##стры
##стерс
##стротверде
##станав
##льки
##льном
##нис
##ниатор
##ническая
##нирования
##ертка
##олость
##орные
##ораж
##ойная
##лиот
##литая
##онская
##онепроницаемая
##омк
##ому
##омсополимера
##одной
##одных
##одителя
##асовочные
##енники
##анн
##анное
##катив
##капс
##качивания
нагр
наголов
##ато
##ать
##ативного
##емости
изверж
изготов
избир
##роечных
##ронах
##ронаторы
##ельвет
##ельники
##ельская
##азован
стаб
стары
##опус
##опонные
##опатели
##опрепарат
##роврод
##рализ
толка
##ейкой
##ассажир
##лак
##лау
##рыски
разб
разгруз
безвор
безлот
безвозд
безга
##итка
##ителе
##еда
##едки
##едений
##новое
размер50
##ководителя
##обитум
##евидные
##50x3000
##5040Р
##оливини
прораст
##носторон
##очек
##очее
обз
облад
области
обжим
100х2
100x10
100х30
100х300
100x496
100х250
100x296
100x20
100x196
100x396
100х500
100х1000
100мкм
##коз
##кообразный
##отруб
##откая
##отверж
силан
##ющихся
отв
проек
пропиле
прокатной
пропан
професси
##алки
вый
выпрями
##ивы
##ивным
10Р
1010
10х100
10х8
1024
10х12
10кг
10x65
10Вт
10x160
10ПКВКтнг
12Б
1222
12800
12x2x1
1200х1000
##ективный
##екучие
##трамб
доска
полиров
полированный
полиолефинов
конечных
констр
коннектор
зак
запорная
заливки
##атурой
##амида
соед
##коммуника
подав
подогрева
подъезд
##ожеств
трубах
##00х80
##00х300
##00х100
##00х16
осна
осевым
внутризо
раскладка
распространяющий
распорка
трев
502
507
50Ш
50х6
50х7
50х150
50х80
50х200
50x496
50х250
50x596
50x72x150
50x46
50x72x250
##204
##2050
##2040Р
##нда
20Б
20К
20С
20Ш
20А
20Х
20x1
20x2
##фини
##фические
перси
первич
перчатки
перхлорвиниловая
горения
##ечного
корок
корейская
##шенной
252
25x3
2500х3
2500х2
2500х1
25x40
2592
25ГЮ
типового
15м
15л
15в
15x2
15х10
15x2x0
1526
1557
15ПО
1500х1300
поковками
неопро
нежи
неогранич
1625х150х220
##обетонный
##обетонных
40х6
одеж
##х1700
##х155
##ъемной
алюминированным
Плинты
##нга
##нглик
##ольных
пригруз
придорожные
00м
00Б
0012
арамид
##оски
##осбор
14x2
14мм
14x75
кВа
окр
оксфор
1000мм
1000x250
1000x2000
1000х600
1000х63
1000x550
1000x330
1000x430
замковым
##80х230
##нец
##некторы
двухв
двухзаходный
двухлопастное
двухотводной
двухщелевой
устоев
кати
катион
катодной
30з
30Т
30кч
30x2x1
30x72x150
справа
сменными
##x135
##x175
##x128
##x138
##x144
##x1350
##ида
500x1
500x65
темная
905
90х6
##ноплодная
ручки
##ерикл
1380
1330
1317
1300х2100
1325х150х220
##60В
150x100
150х60
150х500
150х195
150x72x150
##литобетон
##лопка
##лополивини
2005
200с
200М
200x50
ширма
установочная
##40B
Короткая
400x600
400x65
400x470
##уги
4500х1980х300
слойной
##x265
##x285
##x244
##ешу
11Ы63
250x400
250х125
напряженного
##варочные
полом
полами
полус
##катели
реза
70х50
70x70
70x72x150
70x66x150
базовый
80в
80С
80А
80х1
60Б
60С
6030
60х16
60х240
##ебающие
однот
одножиль
однотарифный
одноотводной
##рышник
##70бр
321
322
32000
32x1
##утных
коврол
Сварные
##ушного
##чаг
##чающий
повыш
электрогид
повышенная
повышенным
##158
##1540B
гранитные
30000
300x3
300x100
300x50
300x65
профилю
110x60
110х80
110х90
местный
##тывающих
##Х12Е3
изоляционных
353
357
3550
саморас
Смычки
120°
120x120
120х12
##х340
##х395
опт
опозна
оппозит
клинообраз
##роволочный
LSLТх
0338
18А
1880
1840
18х2
18ч2бр
переходники
лицевая
волокно
соединительных
колос
токов
27П
27У
2714
17нг
17Г1
##ционным
755
753
752
75х63
террас
гидрок
гидратная
##грейдеры
ковшом
##рующимся
0115
0168
95x496
95x396
трехосной
24x1
24x2x1
Конкорд
Коннекторы
синтетическими
600x200
600x350
600x599
воздуховоду
воздухонепроницаемая
системный
Старт
Ставни
IP21
пищев
канатного
канато
подключаемых
##ованно
##анская
##айны
##айклер
максимального
предох
728
##крываемых
220Ш1
шплинты
##уста
22П
22ГЮ
высокорас
высоконаполн
Заг
19x2x1
19ПКВКтЭЭонг
краска
##х445
##х400х350
##торные
цементная
211
2180
2170
##огрунт
комплектное
088
084
##опроизвод
##опрошив
##опробойники
400х1
400х4
400х300х
парковый
парковое
76х5
условно
условных
клемма
светоот
зажима
##12п
##124
##ецк
экраны
413
411
160Д
##устить
656
6500х1980х300
##ягкая
проводники
общеобразов
удельного
удлинитель
удельным
##агнези
10800
108х2
дверок
дверью
##грузом
125х65
1255х330х70
##изводительности
плите
сервер
КВР
КВ24
КВСМ
КВЛЦ
##полообразная
638
636
632
63х50
##иратели
800А
##x38
##x344
##x392
##x362
##x347
##x391
##x385x23
баллон
балласта
Крышный
монтаже
термоактиви
термоупро
фасада
проходке
холодопроизвод
1200x400
1200x740
2000х50
2000х400х
5700
57х6
##455
##458
изолирующие
изолирующих
424
42U
3000х12
3000х500х
3000х300х
3000х400х
3000х1250
приварным
450х50
450x300
450x450
450х1350
450±50
видам
376
372
3750
СТУ
СТВК
350x490
350х400х350
активный
аксмин
примесь
муфтовой
##х680
##х675
332
##x500xН
СБн
##16нж
высокопрочная
200х600
твердость
ЭПС
##чиевидные
вентиляционными
ППВ
286
289
2855
28220
многопутных
порошкообразный
ПБ3
ПБ50
ПБ60
ПБ70
ПБ65
ПБ71
ПБ67
ПБ28
ПБ68
ПБ64
ПБ63
ПБ72
ПБ21
ПБ59
ПБ66
ПБ55
ПБ52
ПБ58
ПБ62
ПБ57
ПБ29
ПБ56
ПБ54
ПБ61
ПБ53
ПБ51
ПБ69
секционное
телекоммуника
встроенные
сборное
полиэфиров
сухарь
##еститель
формами
формах
##стойкая
СП40
СП150
СП5040Р
СП2040Р
построечных
состоит
273х6
273х30
люков
##133
гидроизоляционного
блокировкой
КМ3
##уществ
сетками
сетевым
898
891
цельнокомпозит
цельнолитая
кровлей
##удерживающий
##удронаторы
КПВЛ
##x635
##x644
##x692
##равлические
##ерсивным
надув
##x42
##x49
##x4200
##x431
##x444
##x485x23
##х59
##х570
измеряемых
измеряемый
700x700
700x450
очистные
##x150x2000
ячейковые
##аботанном
настольный
настольной
500х28
500х600х
500х450
спиральной
559
5500х1980х300
630х530
630х295х75
постоянным
##незитовый
1570х230х160
термообработанный
##85нж
##85х30
##85x635
брусками
брусьями
гофрированного
31х31
минераловатный
##олоты
##олотом
бесшовное
удлиненные
КСф
КСБнг
КСВВ
КСВВнг
КСВЭВ
##х1600х2300
##гибридная
325х325
361
3600х1800
наклонным
237
2350
2398
электрическими
люминесцентная
мостах
межплит
межкомна
межколонные
##х120х60
КМПн
поперечинами
##ашковая
1500мм
967
1020х12
Подкол
грузо
рулонной
##никовые
267
##пределения
098
094
балконное
##низких
универе
384
38х105
38х38
628
624
акустический
несъемной
магни
магнезитовый
шестизначный
уголков
341
349
обратным
##роблоки
кладочных
##х150х65
работой
057
0567
130x25
130кг
130x72x150
130x66x150
черн
черноплодная
пружиной
пружины
##x792
##x754
Комплектующие
многослойная
многокомпонентный
##x5000
##x570
##x527
##x568
##x544
469
464
светодиоды
уплотня
##х70х115х60
109x72x150
инсектицид
133х7
нагрузках
рельсо
##х82
##х830
240х240
240x480
взве
##x1005
##одержатель
047
750х116х130
##x200x300
ПСБ
ПС2
равно
равносторон
52x54
армированием
армированными
тораца
225±30
полиуретановом
полиуретановое
сжиж
##14нж
##14623
коррозионностойких
##х1950
МКСБ
МКСГ
подвесами
подвесными
тройное
тройниковый
тройниковая
530х10
Электроблоки
ассим
КНЭ
##ПБбШп
бородав
АПР
51х51
5000х1350
5000х1050
5000х1950
6942
доменного
550х450
550х116х130
учебных
##етричные
4000х1600х2300
426х45
543
546
эластичной
эластичность
литом
литопонные
фанерными
геокомп
92x96
ленточная
##оксида
центровая
краям
крафт
крановой
промежуточный
промежуточно
44458
сплошной
кронштейне
292
2944
ребер
станционные
станцией
##х205
##х20х16
##ециальное
##станцией
##кардовым
полосой
ПР2
ПРР
вибра
обшивками
##00х360
ССВ
431
439
437
МЛСП
ограждение
хриз
хреб
061
патронах
IVу
конусами
##х1280х230
оборудованные
створка
створке
реаг
орех
РОА
РОЧ
дымовой
47x75
398
392
карьерные
карельская
воздуховода
ЛС63
##АБл
##АБЖЕНИ
опалубочными
320П
320х425
320х380
320±40
820х11
Роза
асфальтобетоне
Рулоны
936
93А
шумопог
RTR
СКФ
специфические
взрывных
составной
составным
ТЗБГ
##ляемым
##00х165
0007
00000
00014
камень
камню
посадочный
МКРТУ
КОД
115Н
115х57
115х115х60
115х115х40
230х230
РПУ
входная
входных
нитки
ниток
49x40
4900х16
##овоза
столбе
5314623
микровыключ
реверси
реверсивным
водостока
параллельный
неразрез
добавки
маски
377х8
598
599
5950
5960
59x72x150
часов
рельсовый
запирающей
83х2
##x94
##x990
##x985x635
783
6898
68x68
сдвига
нетканый
разделя
игровых
игруш
##x87
##x84
##x840
##426
четырехст
четырехгран
четырехканальный
четырехмест
поливинилсуль
звукоизоляционная
расположении
6160
61х4х0
##44бк
074
хромосодержащ
хромитоп
##енсер
676
статического
Пункт
114х53
послед
ВТФ
ВТИ
фибру
##х65х135
штангой
парапета
парогенер
теплоноситель
PN16
фильтрующей
натяжные
натяжного
##ПЭВ
##ПЭBЭнг
струи
ультрафиолета
штукатурных
скрепленный
действующих
подстолий
##40x1220
сдвоенных
Электропан
витражей
7798
рядов
газонной
НСБ
всем
вскрываемых
##x3550
водогазопроводная
84x5
болтовая
кривых
кривошип
нагревателей
260А
центробежная
ламинированным
растворимый
растворителе
Раскладки
зонтов
подводной
165x72x150
165x66x150
стяжной
стяжкой
ПТР
ПТО
коммутационные
СПАРК
сверли
отдельных
модифицированных
парапетов
парапетом
31947
морской
тканые
конструктивными
2х185
буровую
лаке
##быстротверде
плинт
М16х145
тавровых
проточного
91х0
91x296
91x196
91x396
91x96
С1TF
кирпиче
жидкок
##х30000
200х50х3000
##x496x495
метизами
петлей
разборное
сопла
однопутной
однопутных
тяговый
100х50х3000
40х40х3
Д315
динасовый
прутов
прутковым
прутьев
трехстворчатая
пробками
780x600
780x920
780x954
смотровое
светофорах
71х71
Диски
ПДСО
ПРАВО
стеклянные
Котел
2400x750
3х4М2
3х4М1
желобчатые
скатных
##олитом
морозостойкости
900х300
900х200
900х900х
ПОЛ
ПМИ
ПМВГ
ПМЛП
сливное
использу
паза
лифтового
МЛСУ
##вании
треугольная
Шпонка
троллейбусные
50x50x150
50x50x27
50x50x341
50x50x161
50x50x183
50x50x254
100x100x100
100x100x205
100x100x310
силанов
герметизирующими
морозостойкая
ОПТ
ОПРСП
##андоап
диспет
дисперс
диспенсер
700х300
700х800
700х150
700х900
ЗП300
ЗП400
оголовником
##x296x495
Стеклор
водопроводный
потолочно
##x396x495
270х116х130
27087
Люстра
Люльки
индук
ФБВ
##378
##37п
50x100x341
50x100x161
сторонами
800х8
800х300
800х200
800х900
800х700
химическим
восьми
восстанав
теплопроизводительности
##x30x1920
Горелки
ПФК
заведений
##рабатывающ
штепсельный
нефте
устойчивое
Спец
Специальное
скамеек
скамейкой
##ницаемое
1х6М2
1х6М1
710х310х100
эффективный
опрессовочные
540х1280х230
расширенной
расширительный
расширяющийся
скрытые
электротехнического
дисперсионный
ДН19
правосторонний
отбойная
132x110
масляный
##фланец
1000х2100
калибр
калиевого
светоотражающими
металлоконструкции
30ч6нж
30ч15бр
увеличенная
ВАК
ВА10
ВА51
152х2
152x500x780
152x400x710
152x300x640
02598
ТЛВ
палая
узкий
узких
##ОСКА
ВСт3кп
СОА
СОМ
100x300x405
100x300x510
142x496x495
142x296x495
142x396x495
300х50х3000
выносной
520х900х
АЗС
127х2
105x63x3000
105x63x3200
105x63x2400
105x63x2600
105x63x3600
105x63x2800
грунтовочная
двусторонней
VIу
балочно
локальные
Конденсатор
антикоррозионные
покрытыми
30с41п
30с42нж
4ПРГ
активированный
радиаторная
##коростная
[...]
