[PAD]
[UNK]
[CLS]
[SEP]
[MASK]
!
"
%
'
(
)
*
+
,
-
.
/
0
1
2
3
4
5
6
7
8
9
:
;
<
=
A
B
C
D
E
F
G
H
I
J
K
L
M
N
O
P
Q
R
S
T
U
V
W
X
Y
Z
\
a
b
c
d
e
g
h
i
k
l
m
n
o
p
q
r
s
t
u
v
w
x
y
z
«
°
±
³
·
»
×
˚
·
А
Б
В
Г
Д
Е
Ж
З
И
Й
К
Л
М
Н
О
П
Р
С
Т
У
Ф
Х
Ц
Ч
Ш
Щ
Ы
Ь
Э
Ю
Я
а
б
в
г
д
е
ж
з
и
й
к
л
м
н
о
п
р
с
т
у
ф
х
ц
ч
ш
щ
ъ
ы
ь
э
ю
я
ё
–
№
∙
√
##7
##с
##н
##ж
##о
##р
##й
##в
##е
##т
##д
##и
##у
##а
##я
##к
##ч
##ы
##м
##л
##Х
##0
##х
##2
##5
##п
##У
##О
##1
##ь
##ф
##П
##К
##Ц
##9
##3
##б
##ю
##А
##М
##P
##4
##6
##з
##щ
##x
##8
##г
##ш
##Т
##В
##Ф
##ц
##Ш
##Р
##Б
##g
##Ж
##Г
##С
##Н
##Л
##±
##E
##S
##Э
##Д
##З
##R
##I
##Е
##И
##Щ
##ъ
##T
##э
##F
##G
##×
##°
##a
##t
##A
##U
##C
##N
##ё
##V
##Ч
##W
##H
##o
##d
##e
##B
##i
##n
##Ь
##u
##r
##l
##p
##c
##Я
##X
##q
##L
##D
##s
##M
##Ы
##Ю
##Y
##K
##w
##O
##Z
##k
##Q
##v
##³
##J
##b
##h
##Й
##№
##˚
##y
##∙
##ны
##но
##на
##ов
##ст
мм
##ль
##ни
##ер
##ет
##ол
##00
##ор
##ный
##та
##ам
##ой
##ли
##он
##ом
##од
##ле
##ас
##ная
##ки
##ен
##ру
##ной
##ан
##ина
##ка
##ные
ди
##етр
##ля
##аметр
диаметр
на
##ат
##ем
из
##оп
##ель
##сти
##ар
##аз
ста
##ени
пр
для
##ок
##го
##аб
##ес
##ци
##ез
##ров
тол
толщ
##ра
##мер
##ей
##ми
##асс
##от
ст
толщина
##ла
##ры
раз
##ных
##оч
кл
класс
без
##ит
##ост
##ед
##нов
размер
##об
##ков
##ин
##ти
##тр
##ев
##ав
##ного
##лени
##абель
##оли
##50
##ност
##еп
##руб
##ая
##ности
ном
##чес
об
##иналь
номиналь
##ным
##ло
##ность
сталь
безоп
100
##ко
##лов
##пор
##асности
безопасности
си
##етон
##ющ
стали
##ение
##ения
##еле
##ив
##ек
от
##аль
##рован
##ал
вы
##ход
##ро
##ное
кг
10
12
до
вн
##овы
св
##остой
поли
##руж
##из
кон
##мостой
за
##ату
м3
##Па
МПа
мар
наруж
##ление
##ух
##ами
дав
##со
теп
##ний
##ком
Кабель
со
##ест
##чески
номинальный
##лю
дв
размеры
под
давление
##нит
##лек
##им
##нков
##ож
##цинков
##цинкован
##00х
дли
труб
##ейс
##ад
ос
сейс
сейсмостой
кабель
##утр
тр
внутр
рас
##ег
##кой
внутрен
длина
##пол
##рыти
##ип
##оля
##нд
50
##фи
пер
##ент
##онный
##оль
##20
##10
кор
гор
##ый
бетон
стен
##ани
##яж
20
##еч
##ые
##ерж
##ными
##шен
основ
##ирован
##кости
##оляци
##ровод
тип
оцинкован
##ус
##пр
##елез
желез
25
##лой
стенки
°C
##ос
Труб
##оз
##етал
##ее
пок
##ист
##обетон
15
не
##итель
про
##ил
##полн
##ъем
покрыти
од
ис
##ловой
40
##цев
алю
метал
16
ши
алюми
железобетон
##уч
алюмини
##ети
Пли
##ления
##ак
##х1
##лот
##опровод
при
##ым
исполн
ар
##рав
##порный
алюминиев
наружный
00
жил
##альной
##лад
Ст
##аве
номинальное
##000
мин
##вод
высо
##ия
##нг
высота
##лап
##анов
1000
зам
14
ок
##атуры
##ого
кр
стек
кВ
##или
##егор
нерж
##итный
##авеющ
нержавеющ
плот
##не
##80
##абар
объем
##иж
##кая
##ном
##абаритный
##ели
Клап
##уф
##вер
сейсмостойкости
расход
арм
##гл
внутренний
##очная
##тор
Клапан
##лектр
Плита
замком
##егория
##ел
плотность
двух
##ерм
Трубы
уст
##пер
##един
ог
тепло
кат
##вет
##ид
##орож
##руп
сп
арматуры
см
##яч
мед
габаритный
##лан
электр
тем
исполнение
##аты
минер
марка
500
темпер
##она
##фонный
горяч
основе
силовой
##ник
марки
##ех
ка
30
##x1
##ых
стальные
руч
категория
жилами
##так
пов
##лок
##25
##рашен
пор
##пряж
90
##илинд
##прав
ком
##ери
##ческий
пло
13
##ноп
полиэ
##па
##ением
##ям
##цов
шир
##лоп
##ания
##ур
##ое
прям
##60
##лит
##аст
##ции
150
стальной
м2
нержавеющей
##льный
покрытием
полимер
установ
##овой
гра
ваты
200
##онные
##лем
обли
облицов
##изоляци
Кор
400
слой
45
##ость
горяче
запорный
##уг
##еш
силь
свар
##нитель
сильфонный
250
минеральной
напряж
Вт
##x2
##ва
##озд
баз
##30
11
стеклоп
##кат
пол
##кий
##онта
##инт
Короб
##иной
рез
70
ширина
##600
температу
80
##фор
##иб
одно
##40
диаметром
установки
##еб
60
Блок
##кость
##си
по
вод
раб
железобетонная
##ласти
##кое
##ран
Стой
##еля
##неу
##еход
трубопровод
огнеу
##пус
##вор
Муф
##рыш
##атери
мо
окрашен
сеч
##ностью
##зи
опор
##рой
управ
флан
возд
ручной
##дение
##еси
##тиле
облицовочная
толщиной
пров
##люч
##олок
##рующ
##70
##слой
ков
32
##ключ
металли
ПВ
Стойка
##еди
полиэтиле
##альт
оцинкованной
повы
бол
##ча
Св
корпус
повышен
##ут
##уш
теплоизоляци
##ати
медными
##щад
##ированные
мощ
##стру
гранит
##атор
напряжение
##виж
##овых
ко
площад
##единитель
##ВГ
##рез
бет
##ред
рабоч
комп
##х2
присо
300
Про
мощность
##овый
пород
лот
##ней
герм
груп
мест
##кер
300х
##15
отвер
##елем
базальт
##жим
металла
##Х1
##ты
##ул
профи
присоедин
отверсти
Цилинд
Цилиндры
температура
110
##очных
более
бетона
теплов
сам
##ция
сред
##ним
месторож
месторождение
теплоизоляционные
Из
##опр
См
35
матери
##ота
площадь
##щит
кли
##лив
##ока
##ладки
угл
контак
КЗ
каб
оп
##шов
изоляци
##струк
##ированная
##х3
бес
КЗС
ан
##ис
кгс
мм2
фланцев
03
##ива
Муфта
стой
120
прив
##лер
раст
пе
типа
см2
##очный
короб
##овая
стальная
##иль
18
##ик
гранитная
##ум
ус
##шированные
ли
контр
##ьб
ток
резьб
переход
вер
##ся
##90
кол
##вар
проч
свя
волок
контакт
соединитель
Смеси
##еств
##ками
##нополи
креп
зат
27
##цион
##гна
сигна
выс
##300
17
отверстия
кру
##ыми
##ерных
пенополи
От
##ческие
LS
ниж
защит
уг
тер
##кого
ск
##СТ
кВт
гориз
горизонта
##емент
гид
цвет
##амер
ковш
##рующим
полиэтиленов
##нич
повышенной
пан
##оток
##ентр
##ластиков
75
##гр
шар
##ади
95
##арк
Кон
##8Н
##Х18Н
крыш
трех
##ца
термостой
##ката
тепловым
само
группа
##вес
внеш
повор
01
кабельный
##иле
синт
##угу
синтети
чугу
##Х18Н10
##унд
##порные
##ещ
600
вырез
синтетичес
воздух
24
##лект
##лен
конструк
прок
##стем
систем
##воров
##акет
##да
ковшей
##ана
##100
кабельная
##ливочных
##азливочных
сталер
сталеразливочных
##ВГнг
##сирующим
шиб
##ветв
##есс
##лемм
затворов
шиберных
##гой
управления
##шовные
##фик
##камер
самофик
##сирующимся
самофиксирующимся
##рованная
##рози
нак
соедин
##Х18Н10Т
фоль
##ень
стеклопакет
##иф
##ходной
эк
подключ
##анс
##ован
ПВХ
Отвод
шп
опти
II
##елей
горячеката
##ующ
##17
гиб
##особ
лист
##руз
соединительная
IP
обр
##сим
##енти
##ожар
покрытия
огнеупорный
материал
##ян
##ше
##ви
##аг
##очного
##уб
##лением
##рус
связ
внешний
линий
##том
кана
мак
##ня
максим
стро
##оцинкован
терм
##розион
способ
##цевая
72
фольгой
контроль
центр
##енным
профиля
##ие
полимерная
базальтовых
алюминиевой
Трой
##дели
пред
##кры
мул
##оду
муллит
##рованные
##500
660
анкер
тепл
Прокат
##урет
##асти
##чат
##ожух
связующ
бетонные
кН
железобетонные
кожух
трубопроводов
##ассы
##ования
фас
90°
кашированные
Коробка
##сп
##уст
трассы
провол
связующем
##честв
Стак
высок
Стакан
синтетическом
220
22
горизонталь
##ческое
прокладки
класса
пар
##ий
опоры
SN
цемент
Пер
##кие
глад
горячекатаный
среды
двой
крас
##65
цилинд
##лектор
стеклопакетом
оптический
19
вст
горячеоцинкован
##ай
##ивной
сейсмостойкая
перек
За
##камерным
##ковым
##еж
стеклопластиков
##лого
##400
муф
комплект
круп
##етка
##овые
##оки
##лом
08
##ерод
классу
ав
коли
##орм
коррозион
##мати
количеств
##ог
##слойная
##етич
##раж
количество
проволоки
трубы
##ации
теплопровод
##еродист
мен
менее
21
теплопроводность
герметич
02
оцинкованная
##ифуг
центрифуг
Труба
коллектор
строитель
400х
##крыт
##ское
##х0
услов
центрифугированная
76
клемм
##ческим
климати
термостойкость
кабельной
наружным
##ового
##тика
вертика
климатическое
##нж
##ентиля
##егу
##енного
свет
Свая
##ветвитель
подключением
кабельных
зажим
углеродист
дорож
##жения
Кран
алюминиевыми
##ческих
##ита
внутренней
корпуса
муллиток
##оны
винт
##етиль
##х4
##очные
прямой
кабеля
##ств
##локи
##ивающ
автом
##орт
##ерев
конич
коничностью
##ец
рабочее
перекрыти
пес
экра
41
соединения
щеб
##етиз
##азный
поворота
##бор
##мин
Кр
гладкая
корпусом
##x0
плос
Тройник
##орон
##яг
##олод
изоляции
пожар
##усти
окрашенный
##аркас
65
МК
герметичной
лотков
волокон
##ир
кругл
шаровой
##ческая
FR
шт
нержавеющая
HF
силов
Светиль
бесшовные
красный
каркас
SD
тяж
##ах
##фици
##ства
##нная
сейсмостойкий
отоп
##ола
газ
160
окрашенная
##обр
##ефор
##ованная
др
##ении
общ
марок
##енных
Лоток
уд
°С
##лав
резьбой
##ыше
##нос
свыше
присоединения
##рованный
Ст3
В15
##нт
фланцевое
##ковая
панель
##делия
##ап
##гол
провод
угловой
##елого
##осту
##ечни
присоединение
лотка
##груз
двер
##ному
##одуль
ВВГнг
##извод
##нопро
##чет
##нод
сигнальный
зоны
герметиз
досту
доступа
##ций
##96
##енный
наружного
108
вне
сечение
##мированные
##ерх
Изделия
пенополиурет
##опиле
транс
площадью
45°
##енты
##пропиле
##движ
##обод
свобод
##лей
трубопроводу
полипропиле
##новая
вырезному
цилиндру
Опор
тяжелого
##ента
нагруз
##овым
##онная
SDR
800
##олоч
##12
Светильник
поверх
песча
вентиля
##альная
63
##ке
##адиатор
плит
конструкции
Отводы
сер
сорт
комплекте
036
тока
концевая
оцинкованный
прочность
Крыш
##омп
##ентом
мно
проход
БСТ
бал
Г1
холод
##уж
##22
##x3
##арт
##освар
изоляцией
##±5
25±5
Крышка
125
электросвар
элем
1200
##весной
##амп
##онтаж
##егули
300х300
##атель
##ообр
масс
углеродистой
станд
2000
##цеп
фасад
монтаж
жест
##ектор
##рак
внутренним
##верд
углом
08Х18Н10Т
##нопроходной
сло
##ард
неок
##кан
сечения
88
##еформированные
##рут
прямо
стандарт
Кана
бок
изоли
Радиатор
##его
57
##опер
оболоч
##ений
неокрашен
производ
вид
регули
чис
##ровочная
##енные
основной
крепления
зажимов
свободного
42
ПЭ
отд
неокрашенный
щебне
3000
37
Угол
В25
Канат
цементно
14нж
гл
коль
##рос
450
открыт
##тей
маркировочная
максимальной
##ости
##лиф
##ивки
##устот
##ехни
ввод
##вещ
##екция
раструб
воздуха
##руем
прим
350
##ош
крупностью
##иваем
300х600
ак
герметизации
##дения
привар
СТ
направ
кв
яч
##45
##алов
контрольный
свивки
##анием
Зад
Задвиж
##емы
Задвижка
Секция
гидро
##раль
4180
мног
##ительность
короба
ла
примен
или
контактных
КВ
##елый
волокна
двойной
##теп
цель
цок
кабелей
33
##альный
Плиты
СБ
ламп
перекрытия
прот
##x500
135
дерев
лату
##II
##ающ
##ния
##инд
применения
ниже
##штей
##онштей
муфт
##КЗ
##зем
140
температуры
##ярус
##ание
Комп
крышкой
400х600
##ивод
сети
ств
высокопр
##гресс
##х6
шпинд
шпинделем
##95
##коль
##движным
##алуб
контактной
##рутки
шлиф
##опривод
огнеупорные
чугуна
200х
жилы
##грессивной
ради
тверд
##ук
доп
##эф
##соль
##нный
огн
##ниж
након
отопитель
числом
пониж
##ПК
##тая
##акт
горячеоцинкованный
освещ
##х50
рези
исполнения
БКЗ
фрак
##ма
минус
##ителем
коэф
коэффици
180
Флан
ЭП
вентиляцион
##ундам
трехслойная
ЛК
электропривод
квад
прохода
ствола
##35
фракция
##ую
сечением
##амот
коробки
##ционный
##рем
##иг
автомати
##ини
пот
58
сек
многоп
ПБ
##поль
кожухом
пита
теле
отдел
PE
##орунд
перем
##еты
муллитокорунд
##рат
##лиз
транспор
##исковая
порош
Опора
##ехани
винтовая
##голь
производительность
агрессивной
Зажим
встро
##ечником
прямых
стальным
наружная
ма
расцеп
##земной
коэффициентом
Провод
высокопрочного
уп
полиэтилена
образный
песчаным
##ческого
защиты
##ческой
двухслой
III
Вы
сбор
полиэфи
усили
28
Переход
вертикальный
расцепителем
##ута
креплением
##ровочный
пониженным
12Х18Н10Т
трения
шлифованная
пиле
форм
конца
электросварные
сух
##полнит
##оот
расчет
Выключ
48
базальтового
##енная
древ
деревян
полиэфир
вырезные
105
круглый
алюминиевые
поток
##икл
механи
кабельные
В22
двухкамерным
квадрат
##ких
сост
##лог
многопустот
лю
273
встроенным
сколь
##глуш
##ярусный
усилие
коррозионной
##яд
сплав
питания
СП
##ешетка
верх
неп
освещения
##чи
температур
стойкости
##оляция
Изоляция
##агнит
сплавов
##чатая
полированная
части
##ука
КЗСБ
ПЭ100
наконечником
##32
стакан
воздуш
давления
перикл
периклаз
треб
блоки
оконный
град
##актери
##х25
##итум
повышенными
##ованиями
требованиями
##200
одном
нижним
##ивающее
ПП
##ета
крышки
масса
##16
выдвижным
##пи
##мк
оцинкованные
Муфты
сигналь
серд
89
Ан
##ровол
##x2x0
однокамерным
сет
тепловой
плоский
##ести
##ри
##еры
##ущ
гидроизоляци
муллитокорундовый
##их
сте
хар
##ПВ
##рыв
электром
##устим
допустим
Провол
Проволока
АВ
##ечник
алюминиевых
##актеристи
характеристи
##нач
##чатые
Фланец
КМ
оч
пост
лаковым
напорные
##отда
теплоотда
металлических
теплоотдача
##равли
##уд
Конв
лест
низ
гидравли
экрани
полимерный
##онент
Конвектор
Пан
##знач
##ины
пиленая
кров
четы
четыр
над
полиэтиленовые
боковым
##ники
смол
точ
##ойкой
##ковый
измер
##ешет
предел
белый
привод
цельнос
КУ
##естой
сварной
управление
лампу
цельносвар
скольжения
##отный
##форм
огнестой
утеп
##х10
1770
условного
открытого
##оди
степ
##евой
круг
степень
##13
очист
##ерс
##анной
##РА
клиновая
##х5
##ящ
перфор
##минер
##арку
против
380
700
КП
приварку
М3
##кашированные
10с
некашированные
кованной
анти
телефонный
цельносварной
битум
анкерным
приварной
допустимое
##абота
##x150
зда
зданий
ячей
##СП
##озит
окон
##рот
##Шв
##оф
пенополимер
лоп
пенополимерминер
растяг
600х
##ями
##x6
##изоли
рабочей
цин
растягивающее
##сна
электромагнит
воды
##ельная
спи
цоколь
##x4
##800
НГ
В30
500х
##чный
наст
55
сигнально
одномод
Пв
комб
отопительные
надземной
холоднод
##полнителя
буч
##оян
##ЭВ
##ардированная
постоян
бучардированная
630
##ХЛ
блокировочный
##ПКВ
фланцевый
холоднодеформированные
гоф
групп
КЗСГ
лопасти
##новые
##Энг
Консоль
пром
сты
дверной
УХЛ
водоот
##грев
1570
переменного
Ск
##тяж
##лин
смолы
##нез
полнопроходной
устрой
##рная
термообр
термообработа
##ера
##ированный
Анкер
##екор
оболочке
##емыч
декор
##сов
Заглуш
норм
##ковое
##Пнг
назнач
##ивные
волоконно
назначения
Решетка
##х7
кер
база
##бжения
пенополиуретанов
горячеоцинкованная
уни
обс
##рунт
##няя
Дос
##цент
##пс
одноярусный
Модуль
##LS
длиной
КС
скрутки
термообработанная
шамот
##напряж
##85
400x500
Конвекторы
комбини
брус
##олов
FRLS
##есцент
стальных
лестнич
Ог
решет
##рования
##фт
удлин
##олот
минералов
минераловат
всп
железобетонный
Профи
вертикаль
##гиб
Ст3сп
##ную
##уров
##азем
Кронштей
сердечник
##форматор
##уголь
напряжением
листовой
попер
##литель
##КС
одност
малог
навесной
накл
##незем
325
219
##минесцент
зазем
строительства
сухие
##неземист
64
159
электри
рабочая
бесшов
36
##11
ост
##елит
люминесцент
постоянного
##ром
##Г2
мост
##атели
##комп
меж
исполнении
попереч
малогабаритный
основа
преднапряж
##ровкой
Уст
тон
##аж
##аш
полиэфирной
одномодовых
##17п
хв
лег
канализ
##ряд
сварного
ЕК
1500
96
1020
заполнителя
##х16
прочности
кле
23
##атериал
декорат
Раз
груз
1600
КЗСА
цап
##х35
##ивный
гофр
общего
металлические
экрана
W4
ОК
цапковое
85
900
##тив
наружной
двум
муфта
двумя
##овод
напор
балк
Ограж
медно
##низ
##олет
##ельный
##гост
кожухе
26
М2
вводы
многопустотная
экранировкой
Заглушка
Пр
Со
двухслойный
нормальной
##кор
##ляющ
наполь
Под
Щеб
модуль
##него
гибкие
##ундамент
Щебень
##нные
##х120
фасадный
отделка
минераловатных
основание
##ускат
потол
утеплитель
##Г2С
##оруж
38
##ласт
повивной
##есины
муллитокрем
древесины
муллитокремнеземист
09
##нут
##есущ
Перемыч
стеклопластиковый
акусти
62
Материал
рул
##пред
##рам
##шение
безопалуб
формования
безопалубочного
##олятор
точности
Блоки
##ционные
##порная
расчетное
##ено
отно
кабельного
##компонент
угол
поверхност
номинальным
силового
Кронштейн
##ПП
Радиаторы
34
электромагнитный
связи
верхней
отношение
шах
##ивания
стандартное
направления
Пускат
блок
размерное
В40
2500
переходная
нагрузки
металлический
резьбы
панели
Ст3пс
дор
##цемент
Пускатель
каналов
балконный
##ими
##ников
высот
##росс
##вест
##ья
##омут
##HF
оцинкованном
111
работ
переходной
FRHF
внутренни
##х100
силовых
спираль
Доска
Профиль
дорог
поворот
##чатый
05
##х150
гибкий
##ерен
##фф
двухд
резинов
вспен
##пределит
гай
##гран
##ала
##уск
##x120
листв
##вич
##ку
подвесной
двухдисковая
##клад
обрат
бур
алюминиевого
пенополиуретана
##150
##энд
10000
##верс
огнеупорная
##эндвич
стеклопластиковые
##енной
трещ
композит
универс
пруж
##27
наклонная
##сатор
газопровод
190
ИА
извест
глуб
сторон
##лая
пожарной
##x7
##ращ
измеритель
11165
##уп
подкат
сейсмостойком
подкатегория
вла
##x90
##овое
горизонтальный
##утав
керами
##ема
##слойные
ячейки
полиурет
Перемычка
##ии
монтажа
гидравлическим
##еф
светоди
светодиод
46
много
ответвитель
##ацион
130
пружин
шести
противоп
##зий
Клемм
##ВБ
проходной
вспененного
##ачи
##ёр
##тами
гранитном
шв
##ника
##важ
Бал
##лятор
колод
IP20
##71
сооруж
глух
##чив
##алю
109
армату
##x250
КЗСВ
ПвПнг
##ПКВт
жалю
ин
противопожар
##луж
##x5
рель
##ойчив
##х2х0
сталем
146
##ерсивный
сталемед
##ВС
свариваем
нагрузка
сооружений
ЭН
печ
пенополиуретановая
жалюзий
вз
##авкой
прямошовные
Щит
133
водоотвод
КГ
##опод
прямоуголь
С3
крест
профилей
Изолятор
цветной
периклазовый
цинковым
##уль
##х8
железнод
повив
железнодорож
маг
чер
Панели
оконцев
ГО
стерж
шестигран
оконцевания
техни
##верж
сварные
защитным
огнестойкости
##ителя
концев
ручным
ЭПРА
составе
приводом
контрольных
Выключатель
бы
##ирпи
Ленты
полипропиленов
устройства
Уз
распределит
##x2000
очистки
ГОСТ
ПС
##одерж
##ерживающ
арми
горизонтальная
Кам
рав
##цы
##опуск
##ровки
##х70
напольные
нер
сж
регулируем
полиуретанов
6000
пластиков
##КБ
высотой
тор
##ница
##руг
закрыт
стекло
двойная
Крест
04
вентиляционная
автоматический
##реп
##окс
##оподъем
##тный
навес
прод
корот
горячед
##инами
##азон
растяж
вентиляционных
кладки
уси
АВВГнг
##едачи
отверж
горизонтального
секций
обслуж
печей
част
##x190
стеклопластиковая
обслуживания
52
##олем
31
##род
Трубки
чугунный
бесшовный
750
медные
металлическая
горизонтальной
кольцевая
акустического
жалюзийная
кА
номер
заполн
жесткость
АС
128
##ильных
подключения
коррозионност
грузоподъем
бурения
сд
##яз
одноп
управлением
уплот
Разветвитель
свариваемости
##х19
люминесцентную
6х3
сэндвич
##юч
конструкций
МКС
панельные
##анж
подвес
##оза
##x150x90
ред
трой
известня
225
пласти
##маль
##лава
##x50
электропер
##олб
##x100
Ге
##ированного
шарни
рулонный
530
##лекс
полипропилена
ТК
содерж
дифф
редук
##лы
##лет
##рованной
60°
грузоподъемность
##Шп
##шив
продоль
##нист
панелью
лестничного
горячедеформированные
голов
##ателем
Коль
##еллер
Тройники
цилиндри
изолированный
Клеммник
электропередачи
бор
##ПБ
##900
##ованные
##айб
клеммы
магист
ввер
манс
##ковыми
трубчатая
##x200
стойкий
мансард
240
грунт
нерев
##нев
максимальная
шамотные
стеклов
полиэтиленовой
термо
круглые
крестообр
вверх
51
##тов
##ыка
усилен
грав
##тного
кром
отверстий
Устрой
ас
пенополимерминеральной
БС
КН
##ох
отверждения
нереверсивный
##олист
металлической
полиэтиленовая
Пес
##костью
М350
коррозионностойкой
417
##осы
кауч
перекрытий
деревянный
##ирпич
стекла
преднапряженная
1400
воздей
слоя
14нж0
тонк
быст
фан
сплава
шарнирная
##оя
##ыш
30°
##Х13
IP5
5000
дом
##унт
пресс
##лош
железобетонных
полиэтиленовый
характеристика
остек
##еренци
дифференци
4178
550
##луч
##х95
##опо
##отки
##онагрев
гибкость
обществ
##III
кровельный
вниз
уч
##уко
##лями
материалов
материала
средняя
защитного
##стви
##лич
стойкой
##олистовой
РК
##ентов
отопления
КВВГ
69
##ехнических
бруса
бл
порист
426
4000
эласти
##кана
перфорированный
битумно
влагост
##етри
пролет
##яжки
кольц
БКЗК
##ние
упру
IIIв
##ателей
##цией
##елями
Конструк
системе
Выключатели
растяжении
54
SDR11
лит
##14
железных
одина
гидрот
латунный
##охра
315
реле
##устойчив
электроприводом
гидротехнических
трос
##вижная
Комплект
клап
Кол
##ильз
односторон
воздействи
##риз
##ена
##ушения
дросс
##щи
##ветвления
блочный
Габ
##БШв
воздействию
замыка
РН
лент
гравия
общественных
Ду
Филь
Шп
эп
##тором
##оксид
ге
эма
##ойных
##ект
двухкомпонент
токопо
муфтой
токопоисковая
кра
##хслойная
##ёхслойная
шпунт
транспортного
##утавр
фанеры
W2
дис
##отушения
тепловая
пожаротушения
хвойных
сталемедная
6х19
##той
изгиб
сто
##епи
##овыми
скваж
##виг
проводов
обратный
Хомут
плен
размером
сплош
условное
##опроводов
сварная
образ
##ежут
промежут
92
##лор
##очаст
шириной
крупность
##рас
##аном
##рож
переходные
##укав
эпоксид
##каф
разветвитель
09Г2С
С345
несущ
реб
##ельные
покрытий
горячего
##енными
проп
кронштей
технические
Кал
##x400
проклад
характеристики
##71фт
термоус
##х40
диап
##рядная
##основ
покрытие
порошковым
шахт
280
гип
##еци
свин
гидроизоляционный
участ
влагостойкой
диапазон
Манж
##Гц
бетонный
##осна
полимерным
##егулятор
проводной
##ЭВнг
2В
стан
##инское
выход
сосна
##ство
шты
раструбные
каучука
виб
##ата
подоснов
##ированной
##еталли
сварным
строительные
73
##вающ
вставкой
Манжета
Полот
С2
##28
##кар
издели
обшив
29
теплосна
фасадов
Ограждения
##центр
##ушитель
коррозионно
##IIIв
##еров
Комплекс
круглая
сжати
тонколистовой
теплоснабжения
Лист
стор
##альное
заклад
дорожный
Соединитель
44
зв
##7р
##емой
##ильки
антикор
регулируемая
термоусаж
АП
В20
##овор
ТПП
508
трансформатор
группе
Д1
##x25
##иней
категор
Скоб
47
##лев
##ральный
##00х3
##пресс
круглого
МЛ
ограж
автомоб
доб
##эп
##евые
14нж9
##сные
274
синтетического
##нак
полю
пожарно
подоснове
Риг
##чная
выше
##ческими
опорах
нижней
потолочный
##оснабжения
43
ТС
пат
сх
##рованного
полимерные
окрашенные
Опоры
изолированная
автоматические
одинар
##ризот
##24
##стир
УХЛ4
легкого
##мс
##фальт
мостов
швеллер
трубопровода
ВН
квадратные
IP54
полюсов
фут
обор
неизоли
однослойные
клинов
температурный
КМПВ
редуктором
06
##гу
##ковые
##кос
отвод
##айки
яче
пределом
720
##ТТ
##очной
100х100
вытяж
три
##рующая
##очастотный
##ризотил
IV
входной
##19
наклад
762
асфальт
дроссельная
ГВС
Фундамент
##емб
конус
##ционная
порошковыми
непр
пенополимерминеральная
##ъемная
комм
головкой
763
штока
стекловолок
ПР
пут
рем
##полю
бетонных
##ранс
воздушных
##нутый
##700
##оящ
##то
##х20
##стоя
##танг
расстоя
окна
дорожных
ППУ
муллитокремнеземистой
линей
распа
полиэст
дорожного
периклазовая
промыш
внутренних
мансардный
категории
промышлен
СС
Транс
Электр
хризотил
##чик
##кид
##егм
жестких
латунные
хризотилцемент
ПК
Прутки
Фан
ре
ска
136
панельный
светодиодный
##центри
оборуд
Фанера
мк
ор
##кол
##ковом
контрольного
частота
известняковом
##00х2
скважин
штыр
56
пласт
полос
стойкостью
SN4
удерживающ
трещин
крестообразный
Шр
гран
##75
##оустойчив
##енц
обм
алюминиевая
механический
ТППэп
##стан
##енцес
РО
полки
##31
##ющим
ручка
температурным
Конструкции
##x60
##ара
##альные
углеродистая
канализацион
##ык
##х12
воздуховод
группы
стоек
схемы
Трансформатор
ЛС
##арь
##рованием
##рафи
створ
509
##струд
перехода
Панель
декоратив
борта
Устройство
распаш
Ст20
кВА
двухслойная
фланцевая
коробчатая
строительных
закрытого
##онагревателей
Полотенцес
кД
ож
##мм
сжатие
кДж
820
##вной
##тация
##рованных
эмалями
воздуховодов
##есь
##циона
IP65
поверхности
Узел
уплотнитель
кар
##х80
##цо
##ози
фланца
опалуб
10с3
Кольцо
##рон
##елев
##яга
##руемых
твердые
стороне
обмотки
39
НН
ми
##енсатор
подъем
КВВГЭнг
Фильтр
обшивочная
асфальтобетон
полосовой
Ем
ЕР
УКС
углов
W8
Роз
ФС
##нита
##рубного
опасности
##17ст
глухой
Шкаф
дым
шайб
см3
##вини
непреры
миним
Манс
РТТ
филь
моно
чугун
стыков
##уровское
магистраль
14нж017п
Ригели
Полотенцесушитель
Мансуровское
104
контролем
настенный
##арьер
Ввод
Возд
Пуд
дуб
##цевой
полов
##ечника
КМП
Воздух
рек
шум
алюминиевый
кроме
##щищ
Листы
4х1
СК
##лам
специ
заземляющ
модульная
взрыв
мкм
Рукав
##альным
бетоне
воздухонагревателей
способность
низкого
гофрированные
##ская
##ровой
##митация
220В
комбинированный
клее
G13
В3
##тка
Камни
термоусаживаем
74
Воз
Дж
Каш
##ине
подвижная
##урт
элементом
##рождение
футеров
непрерывной
Возрождение
Курт
##яющ
##тау
стациона
##ожское
гора
##акси
##ваара
коакси
##ильтау
фаской
винтовой
слоем
древес
четыре
равнопроходной
Песок
Калгу
Пудожское
Джильтау
Кашина
Куртинское
Калгуваара
АА
Знак
ТЗ
##x10
элементов
настенные
сня
эмаль
##68
##x300
##ностоящ
состав
доменных
320
вол
нит
намот
##невой
##рные
##за
##ению
##раиваем
МКР
##x63
##ПКВтнг
##стирола
намотки
Зат
аэ
мом
поливини
фланец
крепеж
снятой
ем
##елья
одним
механиз
пластм
Об
мрам
пос
фундамент
##бШв
##новское
##00х1
##акуш
термостойкости
воздушный
6х36
Емелья
мрамор
Емельяновское
DN
RT
вращ
кам
ракуш
уль
##емый
заполнением
магистральных
Затвор
ракушечника
##лении
прогиб
115
Стойки
средн
термостойкие
муллитовый
поперечин
кольцом
230
РП
вход
##уар
##остран
перед
электрот
элементы
пленкой
##карб
ук
##офор
##пар
столб
##алле
анкеров
МКБ
железнодорожного
Проход
рев
##совые
##ечные
полости
водост
экструд
нераз
коаксиальный
##аллель
Проходка
##овоз
безна
##остав
перим
прямая
шпона
мас
консоль
377
стеновые
вертикального
газопроводных
расстояние
пластмасс
АК
Вентиля
мик
фик
трубам
полимерных
оборудования
реклам
ВК
Нас
вит
##енов
##уруп
##34
##гани
SN6
Крас
элемента
многопустотные
решеткой
блоком
клапаном
периметр
венти
двутавр
дроб
час
##евое
##олимер
запи
меди
водоснабжения
концевые
добав
53
Состав
тв
##етки
сили
##керный
чугунная
термор
плоские
электрические
навесных
запира
гильз
пс
распол
параллель
Ограждение
Балка
одностороннего
среднеп
##карбона
49
83
Нак
туф
чёр
##дости
##льной
маркерный
сеткой
четырёхслойная
##ёрдости
эластичная
кронштейна
твёрдости
среднеповор
туфа
чёрный
59
##рун
вывод
поликарбона
Вентилятор
Ста
##юб
внутрит
50Гц
сварки
водопр
канала
максимальное
каркасом
монтажный
транспорта
##ЭВЭВнг
межд
БСЛ
изделий
Краска
ВБШв
##250
стр
иск
затяжки
радиус
сдвиг
170
78
АМ
ШВ
дут
фундам
##вращ
##х60
##x9
##ким
##емые
прямого
полот
кожуха
напорным
колодцев
В45
бим
ест
иг
##онных
разд
концентри
двухст
резьба
SDR17
##родром
аэродром
биметалли
естеств
Уголь
бер
##Пу
##остов
##астная
металлическим
жесткости
муфтовое
блоков
##x190x120
ячеек
фундамента
ККБ
нетка
трав
щелев
##ути
##чным
##хлор
##гов
стойки
##кань
##ающей
хвостов
листвен
арматурой
патруб
друг
##КV
Плитка
кони
панелями
оболочки
УХЛ1
стержневой
ограждения
##оустойчивый
экструдированного
##нию
##ейств
горных
четырех
тройников
антикоррозион
запирающим
им
лип
нав
алюминия
150x150x90
1100
пог
##х240
воздухопроводов
вентили
дутья
86
М400
воз
##нительный
##грег
полипропиленовый
упруго
поливинил
УФ
##иком
вырыв
трубчатые
общая
латунная
расчетная
заполнителях
##канальный
момента
грун
##Ат
##раны
разрыв
одной
балки
секционный
Грунт
У2
##x8
обеч
##ранный
##овозвращ
располож
Бур
дол
##кому
##ипп
слоями
КУГ
вентилируемых
Колод
##ино
##нот
##ального
защ
предохра
встраиваем
решетчатые
рельс
безнапорные
водопропуск
000
79
##очным
подкос
окра
бесс
##ражающ
стыка
глубина
автомобильных
гранями
аэродромных
##хлорид
расс
##онка
##опас
##нители
##роводов
СТА
оснований
измерительного
противопожарный
короткому
замыканию
КМПЭВЭВнг
клееного
навивные
82
У3
##остойкость
основания
облицовка
радиочастотный
продольном
звуко
мел
##обез
##коу
проволок
переходный
транспорти
хвостовиком
68
Т8
ал
##коп
##ппар
##38
##42
##ковой
##авка
откры
проема
стеклом
соединении
разветвительная
клиновым
скальный
емкость
окраше
07
дета
хром
световозвращ
КВВГнг
резиновым
поливинилхлорид
транспортировки
В1
сана
##ту
двуст
зажимами
дверного
3332
твердая
Прок
асфальтобетонные
##обезопас
санации
3332и
93
##воз
##фоб
##Бл
стати
##пряга
##елые
заземлением
полиуретановым
##енаж
распашной
механизм
среднеповоротный
##АтV
67
##вед
##мож
##x40
открытой
лаки
пористых
возмож
RD
ВТ
М1
ОС
нев
прочая
##ПВХ
удлинением
##прягаемой
ВР
риг
фиб
регулирования
акри
гидрофоб
обсад
Брус
Элем
жел
нес
фур
##ода
##ственных
направляющ
Балки
после
внутритрубного
Сегм
##пир
##енс
114
SN16
преднапряженные
радиусом
бессвар
возможностью
2р
W6
СВ
штанг
##ровая
парап
направлении
отопительный
##озащищ
вращения
87
А2
КО
Маты
ель
неоцинкован
ручкой
пружинный
##ПКВтп
##опускная
Скоба
61
симм
сейсмостойкость
теплонос
##Х17
листов
колодца
упругости
Сегменты
Ворон
##азопровод
разветвления
консо
двухкамер
##урой
шту
фильт
берез
симметри
консольный
ПСП
##бро
откид
горюч
Ответвитель
полипропиленовая
спирально
прямоугольного
##Х17Н
Воронка
B25
Ар
Г4
пустот
##ион
##ун
##НД
натяж
1220
прибор
смеси
##паунд
1800
системы
красками
раструбный
непод
стены
измерительный
Габбро
невы
фурнит
##ированных
##осевое
пенополистирола
квадратного
межосевое
шестигранной
Колено
кирпич
моду
##онесущ
разм
присоединением
Установ
содержание
световозвращающей
теплоносителя
3С
66
F1
Кирпич
Краны
Эк
##х65
толщине
##ечная
##ворчатый
приварная
трещинами
стеклонит
взрывозащищ
ульт
игровой
фурнитурой
##оды
конс
##ключения
удар
поверхностная
190x150x90
черный
однополь
монолит
##бетон
##оком
номинальная
отс
теплоизоли
##цовая
оконных
стеклонитей
ультрафи
М600
Т5
брон
галь
##во
##аны
##2л
##онт
излуч
##опро
##амид
плотных
скреп
способностью
антипир
устройств
остеклен
концентрический
480
G5
Пок
нипп
##ходные
12Г2С
##прессов
М300
действ
щит
##ач
##бр
подст
сквоз
сдво
биметаллический
ИКБ
##тур
дву
компаунд
цементе
стенов
гайкой
содержанием
Шпильки
удерживающей
витраж
поликарбоната
ультрафиолет
920
##мату
##лу
стру
газон
уголками
универсальный
пролетных
АПв
Розетка
##ведения
Армату
М150
врез
кноп
##17р
гладкий
световой
КПС
##полюсные
##отуар
тротуар
распорный
##40x1
контроли
##ломоустойчивый
изолированные
керамический
взломоустойчивый
силикат
B15
EI
Регулятор
##x600
258
1300
##рующий
поворотный
соединение
SN32
провода
потока
сетей
очистного
10с96
свинц
режим
SN48
акрилов
77
Зам
М200
##х30
##63
##анси
##есси
##егород
SN24
баланси
КУП
пропит
##ембра
естественной
патрубка
вс
##КМ
##рытие
прочие
##четчик
виде
водоотведения
дифференциальный
искус
полотна
двухсторон
сдвоенные
D1
бук
ряд
##44
##цем
##ители
крив
самонесущ
185
SN12
щебено
##лизации
канализации
ответвительный
торцевая
спиральношовные
излучению
W12
Т1
цент
##Кт
##ющая
стеклот
водог
штоком
противопожарных
алм
щебеноч
водогазопровод
84
ВС
МС
цир
##ИП
##обеж
##катур
##янут
##x35
массив
огнестойкого
М250
##куля
опалубки
грунта
циркуля
Маш
вт
заб
сопр
##КП
##шивные
Трубка
прошивные
центробеж
дренаж
плитками
##ПКВКт
стороны
линейный
##говрем
долговрем
##ембрана
втул
НС
Пол
лаз
##цвет
чугунные
поверхность
##омпозит
цилиндрический
прессованные
ленточные
вибр
стекловолоконный
столбам
SN64
встраиваемый
антипиренов
Покрытие
ультрафиолетового
Машины
долговременный
шин
нагрев
однорядная
бето
ребра
штукатур
бум
##гольный
оси
50х50
##х185
##x1000
установка
сигнализации
скор
дорожное
автомат
##оводы
чугунной
Воздуховоды
компаунда
1ПКВтнг
Агрег
##фазный
##ерепи
##лений
##лощ
дверных
тре
средней
скры
цветная
низкол
неразъемная
низколег
260
Пор
Сетка
атом
ходу
##нее
##еная
##ателя
1250
конд
15600
Клапаны
##x130
LO
АД
Дв
моди
##59
##отовая
подвод
подземной
Смесь
HF1
дисковый
погруж
витражные
пом
102
##изог
165
ручного
круто
анкерные
СБПБ
секции
Камень
##x2500
##00х3000
коммута
крутоизог
Грав
Р65
Свер
ФК
ШС
##УС
##онструк
##атой
##готов
фасонные
SN96
КВВБ
Узлы
пластика
обсадные
Установки
Гравий
Шн
##вания
##овина
##инг
##пресси
шиной
компресси
поверхностью
##тепроводов
##ефтепроводов
троса
несущей
ребр
стрел
газонефтепроводов
Замок
модифици
3P
В35
##овка
##омута
свер
двухрядная
##локонструк
КГН
усиленная
липа
штанги
парапет
3СIIIв
ЛП
ат
зон
хомута
##мос
обык
выпус
##остойкости
400x250
стойкая
IIв
##делит
креплениями
##IIв
гидроизоляционная
2ВIIIв
2ВIIв
##АтVТ
Арматура
контролируем
обыкнов
560
81
Ок
Рас
шаг
##67р
облицовки
поя
##х200
раствор
СПА
Габион
хризотилцементные
мраморная
Грунтовка
10с967р
F300
В12
##ках
##рата
стальное
##рони
основанием
компонент
2200
отдель
муфту
шайбой
обечайки
Элемент
2з
брони
гладки
тка
крем
профиль
конструктив
строений
сборе
6х37
изгибом
станций
##урупы
лиственница
консоли
действия
К2
метр
чист
##снов
##шир
##арфор
##отив
стяж
трубчат
полнот
##опресс
##ционных
##ционного
14нж17п
14нж917п
АМг
вибропресс
К1
буров
дефор
лак
##ейки
##идная
однокамер
стандартным
сетки
##х75
поверхностей
концевой
невыдвижным
помещ
3х50
4х4
В27
хомут
##бы
##ометри
##асл
##еся
IP00
СБЗ
подвески
гипс
полиэстера
органи
микрот
Колодец
E600
Сва
ветр
мор
щита
##ят
##92
отключения
наружными
песчаная
лиственных
остеклением
Насосы
водогазопроводные
Сваи
5ок
98
Эмаль
##возд
##них
проем
одного
ширины
защитная
КМПВнг
промышленных
подкосом
деталей
##бШп
##ъярусный
##CA
натр
##окрас
103
внутренняя
плотностью
##форма
##ластика
##х3000
резьбовым
соединительные
скоб
гибких
керам
рельсов
прокладками
Электроды
неоцинкованные
щебеночно
лакокрас
рам
тав
ответвления
корпусе
##х36
силовая
Зажимы
минимальной
имп
горючести
ИКС
лами
ули
##оу
##Б1
##олст
##орез
SDR9
АВВГ
универсальные
шестигранные
стеклоткань
отдельностоящ
ИКСЛ
ламини
99
СИП
бу
жид
##нер
##угольный
##МС
##отовый
сварочные
##атора
трехфазный
##сплу
допол
ПБС
деревянная
комбинированная
композитной
##нистой
прессу
створками
подъема
94
W14
Бол
ИТ
Основ
Пред
Сд
Уг
аппар
осина
##лопастная
полок
##амеры
200х50
сборные
##x496
быстро
футеровочные
Предохра
91
ЗП
Мембрана
фр
##опог
##евых
обрез
##ющие
##агности
радиацион
внутренние
информа
Крестовина
Обрам
натяжной
буро
радиационно
3х35
8000
D400
Засл
О1
Эм
метиз
##77
##мобезопас
##66
диагности
##ровых
подд
##илиз
прямые
250х120
##х300
бескана
соединительный
цветными
эксплу
отделкой
шамотный
АСБ
нитей
травмобезопас
##ПКВтпнг
контролируемого
бесканальной
2х1
ПТ
ПСТ
ох
##ляем
разбор
##очками
##епро
##екционный
##ладка
##гряз
МКСТ
стандартнопроходной
цоколем
непер
##гость
распределительные
упругость
двухкомпонентная
МЛСТ
14нж017п32
МКБСТ
бронз
алмаз
зоне
Уголок
##грязн
2P
3х95
ВВГ
М8
##x70
##енное
двиг
##адочные
1000х1
теплового
1700
механическим
электрическим
элементами
двуполь
искусств
трубчатой
уличный
неперфор
нас
пли
##еза
загрязн
##x16
однокомпонент
3500
цементной
вытяжных
штыревой
между
бессварного
балансировочный
сопротив
скорость
коммутационная
1з
Бр
М4
МГ
имитация
шва
##орешетка
пере
стенкой
полимербетон
напряжения
ковша
фольг
дверные
SDR7
число
Фланцы
керамические
однопут
Георешетка
10с367р
эмалью
параллельными
Угольник
антикоррозионным
защел
##коулов
14нж917п34
буроопускная
метизы
3х70
570
E27
Дис
Счетчик
пле
##рации
металлоп
оптическими
гайками
сплошного
Окно
##41
##насти
##ополот
100х50
выст
коры
##ительного
гранита
##ливания
каркасе
водоотводный
полиэстер
лакированной
Сверло
тавровая
97
Камеры
фарфор
##26
##Внг
дистан
ключ
болт
контактами
##х32
039
переходных
сортовой
гофрированная
газопроводные
водоотводной
двухкомпонентный
специальная
звукоизоли
ниппель
14нж17п28
диагностирования
ГПа
ДСП
ад
дина
пет
##гез
сид
шпильки
анкерная
##верде
радиальный
водосточных
березы
Д3
готовая
##Бп
##онным
##ополимер
простран
медная
полочками
трехст
стеклопакетами
горизонтальное
регулированием
Компенсатор
твердых
Хомуты
неизолированная
10с371фт
##яющий
других
расположения
ударного
гладкие
Ру
С4
дБ
лента
##рный
##ированием
##яговый
Светильники
оболочка
##ающая
##ярусного
шахты
прямоугольные
участка
ремонт
стационарные
окрашены
сквозным
сверления
деформа
##ометрическая
натри
Болты
корытный
ленты
тя
##рных
##лаж
##цевые
строительной
проводников
прямоугольный
##x190x100
Сталь
атомных
LOCA
тягой
3х25
780
К38
барьер
гнутый
руко
##холст
##21
##олит
безус
отраж
40Х13
смот
##x2x2
профили
светофор
##изводительность
твердого
ПБЗ
стеклохолст
Геополот
конусная
створкой
древесина
добавками
тротуарная
Регуляторы
динасовые
сидень
Геополотно
клен
##иеся
##льное
сталей
выключ
заглуш
кабельное
переп
стекля
термометрическая
##образ
многол
380x190x120
отводов
канализационных
передвиж
Након
предохранительный
грунтах
выступ
безусадочные
510
Кот
Плен
улич
сейсмостойкое
##рытия
##ольтный
нена
плотности
355
лицевой
2400
##x350
отделки
потоков
квадратный
магистральный
краном
пропита
ремонта
электротяговый
водопропускные
бумаж
полнотелый
аппарат
информационный
травмобезопасным
Пленка
71
АБ
плав
скат
##изны
##цевым
##уму
способности
паро
спиральный
##ульс
крана
изгибами
рекламный
Прокладки
желоб
симметричный
##амидных
кривизны
бронированный
конструктивной
полимербетонный
ненапрягаемой
210
3х120
А4
Терм
##еив
##х400
##ью
##82
##ества
40х40
##рующие
175
системой
фасонных
форма
10с71фт
легкие
поворотом
шпунтовый
свинцовые
натриев
3х16
900х
##хит
##плав
##ельного
##оскоп
архит
алюминиевым
базой
##слойным
ОКЛ
термоусаживаемая
РПШ
дробления
ИТГ
архитект
Шайб
кед
слив
##креп
##пти
##ерный
##етона
##евов
20Х13
полимерной
полками
переклад
резиновые
Подстан
трансформаторная
гильзами
рассеив
однопольный
отсевов
централь
лакокрасочным
Диск
Котлы
архитектур
Подстанция
4х2
А1
Гильз
ПРА
Свет
ЩО
зерен
мат
топ
##лли
##23
##18
##x80
ответ
внутреннего
перви
металлов
30Х13
компенсатор
крышка
комплектом
условный
##польз
##ротверде
Кольца
ЛС59
14нж017п31
укладки
терморегулятор
парапетного
##опоглощ
отражателем
кедр
первичный
Реле
ТД
рт
##ацией
##55
##АС
##очное
##при
использ
##цевое
1420
кач
цветные
теплостойкость
цементные
комплектная
щебень
SDS
производственных
СБВБ
лампами
двухслойные
декоративные
##ерживающий
короткой
##нистые
материалах
шпунтованная
МЛС
масла
пустотелый
самонесущий
хомутами
Основание
натриевую
##ллипти
ртут
3х4
650
Барьер
Ламп
прут
эллипти
##ских
##вента
##боль
##бус
##оллей
наполнит
природ
##ланг
установок
высокой
##ПКр
резиновая
верхний
измерения
Скваж
унифици
универсальная
арматурная
инвента
шахтных
##прессор
Предохранители
смотровых
Лампы
##оллейбус
Скважина
W20
ma
Имитация
М12
Раст
деф
опорный
спор
##сы
##шный
##рованным
троллейбус
неф
стеклок
##x219
породы
лифт
дорожная
##ающие
удлиненными
##тивный
лиственные
пластиковый
пластиковым
закрытый
дифференциального
##ерепица
поясов
мороз
max
8АтVТ
cх
Фик
Шурупы
квар
пнев
##вани
##ув
##крытия
##МП
контактов
пара
08Х18Н10
быстротверде
геос
сплошные
МКРС
Агрегаты
компрессионные
вибропрессованная
рассеивателем
стеклокомпозит
cхема
Фиксатор
1P
ОР
фаль
##нка
##аго
##станов
##авки
арамидных
электрод
соединительным
панелей
крышей
материалом
встык
герметичное
дверей
14нж17ст
200х100
экранированный
канализа
обратные
угловая
скрепления
треуголь
эксплуата
выступом
геосотовый
360
960
ЭТ
тянут
фини
##елая
##шит
##лива
##окой
горение
168
14Х17Н
##торы
150х150
канальный
электросварных
электромагнитные
##рядный
спиральная
поворотно
пористость
##ектоскоп
Скобы
неизолированный
тянутые
14Х17Н2
ВЛ
У1
ХПВХ
вор
мемб
##сВБ
##ояч
##УТ
##67
трёхслойная
одино
резиновыми
известняка
геояч
подставкой
циркуляцией
геоячейки
2х0
Зв
ПМ
гус
паз
счет
##ощ
##ванием
##180
прорез
##аян
##х13
Столб
водопроводов
слож
цоколя
дерева
ячейковый
Доски
муллитокремнеземистый
работе
шума
гальвани
крутоизогнутый
двупольный
однопутная
гусени
6х25
динами
лм
##анд
##каливания
накаливания
проб
##едка
##евыми
##00х800
50x50
бетонным
##х140
цветных
газовый
полипропиленовые
огнеза
одинарной
##полюс
камня
щелевой
дополнитель
Светофор
электродвиг
М20
ПД
СГ
ФЛ
вос
##яной
##М2
##рад
оцинкованное
##простран
оголов
##x296
##х250
термоп
220x190x100
электросварная
утеплен
пенополиуретановой
распределительный
конденс
ПО
ТП
анг
сшит
##роп
##ПРА
##арская
сварное
резер
водопровод
##1500
защитной
самоходные
245
двойным
монтажные
низков
тонн
ответвительная
цилиндрической
##00х2000
пропиткой
Двутавр
ЭмПРА
адгез
лифтов
треугольной
ангарская
Гл
Сиб
Трав
жильных
##куму
##52
##ителей
светиль
медных
##единит
##щитная
угла
условная
дорожные
##ирское
герметизи
##ерса
швов
сталемедный
Устройства
14нж917ст
щелевая
дефектоскоп
быстротвердеющие
Сибирское
##кумулятор
2х2
215
Дюб
М16
мА
мяг
##оци
##ческом
конец
Стек
##x196
винтовыми
##нтус
##x396
двухслойным
Анти
клеевых
полипропиленовое
дробле
погружные
Раствор
##агона
сшитого
270
Метал
М100
Масти
Т3
гли
инд
ку
лощ
##реб
##тной
##бой
##гор
##ницы
проз
стальными
трам
##х14
двухлопастная
системах
##даления
листовая
ввода
деревянные
нерас
свинцовая
канализационного
карниз
теплоизолированных
врезки
рядовой
атмос
барьерного
прозра
атмосф
1х10
3х150
нан
факт
##чные
##ант
наружных
основани
##ированное
опорные
##атором
сборных
экранами
ленточного
сторона
заглушкой
компенсатором
##пространяющий
дефектоскопа
нераспространяющий
нанес
1х16
куль
ти
шпри
##огр
##анный
##новит
##екла
##ектив
##сосные
##цевидная
армированные
двухс
базе
полиэтиленовым
##огра
свободностоящ
раструбом
приварные
##ающий
поперечном
пружинными
армированной
гидрофобным
С440
Мастика
шприцевидная
330
7х7
Вст
белые
##зер
диагона
сила
##изи
зад
запор
50x100
##ечный
проект
установочный
комплек
резьбовые
##одук
зажимы
соединениями
вертикальная
сжатой
подвесных
крестообраз
угловые
мелко
ребрист
сопротивление
F2
F5
Yн
Фундам
Шиб
сектор
##ский
##дон
##мнг
##цами
##опор
12000
теплоп
горлов
153
гибкости
##айка
##х4х1
люб
температуре
композитных
ККБС
механизмом
стяжными
быстрого
диагональ
Фундаменты
теплопро
640
E40
В7
Косы
Лю
Пат
ФБ
гвозд
пути
ха
##леум
##кими
##каз
100х80
окрашенное
##рующими
##х2000
присоединитель
прочностью
1900
4182
##цепные
СТД
освещением
Подъем
##x700
мансардное
##колон
удерживающая
карм
МКБС
остекленные
стеновой
Шнек
Звено
культур
Косынка
4182и
B30
Кач
Лак
М500
УЗ
гнут
кис
сополимер
хими
##раб
##льных
##руч
##лави
##кового
##ностекла
##епс
вылет
##естав
стенка
теплоизоляцией
пеностекла
цветочных
штепс
мач
продольная
конусно
микротон
##БпШп
Шибер
Клей
Л63
ПФ
РЦ
глав
ней
##огрев
##ика
##абилиз
##рывающ
##остабилиз
##порка
перемыч
нефт
теплос
шарового
плоская
кольцевое
ПБШ
##оотражающ
кровельная
противов
декоративный
С235
втулочная
проемов
импульс
алмазное
плеча
хаус
B20
Гор
зав
роз
тур
##лый
##ПЗ
##x20
##x30
##га
##рап
1050
##адочный
устойчив
полук
коробов
275
скам
дорожной
серый
холодно
200х400
резины
##чиком
Соедин
спиральновит
КМПВЭнг
фиксатор
фильтрующим
монолитный
силикатный
унифицированная
теплопроизводительность
спиральновитые
700х
F900
УГ
эфф
##зящ
##новый
##аяся
сита
двухъярусный
##перси
элемент
СБПЗ
сухой
гидроизоляционные
##ешетки
мостовая
керамическая
одинарный
фундаментная
КУГП
ПСПБ
неподвиж
центробежные
неперфорированный
загрязнения
ртутную
спортивный
Траверса
лощеная
СБПЗА
710
борт
сери
##ащ
##чном
##ерная
налив
##ейка
##ексти
распорные
стеклопластика
бесцвет
привода
КПГ
гайки
##упы
штыревыми
ТППэпБ
##защит
неподвижная
400x250x120
##оудаления
##772
звукоизолирующая
прорезанием
##одуктов
горловины
1х25
3х185
540
950
B22
Киб
С1
вм
##ои
##лупы
##фнасти
##орлупы
различ
##очными
1200х
города
##х18
порта
мощностью
##резка
профилем
27772
IP66
сером
Скорлупы
Профили
люминесцентными
водоотводного
стержня
равнопро
промежуточные
ШВУ
разметки
устройствами
архитектурно
##донское
холодноката
Кибик
Лино
М10
Штанг
##т3
##ача
##аск
диз
##итинг
сиф
##яжущ
смес
##катной
##аторы
площадкой
300х100
Извещ
скруч
##х4х0
##тепр
наконечник
муллитокорундовые
КУН
558
поперечная
поворотная
уплотн
дымоудаления
электротехни
взрывозащищенный
Распорка
чистящ
искусственный
трехстворчатый
переплет
нефтепр
гусеничном
конденсата
свободностоящие
карманный
Линолеум
7х1
Бес
ККС
МП
СВС
баск
вещ
дет
опрессов
сор
цепи
##вели
##клави
##мость
##х9
##пт
##БбШв
##ЭШ
##етболь
##асло
прист
отбой
##20н
##аника
##етик
##елка
132
трехлуч
листа
##движной
волокнами
муфтовый
##естимость
точечная
литым
изделие
накладной
ФСФ
масля
защелкой
динамический
вместимость
баскетболь
PP
Врезка
КТ
М6
Пос
ШТ
магнит
план
риф
энер
##флан
##злом
##РН
наполнителя
напрессов
двутав
##полнитель
перегород
1000х2
плотным
объемная
водостойкости
опорная
фланцем
теплоизоляционный
отверстиями
##дапт
квадратная
перфорацией
грунтованная
минимальная
двухсторонним
бетонов
хомутовая
Обрамления
##епроница
стеклокомпозитная
любым
##колончатые
кислот
Беседка
Посадочный
460
ВД
М700
Сп
Сист
врем
клад
сегм
##веллер
##труб
##того
##ыв
##мест
##фта
##шко
##Е3
##электр
##евая
подача
202
001
кали
##ильные
светоотражающ
##1200
вентиляционные
холодного
сбора
сборного
механическая
пластиковые
дисперси
уплотнительным
термоусаживаемых
укреп
пластмассовой
##ПКВКтЭнг
бронзы
металлополимер
1х6
2600
5х2
C250
ДН
Зем
Швеллер
белая
втор
дру
мет
мок
увели
цеп
##еи
##паника
##37
##Ш1
15Х
металлоконструк
оконные
Коронка
458
полу
компози
##жимная
трехслойные
конструкцион
##x3000
бесшовная
композитная
армированная
раздель
пространства
морозостойкость
ОРЦ
Антипаника
серии
##электри
увелич
Вор
Дет
Ко
МА
бел
олов
шла
##400х
##стра
##аренных
##евый
стального
расшир
50К
152
##паков
4500
ковкого
358
кабелем
контроля
контактом
воздуху
IP44
высокочастотный
400х100
регулировки
гидроизоляции
500х100
Подвес
швеллера
ТППэпЗ
открыванием
СБЗПБ
поддерживающий
ключом
использования
восстанов
противовзлом
нефтепродуктов
Ворота
противовзломной
4х6
5х1
В10
ЗТ
С35
ТЛ
уз
##оной
стопор
##остойкой
25А
Стол
##иликат
электро
связке
пескоулов
вводных
перемещ
стеновая
КУВ
##х10ок
Заглушки
брусковая
клеевые
Пресс
стекловаренных
эластичный
эпоксидным
прокладкой
ВСт3
отдельностоящий
мембранный
дробленый
4х0
6х7
7000
7х0
ОП
Саян
Черепица
мол
пиг
сант
##нных
##оном
##лоч
##х90
##500х
##цер
##этиле
##нищ
##отроп
100x300
трубчатый
##осетка
142
145
##нели
минераль
##x18
компрессор
Кордонское
400x350
однож
##ебр
300х50
горячекатаного
предвар
##чатка
Перегород
крупно
удерж
200х80
кровля
600х100
заполнения
стыкового
крепежных
вывода
статический
все
автоматов
скобя
фрик
эксплуатации
эффектив
Штанга
Саянское
400x350x130
2x2
2х36
К52
Л68
На
##язи
##льные
##нивающ
##анные
##евод
вынос
##х110
Ст2
##нометалли
болтами
032
##илька
##икс
анкерно
##чика
битумной
Разъ
кольцами
литой
заземляющим
нагреватель
наполнителем
атмосфер
Горка
оловян
сантехни
520
˚С
АЗ
Держ
Пласт
ана
зна
учет
##фит
##нопол
##анда
##ему
бетонная
1500х
4050
##рующих
##ливки
колеи
##ечники
вентиляции
деревянных
105x63
гидравлическое
измерений
КПсВБ
черепи
АСК
Геосетка
грунтов
закладной
ТСА
Розетки
двусторон
двухкамерный
##готовки
дистанцион
ремонтные
Наконечники
ПМБ
резерв
теплосети
бортовые
Пластина
4П
Ав
Герм
Лента
днищ
лока
тикс
упаков
##ска
##они
##вая
##чных
##36
##ИД
##ориф
##органи
##ельное
##изоци
лотки
фланцевым
Конд
SN8
##ографи
023
условия
каркасные
##движные
квадрата
ПБВ
порошковой
одномодовыми
потолочные
акустическая
железнодорожных
ТКП
280x190x120
С245
антикоррози
##тоном
промышленный
М4П
тиксотроп
##орифер
1х1
2П
3ПКВтпнг
VI
Венти
Е40
Решетки
##кч
##2х0
##350
##бк
##еня
##лож
##роцемент
покры
30с
управляем
лифта
током
Контак
трехполюсные
канат
холодной
стандартными
вводно
аккумулятор
битумный
гайка
гипсовые
закладная
путевые
футеровки
фиброцемент
направляющее
1ПКВтнг6
скрытого
микротоннели
Извещатель
светоотражающие
Деталь
белом
черепицы
Герметик
микротоннелирования
3x2
ПНД
Сэндвич
вин
зем
##58
##550
##цей
##онки
##атлев
прин
струж
сос
##ительности
##онарез
облицовкой
одноканальный
металлическом
фланцевые
трехслойным
##итанный
порошковая
сборный
очистное
антив
цинк
гофра
останов
Сооруж
глубины
торцовая
Конструкция
разветвительные
линейные
двухкамерными
шинная
качества
условиях
принуд
Сооружение
3х2
3х240
4з
манж
нож
чув
шуруп
##тры
##читанный
##х500
##фера
##ба
##x96
##ЭПнг
##аситель
##анья
диэлектри
##ляемый
##опастная
прочных
разделит
разливки
100x100
127
перестав
покрас
прик
##еллаж
##единители
Связи
внешней
IP40
авт
винтовых
пожарный
газа
135°
ЭПУ
сердцев
##корост
ЭНТ
ТКМ
асб
Фильтры
образная
Калорифер
участок
прогибом
анкеровки
рекламными
рассчитанный
Прокладка
приборов
кирпичным
режиме
лазанья
1ПКВтнг10
Заслонка
стеклянная
многолопастная
задней
присоединительная
УЗО
перемычек
ТЛК
чувств
4P
440
5А
В2
СО
Тум
ЦП
пил
плет
трап
чаш
##x95
##нии
##ораз
##окон
##еделка
открытия
10Х17Н
движ
20П
##лапковые
##ворный
##х26
Профнасти
самонарез
трехканальный
SDR13
боковые
протектор
ОККМ
многослойные
головками
ААБл
водосточный
Стан
Угольники
автоматиз
керамогра
плитами
бумажной
Шайбы
светильников
восстановления
удерживающее
эффективности
##нополочный
10Х17Н13
Профнастил
самонарезающие
К42
ЭЦ
вес
вяжущ
довод
радиатор
##товые
##кп
##зит
##шлиф
##ойкие
100x400
##ворчатые
теплоизоляционная
круглых
##цепная
актив
##х595
комбинированного
односто
влаж
многоярусного
инъ
Колон
огражд
##есьма
дымовых
фольгированные
деформационного
светофора
Гильзы
водопроводных
Патруб
главной
ДР
буг
весьма
трак
фиг
##жектор
##тп
##онной
напрягаемой
##азмер
##окле
##роволоч
толст
##остойкая
оград
электрона
Втул
самокле
контактного
полиэтиленовых
проводника
Переходы
удлинение
дифференциальным
##рожковый
патрон
РТТ5
консольных
ламинированной
разборно
Вставки
равнопроход
упаковка
управляемое
чувствительности
фигур
##роволочными
420
850
Вазон
КБ
Угл
##нутр
##рил
##ильный
##х600
##971фт
##зра
##Б2л
##таж
##енка
изолятор
разъ
##обетона
##рованное
121
##оскорост
##никами
##x1500
##ушители
нижний
24В
высокоскорост
радиографи
##чики
АВБШв
лестни
10с971фт
лестничная
поверхностями
глухие
промежуточное
несущему
##левой
добор
ячеист
ААБ2л
составная
окрашена
остекленный
подводом
однокамерный
помещения
канализационные
Система
фрикционные
##андаж
переставной
асбест
ЭЦВ
W16
мал
масти
пайка
##x800
##ИМ
##нине
##одом
##ану
станине
##цид
стяжки
##евого
10х1
конт
труба
20х20
необ
железобетону
##аку
жилых
замковый
медный
1140x1
автоном
свето
плоскости
штуч
200х200
гофрированных
защитный
несколь
лазерная
прессуемый
ниппельном
комплекта
сегментов
Швеллеры
мокром
оловянно
электронасосные
высокоскоростное
радиографическая
1х2
4х25
4x2x0
4х70
800х
ВЦ
Г2
Нд
ТПВ
дном
шланг
##те
##иш
##фу
##ПЭнг
##гинское
##енз
##азу
прол
##гое
разно
##лощад
особ
Ступ
##елгинское
двухп
теплозащит
каш
пола
110В
##ластиковые
соединений
материалами
строительная
раструбная
##ерсивные
КПо
Скам
Анкеры
##олото
Кронштейны
внутренними
продольное
Песоч
14нж017р
замыкающая
скважинные
ФСА
добавок
штукатурные
прессуемые
насос
инвентарный
масляная
другое
Коелгинское
пескоуловителя
Контакторы
сердцевина
самоклеящ
Углы
3х6
4х50
БП
КД
Стр
сб
укор
шкаф
##йной
##уника
##нок
##никовый
##отексти
##ивная
дос
осевой
1000х3
##глеродист
графит
##щитовой
клин
пенополиизоци
гибкая
листом
плоским
цельнометалли
СБВГнг
Компози
Клемма
усиленный
вибрации
автомобиль
ТЗП
##делитель
однокомпонентный
аппаратные
троллейбуса
Металлоконструк
трамвая
фактур
основанию
Люк
скрученными
наконечниками
##этилен
Разъединитель
##анурата
пенополиизоцианурата
Композиция
1х70
Долото
УВ
зеле
пб
палуб
тяг
шли
##AL
##онное
##онными
износ
разъем
##новой
##облоки
##инета
100x500
подзем
##егом
горка
205
##х15
##х11
Стеллаж
теплоустойчив
131
облицовочного
площадки
Прожектор
креплений
##ещенный
высоков
низкоу
600х50
600х80
настрой
##х35мк
гофрированный
армирования
навесом
##озащитная
хризотилцементных
декоративных
опалубочных
74x63
реверсивный
консольной
консольные
##x980
коническим
откидное
Экстра
кнопками
скрытой
компонентов
буровая
керамзит
сиденьями
уличного
скатом
паронита
##полюсный
карнизное
увеличенной
локальное
Вентиль
контуров
кашированием
Песочница
сбегом
укороч
Металлоконструкции
палубой
низкоуглеродист
9000
во
вяз
дем
кинета
пайки
шта
##товый
##точного
##фат
##x45
##етами
##кис
наплав
избы
##опластиковые
##ейные
##оты
##поразмер
10КV
##ольш
опорно
болты
лотками
базальтопластиковые
##опроб
##иффу
строения
скользящ
удлиненный
удлиненная
вертикальные
ОКБ
##x72
технический
фильтр
шумопоглощ
заземляющий
фикс
другую
рельса
Бруски
780x1
нанесения
типоразмер
нейло
избыточного
1х50
4х16
НПВХ
РВ
ТГ
касс
##ич
##уля
##кр
##Мц
##PC
##щитный
##СО
##наруж
##ними
пре
закреп
корунд
14х1
3050
##пала
##x27
контактными
цветовая
песко
нагрузок
фасадной
воздушная
гидравлического
лестничный
декоративной
муллитокремнеземистая
##2700
распределителем
станционный
Шкафы
поливинилхлорида
акриловых
выпуском
передвижные
счетчиком
калиб
Налич
2х4
4х95
ГТ
ЛА
М550
Пе
ПН
ТУТ
УТ
ЭИМ
бут
пасс
пеш
таб
ут
##кли
##фанов
##КВ
##62
##щик
##ТЛ
##РП
##Эф
нату
освет
5050
##цевый
сварочная
комплекс
Оттяж
обраб
высокого
силовые
боковая
изолированных
сердечником
500х80
вертикальным
##имися
полиуретановая
эмали
станции
коммуника
лиственницы
конической
симметричным
гальфанов
нагрева
обыкновенного
помещений
органических
250х120х65
низковольтный
##клавишный
бугелем
шлицем
пешеход
гальфановым
1х4
3х1
3х0
ВА
ВУС
Гц
ГГц
СА
кры
па
штор
##вяз
##трубного
##ПМ
##4000
##TP
##эк
##отделитель
##остого
##рог
12КV
два
окрас
##елки
смещенный
30ч
1140
водно
опорной
18П
лицевые
горячекатаной
##чатого
холодоснабжения
стык
электрического
межтрубного
##x796
пружинные
##x250x200
распределительного
подключениями
геотексти
образным
заземляющего
волнистой
реверсивные
нетканое
разрыве
лакированная
ОСК
приборами
струк
охранный
перекладинами
нагревательный
##скав
сосны
особо
Пенополи
015
340
370
В60
В55
Ушко
гр
дюб
жар
игл
##жд
##еления
##46
##омб
разветв
##ловая
выдвижные
##ительные
прием
однос
среднего
переходах
верш
максимальный
##фицированного
боковое
гидравлические
##значный
бесшовных
модульные
муллитокремнеземистые
резиновой
##ефлектор
##x54
бортами
##невые
эпоксидная
гипсо
ФСБ
дуба
ТЗГ
##опрозра
топлив
пневм
сложной
тоннелей
Качели
дисперсионная
методом
С355
Перегородка
движения
доводчика
одностоечные
Скамья
досок
цельнометаллические
Оттяжка
иглопроб
4100
Ди
ЛЭ
Рель
соч
срывающ
фос
##онит
##чаты
##мп
##пук
##x65
##x900
##РС
##IN
##орас
##оматери
##лег
##енси
старог
##раг
выпук
##яжке
150х100
ковров
##х220
##жимной
затяжке
стеклопластикового
светопрозра
37x63
цельные
промежуточная
трансформатором
ПРТ
гильзой
направляющий
##унк
забивная
низколегированной
АМг5
Заслонки
финиш
винтами
манжеты
пиломатери
керамогранит
лестницей
##акуум
теплозащитные
клинкер
Пенополиэтилен
срывающимися
старогод
PG
Аппар
Гид
Теп
Шту
пы
##алог
##Пмнг
##енно
##ельных
разрядный
##лона
отражающ
##х100х
объемный
##торной
качеств
водоблоки
компенси
300х80
##отаранный
каналы
1928
светостабилиз
газового
##ошок
##укава
противотаранный
остр
глубокой
IP53
##x400x150
вытяжки
скальных
стационарная
Накладка
фибры
ИКБнг
КУПЭф
обрезные
двигатель
пропитанная
нефтяной
460x400x150
металлоконструкций
Штуцер
19281
КУПЭфПмнг
4х120
625
940x1
DIN
F4
Битум
Площад
Форм
ША
оцинков
тяга
уров
##сцентри
##чок
изм
##евым
обвяз
100х35
давлением
трубка
раскли
##ечных
40x70
##х100х1
присп
##ланд
полимерного
##x2x1
фланцами
СвЗ
коуш
муллитовые
проволочный
37x60
многом
сетчатые
М24
высоты
рельеф
шпунтовая
пленки
сплошным
коммути
РП1
АКВ
кронштейнами
однопольные
штукатурный
400x250x130
фарфоровая
Глушители
двухскатной
завод
Соединение
баскетбольная
М6П
рифле
металлополимерных
ВСт3сп
дистанционное
влажности
трактор
гипсокар
сочлен
водоблокирующими
приспособ
030
1х95
415
760
R4
W10
Гаситель
КФ
М50
Р50
Фрез
инт
рис
форт
шн
##ву
##К1
##ВВ
##ГП
##окол
##абор
##50x200
123
полиами
задвиж
перв
20Ш1
##х180
арочной
повторной
200x200
террак
192
19х1
400х80
слоев
боковой
кольцевой
СБВГ
СБ2л
##ающего
маш
##етали
Перемычки
термоусаживающ
путь
ССА
расположением
водопропускной
щитов
стеновое
выпуска
метров
##МСР
петлевой
гальваническим
Дюбель
КУГПЭПнг
опрессовку
принудительного
разъединит
несколькими
высоковольтный
нейлоновые
коммуникаций
многомод
670
SS
МД
инж
соб
циф
##рно
##кост
##9ТЛ
##460
##Вт
##РВ
##Гсп
##льная
##ометр
набор
стар
##рубный
100x200
##ловые
12Х18Н
полистирола
заготовки
##сосы
15кч
16П
14х0
двухмест
150x150
однорожковый
324
18Б1
защитные
крупный
400х50
клеммная
газо
Ст3Гсп
##х63
200х35
кровли
КУПП
огнестойкостью
светодиодными
участком
С285
вытяжной
декоративными
шайбы
Насос
кнопок
дренажные
СБПБбШв
СБПБбШп
кремний
желобов
центральная
мелкозер
отбойника
автоматизированное
автономное
Наличник
иглопробив
12Х18Н9ТЛ
4x4
4х150
F3
S460
БНД
В50
Лиф
П1
кирпи
ту
фрез
этаж
##нет
##аТ
##ыс
##ОС
##NH
##ованием
##омог
прав
пропускная
##остати
обнаруж
железобетонное
Плинтус
##х125
Ст0
высоких
##атывания
##х350
колон
соединительными
##айке
нагрузкой
монтажной
стандартный
акрил
СППК
Изоляторы
нерав
Шпилька
эпоксидной
##ециев
обечайке
ригеля
откидной
Шнур
ребрами
СБЗПу
гипсовая
фронта
фольгированием
стеклохолстом
матра
дополнительным
ШТС
ДНаТ
трапециев
КПоПЭнг
кремнийоргани
S460NH
1х0
2А
430
4x10
9600
C2
Бокс
Ка
Масло
НТ
ШЛ
вок
ватой
неси
саль
туп
##43
##шар
##ВЭВнг
насти
##азву
##езав
##остан
##тразву
##ноструж
##рош
##фибр
пери
бетонными
##проч
покров
замковыми
спин
горячей
##рующее
СвО
300х200
35x35
##х360
##исим
соединением
горизонтальными
телеф
сетчатый
шамотная
минераловатные
вспомог
##ажир
ОКК
ответвительные
регулируемые
стеклофибр
усиленным
промежуточной
накладками
##оустойчивые
древесноструж
входят
модулями
##янутой
Порошок
АД1
тканое
##41нж
##образов
уличные
природного
ворс
утепленным
##огрева
антиванд
Патрубок
ДРЛ
пиломатериала
двигательным
кирпича
обнаружения
вокруг
несиловая
##езависим
вспомогатель
490
C1
АЦ
ДО
Круг
М22
М75
Пласти
СМ
УК
анод
вет
габар
ромб
##х800
##200х
##М1
##зированной
##Гнг
##никовая
налич
##ранич
##очно
размерами
обжимной
##порных
##ющий
откос
подвиж
50x80
##уска
25х25
##истки
##х130
поруч
ант
27х1
##аркет
##ленные
парной
SDR26
125х26
жесткие
регулирующие
37х1
14нж17р
##ошеч
##лизатора
непласти
одномест
##х54
ПвБ
электрической
межфлан
газопровода
Щиток
скважины
отводом
стекловолокном
декоративная
4х185
ультразву
ревизи
ВБШвнг
коническая
У220н
##обезопасном
ригелей
однокамерными
перенос
болтовыми
профилированного
мягкие
раздельными
##нивающиеся
ограждений
необрез
демп
кассетами
ПРТО
коммутируем
инжен
матрац
4x16
5500
В5
Доб
Д16
Ком
ОД
ШУ
адапт
знак
##сид
##аф
##агрессивной
##ОП
##шип
##овин
##емая
разъемная
106
##опроводящ
Стенка
30х30
##x1800
облицовочные
Коробки
одноярусного
контакта
внешними
##ованного
максимальным
термостати
##х410
пиленые
полиэфирное
вертикально
уголки
поверхностного
многоцвет
полиуретановый
АСБл
усиленные
##вающий
##00х3300
##00х3800
##заход
обыкновенные
ветроустойчивые
однокомпонентная
адгезия
полукруг
сорта
Держатель
разветвителя
уровня
##ландцемент
Лифт
ревизионный
инженерных
##афраг
1р
1х2х0
290
2х2х0
390
Детали
КЛ
СЦ
ба
белого
лод
независим
ов
чуш
##окий
##метр
##пы
##гии
##олег
наб
##опти
прит
##езд
##раст
##отор
столя
стема
##ображ
##ейся
горки
##обетонными
проката
40x50
##литом
сильф
сварку
однолет
60х60
рабочий
35Т
##х310
токопроводящ
##чатое
высоколег
условным
углеродистых
##х450
регулирующий
кольца
цельная
протяж
шлифов
200х1
комбинированные
композитными
глубокий
##упен
полиуретановых
заполняющ
стекловолокна
уплотнительные
крепежом
липким
рельсовых
фильтра
##готовления
ворот
термопластика
глинистой
сополимеров
сифоном
уплотнением
напрессовочные
пигм
анализатора
знаков
фиброцементными
разделительная
##оконечные
наплавляемый
структур
ЛЭЗ
керамогранитными
клинкерными
остроконечные
полиамида
терракоты
стеклофибробетонными
наличника
непластифицированного
Добавка
чушках
стемалитом
однолетних
заполняющими
025
3100
3х10
5100
535
940
D1200
КШ
КР
Кат
КСП
Па
бандаж
зер
нег
ник
посы
упроч
##кон
##К2
##щенный
##шей
##нием
##оры
изображ
##ельной
облег
перевод
40x40
алюмос
металлом
##х160
прицепные
двухполюсные
графи
1150
полая
##ебед
3200
отверд
стойками
растянутой
Контр
##ортландцемент
электросварной
глазу
переменное
##одического
600х3
вертикальных
поперечное
резиновый
глухим
109x60
##x596
железнодорожным
тройника
цилиндрические
каучу
одинарная
тросы
##щики
выходом
асфальтобетонных
##x996
разделе
нетканого
##туры
стрелочных
ИКСЛнг
Обрамление
прутков
пневмати
индика
кула
электротехнические
магнитный
компрессорных
остановок
Втулка
светоопти
пролета
пассажир
Диафраг
изменя
гипсокарт
термоусаживающаяся
многомодовых
периодического
полукруглой
лодж
посып
облегч
алюмосиликат
425
4х2х0
4x50
5х16
Голов
НК
ПГ
дат
даль
тар
тех
##ека
##яда
##мет
##ПС
##МРП
##600х
##ВО
##ВП
##ерст
наполн
наполнитель
прос
##окомпозит
обогрева
основного
15000
144
##неля
водогр
кабины
прочих
защитное
трехшар
паропро
проводки
пенополиуретаном
массой
открытым
сухая
цинка
##х700
брусья
напольный
##нутые
пластиной
Пескоулов
дроссель
закладными
распашные
пластмассовые
гидрофобиз
щитом
забивные
низколегированная
растворителей
микротруб
аппаратный
финишный
ребристые
бесцветное
Земле
одножильных
крупнощитовой
резервуар
земли
Станки
утол
ковровое
отражающе
Форма
заводских
рисун
СППК4
покровом
##ошечное
независимым
изображением
переводов
разделенных
трехшарошечное
Пескоуловитель
PN
ВБбШв
Дросс
Е27
Мат
Пу
держ
пла
##рель
##тый
##хающего
##29
##5М
##фр
##91
##МТ
##шпол
##БК
##Бнг
##льного
##ником
##инации
##отражающ
##епти
##екст
##атухающего
50х35
##озатухающего
оксид
20000
##изоляционная
##аторов
самозатухающего
колюч
система
системами
##ага
центрами
анкерных
проводе
пониженной
частичным
блокировки
перфорированная
комбинации
стыком
наклонными
груза
Соединители
поворотной
С390
пластин
литерный
трансформатора
клиновид
Воздухорас
пс5
##x81
звукоотражающ
открывания
Брусчатка
Экскав
самонесущих
центробежный
низколегированных
тканая
АМг2
обрезная
АСБ2л
рукоят
желоба
фальшпол
##х140х2
Стеклоп
ребристая
1000х290
202х140х2
конструкционно
днища
толстолистовой
Тепло
графическим
светооптическими
Дроссель
Воздухораспределит
1х35
4р
4x1
595
НФ
ШСП
ЭМП
Ящик
больш
сад
##септи
##ха
##ШВ
раздвижной
##епроводов
ответв
##полнительный
##10П
##ированными
неар
нешлиф
исполнительный
металлоч
##учие
смаз
##x180
##x1200
сварных
11с
11000
1180
водной
композ
средний
##х325
##х330
эксцентри
##ованный
шпатлев
каната
каркаса
тяжелые
радиов
сборно
##х500х
ячейками
постоянное
УХЛ3
тоннеля
светодиодным
пружинным
железнодорожные
##шивная
БСМ
быстрос
отводами
путепроводов
расстоянием
##озиционного
нитепро
DN100
АКП
микро
теплоизолированные
рядовые
Агрегат
шагом
кремнеземист
ниппельных
рукоход
прозрач
аккумуляторов
диэлектрический
Стеллажи
теплоустойчивой
обработки
Аппараты
расклинивающиеся
Фреза
иглопробивное
демпфера
водогрейные
Экскаваторы
нитепрошивная
1А
4А
580
R1
Кросс
МВт
Оп
ОА
СЛ
Седелка
Фитинг
бар
вини
мг
шип
##ионная
##упер
##лаб
##56
##ЭТ
##ерт
##емых
простой
стока
##ить
обой
##екс
подва
оцинкованных
40А
##вернут
##елых
двухканальный
широкой
облицованные
112
70x2
##ластировки
пено
термостойкая
018
анкеру
газовые
песчаные
балластировки
протяжки
##х610
ПБП
Провода
битумная
500х500
##тяжелит
лестничные
шахтный
##х88
АСЦ
кромки
тонкост
клапан
образных
вибро
реак
##00х220
уплотнительное
чугунных
##бШвнг
Брусья
акриловая
КВВБГ
КВВБН
стрелочный
отдельностоящая
плинтус
##М2Т
герметизирующая
крестообразным
гнутого
штепсельные
15Х5М
предварительного
скобяными
10Х17Н13М2Т
шланговый
древесностружечные
термостатическим
##заходный
садовая
металлочерепи
010
4x2
4x25
5х4
6500
SC
КЦ
Лест
МО
Орос
Портландцемент
УН
Шланг
ЩРН
лет
фаз
цем
##ура
##нолог
##ерные
##асшир
изнутр
##гофр
##альд
10С
полистир
##ожж
##озы
негофр
##ъемным
пота
120x2
шаром
95x2
термод
400х300
общей
63А
деревянным
ППГнг
600х600
швед
КГЭШ
шестигранная
ПСПКр
разветвительный
##оворот
швеллерная
неизолированные
силико
терморасшир
модулей
АПвПу
циркуляционные
1000х160
БрО
многолет
пазогр
пробкой
огнезащит
Дюбели
времени
##трубной
перемещением
антикоррозий
износостойкости
пневмокол
Рельсы
##чатых
светостабилизированного
##ебедки
технолог
резервуаров
утолщенный
подвалов
тонкостенный
Ороситель
цемента
изнутри
негофрированный
пазогреб
пневмоколес
3ПКВтп
5х6
5х50
F10
UTP
ГК
Е600
Каб
ЛВ
ЛД
План
ПУС
Поворот
С5
бути
зоной
мл
ну
пл
сед
цик
##ела
##ОСП
##33
##АШп
##шовые
##Эон
##етуш
##олновый
накид
##стиро
##ковшовые
обд
заг
марш
соединит
подок
##шень
проемы
##х190
##х195
Ст22
спар
##x1180
температурой
одноковшовые
мости
опоре
##рующей
самоза
лицевым
шаровым
термостойкого
IP31
горизонтально
плоских
фасадная
стандартного
огнетуш
коэффициент
##оотвод
расчетным
М3р
##x66
ПвПу
М2р
многос
##невый
пролетные
стоечный
выходных
14нж917р
отвода
##озиционный
Обои
фикси
М1р
М1ф
фибр
СВЛ
Экран
атм
терморегулятора
эллиптическим
14нж17ст19
одиночным
оголовком
14нж917ст7
запорной
неподвижных
различных
Автом
приклей
14нж017р32
корундовые
натураль
##х100х110
П1б
тупи
тупым
ветви
14нж17р28
столярных
структурированной
посыпкой
паропроница
радиоволновый
кремнеземистые
пенобетон
анкеруемой
полистиролб
многолетних
3ПКВтпБнг
##Эонг
Ст22К
самозажимная
1х120
1х240
2х16
3600
3300
4х35
Гвозд
М800
П2
Уд
УС
вала
дуг
моб
фрам
фитинг
##оения
##ыл
##мент
##лон
##фаз
##86
##льха
##ерей
##кинг
наг
##ополит
##екуля
10x2x0
длины
15°
##ительный
##торами
##лителя
150х50
полимерными
опорного
полиэтилен
лоток
коробчатый
1800х
##акеты
195
194
400х200
SDR21
монтажная
автоматического
2800
непро
##ихся
КПД
заземления
ОКТ
противопожарные
прямоугольных
однопроволочными
подвеса
тройной
КВВГЭ
пролетом
Комплексы
закладных
крепежный
фундаментной
строп
импор
проволокой
ригель
всех
трекинг
метрополит
##олитовые
Наконечник
Шайба
Гильза
СБВБбШвнг
Глушитель
герметизирующие
устойчивая
6х7х19
АЗЕ
ячеистых
штучная
Строения
штамп
бутыл
табло
машин
коммутируемый
кулачок
неарми
обойма
##оотводчик
Гвозди
трекингу
3x2x0
410
4х240
F9
UPC
АПВ
Гайки
Дефлектор
Зна
Лебедки
Уп
ваг
ду
ольха
сгор
улуч
функ
##ненная
##жные
##рь
##вЭ
##2000
##билиз
##64
##шения
##ЭИД
##ДП
##овентиля
##атная
##опол
##азка
свай
##изии
наружные
##x13
1350
150x300
однозаходный
##ранения
##зионным
ПВС
трехъярусный
##ленное
листовое
способа
SN10
##голов
##x380
37х0
КВН
латун
ППС
низкой
ПвВнг
УХЛ2
мостам
ОКГ
##корпус
бурильные
прямоугольник
навесные
##невых
кромкой
92x496
92x296
92x196
92x396
ТСС
одинарные
канализационной
дымовентиля
МКРГП
##юбинг
грунтом
поливинилхлоридный
кирпичной
устройством
сквозного
КУПР
Поруч
250х120х88
двигателем
пространств
Стекло
##рабатывания
трехлучевой
цепей
покраской
автод
мастичный
##иффузионным
выпуклый
сальниковый
АЦЭИД
Пластины
СЦБ
фальшполов
ответвлений
быстросъемным
потайной
термодиффузионным
Знаки
дугост
сгорания
5х25
690
F8
А12
Б2
Дом
Мпа
аль
апер
крош
рукав
сф
тум
хол
хлор
##ские
##йный
##вы
##м2
##лка
##Вг
##асси
##отов
##альных
10х2
зап
##нителем
##лекты
внутри
##усор
155
14х2
30x2x0
70x2x2
сечений
опорами
##х230
120x2x2
растворов
услож
прочистки
цвета
95x2x2
гладкой
##тейнер
##укопоглощ
сборная
люком
электромехани
500х50
пенополиуретановые
удлиненным
вспуч
##ряды
дорогах
черной
пластиковая
торш
##онагреватели
звукопоглощ
Ригель
шайбами
поглощ
##x850
предохранит
подкоса
Элементы
АПвВг
1000х1000
ремонтных
прутка
14нж917ст25
##гора
фиксатора
дизельные
вещества
детский
трехлучевые
энерго
укрепляющ
минеральными
Колонны
равнопроходная
ТПВнг
крыль
первый
поручня
пассажирский
Стеклопакеты
обделки
14нж917р34
Уплот
дымовентиляционных
автодорож
дугостойкие
##лкауч
усложн
поглощающая
2х6
F25
Ат
Бак
ИП
ККП
М25
Маном
Тр
ФА
ШБ
гим
##72
##73
##оэ
##мыв
##пен
##МД
##Б2
##Инг
##ойкий
##леп
##опласти
##оклав
##есом
объ
10х2х0
1280
полированного
кабельными
коррози
##ечно
255
##осплав
##истый
1650
горячим
150x500
150x400
80х80
##ранные
повышенный
##х21
местного
##окачеств
бескорпус
фланцевом
линии
пенополистиро
крыши
016
##ованной
анкерами
теплу
высококачеств
19х0
##аймер
##огнутый
плиты
серая
Уголки
СТОП
твердосплав
##уклад
формы
воздушного
гидроизоляцией
кровельных
КПЭТ
855
Прип
поворотными
резиновое
##утавры
арматурные
шестигранный
кранов
накладная
орна
шумозащитная
4х18
терморегули
нетканая
двустворчатый
модуля
ИКБН
Двутавры
крутоизогнутые
ИКСЛН
защелки
фарфоровой
АБС
сливной
терморегулятором
гальванизированной
электродвигателем
сектором
наливные
веществ
укрепления
второй
ТППэпЗБ
КПсВБГ
КПсВБН
вяжущем
разноуров
Боксы
откосная
бандажном
гипсокартонные
терморасширяющ
Планка
ПУСК
бутилкауч
импортной
автодорожных
Манометр
##мываль
бескорпусная
КПЭТИнг
1П
4x6
4x35
5x2x0
5х70
D500
В65
ГП
Зонт
Рез
ШК
авар
агрег
бенз
лив
мусор
ом
роли
хода
шасси
##нной
##бав
##АБпШп
##БФ
##емпер
##гоны
##отемпер
##лац
##алы
##алка
##сос
##сох
тран
203
##истого
металлог
двухлап
##лителем
полосы
однолапковые
одноцепная
##рующего
##х37
2700
178
конструкция
наклона
оптическая
горячекатаные
листовым
IP68
термос
160А
герметизатором
проходческие
фасадные
57х3
состоя
экранированных
Огранич
одностворчатый
люминесцентный
поворотным
многослойным
полипропиленовых
равнополочный
14нж017ст
односторонним
##очастот
выхода
стороной
трансформаторов
путевой
хризотилцементная
ААШв
волнист
нетканой
поливинилхлоридным
двустворный
##енсат
бессварная
кирпичных
КУПЭВ
Поршень
метра
передвижных
инвентарные
фальцевым
канализационный
электродвигателя
гвоздем
штепсельная
импульсным
электроизоляционная
канатная
Тумбы
рифленая
фронтальное
никели
глазурованная
алюмосиликатный
тарель
тоннелях
металлочерепицы
шведская
апертуры
гимнасти
##отемперату
металлогалог
1м2
2х35
3x0
4х10
F12
G3
А15
БН
В70
Лам
Ом
ШН
Шпала
вакуум
пя
рент
ряда
##сб
##сси
##нущ
##еные
##тенов
##ицион
##унг
##мя
##норам
##оле
##омыс
изделия
стол
безрам
##итковая
##обм
##лонов
выраб
##роения
10А
12x2x0
зака
мартенов
трубки
трубок
трубкой
20x2x0
оцинкованными
##акри
##х1000
объемом
##идным
спуск
1320
широк
изоляционные
##х300х
коробкой
прочей
защитном
трехколончатые
конструкционные
##ующими
покрытиями
##аги
канал
анкерный
2200х
горизонтальных
цементном
##х45
тяжелых
фасадных
монтажными
вводов
стволов
потреб
287
формат
сигнальные
##х105
##x650x200
решеток
легкой
231
ОКПМ
##россельная
##кладка
##кладыш
водоотводом
короткого
частью
литые
замыкания
шахтные
свинцов
участков
74x60
поликарбонатной
междроссельная
концентрические
ветроустойчивый
быстросох
выключатель
плавучие
мачты
двутавра
минеральных
выносная
сантехнический
3ПКВтпнг6
стружечных
панорам
компенсирующая
сочлененный
КУППмнг
##конус
Диафрагма
звукоотражающая
плинтуса
ЛДСП
спаренными
приклейкой
тупиковая
метрополитена
14нж017ст13
рентг
##омысло
мартеновских
быстросохнущ
1х7
5x1
5х95
Лотки
НЦ
РС
Рукава
Тюбинг
бр
вогнутый
зонта
км
лат
рейка
слаб
ткань
упор
шурупы
##хв
##ьмя
##овитковая
##онепроница
##омер
##анельное
##ателями
стабилиз
##рали
##ейками
##лата
##облад
сталью
##ющей
конфи
корич
алюм
141
##x110
##кателем
##олокнистые
кова
300х35
тепловых
17с
цветов
внешнего
##ленная
##ленных
оптического
листами
листах
предельная
##500С
анкерными
400х400
МКЭШ
##x32
многовитковая
200х200х
##161
500х400
легированной
черная
редукционные
##невым
домов
##онагреватель
одностороннее
кронштейн
Д1П
посад
фундаментов
ревизии
естественная
антикоррозионной
Колодка
неоцинкованная
береза
НСО
2х18
МГШВ
выключателя
Термометр
ответные
эллиптические
природный
оголовка
секторные
гвозди
скамейка
наливного
холоднокатаный
конструкционной
тиксотропного
Ступень
преоблад
##рельс
Воздухораспределитель
пазогребневым
сфери
##оклавный
аварий
термоскреп
конфигу
преобладанием
2У
2x2x0
525
5х120
АРС
ЛГ
Р6
ШП
ЭКП
бух
бест
ед
сус
сум
х1
##ики
##ПО
##бл
##М5
##гба
##це
##ЕМ
##амо
##руд
##есп
обклад
##екционные
##алька
10х0
##ительных
металлор
##х115
005
замками
137
1340
150х80
Коромысло
11ч
однолопастная
##раншей
болта
##х295
Смазка
переходом
обработа
параметр
муфты
##итая
SDR6
потерей
89х3
перфорированные
спирали
потолков
##цементный
многогран
##ульфат
армированного
клапана
Коллектор
прокладок
Д18
##00х2100
КМПв
стационарный
ТЗБл
витков
мелкий
статической
##x40x0
ВСЛ
МСС
пояс
сополимера
химически
смесей
переплетами
скобяных
шурупа
автомобильного
настройки
низкоуглеродистой
Площадка
оцинкованием
неравнополочный
протяжкой
технологи
циклов
фибролитовые
нагнет
холостого
ККПС
коррозии
терморегулирующим
бутилкаучу
##лацет
конфигурации
бестраншей
##гбаум
050
B1
B12
Ca
FC
F400
Адапт
БЗ
Ван
КИД
ЛЖ
МПП
Оголов
С8
Сем
ЦЕМ
Элект
витая
кос
мая
##рной
##чки
##54
##юма
##88
##енную
накат
##мисси
##остроения
##инный
##ловым
##ющих
отход
101
полированные
подклад
трюма
корон
бетонной
основы
16x2x0
003
##торов
двухлапковые
двухцепная
горячие
##x28
117
11Б
300х3
##х320
120х120
защитно
терми
трехполюсный
011
способом
22К
горячеоцинкованное
Заполнитель
21К
МКШ
##еформи
песчаной
плитные
производств
встроенными
##x450
стыковыми
одностворчатые
325х12
электрический
М27
полиуретан
жалюзийные
концевого
049
растяжения
##родейств
уплотнителем
тройник
быстродейств
пролетного
эпоксидный
кронштейном
промышленности
фундаментные
АКЛ
биметаллическая
деталями
несамо
горюче
модульный
двухстороннее
буровые
импост
плавкие
2х28
##казатель
Соединения
КПГС
холоднокатаные
пристав
пристраиваем
кладочный
кладочные
молекуля
предваритель
Тумба
керамзитовый
фиксации
односекционный
АМг5П
старт
правый
ворсом
габарит
лоджий
Головка
##ерстя
смазочных
композита
шипованная
П220н
улучшен
электромеханическим
вспучивающ
Уплотнитель
широкопол
тканью
металлорукав
Cat
Адаптер
Семена
молекулярно
5x0
665
7х2
CГ
D800
DAL
F100
F200
LC
ВП
В80
ГВ
Галька
Каркас
ОКЗ
Рог
ЭКМ
бент
включения
греб
поля
съемная
##ях
##лс
##57
##МК
##абир
##ровые
##рационные
разрез
классы
##итовый
обесп
##ложения
##ально
заложения
наружу
соэк
подачи
40х30
теплообм
##идный
##x165
порш
Корпус
сварочный
##ваемые
##х28
стойку
шаровые
##ентированная
Перг
19х2
##ежущ
крупности
коллектора
каркасы
нагрузке
плитная
##ообраз
200х150
воздушные
допустимой
##х58
перфоратора
КС5
комбинированное
остат
рулонным
измерительным
глухая
ПСО
пластик
путей
орга
##струдированными
специальные
древеснов
ТЗЭ
предохранитель
##x405
пропитки
искусственных
##ПКВКтнг
вибропрессованные
##ляемая
бумажные
кварцевым
огнезащитный
куполь
трамва
прозрачным
крестообразного
Качалка
мачтовый
ТППэпБГ
детей
##епроницаемые
Конденсат
##x96x3
графитовым
подземный
##x72x150
шторкой
АКВВГ
этажей
межфланцевый
высоколегированных
пигментов
зерка
наполнением
колючей
состоянии
металлогалогенную
бухте
накатка
несамоходные
DALI
##абиринт
обеспеч
соэкструдированными
3А
310
5х150
7х4
7x0
7x2x0
F50
F15
R80
АIII
ИС
Трос
аз
амин
бак
камер
лес
паст
паркет
позиционного
супер
труд
##скоп
##внг
##кладки
##лые
##Пвнг
##бционный
##гон
##ЛС
##ставка
##оллер
##тал
##ельным
праймер
##обили
100А
##остойкий
полиамид
кабельным
15с
169
двухколончатые
##онах
кажд
одноклавишный
водя
##утеп
бесп
184
затвор
внешних
анкерного
высокочастот
МКУ
дверям
КВБбШв
ЭПП
перфорированной
решетки
заземлитель
##рядные
26161
керамической
коротким
##язев
подвесные
пластины
образной
несущего
закладного
одинарным
##192
##защищ
патрубками
рельсового
АПвП
тротуарные
бетони
бумаги
атомной
модифицирующих
хомуты
гипсовый
жидкост
дополнительный
ЗПС
АСБГ
терморегуляторами
наполнителей
Растворитель
КУГПвЭ
чистящий
энергии
двутавровая
шлагбаум
одножильный
учетом
покрытая
инъекционный
Колонна
Ступени
УТ2
эмалированная
приемо
фосфор
собранные
двухместная
##останции
одноместная
Компрессор
тумбы
предохранителя
##гораемый
крыльчатый
усложненной
высококачественная
транз
Оголовок
Электровод
Пергола
Конденсатоотводчик
КУГПвЭПвнг
шлагбаумного
1х150
2100
2х25
5e
5х185
880
8500
БТ
КИ
ЛУ
ЛО
ЛБ
МШ
НВ
НЛ
Н13
ОТ
Пар
С9
СН
беж
габ
левый
сов
текст
##оечная
##ицид
##АТ
##М3
##47
##ги
##ЛВ
##KA
##нах
##омасло
##асы
##анная
##очкой
классов
##итраж
100х200
12П
соот
подлок
1580
неутеп
405
##учих
плотном
30х2х0
##x160
однод
однофаз
6050
##олокна
углерод
оплет
колот
склонов
крыша
##дающая
SN192
света
зажимом
Креп
каркасных
массива
цельно
СБл
##ающихся
высокопрочные
транспортный
состоящ
очень
##13нж
антисепти
ячейка
электромагнитным
ПвВГ
нормальным
КСФ
брусчатка
мостостроения
##пределения
##ульт
кольцо
эпоксидных
МЛУ
ААГ
##00х1000
неразъем
антикоррозионная
открытом
парапеты
свинцовыми
SN128
втулочный
LOKA
компрессионная
разборная
перенапряж
петель
выключателей
кварти
розет
##x205
сифонной
сорбционный
перегородок
АЗД
##онирования
ААБлГ
двухпозиционный
пбв
настройкой
керамзитобетон
низкоуглеродистая
##кислый
##краты
пескоотделитель
пескоцементный
задвижки
ПвБПнг
пневматические
рукояткой
микрофонный
Лестнич
нулев
подоконная
полистиролбетон
Поручни
ФАИ
пенополистирольные
бензомасло
конструкциях
пяти
кованые
термоскрепленное
Р6М5
суспен
маят
пристраиваемая
транзитный
подлокот
бензомаслоотделитель
1x2x0
5х35
5x35
680
715
D600
F6
RJ
Ак
Вод
Гр
Мости
Пет
СУ
Ска
УП
ХВ
Шар
ЭМС
абр
бана
опа
секция
сотовая
срабатывания
хранения
чет
ящи
##оцемент
##робезопасном
##ира
##клер
##груж
##ово
##олаз
##линитель
##емость
##есители
##новения
##инка
##епар
обы
##ивид
##ходомер
##00х150
трубой
трубной
трубками
20х2х0
##истой
##ерметич
##иде
минерального
##изоляция
250х250
##x291
1120
водонепроница
профиле
035
стойка
переходного
Контейнер
IP23
##агни
Перевод
встав
винтовые
каркасов
серебр
жесткая
##тейла
Комплекты
##рием
КМ1
кровельные
поперечен
потолка
34А
полипропиленового
распределительная
армированный
торцевой
редуктор
##невая
образные
образного
2960
граненая
подъемный
4х14
СКУ
состава
неразбор
искробезопасном
799
алкид
статичный
пустотелые
невыдвижной
броней
буквы
алмазный
сопряж
подводкой
Расходомер
профильные
жидкое
охлаж
неперфорированного
светофоров
перепад
Металлоч
индивид
импульсной
турник
СБПЗАШп
планкой
композиционных
пигтейла
учета
доборный
малой
САМ
вершине
светопрозрачных
##ВВЭнг
фрезер
спинки
Землесосы
пластинчатый
заград
##х195х75
Автомобили
бутылочным
АПВБШв
Домик
твердосплавная
Припои
##акрилата
корончатая
аминного
АПвПг
Компрессоры
Мостик
абраз
четвер
Металлочерепица
индивиду
4x0
610
800х800
F7
R3
RAL
Ба
БК
Бум
Витраж
ИОС
ЛМц
Лесом
МР
Мой
МГц
Насти
Пл
С7
Т2
доля
сол
сув
сульфат
##нем
##дания
##иос
##чения
##мар
##по
##ОН
##98
##48
##РГ
##НО
##оволокна
##ород
##енном
##ругл
нач
излива
##мера
##еприем
вырав
сверх
конь
##соедин
##люс
##имости
оспо
##егист
##фика
бетонного
##ированным
один
арго
двухполюс
##ветств
30А
##x170
1340x1
сварка
полуф
рабочие
##х260
300х250
базальтоволокна
стойке
контактный
цвету
##ующий
##1700
##русель
канатный
газов
песчаными
##x341
СБГ
##алубка
шлифованные
многопроволочными
переменный
точек
##х57
##атериалы
грузов
##x55
146x45
свариваемая
быт
##ыша
РКУ
699
Шпатлев
шпунтованные
образными
конусный
ЛС58
декоративно
монобл
волнов
передней
Вентиляторы
четырехполюсные
мелкие
ригеле
размет
скреплений
D1400
4х4х1
ветровой
дистанционная
СБВБПу
ПОС
##ающийся
розетка
скамейками
УГВ
УГН
кислотный
кислотоу
##трубных
композиций
расширением
шкафное
СБВГнгЭ
фактуре
окраски
топливо
старогодные
ВСт3сп2
ВСт3сп3
трапециевидная
ромби
необрезные
адаптеров
многоцветный
##раструбный
воротниковая
облегченного
держателем
595х595
нешлифованные
АКПсВБ
Опалубка
##альдный
натурального
торшерный
орнамент
спускным
рентгено
быстросохнущая
латекс
суммар
обкладок
стартовым
##ежущей
соответств
Лесоматериалы
сувальдный
Шпатлевка
1х185
2х50
4x120
5600
5х0
6А
6АтVТ
B2
А8
Ант
А16
Винт
ДУ
ЛН
Меле
НД
Нипп
ОКС
ХКП
ШМ
аб
ван
вед
валь
виш
их
нем
отр
плава
сцеп
седелка
тони
указ
яд
##тон
##тные
##уБпШп
##ятка
##х900
##1000
##39
##4А
##6бр
##БГ
##СНД
##ЛП
##ночный
##овки
##руш
##атформ
излив
изог
##окамер
##ционирования
##осты
##олиственных
##ког
10х4
129
дожд
50х1
##озабор
002
##x12
##x1400
прямост
Корз
250x120
одноб
водяной
##рант
опорное
##ушп
##ушки
##атируемых
площадка
##х200х
профильной
фланцевых
034
188
шаров
трехмер
воздухозабор
строительный
экраном
МКВ
##носитель
108х6
вентиляционный
плиткой
массовая
монтажным
производства
СБПу
муфтового
твердолиственных
ЭПМ
телескоп
стаканным
круглой
##х592
##ящих
600х500
одностворный
Щиты
стержни
бытовые
торцевые
горячедеформи
усиления
тройным
тросостойкой
эпоксидно
##леватор
вытяжные
накладок
рееч
оборудованием
камыша
Накладки
разрывная
АПвВнг
КУППнг
дренажный
раствора
двигателя
рукоятка
сиденьем
пароизоляци
ОКЛм
центральным
эллиптическая
одиночный
одиночных
огнезащитная
термопласт
ФБС
розетки
полукругл
СБПЗАБпШп
СБЗПБбШв
СБЗПБбШп
Авт
10Х17Н13М3
ААБ2лШв
ТЗПп
вязкость
топливе
приспособления
интер
СБВГЭ
СБ2лГ
СБЗПуЭ
Карусель
телефонная
Контрг
рисунком
огнетушащ
функцией
разноуровневых
никелированный
брев
нагнетания
бутилкаучуковые
Ванна
древесноволокнистые
супертон
высокочастотных
бетонируем
текстур
Петля
опаловым
Винты
ядра
воздухозаборный
горячедеформированных
10Х17Н13М3Т
235
4х10ок
590
F90
KM
Б1
Виде
Г3
Кап
ЛМ
Останов
ТАС
ТВО
Фед
брез
баш
душ
зет
ниш
ру
спр
тита
шест
##крат
##мовой
##мента
##хово
##ьев
##ДД
изготовления
простого
##ровочные
ступен
##ковых
##лота
##хода
1067
защищ
подним
распор
распределения
перегор
1550
расходом
двухтрубной
электропровод
калит
302
305
##паковые
113
резки
32х25
площадок
компенс
038
##ильона
27х2
27х0
1750
полиэтиленового
шаровый
##ленным
горячекатаная
горизонтальные
пары
19с
переключ
пожарные
МКП
цоколе
твердом
потери
полиэфирная
верхняя
постельная
##уди
##х510
битума
600х400
мостовые
мостовое
потолочная
композитные
##x710
арматурных
арматурной
инф
##x510
водоотводных
Геом
усиленного
пресса
Шпунт
уплотнительная
специаль
мрамора
внутритрубный
междушп
встраиваемые
ВРГ
всасы
D1800
МСБ
скорости
модифицирующими
##орезы
ламинированные
##x161
переезд
900х900
использованием
сложности
ТПО
турб
турника
чистящая
металлополимерные
Кондицион
покрыт
стружечные
радиаторов
1000х390
автомобильном
##x2780
Гидрант
качественной
приспособлением
КЛЛ
Катки
упрочненная
Теплоизоляция
пневмоколесном
##отовское
укрепляющих
агрегата
потребляемая
##хват
##ерстяное
гребня
однофазным
неразъемное
профилемера
Бумага
двухполюсная
Антен
Мелехово
НДГ
ОКСМ
Корзинка
полукруглый
Контргайки
супертонкого
KMП
Остановка
Федотовское
поднимающийся
перегорания
Кондиционеры
1х54
2300
3x1
3800
5ПКВтпнг
7х6
D1700
EU
F14
G4
ST
НЭ
ПА
Сред
Утяжелит
ХКМ
Ящики
ауди
вкладыш
ев
луж
молот
моза
ним
ошип
тис
тела
шат
##нель
##реж
##ием
##кую
##муль
##лолаз
##х85
##ПУ
##PT
##ган
##Ф6
##ЗП
##сточ
##ето
##олеф
##орми
##оренные
##емя
##арта
приз
##аболи
##циям
##рых
##ково
##ину
##инклер
##еводы
10К
полиолеф
концентр
концами
подсоедин
##ниточные
тремя
передачи
151
проника
16Б1
004
Стул
14x2x0
электронным
##урьмя
прямым
полимерно
установленная
однотрубных
##зионная
##х280
Прогоны
отверстием
Смола
037
крепление
177
600x500
воздухораз
24П
2440
параболи
Переводы
коллекторов
##ивающая
герметизированная
стандарта
##ракрас
изолирующее
##х625
усилием
КМ5
##снаряды
##х76
648
159х6
поперечный
рулонные
композитов
известковые
глубиной
инер
##х892
полиуретановой
##родных
подвесного
530х8
53086
остекления
тросостой
Колпа
штырем
##00х250
подъемно
волнистые
DN200
вращающихся
передняя
пластмассовая
выводом
несъемная
А2А
откидным
откидными
##ункер
взрывозащищенные
теплоизолированным
##опроизводительность
АПвБ
D1900
погружной
стрелочные
модифицированный
ЛПМ
АМг6
органическое
бронзовый
деформационных
LOCA1
эксплуатационная
Вставка
бесцветная
Земснаряды
атмосферостойкая
Держатели
диэлектрическая
покраски
помещениях
зеленый
тяговым
укороченная
преобразов
светопрозрачная
трактора
цифры
настилом
ультразвукового
дальней
многоскатной
Удлинитель
машинного
##укладчики
свинцово
аварийного
ШПД
отходящих
поршня
трамвай
состоящая
Аккумулятор
ЛМц58
волновода
разметочные
Ниппели
вальмовой
отрез
брезента
спринклер
МКПп
Антенна
Средство
шатровой
полиолефина
воздухораздающая
080
2х10
3К
3з
3ПКВтнг
5x95
620
7х4х1
8П
825
EP
F13
M25
SP
А3
А24
Гайка
Д2
ДГ
Дат
Жел
ИО
ИР
К60
МБ
М30
Фонта
ФУТ
Цикл
вов
емк
кату
пул
пить
роб
эласт
##750
##ской
##еобразов
##тру
##иентированная
##иционирования
##кам
##м3
##О15
##6000
##зов
##Тп
##цесс
##ноор
##нокислый
диод
##атом
извещ
##опита
##оплав
##отное
##новым
100х2х0
отшлиф
относитель
1225
конце
двери
##адка
перев
периль
201
254
##осноор
156
испар
16000
006
Ст1
Стерж
##неной
расхода
двухклавишный
медной
портом
138
200x190
45x796
250А
250х150
250х200
##x2400
водо
300х400
300х150
182
высше
95x796
95x596
95x996
трехрядный
конструкционный
конструкционная
шпилька
оптических
обрам
##агонка
паровой
двойное
1920
##х47
##ствия
соединениях
##борник
пожарным
108х4
направление
##кользящ
ЛКП
питающей
телев
двухслойное
сухого
верхнего
##х500х1
битумом
600х400х
##x610
630х12
КСк
КСПКр
брусчатые
решетками
люминесцентные
##ромког
клеящ
ОКМС
Приб
светодиодная
глухое
Щитки
стержней
равными
041
диффу
быстр
домкрат
лить
несущие
выходное
##атар
ПРГ
Электропривод
оребр
декоративного
ФСПКр
футеровкой
##x1080
##x1030
входа
среднеповоротное
592
четырехрядный
110000
стекломагни
##енажер
обсадной
87x54
Установка
ниппелями
щитовая
струны
Полосы
кондиционирования
Сверла
буровых
ламинированная
эксплуатируемых
ПТА
звукоизолирующих
пропитанной
Термостабилиз
сливным
тополь
стеклокомпозитов
утепленные
низковяз
СТДК
ТППэпБбШп
##х1830
смеситель
баскетбольный
планками
рифления
аналог
тиксотропные
##нутрь
14нж017р31
подземных
строениях
фильтром
шумопоглощающей
пешеходный
жаростойкой
старогодная
АКВВБ
разъединителями
наборные
мелкозернист
кремнийорганическая
антенный
Д16П
башен
наборт
шлифовальный
гидрофобизированные
СППК4Р
эксцентрический
шпатлевания
прозрачное
виброформ
накидной
КВНтп
тарельчатого
гимнастические
##сбер
полями
теплообмена
купольной
оплетке
Грязев
заградителей
Мойка
абонент
плавающим
телескопи
термопластовых
инфракрас
тисненой
призмати
2440х1830
спринклерный
Фонтан
Циклон
вовнутрь
емкост
катуш
пултру
эластом
отшлифованного
##осноориентированная
испарителя
высшего
##ромкоговор
оребренного
Термостабилизатор
040
2Н
3ВС
3МРП
5П
6100
7600
D900
NPT
Zн
ВМ
Виб
ДС
Диффу
ЕС
М32
НР
Прот
РМ
РГ
Рам
Сер
Ткань
ФО
ЦВ
бло
бач
кПа
козы
сот
так
ушко
х20
хлад
х16
чу
##тки
##тель
##месители
##п1
##3000
##зы
##зам
##щель
##шные
##Л1
##Tx
##LTx
##ером
##ерной
##линд
##линей
нащель
прож
##цилинд
##авт
номинальной
100х4
##аланд
10х6
12х1
1285
светон
конвер
подв
50х25
бетонное
##яжка
##истер
нелиней
1620
Плитки
##аклев
приготовления
143
14000
301
##x19
##x14
139
119
11КV
опорой
##атории
самос
резьбового
172
17нж
нижняя
защитой
7500
шаровых
##ленного
конструкциям
шпаклев
##ийся
028
газовых
газобетона
вентиляторами
плитки
проходная
##x370
##x3200
##x331
оболочкой
регулировкой
33К
деревянными
точке
КПП
цокольные
##x480
369
Проб
Подкладка
рулонных
глубок
пружинная
133х6
регулируемый
##лучатель
дисков
промежуточных
пропуска
обшивкой
ТСВ
ремон
уплотнительными
специальное
поливинилацет
микр
рекламной
периметром
двухстворчатые
конические
желтый
направляющие
монолитного
струй
##ПКВКтЭонг
Полоз
бетоном
обыкновенная
Предохранитель
двупольные
РПШЭ
топлива
ответной
СБВБАБпШп
нефти
дополнительной
электродвигатель
основаниям
двухсекционный
чистящих
##клавишные
полуцилинд
сантехнические
плетения
чаши
1140x1400
ГТП
геотекстиля
обвязкой
тракторе
форточкой
разъединителя
ультразвуковой
необрезная
фиксирующий
1х240мк
фрамуг
неармированная
латунными
энергосбер
Лампа
Паронит
охлаждения
перепада
абразив
суммарная
огнетушащего
турбинный
подсоединения
1920x1080
призматическим
Диффуз
блока
чулок
прожектор
пропускания
полуцилиндры
энергосберег
1х400
1х37
2Ф
2х58
4х35мк
915
A3
APC
IS
Бар
ГР
ДК
ДД
Зак
Кис
Ката
Лабиринт
Мар
Нат
Над
ОТТ
ПУ
ПЛ
РЭВ
СФ
Суб
Унита
бункер
гол
ры
тексти
хк
чех
шти
##сополимер
##уры
##чер
##мещ
##модуль
##лых
##пп
##160
##941нж
##бит
##x85
##ши
##Б3
##оребр
##лита
##лизи
##лиевой
##леивания
напы
##азовые
##ровочным
##ейд
100х100х
##ходовой
124
12x0
заполнит
закрытия
согл
##люло
две
подстан
##адгез
осад
50х2х0
перего
251
25х3
25х20
##оса
неавт
##иллиевой
Ст6
##еллюло
смесь
ката
303
##x140
##x146
ручные
1370
установкой
облицовочных
полное
металлического
##х210
##х225
##жима
Извест
##х31
##ильная
колонный
27x2x0
трехслой
017
##ещения
24х0
##ующего
IP30
горизонтальным
##айн
центрифугированные
##х41
655
37х2
37x0
##х600х
200х300
##инии
##иницы
упруг
сборочной
##ущий
КММ
лестницы
утеплителем
700x500
М36
600х300
##x412
500х150
##незд
термообработанные
КСПВ
159х8
Подвод
##ласта
универсальное
известково
колодкой
##x250x219
КГЭ
стержнем
часторебр
пластиката
ТКР
кромками
фанера
общественного
замыкающим
Шпалы
двухкомпонентным
Полотна
зву
карб
заземляющими
взрывобезопасном
клееная
фиксирующим
ВКР
Насадка
бериллиевой
желто
КОП
F170
взрывозащищенная
D1300
##ющаяся
Основные
обрезными
поддерживающ
металлопластиков
##ульсия
А4А
14нж17ст1
счеты
термопласти
водопровода
мягким
##огранич
СТДТ
##х188
опрессовкой
КТП
планка
наполнителями
стопорная
100x300x2000
##x183
крупнозер
плетеная
чашей
100x400x2000
4х25мк
4х70мс
самоклеящиеся
1х70мк
тяговое
100x500x2000
калибровочным
осветительный
пешеходное
Площадки
15кч18
анодированные
переносной
ШУДД
овальный
отвердителем
дальность
##метил
просечно
брусьях
реакторов
КЦКП
БрОФ6
антикоррозийное
Кабели
соединителями
крошки
##лепки
единицы
обработанная
параметры
многогранная
поясами
бестраншейного
термически
совмещ
перенапряжений
Лестничный
четверок
ведущий
немерной
однобол
##мульси
##урьмянистые
питьевого
домкратной
поливинилацетатная
струйная
ISO
Заклепки
Субмодуль
хкщ
чехлом
штиль
соглас
подстанций
перегонов
неавтоклавный
Известь
часторебристого
1х500
2МСР
3МСР
3ПС
4400
5ПКВтнг
6x2x0
785
8x2x0
AS
А500С
ВО
Лаз
ОГ
ОН
Пруж
Указатель
Цемент
Центр
ЭБ
ЭКС
би
вд
вил
готовый
лам
лавка
мах
пв
рай
рукава
съем
счетчик
умываль
эж
##служ
##ну
##ееся
##иков
##чного
##Ц4
##97
##99
##шающий
##Та
##Ф3
##направ
##олиней
##кированным
##ляемой
пропуск
##ровагонка
сточных
1001
100х65
##кообраз
##ивных
##екционная
отко
оттяж
126
1270
полиметил
заст
запорные
##ечек
##осный
1520
неоргани
40х25
##х165
прижимная
замковой
спуска
минеральная
30лс
облицованная
показ
водона
металлическими
повышения
пести
18000
верев
173
угле
крышный
600x600
##ленный
##анав
экран
##175
листового
строга
теплый
высоко
цементный
197
вставка
400х150
400х250
400х400х
##х48
##ивающие
плоской
Ст3кп
6320
проходки
монтажное
4200
375
450x250x200
открытый
автоматики
многопанельное
транспорт
пилено
273х10
273х11
АВТ
круга
##х550
противос
цинковой
##x410
##x4000
500х5
500х250
наклонных
325х8
заземлителя
36В
##тивных
##x75
инстру
полипропиленовой
армирующая
часть
воздействия
домкраты
##лучевая
учени
пористый
влагостойкие
двухкомпонентное
проклады
сжатии
категорий
475
4320
пластина
опалубка
3960
подъемом
угловое
дымо
стыковой
320х320
##закированным
пластмассовый
параллельная
тройникового
име
долей
68х13
поливинилхлоридной
ОСГ
отсека
действующий
подставка
КПСЭнг
акрилового
двухстороннего
D1600
дренажных
профильных
3х50мк
Эмульсия
ПТМ
пленочный
профилированные
ОКЛнг
качения
3х4ок
14нж17ст10
мембран
пазовая
утепленный
ТПпп
1х16мк
неподвижно
различным
дизайн
электротехническая
двусторонним
двустороннее
3ПКВтпнг10
Втулки
разнородных
4х16мк
4х95мс
обвязка
1х95мк
настила
антивандальная
подвижные
ОДОСП
датчиком
##метакрилата
ВБбШвнг
3ПКВтпБнг6
3ПКВтпБнг10
штампованный
альзакированным
Тренажер
ливневые
коричневая
сферическая
БЗН
КПГСН
Каркасы
обеспечивающая
праймером
Скалолаз
аргоновым
прямостоечная
специальном
##режд
отрезной
Датчик
мелкозернистого
инфракрасный
фрамугой
Кислота
Надставка
Унитаз
эжекционный
##служиваем
пропускной
полиметилметакрилата
ТПппЗП
дизайнерс
1К
1В
295
2МРП
3П
3x6
3150
4x95
5x25
5х10ок
6х4
730
8600
D1500
F11
БФ
Бандаж
Вр
ДВ
Ель
ЗШ
Ков
Лм
ОМ
ОЛ
ПЗ
Паркет
Теле
ЦСП
ЭКВ
ака
бактери
вар
галог
гнезд
зар
туг
угольный
х25
хлоп
цистер
шлей
шунг
эмисси
##рш
##иля
##кра
##чной
##УК
##ьга
##бир
##бола
##xН
##81
##ТП
##БО
##овик
##ование
##нивания
##анг
##лян
##атов
##емого
##емян
##гозащищ
##есеч
##ровый
стоя
разр
##новых
##обор
##ностей
##рубные
обез
107
122
12х0
##остойкие
##остойких
##изит
##изованного
наружное
перег
перлит
207
204
2500х
25х16
1577
неот
##х135
Стп
147
1400х
двухконус
##лопаст
полимера
установке
##ешивания
##x270
##ибра
одноцепные
60х40
ПВД
##улы
110x72
110x66
##отая
переходов
колес
27x0
сигналов
сигнализи
174
ковшовый
внешним
термов
##500C
660x1180
связующего
высокотемперату
224
2250
красная
19x2x0
##окис
герметичный
светлая
газообраз
дрен
##носиликат
2000х3
##цепы
##оперек
акв
проточный
протечек
180А
мало
Переходник
градус
АВО
лестница
низк
##формат
380В
##изолированная
цинков
##нези
нормальный
219х10
клеевой
ОКП
Прист
##компонентный
прямоугольная
черда
ПСт
046
##x505
цилиндрических
цилиндрическая
прокладочный
Полотно
обшивка
закладные
звень
ТСО
ТСВнг
клиновый
Электрона
Электростанции
штырь
уплотнительный
дубли
СКТ
термоусаживаемый
мраморизованного
добавлением
параллельных
8320
разделения
821
826
9320
гидрофобизи
двухкамерные
F115
взрывозащищенного
отсут
Арматурные
врезным
КПСВЭВнг
силикатная
силикатным
кривой
центральный
щебеночного
водогазопроводных
НСУ
260x50
Портал
выпуск
рамного
охран
искусственного
загрязненных
сопротивления
780x980
3х16мк
сливами
перекладины
ртутные
2х2х1
1х16ок
запорно
950x600
4х6ок
узк
электроизолированная
1500х7
земле
СОАС
активных
равнопроходных
фигурная
доборная
1140x1180
зеленая
Прожекторы
шумопоглощения
780x1180
бутовый
комплексный
пару
геотекстилем
##акуумметр
форточной
100x200x2000
4х150мс
Категория
микротрубочного
рисунка
##10ПИ
БрОЦ4
пространственного
1340x980
МССД
производственный
органосиликат
труднос
фосфористой
1580х100х110
Р6М5Ф3
неразборный
1340x1400
моноблочные
Геомембрана
евровагонка
перильное
Серьга
нащельниками
шпаклевочные
прожекторные
Натр
рыча
##черпаковые
металлопластиковых
Пружина
районах
откосов
ученический
Бандажи
шунгизит
эмиссии
сигнализирующий
органосиликатная
0ок
265
2x0
4м
5М
5Н
810
B40
D300
F20
F75
M150
Б3
ВВ
Вата
ГМ
Громкоговор
ЗВ
Ин
Наб
Пнев
Пульт
РА
Роли
С0
ТМП
У10
ФЯ
Фло
иных
кп
кот
нет
оформ
порож
реф
рестав
рефлектор
ткан
утяжелит
х32
чс
элит
##76
##78
##сек
##суль
##оев
##ея
##ирования
##ужения
##ационный
##черный
##ып
##мации
##фейс
##АП
##АБп
##БПнг
##Гпс
##ЭЭонг
##ЕК
##стр
##ется
##лест
##енер
##калы
напорный
##аза
##езад
##рай
##отвоз
##трос
обте
100x2x0
##ловый
1230
двускат
трубная
501
50x2x0
206
20х3
Трубопровод
##ительная
прошив
прокалы
40х20
шифера
железобетонной
##учные
##х116
##х138
арочный
Стяжка
двухуров
##перс
30x0
30x30
##x15
##x1100
портов
200x100
##изоляционной
250х100
##x22
118
1195
резная
однонаправ
воде
32А
болтов
Связ
теплоизоляции
##х22
##15нж
базальтокомпозит
саморезы
##икет
контроллер
Ответв
самоотвоз
синтетических
24x0
24x2x0
##елейной
высоком
высоког
гладкую
19x0
##ежкой
стеклопластиковых
21КV
песком
МКВВЭнг
сортового
##x36
125А
оболочек
регулировочная
33КV
СБС
лампы
огнезад
180х180
питание
Переходники
формованной
люч
воздушника
##х55
лопаст
500х600
500х300
Скреп
устройство
шамотно
заземлит
649
##композит
грузового
ОКМТ
потолочного
потолку
вспененной
рельсовые
14637
армированное
закрытой
навесное
отверждение
коррозионностойкий
грунтовый
односторонний
сжатию
накладными
5632
гранул
декоративным
карли
момент
емкости
фундаментный
DN300
DN150
передающая
четырехтрос
тройниковых
березовая
размы
подстав
забивной
дренажным
погружения
16523
сверло
растворителя
тканого
деформации
4х4ок
проемами
рамой
250х120х140
загрязнений
##41п
болтовой
стеклянный
##образной
пропитанные
ответными
спортивных
Фиксаторы
##аянных
##х1390
ПДС
атмосферных
F215
Люки
Подъемники
700х500х
##местная
шлаковый
Подвеска
перемещение
Перегородки
2ПГ
ножками
вяжущего
1х2х1
насосов
3х6ок
графитом
теплоустойчивых
укороченный
780x1400
натуральный
стыкоперек
пылев
4х120мс
рельефные
бака
200х100х
отвердителя
индикатором
изменяемой
клиновидной
большой
##x1807
паропроницаемость
фитинги
стропильные
4х240мс
ПВСнг
##x380x219
рукавов
запаянных
##бавитель
двухлапчатый
Ограничители
вакуумным
МГШВЭ
Термометры
быстродействующими
импостом
вспучивающейся
##х287
зеркальной
бакелит
Электроводонагреватель
квартир
розеткой
715х1390
дождеприем
шаровидным
интерфейс
зетобразной
покрытые
параболическая
преобразователи
Желоб
робинии
##еобразователь
обрамлении
набортный
Грязевик
светонепроницаемые
конверты
Пробка
ремонтный
Диффузоры
##сополимера
одноболтовые
застежкой
строганого
противоскользящ
прокладываемые
имеющая
тугоплав
шлейф
##оборотный
термовст
газообразное
дренчерный
акватории
трудносгораемый
Громкоговоритель
Пневм
Флоат
порожки
рефлектора
элитная
базальтокомпозитная
самоотвозные
четырехтросовое
стыкоперекрывающ
1x
1х36
2x1
2х70
3х10ок
4ПКВтнг
4x70
5400
5х10
5x6
696
6700
8А
A15
B0
F150
ВГ
ГА
ДМ
ДТ
Е1
ЖБ
Жид
ЛТ
Мерт
НБ
ОЗ
Пожар
РД
РЗ
Ради
РДП
Сосна
ТВ
УПВХ
ХПП
Шов
ввар
ерш
зуб
кросс
мод
поч
регулятор
сепар
тун
фона
флу
цанг
шне
элеватор
##7фт
##сВГ
##оогранич
##рес
##ратором
##тучные
##лами
##лнг
##лазу
##хва
##53
##5х2
##плош
##пельного
##бал
##зап
##штучные
##ГМ
##НУ
##±10
##нообраз
##наполн
##овочные
##ерб
##оло
##оресцент
##орежущей
##онного
##антов
диаметрами
налев
##опоток
##азут
##абили
##рыз
беззам
##обум
##обазовые
обжимная
стальном
##ющего
##ходная
10Х
10°
захва
двуж
осевое
##егазопровод
внутреннее
##фильного
перели
перовой
15ч
нелет
процесс
16ч
алюмин
##х1500
##опровода
##лапчатое
крю
##идные
##атывающ
150х350
установочными
45x996
##x210
116
полным
резные
резных
однополюсный
погруз
водных
326
32х20
##струйный
рабочих
##х27
##х273
351
35000
беседка
##ильного
литая
переходными
колотая
креплении
нижнего
защитными
горизонтали
95x96x3
трехзначный
##ленными
накоп
шпал
##рузчики
анкером
##чатобум
22КV
Пересеч
08Г2С
212
строительным
76х3
##итами
##ствую
Крю
общее
проводимости
108х5
##лейки
проходок
холодная
##ужные
вводами
направо
высокопрочной
твердое
отделочные
упак
квадратными
воздушниками
воздушником
##ихта
КМ2
экранирующей
КУПВ
перфорации
700x650x200
10с67р
10с67
антиадгез
##x630
##x640
цокольный
500х6
500х200
500х350
пенополиуретановый
решетчатых
325х10
159х4
##аженными
акустические
Материалы
рулонная
спиральным
055
известковый
##x750
многослой
многоструйный
##ационная
Балласт
противопожарная
крестовин
магния
техническая
армировки
неров
торец
навеса
растяжению
52х1
##озащит
53085
содержащ
пролетная
280x190x100
вибрационные
клиновой
асфальтобетона
реабили
ТЗАШп
##x109
волновые
МКРП
аэратором
емкостью
Облучатель
##00х120
DN400
камне
столбы
анкеровке
пластмассовым
494
##x920
игровая
раздельный
траверс
упругозап
долом
несплош
штуцер
##ионным
монолитном
480x480
струновой
контролируемых
10с967фт
свинцовый
D1000
D1100
центра
##ПКВКтЭЭонг
НСПКр
220000
стяжные
14нж17п29
однокамерные
рамки
жидкий
3х35мк
Брикет
М450
МГУ
деформационный
3х25мк
архитектурного
матовый
матри
троллейбусная
У110
##67п
адгезионная
дробленого
карнизная
фактура
крестообразная
мелкоштучные
гвоздь
нефтегазопровод
импульсный
1х25мк
950x650x200
металлоконструкцией
расширительные
узкой
стопорный
знака
остановочный
##оконтак
протектором
Патрубки
фигурный
штучный
4х50мк
штапельного
скользящем
шумопоглощающая
1х50мк
фосфат
финишного
компенсирующее
рельефной
КУППлнг
габаритами
подвижного
##овингов
приточно
сильфонное
токопроводящими
неглазу
Землесосные
11с67п
бараб
Шланги
мостиками
фрамужные
стропильная
F83
мусоропровода
омед
Ограничитель
безрамного
безрамным
закаленным
панорамного
панорамным
алюмо
С8а
предварительной
бентонит
С9а
габионная
нулевым
банановые
##ирающаяся
обычные
2960х500х1
Баки
Настил
С7а
полуфарфор
орнаментованные
соответствующего
тонированным
электропроводки
АПвБШп
быстрорежущей
низковязкая
эластомера
козырь
сотового
глубокого
осадков
700x500x200
инструмента
дизайнерских
Тележ
акации
хлопчатобум
разреш
неоткры
отсутствую
узкобазовые
Б3300
оформлением
прошивкой
Связь
лопастной
Мертель
Пожарная
ершами
флуоресцент
##оограничивающие
налево
беззамковое
двужильный
нелетучих
Пересечение
10с67фт
реабилита
упругозапирающаяся
несплошного
480x480x205
нефтегазопроводные
хлопчатобумаж
отсутствуют
1М
1Б
1х35мк
2т
2К
470
4ПКВтпнг
5200
5x70
5х35мк
8х10
9x0
B10
F80
F600
АI
В4
Гпа
Источ
МЗ
Мик
Молот
ПЖ
Паст
Р68
Слив
ТО
ТА
ТР
ТБ
Трак
Трап
Умываль
ХС
ХЛ1
Шаланд
дм3
здания
пай
тент
хок
швар
шпала
##нельные
##онита
##рного
##рик
##вис
##ены
##еот
##яй
##кновения
##ыкового
##ывающий
##мы
##5х195х75
##пини
##Ом
##фэ
##94
##9х21
##бетона
##4x1
##ТУ
##ВВнг
##ШМ
##ГА
##СК
##ЭС
##RCA
##IV
##стыкового
##ерниз
##ерованные
##ершающий
##одис
наиб
статив
прост
##отч
##отвод
безбал
##оста
##нового
обог
##роны
свой
подлож
подпорных
длине
стене
железо
##озяй
40х32
замк
окантов
плотные
двухраструбный
устанав
сменя
минеральным
##локс
13000
200x500
облицовку
сильно
2501
полка
однотрубной
однониточные
теплоизоляционное
##х290
Прогон
средне
354
бесстыкового
крепи
высаженными
нижние
013
##ованным
цементного
##65нж
196
комплектующими
08А
08кп
21x0
027
76х4
винтовым
##х46
##ечников
плитня
##каневый
42x0
латуни
##индика
200х65
наконечников
резинот
##ремни
##лизатор
двухслойной
стаканного
ПП57
89х6
89х5
сетчатое
характеристик
низко
утеплителя
##х530
КПЭПнг
600х200
600х150
552
декора
Разряд
Разбавитель
гофрированной
муфтами
напольная
Подшип
Подкладки
высоте
работы
##x550
133х8
##одержащ
пластиковыми
048
грунтовых
##товное
односторонние
несущая
участках
4700
автомобиля
накладные
Электрод
хризотилцементным
##00х2х0
минимальным
монолита
стационарных
каменно
выводной
КУГВЭВнг
звукоизоляци
открывающ
детали
6713
бессварные
Экраны
кнопкой
балансир
модифицированная
полнотелые
гипсовых
морская
3х95мс
МГП
пазом
##оциана
мелкощитовой
Патроны
гнутых
микротоннельные
главного
завершающий
##x305
700х700
СБПЗАуБпШп
равнопроходные
переплетов
напрессовочная
напрессовочный
перегородочный
раздельно
молни
принудительная
мастичные
пролож
двухпут
зеленой
разъемные
скользящим
скользящего
гряз
дюбельной
пыле
стартовый
вспомогательного
переносная
390х190
негерметич
600х3000
каучуком
индикаторами
изменяемые
ПуВ
нешлифованная
АКПсВГ
СЛМ
5х4ок
пневмоколесные
5х6ок
5х50мк
ГКЛ
платформ
накидными
1х120мк
ОКТМ
неармированной
вагон
альпини
крошкой
##опластическое
1280х100х110
терморасширяющаяся
Резист
столкновения
слабо
посадочного
улучшенной
широкополосный
жидкостей
1х150мк
вставками
вишневый
сцепления
##окамера
реечного
ТЗПпБПнг
калитки
Утяжелители
диодами
Стержень
телевизи
диффузионная
нелинейные
Марши
голуб
упругопластическое
ламина
пестик
бактерицид
##гозащищенный
градусов
низкотемперату
Электронасос
Натрий
Набивки
огнезадерживающий
модерниз
неровностей
2960х500х115
разрешение
флуоресцентной
Молотки
Паста
Тракторы
Шаланды
пайку
швартовное
шпалах
наибольш
обогащ
окантовкой
устанавлива
сменяемые
резинотканевый
альпинист
020
2x4
3x10
4М
4900
4ПКВКтЭнг
6300
7x1
7x4
8700
CM
FTP
M75
W18
БВ
Баш
ГНО
ГЕК
Герб
ДСО
ЗК
Кер
К10
ЛСП
МУ
Манов
НСП
Пог
Пуск
РР
Рем
Руко
С10
САС
УОН
Части
вечно
груб
дез
золь
кок
клей
куму
киос
мя
пир
речная
рейд
тах
фид
фунг
хозяй
##ню
##онов
##вей
##иап
##иковый
##яриз
##кремни
##ХП
##5х90
##п2
##пис
##О0
##125
##100х3000
##фектив
##ЦП
##бГ
##зовый
##84
##Г1
##НТ
##ЕВ
##TM
##BЭнг
##OS
##льным
##оружения
##орелейной
##ому
##енци
##руйный
##кальная
нажим
навернут
##ельник
##азовая
##азонная
##цит
ступ
безфлан
##ностойкий
обожж
##порной
10х10
доз
##овыход
теплот
сооружения
##имся
##цинковым
##поляриз
##ипс
50х40
50x63
##ольтные
##ании
железобетона
2560
##ительностью
однопро
401
40x2x0
40х60
161
16x0
##х17
##х145
Стоп
##ановленными
##абарит
##идной
##идкремни
кап
1501
полимерное
полимербетона
45x296
##x23
##x2600
##x2100
однослой
однозер
одноконус
однолучевая
##ебой
водонагревателей
водостойкой
##зионный
32x2x0
компью
300х400х
300х200х
##15М
##154
##тырь
Издели
опов
пеноп
переходы
волокном
сигнала
Отверд
шариковый
##адиацион
трехходовой
термостойкий
012
синтетической
горячекатаных
##171
предуст
660x1400
024
0227
400х2х0
клеммой
##х426
##ягчения
654
силовом
160х160
##нопроходные
##кея
массовой
неокоренные
стандартнопроходные
изолирующий
37x6
450х450
350х150
лаком
КВВ
КВС
33x0
высокопрочных
##х630
радиорелейной
##эффектив
автоматических
малого
квадратной
верхнее
##рывным
электромонтаж
КУФ
КПЛВ
оконч
600х800
600х250
##x650
##x440
##x495
промыв
КС3
219х8
219х11
электрических
легкая
грузовой
##тивного
054
газопроводов
керамики
многооборотный
##x580
магнези
ПС35
армирующим
борти
##лички
IIIвт
549
клапаны
изгибе
трансформаторным
футерованные
КМПВЭВнг
РОП
ТЗШп
##защитный
крепежа
##00х140
DN500
каменных
АКК
АКВБ
часа
терморадиацион
АМЦ
нетканым
акриловой
желтая
направляющими
61х1
размягчения
щите
режима
##КМц
криволиней
МССО
Полу
бетоно
КВВБбГ
парапетная
растворе
стяжек
##ометрический
ветрозащитная
скоба
рамке
жидкости
##x496x8
разборные
М8П
БрКМц
3х70мс
фарфоровый
барьерная
АБК
перекладина
природном
50x50x2
ТПМ
##x396x7
глины
50x100x2000
##огреватель
перемычка
С120
уплотнения
переплетом
отбойные
перегородки
1000х210
вторая
##374
15Х15М
ВСт3СП
ОПСП
учетно
##x954
ОККМС
ограждением
доборные
асбестовая
асбестовые
1140x1600
светоиндика
фиксированного
780x1600
2х4ок
осветительных
940x1600
940x1400
940x1180
шнуров
двухместные
фрезы
антра
межфланцевое
4х185мс
высоколегированной
940x980
оксидированные
эксцентрические
АЗЕ0
латунным
5х25мк
энергоэффектив
ТППэпЗБбШп
роликовых
КМПвЭВЭВнг
технологическим
300х300х
широкополочный
ТЗЭГ
ТЗЭБл
предохранительными
АКВВГЭ
азот
каждый
затвором
неутепленные
однодиап
суспензи
ящиком
коньковые
1х185мк
трехмерной
бревен
Видеокамера
междушпальный
трамвайных
стекломагниевого
катушки
пултрузионный
##x370x1807
энергосберегающая
1х400мк
Ст6сп
совмещенная
согласованным
ASTM
цистерны
стояком
шунгизитобетон
обтекателем
##х116х130
Ответвители
размыкателем
пылевла
сепаратором
фонарных
накопительные
антиадгезионным
алюмоцинковым
реабилитационные
Источник
хоккея
сильноагрессивной
среднеагрессивной
Подшипник
390х190х188
негерметичный
слабоагрессивной
CMOS
ГНОМ
Мановакуумметр
Рукоход
УОНИ
кумуля
киоском
рейде
тахометрический
фунгицид
навернутыми
безфланцевая
##поляризационная
однозеркальная
компьют
Изделие
предустановленными
терморадиационностойкий
светоиндикацией
энергоэффективного
однодиапазонная
1х
1Д
1x120
2п
2С
2ПП
2х10ок
2БФ
3У
3x16
5°
5x150
6х6
685
740
7ПКВКтЭнг
980
B3
BВГнг
А64
Бук
Буль
Бенз
ВБ
Вяз
Вяжущ
ГУ
Гипс
Иг
КЧ
Кар
Карт
Л90
М42
НП
Н14
Поли
Пиг
ХМП
ХПМ
ЦХ
ШР
Швед
ЩУ
агресс
бис
батар
внах
карт
мч
мы
мех
муль
мотор
пап
ротор
фок
фриз
целев
щел
эко
ящик
##нного
##оновой
##ды
##дю
##доз
##ула
##ация
##яемых
##клон
##мА
##мми
##мак
##120
##фос
##61
##щев
##89
##ФЧ
##ГВ
##S1
##этаж
##ём
##овую
##овинами
##нижения
##лис
##леж
##анк
##кани
##емое
##емости
изоциана
##ария
преп
##гого
##ранок
##отке
##отках
развернут
разрых
##очка
##итовая
##обои
100х1
100х40
сибир
##екер
##екции
отожж
##роиз
10П
##остойкого
подготовки
трубчатых
50х3
##фид
##ольные
20х1
основными
##ослой
154
1530
неэк
прогр
профнасти
162
прикреп
1000х5
замковое
14П
149
14x1
темати
грани
400А
250x250
##x26
##x2200
1145
70х47
водный
трубопроводах
управляющ
мощности
рабочим
компакт
##х219
300х2х0
резьбовая
резьбовое
переходным
##90х220
сигналом
склад
скотч
крышу
014
600x250x200
воздухе
IP43
##агист
строгого
220x120
двойного
краски
цилиндровый
198
1950
герметичная
автомагист
перекрытием
652
##фицированные
панельных
свободная
2000х4
монтажном
жесткой
боковинами
примыка
33а
##ающиеся
200х2х0
питающий
переменных
полиэфира
надеж
##х52
перфорация
нормально
##х750
комбинированных
легкос
Привод
##х120х90
блоксополимера
051
светодиодные
133х4
крестовина
частот
бордю
гравии
426х8
литых
##144
дискр
термоусад
гипсов
подосновы
299
294
##00х350
720х10
ПРВ
оборудование
##x605
Воздухонагреватели
МКРУ
механизированные
мраморной
РП2
столбу
безнапорных
пластмассовых
располага
выводами
полотне
ограждениями
Колодцы
водопропускных
двустенные
фильтрующая
ударной
монолитная
монолитных
струеот
центробежного
дренажа
шинный
подвода
кремовый
14нж917п35
органической
скобян
бронзовые
1000х190
насад
насып
однопутный
адрес
3х25ок
сиденья
3х120мс
перекладин
кварцев
##х133
Антисепти
комплектация
устойчивость
ККСС
магнитоконтак
другой
композиции
стопорные
стопорами
30с941нж
разделительные
чаша
радиатора
активированного
инъекционные
толстослой
ячеистой
асбестоцемент
малым
БП1
1000х380
тяги
укороченное
УТ1
окраской
30ч6бр
геотекстильное
015П
вершины
вершину
##чатыми
Насосные
мелкозернистой
мелкозернистые
акрилатная
неравнопроходной
одноместные
многоцветная
овальной
лоджии
5х16мк
ПГН
датчик
плаш
##екстолит
клиновидного
##альдег
цементах
многосекционный
паропроницаемая
вагранок
ОКГМ
А128
волнистых
выработок
подкладку
F155
азд
водяные
беспазовая
МКУФ
бежевая
бежевый
##x160x90
подлокотников
подлокотниками
серебря
фрезерным
индивидуального
сульфатостойких
выравнивающ
рентгенозащитный
мозаи
бачком
самосв
смесью
ВОЛС
водонапорных
17360
##реждений
##служиваемый
826x370x1807
лючком
стыкоперекрывающий
ЖБР
Жидкость
матрица
тентовая
безбалласт
подложкой
Резисторы
голубая
устанавливаемые
зольном
нажимным
дозаторов
АКВБбШв
Бульдоз
Шведская
внахлест
мчПа
фокус
развернутом
разрыхлителем
профнастила
70х47х41
220x120x90
крестовинах
дискрет
располагается
струеотклон
Антисептик
Бульдозеры
2Д
2х150
2900
2х95
2х54
3Т
4Н
5к
5ПБ
6П
6х8
811
A500C
B7
B5
D2000
F16
MM
PV
Zn
А0
А6
А96
Амм
АУК
А144
Банк
В8
ГС
ДП
ДВО
ЗС
Зав
Кв
КА
ЛЕВ
ОПБ
П3
Сед
С25
С100
Ту
ТОС
ТОСП
ФП
ФВП
Флюс
ами
бав
вен
вих
зр
кс
оката
ров
род
ресс
сна
сход
срез
снижения
тамп
утяж
х3
щет
эти
эмульси
яс
##соли
##счетчик
##с13нж
##жно
##оукладчики
##роб
##рением
##вож
##вива
##еих
##тельные
##тью
##длеж
##ационные
##чату
##ХН
##2х2
##2x291
##МБ
##зированная
##злых
##ВЭВ
##Ш2
##Ж60
##С58
##НС
##эВнг
##Al
##HD
##носим
##нозем
##овины
##еро
##етов
##олец
##лина
##енчатого
##руко
##инадлеж
нанот
##опласта
принадлеж
##мерзлых
разного
разгруж
##острением
##автом
##рубками
обеих
100х60
100х500х
силокс
##алет
##рого
10У
10x0
полированным
заострением
##ухомут
##есткие
подрельс
раскрытия
50х30
25°
одна
40с
металл
1600х
широ
14х2х0
##еллект
двухцепные
огранич
электронагрев
кача
капс
##x17
##x1600
ширине
##аниями
полимеркомпозит
454
45x196
45x596
1190
полуж
полуп
80х50
80х40
водой
водопо
водостойкая
водостойкие
опорными
32П
328
32х3
ПВКВ
##струзи
110ПУ
самораз
35х35
изоляционная
##х38
##х315
##х377
18пс
1800х2000
резьбу
коленчатого
1745
LSLTx
угля
склейки
горизонталей
Консоли
воздухопроизводительность
##лент
накрыв
экскав
эквива
экструзи
##ующих
листам
##уберо
анкеры
##чатым
19ч
193
перекрывным
08ГА
##огазон
216
коллекторная
##х425
плоскост
пожарных
пожарного
лотковый
штур
сервис
балко
холоднот
##x310
##x3600
1200x600
2000х2000
слоистого
боковин
открытых
раструбное
350х300
350х250
муфтовыми
##95Al
потенци
48x0
##пираль
##ротруб
600х2х0
600х350
цинко
500х800
500х500х
500х2х0
настенного
Скреб
##х720
комбинированной
электрифицированные
мостовой
тонко
Разъем
грузонесущ
напорного
##низительных
Подхват
##нутых
акустическим
рулон
спиральные
053
##х150х110
##x714
влаги
стержень
продав
однопанельное
##нистая
цилиндрическим
грунтовоз
термоизоляционной
РКГМ
клапанов
геор
изгиба
несущих
кронштейнов
выходная
схв
накладкой
дымогазон
волнообраз
нитр
##00х1600
РП4
входного
гильзах
ШВП
раздат
четырехколончатые
СВП
СВО0
F125
ударопр
кнопочный
КПСк
Полоса
штукатурки
ШСК
ЛПО
скобы
лакокрасочных
травмобезопасные
искусственная
Брев
дистанционного
петля
Компенсаторы
лентами
передвижной
ОКЛН
4х24
ПРАВ
360°
##х1350
дополнительного
низковольтные
глиня
нанесении
F510
Подъемы
гнутые
химической
неподвижный
1х25ок
3х185мс
1200х1500
1200х1200
портальная
дизель
магнитного
перегородочная
временное
мокрого
дистанционной
днищевой
##скал
антикоррозионный
антикоррозийной
2ПР
30с41нж
аккумуляторная
шурупом
100x100x2000
ДРИ
шланга
двухпозиционного
##Мц59
калиброванный
ЛАЖ60
обработке
шторками
финишные
светостабилизированным
рифленые
КФД
интеллект
шнур
МДФ
спинкой
телефонные
##ющийся
ПвБШп
приточной
упрочн
Головки
ПуГВ
Теплосчетчик
шпатлевочные
прозрачной
Фитинги
мостиком
330000
МКРГПО
2х6ок
столеш
выработках
МССР
ЛЖС58
ЛЖМц59
косым
предварительно
бентонита
разрезные
остаток
пастой
ЛО62
углеродных
цельнолит
суспензий
маятниковая
##гружающиеся
фрезерования
F790
Плети
##фикатор
бытовой
АКПсВБГ
изогнут
590х595
душевой
##ильонажные
переездов
луженые
Колпачки
относительное
литьевое
Рама
хладостойкости
A335
Катанка
Центратор
маховик
умывальника
экранное
обезвож
Приставка
звеньев
дублированные
однонаправленных
180х180х8
заземлителей
противоскользящим
##5х200х140
10ХСНД
омедненная
простая
открывающееся
низкотемпературных
наибольшее
альпинистская
вечномерзлых
обожженная
окончаниями
ОПСПО15
пылевлагозащищенный
кумулятивного
Вяжущее
биспираль
папильонажные
отожженные
надежности
серебряный
фокусное
Zn95Al
Седло
ТОСН
бавария
вихр
зрения
окатанная
рессор
снаряды
тампона
##чатую
##рукоят
нанотрубками
электронагревателями
полимеркомпозитной
водопонизительных
саморазгружающиеся
накрывные
эквивалент
грузонесущего
грунтовозные
интеллекту
обезвоживания
Zn95Al5
2ПБ
395
445
5мк
645
7х2х0
7х4х0
8АтV
8Та
900х2000
F62
F175
LV
M35
NC
SF
А7
АО
Би
Бето
ДПО
ЗКП
Кли
Набор
ПЦ
Рота
РРВ
С6
СД
СИ
ТМ
Тор
Тяг
У35
Шах
ЩМ
глян
ели
зона
ини
коп
лин
мазут
нг
нос
норми
пакет
сетка
тм
теч
умер
фтор
флис
эр
эскал
##оний
##вяч
##елаж
##ть
##тнг
##ионные
##уна
##улав
##аше
##аемой
##аемого
##К3
##49
##зв
##шп
##ЭПЭнг
##ДМ
##MI
##стати
##нированный
##еть
##олей
##орные
##онцев
##антом
диметр
##лям
##опан
##рационных
столи
##новоз
##евское
##ностями
##лое
100x50
отжима
вывернут
1200х2000
##овырав
##остойком
трубных
##адрат
##егр
50н
50x400
горна
бетону
20х10
оцинкованным
##уском
##осборник
158
15Д
15нж
##илки
покрытии
40н
406
40Т
алюминием
##х159
пригл
008
Стен
1000х250
148
14x0
окном
электроп
полимерцемент
облицовочный
облицовочное
##x220
##30н
##катель
полуш
70х70
однополюсные
одноклавишные
60н
60x60
работа
32x60
##х23
самовырав
##х370
187
переходное
переходник
колер
179
17000
пенополиэтиле
чугуновоз
синтетическая
##ованное
##ующим
гибкими
термок
центратора
предельное
анкерной
фасонный
##спи
проволочной
высокоэ
226
красно
перекрывающ
214
76х6
винтом
##х44
песка
газовым
удобр
дверцей
800x800
Крышки
холодных
##x340
##x3300
##x335
##ообразный
575
ПЭ80
глаз
кольцевые
350х100
СБэВнг
деревокомпозит
200х400х
200х600х
автоматическим
секционные
порошка
форме
полиэфирным
состар
периклазовые
сигнальных
допустимая
кровель
точечный
огнестойкие
##134А
антистати
600х2000
##x620
настоль
брусьев
лестничных
решетчатым
##угольник
219х6
36П
остальных
мостовых
клеевым
ОКМБ
8568
##оводяной
напольное
Подд
346
композитного
композитным
##x760
13075
пружине
##x512
##x595
##x592
водоотводные
КГП
червяч
стержневые
полипропиленовым
ПСВ
регулируемое
пластиковых
044
##озащитный
шарнир
редукционный
редукционная
головки
грунтованной
##невыми
548
литья
тросов
эпоксидные
##28МД
068
06ХН
накладного
непропита
линейной
ЛСР
820х10
##озицион
термоусаживаемые
##яющего
составом
механизированного
##00х1400
377х12
гильзы
параллельным
499
##х605
полотном
##x88
расположение
ОСЦ
КОВ
618
61x0
приборам
F160
консоля
консолей
ниппелем
двузначный
стенового
врезного
врезаемого
КПСнг
силикатного
##x600x2000
стеклоткан
забег
Полка
АД0
АД31
стрелочного
модифицированной
хомутах
Оконцев
4х4х0
натрия
рамы
рамные
аппаратуры
3х35ок
3х95мк
сопротивлением
металлопласт
фарфоровые
болтовое
стеклянного
плавного
центральные
качели
##больные
пробки
пробковый
ПДУ
резерва
адгези
светильника
1х10ок
фактуры
присоединительными
СТД134А
химических
мачт
устойчивые
скамейки
наливных
КТЗ
Системы
сегмент
втори
цепях
15ХСНД
пескоуловителем
выносом
1500х1500
4П25
Кондук
канатных
##асительным
автоклавный
керамогранита
изоляторами
малый
##x800x2000
4х25ок
КПоЭПЭнг
самоклеящаяся
фактурная
##x456
ОКБН
фиксацией
осветительные
шторки
дюбелем
жаростойкая
пыли
##лонах
качестве
##х100х115
интегр
МДК
цифровой
##РВМ
колонн
кремнийорганический
УКЭ
приточные
35Т5
гидрофобизированное
микротрубок
колючая
виниловые
фазная
силиконовой
соединителей
дуги
непроходная
ППСРВМ
волнистым
5х95мс
упорами
коричневый
КМПвВЭВнг
ВСЛМ
Cat5
беспустот
полистиролбетонные
маятниковый
ромбического
595х595х70
ванны
250x120x65
распорки
всасывания
вкладыши
ошипованная
тросостойки
ПРГН
виброформованное
такелаж
1285х120х90
подвешивания
##x855
вдоль
показывающий
Коврик
вари
##крановые
высокотемпературная
гидрофобизирующая
ФЯГ
утяжелитель
подставок
2ПГ6
тугоплавкие
туннель
цанговый
захватами
инструментальной
Тележки
Разрядник
грязевые
пылеулав
7x4x1
пирамид
хозяйств
Отвердитель
суспензии
Игровой
Пигмент
сибирская
скотчем
Квадрат
С255
утяжеле
металлур
полужесткие
экскаватора
##убероид
штурма
Скребок
георешетки
дымогазонепроницаемые
Бревно
биспиральные
интеллектуальным
LVT
NCS
Клипс
Ротаметр
ЩМА
иниции
флисовой
эскалаторов
отжиманий
вывернутое
пригласительным
чугуновозных
высокоэласти
перекрывающие
деревокомпозитных
##28МДТ
06ХН28МДТ
пылеулавли
1Ф
1U
1x0
2Т
217
2х120
2УТ
3Г
3400
3ПБ
3БФ
4х
4Т
4x150
5x120
5x50
675
8ПП
930
9ПБ
900х3000
M10
M15
RS
x3
Ап
АН
БР
ГЦ
Газ
ДГ2
ДПС
Касс
КИП
Киос
Клям
Л80
Леж
Л85
МТ
Но
Прут
Поя
РЛС
СР
С80
Сул
Таб
Ур
ШЧ
Шла
Южно
ве
дю
коз
кантом
ль
леп
молоч
опер
пи
пого
плюс
сани
солем
тыс
уголь
фот
форми
хруп
шля
##7х31
##нектор
##неты
##жи
##оглуш
##риф
##исти
##утая
##улятор
##али
##кг
##кВ
##ХГ
##пулятор
##УЦ
##300х
##450
##6нж
##целлюло
##РД
##НП
##SB
##ДР
##эК
##BS
##насосы
##нажные
##етей
##олета
##ороз
##таевское
##тариф
##амин
##асного
##рушения
##анкер
##каниз
дисп
наносим
##абль
##еситель
##ранированный
##ейболь
струн
разв
##очистки
##очисти
##еденный
##евельник
##авильона
##олиф
обеденный
безопасного
100x96
100х300х
##лового
1235
1200х3000
зацеп
соз
##естро
##люми
##00х19
кабельр
50А
50x500
50x200
50x300
50x1000
##анипулятор
209
20x20
259
неформат
проник
исп
испы
16А
16Д
16х16
##етирования
##акти
007
1495
14х4х1
14х4х0
стеклор
нержавеющими
##80х300
##елизированная
двухполюсный
##перебой
горячая
30нж
##x185
##x1700
##x142
##x1171
порт
пороло
134
##урированное
150х35
150х2х0
2001
Коронки
Корабль
400x190
400x200
400x81
400x405
4543
45x96x3
250x190x120
70x4
одноцвет
однофазный
одноосноориентированная
##аторами
косо
300x250x200
300x81
местной
##153
##улканиз
110х2
Смеситель
КЗНС
бесперебой
183
лирой
токоограничивающие
1700х
1720
круч
751
95x4
95x296
95x196
внешние
##ессованные
соединяющий
шпоном
##янутая
##тометр
каналом
строением
строган
термина
контрольно
проволочного
221
228
цементных
двойные
красок
19х4х1
19х4х0
Защ
2150
герметичных
400х350
условные
светло
светлой
##х430
экранов
65х50
каркасно
общестро
удельной
##носмесители
##оступ
серь
проходы
балкой
##x330
2000х1500
стандартные
производительностью
регулирующая
37x1
раструба
##руемой
##руемое
350х200
350x250x200
335
лампой
##ающими
##кольцевой
отопительному
резинометалли
180x50
малая
12Х18Н10ТК
формальдег
485
полиэфирного
##логу
273х8
верхним
верхние
##32п
899
стенок
точечные
##х108
перфоратор
перфорированных
600х700
600х600х
##x612
##x671
##x430
630А
630х8
##ПКВП
КС20
КС15
поперек
159х7
1020х10
клещев
236
2360
Преобразователь
3840
блоками
052
резиновых
универсальным
##x712
измерительных
измерительными
влаго
светодиодной
многоярусный
##x571
##x550x200
##х84
торкр
навесами
отвержда
52х0
заполнение
грузоподъемностью
однопозиционный
подвесная
Геокомпозит
ТКВ
гравий
550x550x200
пролетным
литейные
пленка
пленкообраз
образное
выходного
антикорневыми
одинарными
футбольные
720х9
непрессованные
##х2080
пластинами
Воздухосборник
рекупер
##x1092
##x300x250
составного
составными
320х400
320х500
320х600
320х800
320х700
волейболь
крепежные
вращатель
входное
экструдированная
витых
элементам
4971
водоприем
17066
АМС
##x971
##x997
двухстворчатый
аэродромов
четырехзначный
рельсам
рельсами
несгораемый
КОГ
прибору
F110
взрывозащищенным
##турный
газонепроница
тротуаров
силикатные
акриловый
пропиточный
НСПК
АД35
АД33
гладким
конструктивных
АМг3
##х75х100
органического
органическими
жидкая
Болт
2х14
##ляемыми
ВВГЭнг
1000х145
##21п
светофорная
сиденье
210х210
3х120мк
Термопласти
ответных
##прицепы
фальцевые
14нж17ст20
ЭТН
Столбики
3х150мс
50x100x2
50x100x3
F265
F51
секторными
теплосетей
полуколец
фиксаторов
С110
скрученных
электротехнический
ККСр
двутавровые
Сплит
полукольцевой
Коуш
узла
100x300x2500
Разъединители
атмосферостойкой
фиброцементных
манжетами
ножевыми
шурупно
100x100x2500
приклеивания
плетеные
Станции
Станция
радиаторный
100x400x2500
трактором
изолятора
изоляторов
разъединители
асбестовый
ТЗПэп
разъемное
100x500x2500
4х16ок
##ичного
закрепляемыми
ГТК
ГТК1
ГТК2
ЛА16
ЛА11
крытой
выпуклые
625х625
ШАК
40x70x27
200x200x2500
наборного
100x200x2500
15кч19
150x150x2500
трапециевидным
##останция
анодированного
50x80x28
адаптера
сильфонная
шлифовальные
каучуковый
Диафрагмы
изменяемый
4x185
11с32п
11с21п
композитный
виброизоли
фазы
##ожжевельник
подоконные
##x66x150
полистиролбетона
4х35ок
Удобр
УСК
мобильные
мобильный
мобильного
##x1380
##x1371
150x300x2500
92x496x250
92x496x710
92x296x250
92x296x510
92x196x250
92x196x410
92x396x250
92x396x610
звукопоглощения
объек
объедин
объём
150x500x2500
150x400x2500
5х70мс
2200х1500
5х120мс
ЛГОм
##х115х60
многогранные
бестраншейной
КИДМ
косой
11Б41п
габаритные
органо
бакелизированная
лесенка
полиамидный
Электроводонагреватели
НВМ
##АТэК
колотого
Крепость
КСФЧ
RJ45
Водонагреватели
секциями
вставок
сопряжении
выравнивания
ПОСС
ромбическими
пароизоляционные
Капитель
защищенных
KMПBЭнг
тросостойками
МБС
перевода
Прибор
Приборы
башенные
емкостные
3ВСБ3
Баржи
бункера
каталогу
Подводка
веревкой
400х400х12
ПВДФ
реставрационных
прокалыванием
двухуровневой
вварные
15ч14
многослойных
барабана
стативов
свойств
плитняка
двухпутный
Гербицид
однопрофильного
однослойное
пенопакет
магнезиально
Полуприцепы
##x496x871
##x396x771
антрацит
АЗЕ088
компьютерная
Вязка
КЧМ
Картон
мульти
неэкранированный
прикрепляемой
магнитоконтактный
плашечный
самосвалы
струеотклоняющего
Банкетка
ЗСГ1
ровной
сходни
схватывания
раздаточное
глиняный
##рукояточный
нормируемое
##опанели
15ДК1
колерованная
термоклей
глазурированное
Оконцеватель
беспустотная
вариант
пылеулавливающий
2УТК
АпАТэК
ДГ21
Кассета
Киоск
Кляммер
Пруток
Пояс
РЛСМ
Султаевское
Урна
погонажные
шляп
##тарифный
зацепами
##00х1980х300
неформатного
проникновения
14959
стеклоровингов
400x405x120
строганным
резинометаллический
торкретирования
рекуператоров
волейбольная
газонепроницаемая
065
1а
1п
1Т
1Н
1ПБ
1х800
2Р
2х40
3п
311
465
4х36
5Е
515
5х240
6а
845
D200
F42
F55
M50
M200
PC
x20
АТ
АГ
Бп
БМ
Вкладыш
Гра
Груп
Глина
ЗЩ
Ива
Меш
Мач
Можжевельник
Н60
С90
Спир
Сборник
ТФ
Тон
ФР
Фибра
ЦА
Цок
ШО
Шина
Штор
Шум
Штырь
алиф
бад
бил
дж
зм
лабор
меб
мерных
мини
манипулятор
офи
оран
ори
плин
пуль
пульт
рес
сле
том
тюб
уш
ушир
чеч
##700х
##7нж
##ского
##нным
##рок
##ратор
##еный
##еной
##тели
##ули
##кас
##чное
##ыванием
##110
##фона
##3р
##АЭ
##МШ
##МГ
##зБ
##ШК
##БНТ
##СС
##НМ
##Нтп
##ДА
##эмисси
##CT
##ерми
##ойки
##ойкая
диаметра
##атные
##емзов
##опольные
##арный
пряд
##откань
##лай
клеть
##обслуживаемый
##тицид
##евичного
##епловые
100х5
100х150
100х400
100x40x0
##алом
1060
10x10
12х4х0
полис
заготов
марган
подс
##00х50
##00х100
внутрь
505
50x60
50x40x0
город
20х16
##ечной
основная
типу
##прями
25Т
25х2
##осмесители
##истая
##истал
1500х2000
проолиф
167
163
16х2х0
16кч
железобетонного
##акрил
##х1200
0055
минут
высокие
1000х400
1425
стеклами
нержавеющий
##нометр
спут
электропита
темно
30мА
##x122
13600
200x2x0
400x400
456
сваренные
250x380x219
##x260
полож
##ибуна
однораструбный
##сины
водораз
водоэ
32х1
32х15
металлическое
##ушка
##х2700
300x200
местами
##тыми
##оприем
##ливании
##х368
##исс
##исковый
стойкие
120x4
1820
18кп
лиана
токовые
колпа
2750
171
1792
75x40x0
Коннектор
трехэк
накладки
стеклопакета
шпиле
оптико
IP67
связанные
термоза
722х2
центрирования
предела
анкера
220х220
223
краской
количеством
213
022
029
клеммные
газобетон
газораз
газопольные
##движная
вентилятор
сернокислый
проходного
холодопроизводительность
##x345
неокрашенные
примес
350х350
направленного
применением
КВП
перекрытиях
##х640
твердый
ЭПДМ
манометр
105х50
механической
воздушным
гидроизоляционных
стенах
постов
битумное
600х2
600х1500
500х700
500х1000
настенных
ПвзБ
группового
водоотлива
декорированная
одноствор
малогабарит
##ажи
234
##тивной
балконные
балконная
264
напольной
Подушки
поверхностной
поворотные
##пределители
обратного
бурт
буриль
##х820
технического
пластиковой
продажи
частями
##нисто
##нистый
54±10
двухкомпонентной
станционных
##каркас
АПРН
##x254
футбола
оборотов
конуса
Электро
Полотенцесушители
заземляющее
древесного
##x1036
волновая
нитями
электротепловые
водосточная
377х6
параллельные
ШВПВ
##х60х65
раздельного
траверса
бессурьмянистые
##копемзов
##38нж
статическом
несрабатывания
натяжная
1220х14
прибора
кирпичом
размыка
размещения
ударно
920х10
струно
КПСВВ
1300x600
видеов
двухсторонние
стеклоткани
ВСХ
обыкновенный
ткани
кремнисто
профильного
чистых
неперфорированная
БрБ2
БрБНТ
ниппельное
##21бр
профилированный
заглушки
А48
центральной
1420х14
морозостойком
##676
ПОН
резерви
нанесением
##x700x850
##огреватели
различного
Извещатели
переплете
кислоты
##трубные
полуавтом
полуанкер
раздельном
шлаков
шлакопемзов
двусторонний
##оническая
винта
сосуд
фигурной
самоклеящимся
4х50ок
фактурный
калибровочный
калибровки
ЛАД
370х5
приемной
односекционные
Рельс
качественная
F47
оцинкования
оцинковыванием
##сцентриковый
обвязки
задвижка
первого
трапециевидные
Кали
ворса
сильфонным
200х125
##упенчатые
пневматической
оксида
Воздухораспределители
больших
##х330х150
реактивной
силиконовые
огнезащитным
маршрут
хлористый
звукопоглощающие
ШБМ
терморасширяющейся
свинцового
посадочными
ТЗБлГ
пояса
##талки
КИПу
ЛУм
ЛО90
однодисковый
банановый
водонепроницаемости
АПВБШвнг
указатели
бетонируемой
бетонируемая
башня
рулонах
компенсированной
19с38нж
переключения
всасывающий
EU4
вкладышем
проникающие
Колпачок
виброформованные
Против
Протектор
ОТТМ
ОТТГ
напылением
трехслойный
крупнозернистые
дымохода
перлитобетон
малообслуживаемый
чердака
охранно
котлов
тканевой
##сектицид
болтовом
термовставкой
Радиостанция
РДП4
##53нж
##наполненная
процессом
доломитовая
неглазурованная
низкоэмисси
каменноугольный
МГП1
телевизионная
ламината
Башмак
Погрузчики
оповещения
БрКМцЗ
фунгицидными
##фосфат
изоцианатного
тематическими
термоусадочными
насыпная
ДВО0
принадлежностями
подрельсового
19ч21бр
холоднотянутая
продавливании
линзовый
##ашеная
вторичный
интегрированными
металлургии
Клипса
лепест
кабельроста
поролоновый
терминалом
общестроительного
перфораторная
ПОССу
Группа
Шумоглуш
билетов
джут
офис
оранж
чечевичного
марганцевой
проолифленные
электропитания
трехэксцентриковый
термозапорный
газоразрядные
ПвзБбШп
БрБНТ1
полуанкерная
шлакопемзовом
045
1Р
1х300
1х4х1
1БФ
2м
2ЛП
3м
3Р
3x4
3x25
4п
4МД
5МД
8ПБ
900х3300
900х3800
B11
CО
D700
F70
F65
F68
M100
UV
Ака
А36
АНО
АШМ
БУ
БЛ
Бер
Вой
Груз
Див
Двер
ДМС
ДБК
ЕИ
Коп
Кожух
Крош
Косты
Моду
М900
НЖ
Нить
ПХ
П5
Пав
Печ
Пена
Понт
Прай
Пихта
РАС
Регист
С11
Секции
Таль
Упор
Указ
УБО
Ф5
ЦАС
Шести
ШУС
ЩРВ
ЭА
бели
врубные
год
ганд
детона
енд
кбит
лун
лабиринт
м°
ой
пти
режущей
служ
семян
тонов
удаления
целлюло
##сили
##оно
##вол
##вание
##ватывающ
##ака
##агрег
##ч6бр
##2H
##про
##пад
##О10
##ьями
##Пэп
##3P
##бе
##би
##бул
##АуБпШп
##Ш3
##РСП
##См
##СМ
##BЭВнг
##DF
##ZH
##ерного
##ораст
##омед
##одкоп
##качки
##ляемые
надвижные
##атным
##опленное
##армированные
старых
проду
##окомп
##гоб
##абри
##есодерж
##цин
##рового
##отвращ
строй
стир
разных
разряд
разруш
##очев
##итка
##оструж
##едач
##обето
##ингов
##авляемые
##лоном
##ловозы
##порность
##ивным
отб
##альта
выходной
выдвижной
##розащищ
10x1
1025
10x2
10х3
10ПБ
1240
12х2х0
1200х800
12х4х1
1200х3300
1200х3800
##остойким
контейнер
подп
подкладки
##имый
распорная
распы
50х20
50х32
первая
##ольт
##101
##106
2020
2550
2520
25000
2542
157
1500х3000
1500х3300
1500х3800
##ительным
##илка
##ъемные
40х16
металлу
166
16x2
16МТ
##х175
приема
14ХГ
окруж
кран
нержавеющих
объемные
двухрожковый
устранения
теплозв
##идов
сплит
электронный
500x500
горячее
##x145
прямое
200x81
##изоляционный
##ешив
250х50
##x240
полная
полые
704
##ибрационные
одночерпаковые
водоу
окрашенного
сечению
32х2
32х16
ПВ3
##аторный
герметик
300х500х
##улерные
тепловые
средах
##щиты
контакты
кабеле
##х39
бескаркас
стойках
##ильон
1800х3000
1800х3300
1800х3800
контррельс
токоприем
##90х52
контактная
277
LSZH
нижнее
нижних
защитных
скуль
гидр
полиэтиленовыми
Конус
##катанным
01676
243
##розионный
шпуров
IIу
II2H
##17х36
гибкое
##агон
##няющие
7200
предотвращ
##500н
2220
2200х3000
2200х2000
2200х3300
2200х3800
SN2
##65бк
191
19x1
19х2х0
08пс
##огид
##огнеу
клеммной
светлый
##х480
##оронний
##1250
##1200х
песчаный
песчаных
63х32
##x375
##x368
2000х3000
2000х500х
2000х2700
жестком
жесткими
стандартная
Канаты
бокового
отдельная
3700
открытые
##устотным
направлений
латунных
140х200
140х300
140х400
высокопрочный
муллитокорундовая
сборки
28П
2850
пиленого
сухим
48П
273х12
##чиков
частиц
##указ
сигнальная
КМЛ
поставляемые
гидравлический
четырьмя
измерение
круглое
##х56
противоэ
600х500х
600х2700
600х4000
цинковые
##x420
##x460
##х730
удлинении
наклонные
мостового
##комплекты
напорно
напорных
Проступ
##ляющего
Подставка
модульон
383
##компонентная
342
348
FRHF1
##гранник
##x120x219
190x196
##x74
многоцепные
противоподкоп
##x57
печные
через
Камбул
торф
##ругления
042
частей
529
31ч6бр
##ючее
электропередач
дома
##лошар
692
426х10
тросом
дисковые
739
063
066
ПРМ
ПРН
путевым
мкСм
декоративное
Емкость
магистральные
Вводы
Воздухоотводчик
шумо
СКР
специального
коаксиальные
нитро
МКРТ
моментом
##00х160
##00х1800
DN160
Затворы
115А
консольно
377х10
вентильный
медицин
искрозащищ
АМц
траверт
У220
КУГВВЭнг
встраиваемая
стыках
мелкоп
079
поливинилхлоридного
М18
ОСД
гидрофобный
61х0
##НДЦ
натяжение
F140
отсчет
броне
##опроизвод
скрепленных
антипирен
Поковки
КПСК
##x600x850
акриловым
пропитке
втулкой
лаза
кондицион
коммутации
компрессионный
Распределители
профильная
конструктивные
гипсоструж
импуль
ламинированное
948
##x496x2000
##x496x1030
##x496x1036
918
поддерж
поддона
ПТС
охватывающ
разборный
алмазные
##езащиты
петли
профилированная
выключателем
плавких
3х16ок
900х1500
900х2700
900х4000
ответственных
компенсаторами
СБВБАуБпШп
троллейбусный
кварцевый
50x50x2000
оголовков
ПОГ
адгезии
индекс
прозрачный
свободностоящая
заделки
запорным
50x100x30
F260
F230
F245
гнутым
нейт
фиксатором
эффек
различной
1200х2700
1200х4000
пристенный
вместимостью
##фланцевый
1х630
расширительным
перемещаемой
Прессы
##х90х40
оловянные
сантехническим
1500х2700
1500х4000
резервных
##изоциана
тиксотропный
Вентили
антивибрационные
3х240мс
ножках
плетеной
движение
вяжущих
активной
##х595х75
одностоечная
инъек
равнопроходный
изолятором
самоклеящейся
самоклеящийся
Стремян
шкафом
1000х300х150
ТЗПАШп
пбс
##х1190х220
закрепленных
корундовая
##x27x0
ПНАЭ
утопленное
пешеходных
жаропр
отражающая
ШАМ
рельефная
Фрезы
задвижкой
200x200x2000
670х315
15кч16
150x150x2000
F360
этажные
колонковый
2А6
вспомогательной
вспомогательные
490х592
490х287
ромбов
набрыз
##раструбные
35Т7
КРУ
глазурованные
600х3300
600х3800
наполненное
микротрубочных
звукоотражающий
1000х290х360
##х325х75
##х330х70
01836
01839
огнезащиты
огнезащитной
антикоррозийная
F105
ЛВМ
ЛВЧ
дуговой
1800х1500
1800х2700
1800х4000
функциона
150x300x2000
Поручень
Б2400
150x500x2000
150x400x2000
203x456
203x496x2000
двухлапчатые
тарельчатый
Ламели
каналами
2200х2700
2200х4000
РСУ
алюмомед
подкладные
быстродействующим
приставная
улучшенная
ГВЛ
включениями
предохранительные
водяного
184x496x1036
ЛБС
габионные
Крепление
керамзитобетонные
алкидный
610х610
Баля
Настилы
солесодерж
##ородный
начального
полуфабри
бытовых
соответственно
2х50мк
188x496x1030
реечном
ТЗПпПэп
текстурированная
ступенями
МСБВБ
1000х390х510
концентрированная
648x3
инерционная
ИОР
извещателем
относительном
водоуказ
телескопический
5П25
100х400х
абразивности
Подводки
1х500мк
785x368
неорганической
высокоогнеу
ОДОСПО15
БЗН18
заряда
##атовское
двухконусная
двухконусные
##лопастное
2000х3300
2000х3800
цинкование
Ролик
неток
рефулерные
двускатная
Трубопроводы
высокогерметич
ОЗЛ
кроссовый
регулятора
Крюк
содержащие
49445
траверсами
козырька
хлопчатобумажная
ТАМ
Умывальник
молниезащиты
проложенным
Ремкомплекты
дезин
кокос
РОП4
бетоноуклад
ЩУРН
ящикам
2000х4000
бордюры
безбалластного
811К
PVDF
ГСИ
##ноземистый
разгруженный
силоксанов
полуплощад
столешница
SFP
течении
##шпальная
диметром
15нж65бк
мачтового
утяжеленные
ДПСк
козловые
создания
крученая
формальдегидов
водоприемная
Тоннель
алифати
лабораторный
уширенная
заготовок
примесей
600х290х52
струноармированные
полуавтомати
сосудом
Калий
##талкивающ
джутовой
B11BS
Войлок
Диван
ЕИУС
Крошка
Павильон
Понтоны
Праймер
Регистры
Указатели
Шестигранник
лунно
м°С
продув
стройкам
14ХГНДЦ
теплозвуко
водоупорность
скульп
II2H3P
##x375x250
противоэрозионный
Проступь
Камбулатовское
искрозащищенном
мелкопустотным
охватывающего
Стремянка
670х315х295
203x456x1030
алюмомедные
солесодержания
полуфабриката
ТЗПпПэпБГ
070
2а
2G
2ПКВтнг
365
396
385
3х2х0
495
4х8
5ПКВКтЭнг
6з
6Д
7А
7х10
8та
835
990
AL
CВ
E14
GX
RCT
АПК
А32
Амп
Бир
БКМ
ВУ
ВЫ
Верст
ДА
ДПМ
Дроб
ЖК
Зон
Зазем
Клин
К11
К34
Масс
НАС
ОВ
ПКС
Пара
РТ
РЛ
Сна
Сжим
СРС
ТН
ТРА
ФЦ
ФВ
ФФ
Фоль
ЧДА
ШЦ
Шти
ШВГ
ЭД
ЭЗ
Э46
Элеватор
асим
ави
бука
генер
драй
жив
зоновой
исти
каль
кип
лав
меш
мойки
негор
опус
очи
пят
пунк
релей
русти
рейки
регист
син
слю
слан
снаруж
сжима
ты
тир
уклад
шаб
шерстяное
элег
##жный
##оечные
##рест
##ретка
##йные
##вовой
##еид
##дов
##уми
##уБп
##куч
##ывания
##метри
##ХО
##100х
##130
##фин
##ферм
##фты
##КГ
##Цс
##3бр
##бовый
##ют
##ювовой
##69
##850
##ге
##гай
##ший
##ТС
##ФВ
##ФС
##БТ
##ЛМ
##EF
##ДК
##ДБ1
##Bнг
##овозд
##овяз
##еток
##олера
##орти
##орегист
##тап
##тарно
##енности
##енников
##кания
нарез
нашпальная
##емыми
прип
##ейный
##лащ
клювовой
##оствер
##инели
##инец
##иненные
##тий
##ева
##авливания
##олик
обрушения
100х6
100х600х
сидения
отбор
##рованному
##роз
12з
1260
1200х2
полиамидных
загруз
соснов
подверж
подферм
длинные
ослаб
50х5
50х100
##финов
##ечного
основовяз
железной
##осбор
##осодержащ
15Г
40Х
40х1
164
алюминий
железобетонным
##учка
арочные
алюминиевом
Створ
Стяжки
Ствол
Столик
высоким
высокими
1000х500х
замены
окоренные
объемным
##ижим
двухгол
двухрядные
двухклавишные
смы
смыв
минеральный
минеральные
30П
304
3016
ручками
9060
прямот
150П
150x2x0
полимеров
45ч
##x29
##x225
##x2800
##305
1110
полез
полноп
полнок
7060
80н
80x80
однолапчатое
одноагрег
однораструбные
##ебный
водопоглощ
водовозд
##ластик
моек
опора
фланце
3250
32х32
ПВБШв
Свинец
##ушной
##ушпала
площадками
##х270
##х200х3000
300x2x0
лотку
##керные
температурах
110х63
средств
356
ангоб
03НУ
коробок
1850
18Гпс
##иками
контргай
контролера
272
27x1
27х4х1
##ционной
высший
защите
склеивания
цветности
цветное
трехместная
трехлапчатое
трехкомпонентная
019
242
24х1
2430
24х2х0
##дающих
##енью
##ованных
шпура
листу
IP41
термостабилиз
связующим
проволока
проволочными
227
паров
парковой
перекрест
комплектные
086
##оги
218
026
##х440
##ственного
##ецеид
651
65х4
65х40
65х32
лотковые
шток
тяжелая
##олаком
160x160x90
удли
ВВГнг4
песчано
63с
балок
балласт
холодильных
##ательные
изолирующим
изолируемой
57х4
37х4х1
##ехническими
##руемая
гидроак
гидрозащит
КВУ
КВБ
КВТп
##ающим
140х140
##х650
200х2
200х3000
радиальная
вентиляционным
автоматической
секретка
порошкообраз
IIIВ
285
288
сухом
квадратных
СПРД
стаканный
##х255
ППР
сигнальной
сетчатую
стена
характеристиками
поставки
гидравлических
##значная
##136
##ящий
противо
битумных
##x46
##x442
500х3
настенной
постоянный
стыковые
КС10
FRLSLTx
Огнет
##олотые
##ромочный
966
1020х14
клеевого
269
Прижим
3850
поверхностно
поверхностные
056
190х190
##x740
##упут
##уплекс
многочерпаковые
1305х200х140
арматура
##x250x120
##x530
свариваемой
крестовины
стержне
ПСУ
регулируемой
043
короткие
заполненная
пластифици
КНТп
##олистный
прессованных
эластичным
эластичные
##ниеотвод
крановые
сплошная
промежуточного
гипер
С2T
С250
442
ТСН
схема
##24q
путевых
распаечная
промышленного
орг
штыревые
грануля
393
непрерыв
чугунное
КМПBнг
СКИП
взрывчатого
клееный
320х5
МКРФВ
крепежной
пластмассы
Обте
мраморные
DN110
входные
уклоном
безнапорная
ВКП
параллельно
параллельное
междупут
АМН
##x940
четырехкомпонентный
У330н
статические
статичная
ВТ1
М1000
обсадных
фильтрации
пустотные
1220х10
1800x580
F18
подступен
витражами
КПСВЭВ
EI60
##ессирующего
видеопоток
двухсторонний
циркуляционный
втулка
Полки
Полушпала
ШСУ
парапетные
контролируемым
шагающие
гладких
чистый
лакокрасочными
жидкого
ЗП200
ЗП250
ЗП125
250х120х138
1000х135
насеч
перекид
пленок
##яющийся
##ающаяся
профилированному
выступов
паронит
Термина
900х600
сливного
3х4Е3
Раструб
троллейбусов
ОРУ
14нж17ст11
пазами
прорезиненные
сложных
гусеничные
конденсационный
тоннельный
тоннельным
Трава
мягкий
Растворосмесители
лощеные
тиокол
комплексов
химического
противовесом
700х500
СБПЗАуБп
смесителем
смесительный
МПУ
##х91
отбойник
1000х285
временных
дисперсии
Земля
увеличения
фрикционный
антивибра
шурупами
прикромочный
автоп
трапецеид
чашами
автоматизированной
нескольких
800х600
800х600х
фактурной
УВК
вязкий
типоразмеров
кассет
##ичной
закрепления
закреплением
таблички
эмалированные
30ч47
гре
дюбельное
приемный
фосф
Формы
собой
иглопробивным
этажа
фронтальные
НТК
ШЛА
ШЛГ
сальников
ОККН
антивандальный
антивандального
вспомогательными
ветвей
14нж17р29
переносные
Компаунд
##х310х120
##х310х100
токопроводящие
протяжная
Контроллер
облегченный
5х16ок
##екальные
ПуВВ
плакуч
клиновидный
1000х290х330
винил
Лестница
летучих
технологии
цементации
седлов
заграж
огнетушителя
2х16мк
##вЭBЭВнг
пространственном
Домкраты
торшерные
звукопоглощающий
поручнями
255x250x120
Припой
ШКУ
роликовой
вакуумные
изделиями
закаленные
287х592
287х892
287х287
##рельсовый
##х295х70
производственного
импоста
приставные
остатком
обеспечения
5х150мс
15с65нж
5х185мс
БТС
КИС
СНЦс
колотые
антисептированные
розеток
ящиков
##оцементных
водонепроницаемый
индивидуальные
Платформ
кислотоупорная
рентгенозащит
латексная
250x120x88
МКВУ
МКВФ
Видеорегист
Капс
титановых
шестер
ступенчатая
305х610
1000х390х410
KMПвЭBЭВнг
аудиопоток
аудиовыход
луженый
водоочистки
клеящая
емкостной
Вибр
143А
абразивного
ПУА
заполнителем
звукового
поддерживающего
КТПИ
##нутая
6х4Е3
ВрБО
гнездовой
заряд
1500х730
нетверде
двускатные
1195х595
Скрепы
Скреперы
бакелитовая
интерфейса
1xRCA
зубчатыми
почтовый
погрузочные
полуфарфоровый
полуфарфоровые
неоткрыва
##нюю
ступенью
теплотехническими
##x440x219
промывки
мытью
фризами
целевых
##ммиач
##этажных
препят
прогрессирующего
автомагистральный
легкосъемная
устойчивостью
Аммоний
амид
венге
ясень
##HDMI
сервисный
нитролаком
цельнолитые
ТМЛ
копровые
умеренное
эркерные
полушерстяное
состаренные
стеклотканевые
Cat5е
хозяйственно
Лежень
ШЧУ
санитарно
угольник
формирования
хрупкости
##очистительные
##активи
бесперебойного
виброизолирующая
Удобрение
шляпный
Мешки
Спирт
Шторка
ориенти
тюбингов
Шумоглушители
офисной
Копры
Модули
годности
гандбола
контррельсом
предотвращения
кондиционера
водоуказателя
высокогерметичными
494454
бетоноукладочного
скульптурный
AL2
GX24q
Ампула
ВЫХО
Верстак
Зонты
Масса
ПКСВ
Парафин
Снаряд
ТРАС
Штифты
асимметри
драйвер
истира
рустированный
снаружи
шаблон
##инелид
ослабление
основовязальное
Створки
301629
полноколотые
одноагрегатные
водовоздушной
ангобированное
контргайкой
термостабилизированного
гидрозащитной
Огнетушитель
Обтекатель
СБПЗАуБпГ
антивибрационный
30ч47бр
Платформы
Видеорегистратор
ВЫХОД
0А
090
096
1т
1Х
1ПП
1ДП
2с
2М
2Б
2U
232
2х35мк
2ДП
3В
3U
4а
4Д
4ПБ
4x2x1
4ПКВКтнг
5с
5а
5x4
531
6Т
614
860
890
925
A500С
Et
EV
F800
F27
F38
KC
LA
XP
pH
x1
x16
Бк
Буг
БСП
БВС
Батар
База
ВВП
ГФ
ГШК
Делит
Довод
ЗФ
ЗМК
Инд
КК
Клен
КПК
Кала
Коса
МН
МСП
М14
МБК
Нл
НКЗ
Нащ
Р1
Рев
Реф
Рейка
РРН
Рубероид
С70
Сопр
Т4
ТЭ
Тол
Тур
Уклад
УБК
УБТ
Фотор
Хризотил
Х34
Холст
ЦН
ЦЛ
Шт
ШФ
Щетка
ЭК
ани
акан
гни
гаш
драг
источ
косты
лк
нм
ной
поб
пус
пихта
павильона
рых
руд
сниз
сушки
тест
тушения
укомп
фарт
фено
хим
холст
ходом
шел
яр
№27
№36
##7бк
##несущ
##жная
##ре
##рис
##вом
##веч
##еция
##еновые
##деле
##дик
##унков
##аемых
##яные
##ыключ
##2А
##ферные
##КА
##900х
##бд
##М6
##МХП
##P8
##400х800
##6бк
##6x122
##зор
##зным
##xI
##87
##ТШ
##ТХП
##цом
##РМ
##ГЮ
##ГЭнг
##ЛЦ
##±15
##Э5
##ЭФ
##ъектор
##эх0
##энер
##GA
##NC
##VGA
##et
##er
##net
##O3
##her
##ногор
##нонасосы
##нат
##овещ
##стный
##ниевые
##етья
##олекуля
##орист
##ойлер
##онстра
##ома
##омат
##анного
##етроб
напр
##емост
##ельно
##араллель
##еса
##ровщики
##ровыключ
##роветроб
стеллаж
##рываемые
развор
разбав
##ито
##остек
##осторонний
##новления
##обоскоп
##трид
##олий
##олибд
обновления
100С
100х12
100x81
100х200х
##ловых
синий
##елепро
##ивер
##еключ
10ПКВКтЭнг
сва
полиизоциана
конфор
марпр
подшип
длин
длитель
трубке
осевые
третья
внутреннюю
503
перпен
##105
кордонское
2050
20х12
##ечным
##усфера
256
25x25
25х15
##оск
##осной
##осин
##истор
##обетонные
1560
15Б1
15х15
##илля
40х4
железобетоне
##х1100
прикатанным
009
##водород
1410
1490
двухниточные
двухполяризационная
катионная
##идения
##идном
смеж
медным
темный
##онаполн
маркировочные
307
##x11
##x125
##x1900
##x155
##25х150
90х75
##урного
150х200
150х125
150х450
150х600х
459
45х2
сварочной
##вали
полут
Короба
70x54
80x54
##ибочные
одноко
однополяризационная
60x54
водопод
окрашенными
опорам
повышенного
присоединяемых
самост
35x7
клиновые
##х300х120
анемост
стойкое
1205х195х75
растений
типах
1860
усад
резьбовой
колбе
волокнистая
27А
27ПКВКтЭнг
крут
Ответвления
уголок
скругления
гидроветроб
трехфаз
01А
синтетический
вырезом
241
248
2400х
##ующая
гибки
гибкой
канатной
##нять
строг
проволочные
высокот
220х7
Переключ
двойных
краситель
19000
перекрываемые
##огибочные
400х500х
##х490
##ягающий
МКТП
МКЦП
силовым
каркасной
удельный
дверка
герметизированный
свободном
вентилятором
плитным
серые
проходческих
балла
холодный
##22нж
##x360
##x3x0
##x3800
##x346
125х100
125х80
массе
монтажного
монтажную
##ектора
8800
Канал
боковыми
##егося
576
ПЭ63
3000х12
##руемый
350x350
350х700
##ошерстяное
##рального
применению
цельной
331
334
336
муфтовые
радиальные
наконечника
освещенности
ЛК70
порошковое
IIIу
сборной
формовочные
люка
СП100
непараллель
градир
ППЭ
##пиковый
КММц
##удар
##значной
надпис
##х1050
##х580
380x250x219
КПп
оконными
окончат
оконечная
600х900
цинковый
##x470
##x490
500х63
500х23
500х136
настенное
декором
##х760
унита
КСБК
##855
##85x23
брусковые
решетчатая
вертикальной
644
бесшовным
363
##компенс
поперечины
тонкой
легков
ОКГнг
266
напольного
Подушка
Поднять
потолочных
поверхностям
шахтного
059
058
обратной
трещи
##x780
измерительно
полиуретана
многотарифный
13016
пружинной
шестилопаст
инвали
##x599
133х5
прямоугольной
черного
череп
шестигранными
ПС10П
ПС10ПИ
полиуретанового
пластиковом
стеклообои
##оподъемные
318
пластичные
##x502
530х12
240х280
стекловидном
усиленное
остекление
691
пористом
426х12
тросовое
Колонка
геопласти
диск
сплошное
кронштейны
##еталлические
##вающие
##вающих
2746x122
швеллерные
швеллерного
стекловолокно
##х205х90
Электронагреватель
орт
##00х2300
566
Емкости
углового
моноспи
##арьером
шумоотражающ
взрывозащитная
клееной
ААК
##x1054
320х550
##защитная
крепежная
Обвод
каменной
РП101
входов
электротехнических
##карбидкремни
столба
377х9
междуг
стробоскоп
полотен
##гово
четырехъярусный
четырехместная
поглащ
##x892
водопропускного
##42р
открывание
хрома
хромированный
хромокис
ВТ9
ВТ6
ВТ12
ВРУ
неоцинкованных
пустотелая
пустотелых
натяжения
3Стп
664
F190
##х655х90
монолитные
излучения
скрепление
щитовыми
рядовая
втулочными
нагревателями
кондук
конденсатор
Двой
крутоизогнутых
##ингер
##ингалет
модифицированным
выпусков
компонентные
бронированного
чистоты
чистошерстяное
##отивление
буровой
3х50ок
хомутом
гипса
рамный
рамочной
##оугоны
994
9940
ЗП100
ЗП150
##опогруж
алмазной
алмазного
алмазным
насадочные
плита
МГНМ
перекачки
звукоизолирующий
трехстворчатые
трехстоечная
трехстоечные
510x120x219
пропитанный
скаты
Термопанели
сливная
архитектурный
4х28
Световозвращ
матовая
##x80x219
3х4х0
унифицированный
фальцевой
Столбы
динамические
##полюсного
ПДО
оголовник
тоннельных
тоннелепро
прозрачная
основании
запорное
F240
F57
ФБП
химический
##огревателей
УГР
бесцветный
С1T
кладочная
дисперсией
1х6ок
цепные
полукис
полукомпенс
шлака
152x150
Подвесы
стопорным
молниеотвод
компрессорно
компрессорным
нагревательные
грунтовочный
##x96x380
прикле
трапеция
радиаторной
активного
инъектора
бугельная
##тпнг
фигурные
8504
штучные
800х500
насосно
насосные
шкафов
ТЗПАБпШп
ТЗПАБп
демонстра
наплавки
##x72x250
##улярно
закрепляемый
Наличники
ЛА8
осветительного
крытый
30ч39
гриб
односекционная
##онитор
Аппарат
Гидро
Гидром
ШАОН
расклинивания
заводской
тракторные
гипсокартоном
сочлененного
КФУЦ
рисунков
цифровых
##костру
БНДм
тупик
490х892
адаптером
##ездочка
35Т6
КРТ
КСПФ
КСПВГ
негашеная
упрочняющие
600х300х150
тарные
держателя
оксидированная
рукоятями
1000х290х410
Оповещ
ОАП
КЦМХП
КЦТХП
силиконовый
1000х160х260
ГКТ
ЛВЦ
плату
Автомат
дуговые
непрозра
F93
рукавная
хлорсуль
запас
усложненным
пенополистирольных
ливневой
ливневых
БНМ
спускной
##х45х80
слабых
стабилизации
525x442
##х115х40
1374
1374x1
##х295х75
обработанных
11Б6бк
купольная
лесов
трудногор
полиамидная
15с22нж
2х25мк
МШП
колотым
перенапряжения
пятизначный
пятиугольник
680х605
Скала
серебристая
неразборная
сопряженных
Витражи
1340x1600
##x553
моноблочный
кислотоупорный
кислотоупорной
ванту
вишня
тонированный
указателем
##руша
пароизоляцией
Автобето
башни
переездной
ПАВ
Утяжелитель
молотом
молотый
трамвайные
МКПпАБп
извещателя
клеящими
литьевой
592х592
592х892
стекломагниевым
АКВВБГ
пултрузионная
Виброиз
ДСУ
РМГ
такти
микростек
A312
ДКН
текстильный
заполнителе
655х655х90
карбидкремни
термопластичные
термопластичного
крупнозернистой
##мульсионная
вдавливания
съемный
оттяжки
показателей
углекис
углеводород
475х5
мембранного
БЗН24
галогена
гнездо
переговор
110x72x250
110x66x250
260x50x250
260x50x109
1500х700х
Инъектор
высокомодуль
шамотнокарбидкремни
карликовый
растворителях
термовставки
ГАУ
переливной
16ч42р
Крюки
фосфатной
бентонитовый
##одисперс
##отводной
200x500x2000
звукоизоляционные
бактерицидный
ДСО1
Керосин
грубой
фидеров
капилля
одноконусная
одноконусные
02274
37x61
электромонтажных
бортик
1000х210х410
1000х210х310
ТЗЭБлг
685x335
Бензин
ШРО
агрессивных
примыканий
гипсоволокнистые
кварцевого
асбестоцементные
датчиками
Тупиковый
ксс
щеточная
ограничителя
качающийся
капсулы
экструзионное
тонкослой
волнообразные
изогнутым
590х595х85
Биомат
Бетоносмесители
СИТ
Торгово
Шахта
Стенки
полимерцементной
работающих
удобрения
Поддерживающий
##x595x1000
адгезией
наносимого
испыта
Термопластик
свойствами
Кляммеры
Мачты
Цоколь
бадделе
манипулятором
ушком
##лайн
##исталли
спутниковый
водоэмульсионная
Противоугоны
Костыли
Печь
белила
служебный
целлюлозы
##падающаяся
кабеленесущ
токоприемник
нитроцеллюло
гипсостружечная
1х630мк
жаропрочной
ромбовидной
функциональных
Балясины
Бирки
Дробь
Сжимы
авиационный
регистрации
сосновой
подферменников
смывной
водопоглощение
порошкообразная
подступенком
насечкой
Терминал
плакучая
седловидный
заграждения
Капсулы
1195х595х70
AL2O3
Ether
EVA
LAN
XPS
Бугель
Батарея
Делитель
Индика
Калач
МБКГ
Сопротивление
Укладчики
УБКм
Фотореле
Штекер
акантовые
гашения
драглайн
снизу
укомплект
химст
##дикулярно
##xIP
напрягающий
##тридж
марпреновые
перпендикулярно
смежный
##25х150х220
водоподогревателей
анемостаты
гидроветробарьером
непараллельное
500х633
500х237х31
КСБКнг
шестилопастным
240х280х100х
геопластических
2746x1226
моноспирального
шумоотражающая
стробоскопа
поглащающий
хромокислые
тоннелепроход
полукислые
30ч39р
хлорсульфи
Виброизолятор
микростеклошар
карбидкремниевый
шамотнокарбидкремниевые
685x335x210
бадделеито
кабеленесущих
Ethernet
075
1б
1С
1ПКВтпнг
1x185
296
2ПКВтпнг
2x36
312
316
3ПП
3x35
3КВ
4Б
4С
4300
435
4АтVТ
4МСР
4ПКВП
5У
5К
5x2
5300
5x60
5ПС
6Б
6х2х0
668
7x2
716
711
775
8а
8Т
830
840
896
813
8х2х0
970
D350
F60
F700
F250
F305
F855
M400
OSB
VII
АУС
Асб
БА
БЖ
Баб
Во
Вилка
Дим
ИСО
К3
К20
Ключ
КБ1
КРН
К56
К54
ЛПП
Л23
М9
Метр
М40
МВС
Нит
Нож
ОУ
Пы
П4
ПШ
ПИ
Пост
П12
Посты
Р2
РТЛ
Ручка
Сир
Сгон
ТТ
Т10
ТСП
Текстолит
Тали
Ф3
ХП
Х60
Х70
Х65
Х56
Ш3
Шины
Э50
Э42
аммиач
бе
бен
вой
включ
впис
вулканиз
гар
гров
гал
дб
деж
дуплекс
зим
знач
коб
кокс
камеры
леж
локом
левая
массы
неле
окис
паль
пуст
пуд
плам
рж
рол
рих
рейками
сго
селе
сурьмянистые
срок
улит
фон
ход
хризот
эв
№20
№30
№40
№35
##жиг
##жильных
##оник
##оудар
##раз
##расс
##рек
##вен
##теры
##доб
##игна
##иловый
##аков
##аемый
##яя
##яб
##ктур
##ысо
##лод
##51
##пласт
##плам
##100х2000
##фон
##феры
##бШ
##блем
##Мг
##МВ
##4Е3
##83
##гированной
##шка
##БЛ
##Ст
##НЭ
##±30
##S2
##Е2
##ъезд
##эласт
##VI
##BNC
##номи
##орючее
##тах
##тальная
##амм
##лиц
##линт
##омный
##омоб
##ометаллические
##одав
##леплав
##енник
##лях
налива
##емкость
продуктов
##окор
##оконическая
##есные
##езж
##езда
##рова
##ровочного
##ралюми
##ейеры
##отлит
стуль
разности
раздвижная
##едлитель
##новысо
обхват
100х3000
##ющиеся
##иванием
##ексов
отделит
1080
12Ф
12Л
12500
##остойкостью
полиамин
конечный
конвей
наружную
##аминов
теплиц
##есть
подвер
##лектив
##00х4
##ейская
##адная
##адочного
трибуна
перер
##ентная
##10x940
208
2030
20х2
##еченный
типов
оцинкованного
##прис
253
##ослеп
Трубоукладчики
15П
##илометр
402
40х5
40х8
40±15
16с13нж
железобетонными
##учреждений
##етический
##лотный
прижимной
арб
00А
Стру
##ановая
1000x500
1000х100
1000х150
1000x1000
замкового
1450
14500
14ПКВКтЭнг
##елини
##тора
двухколон
двухрукояточный
двухрельсовый
огне
огрунт
спеченный
медучреждений
электролит
электростанции
500x250
##x1300
##2500
##25x15
902
90х63
13П
##литы
##литка
##лители
150х1
150х55
установочные
457
45М
45нж
45с13нж
250П
250х60х65
напряженных
напряжений
##x230
##x290
##x268
11500
полуг
полум
полочкой
полухомут
701
80х60
602
605
##сиры
показатель
водонагреватель
водородный
##ворчатая
опорных
32x32
болтом
##ушителей
##атир
рабочего
##х2400
##х245
##15бр
110П
110x5
среде
##щитные
опцией
##х380
##х300х3000
стойких
коробчатого
18М
186
18Б
коллектив
контактные
276
27х4х0
сигнал
17П
1735
кручения
Отсек
75х50
75х40
75МТ
синтетическое
24У
249
конструкцией
##анская
##17нж
канатов
термопр
термометр
##крытая
222
паром
паровые
пароводяной
цементное
красного
##65х91
1910x940
Защитные
##400С
085
089
083
##огорючее
##ражатель
021
400х3000
клеммами
климатических
##х42
##х420
кабелями
##еревян
414
653
МКПВ
круглыми
круглоконическая
штекер
тяже
газовой
проводного
##грузки
##изводственного
108х8
полипропилен
63х2
серо
##x37
изолирующая
57х5
числе
щебнеочистительные
37х4х0
проточные
протека
##ярусные
##х64
##х66
200х500х
допуска
отопительно
180°
ЛК120
588
PEX
переменными
встроенный
расцепителя
Выпрями
282
сухих
непорист
блокиров
блокировочные
##х2500
ППТ
сетчатая
АВБбШв
Конвейеры
##139
##х51
##х560
##ящего
перфорированного
антиприс
битумные
ячейкой
##x680
##изолированный
##изолирующий
##x450x200
500х14
500х19
500х3000
500х153
настро
630х595х75
##ХЛ1
водоотталкивающ
##х71
КСР
решетчатый
одностенные
одностенными
наклон
219х7
электрифицированного
364
##11р
напоре
напорная
балконными
напольных
Поддон
386
##рамб
##енок
##компонентное
уголка
композитно
##x720
##уплот
многофазный
Баллон
##x250x260
##x58
печатным
КГВВнг
С375
##х86
железнодорожном
концевых
концевыми
распределительное
регулируемым
52х4х0
##ючего
##x50x28
содержания
термоэласт
##товочные
426х16
426х14
тросу
тросовой
Шпингалет
дисковая
изгибающий
стоечные
стоимости
прокладников
диапазоне
выходе
выходным
вибров
С21
Листвен
449
трансформаторное
479
##левая
ограждающих
конусным
ПРП
ПРКА
линейно
Трансивер
ПКВ
ПКЛ
##колонные
ЛСВ
распашным
распашными
##елевой
##елевого
стыковочная
стыковочные
Пудра
шумозащит
древесные
##x1050
составные
##x637
##00х1100
укрытия
пластмассовыми
АМР
ШВВП
раздел
хвостовика
другим
разрыву
##x89
мелкостру
##42нж
хромированные
хромоник
световозвращающими
поливинилхлоридных
статическое
ВРм
направляющих
874
КОО
##ПКВтпЭнг
фильтров
Арка
пустотный
модулем
F120
F130
F145
F195
F135
F1800
F185
ультрафиолетовую
струйной
акриловом
Замки
Замедлитель
балансировочные
балансировочного
видеовыход
##44В
##цемента
Полухомут
подводных
СБПБГ
Раскладка
чистая
полнотелая
гипсового
гипсобетонные
ветро
морские
981
ИТО
ИТС
ЗПУ
информационная
Эмблем
##x70x1
населения
однокомпонентное
БрА
3х70мк
Дисперс
трехстворный
профилированной
бумажных
900х400
центрального
А1А
матового
ответным
3х4х1
квартальная
быстротвердеющий
счетчика
Столбик
сложного
гусеничным
пробковые
50x50x3000
дополнительными
270x630
купол
заднее
F270
F290
F550
F570
F535
секторная
карманные
Лакоткань
устойчивый
фиксаторный
холоднокатаная
вещания
масляных
энерг
бетоновода
время
вторичной
Подвески
узел
электроизоляционный
электроэнер
удержания
атмосферостойкого
двусторонними
локального
##ографии
2ПС
покрытой
30с65нж
фиброцементная
остановки
ножами
ножевой
покраску
изоляторах
маломоб
ВЦП
##ензия
насосной
Стрингер
1000х385
износостойкая
разъемный
подземная
вяза
4х95мк
пассив
1х4ок
1х4Е3
окрасочные
окраску
30ч3бр
грязев
##x654
финишная
финишной
керамогранитная
Гидроиз
пылевой
##х100х95
качество
F450
F420
F470
F490
форточками
машины
разъединителей
многомодовым
15кч33
двухместный
F320
F330
F370
F345
F385
правая
колонны
колонна
акрилат
Калитка
спинками
АД1Н
ворсовой
Круги
СМА
антен
ПвБП
СЦс
токопроводящий
зерна
отвердитель
каучуковой
кулач
датчика
прослой
просвеч
1х35ок
большей
виниловых
мгнов
01860
металлочерепичной
антикоррозийным
пазогребневые
F1080
F1060
F1040
Кабины
седельно
соединителя
##x1180x2780
фиксирующего
2х16ок
непроизводственного
бутылочные
F920
F960
F990
F975
вагонный
F820
F865
##х230х160
1280х150х110
твердосплавные
крановых
орнамента
разноуровневый
терморасширяющиеся
Резец
##сосной
двухлапчатое
2х35ок
F1220
F1260
F1290
выработки
закаленная
рентгенов
латексов
слабогорючее
упора
стабилизаторами
##x1102
200х200х6
кронштейну
сферическими
технологической
отходов
300х3000
приставной
приставными
##ообразная
зеркальным
F1550
жидкостной
2х25ок
ЛБО
неутепленный
углеродными
цельноотлит
антисептиком
керамзитобетонный
нулевого
F625
F640
F675
редуктора
алкидно
сопряжения
F760
МР25
##еприемный
латексной
ШМР
изогнутая
дождевой
##x1220
Б1800
зетовый
рупорный
компенсации
1000х390х610
EU5
EU3
F1440
АПвБП
МКПпАШп
F1330
F1370
Стержни
клеящим
абонентские
3ВСЭ5
РГУ
хладостойкостью
100х480
подвешив
##x1450
КППГЭнг
бункером
текстильных
##биты
трехслойной
звуковое
Центраторы
съемной
##99нж
30лс41нж
30лс941нж
30лс15нж
транспортных
3ПГ
F1160
F1190
варочная
##окислый
##форматные
землесосные
землесосной
F205
F2040
Инсектицид
1195х295х70
контроллером
высокогли
шлейфа
Пневмоудар
2х70мк
ДТ350
шнековое
элеваторные
переливом
16ч6
500х650
Умывальники
##одиспер
молниеприемный
проложенными
вагонеток
модернизированная
обогащенный
ступени
теплотрасс
электромонтажная
бортиком
бревенчатые
6х6Е3
Буксиры
ВБбШ
100х100х3000
1000х520
управляющих
компактная
1000х190х230
выравнивающие
мозаичная
F1610
F1680
Заводы
эмульсии
40с10
балконом
A335M
вихревой
Тягачи
носителя
пакетные
самовыравнивающ
пенополиэтиленовые
618x268
консолями
сегментный
пирамидальным
высокоэластичные
Таблички
дюралюми
фото
##орозетка
30нж41нж
клещевидный
2360x1180x2780
15ч14п
5х240мс
##МГК1
клетьевые
полиспа
подсвет
##х368х3
##иссуар
722х265х91
размыкаемыми
видеовхода
маршрутным
Береза
птиц
разрушающая
противоподкопным
ПРМз
шумоизолированный
медицинских
травертина
отсчета
поддержания
785x368x345
алифатического
2G11
НАСУС
РЛНД
Фольга
пять
синяя
сжимаемость
тыльной
сидениями
противоослеп
гиперпресс
320х535
F1880
паронитовые
тиоколовый
трапецеидальные
греющего
неоткрываемый
Доводчик
ТЭН
Турник
Х3444В
Холсты
костыльного
длительно
крутящий
градирен
кондуктометр
трудногорючего
475х515
переговорное
укомплектованные
хлорсульфированного
1ПКВтпнг6
Баббиты
Метро
МВССК
Т10У
бензи
войл
гровер
галерей
дежурного
кобальта
нелегированной
пальцем
пудры
ржав
сгоном
эваку
##ябина
##ктурной
отделителями
подверг
двухколонковый
45нж13нж
протекающих
Выпрямители
антиприсадочного
500х149х21
500х199х21
500х153х21
термоэластопласта
Лиственница
мелкоструктурной
Эмблема
Дисперсия
электроэнергии
маломобильных
Гидроизол
15кч33п
цельноотлитой
подвешивание
Пневмоударники
ВБбШнг
618x268x270
дюралюминиевые
0x10
1х2000
1х18
2х
2СП
2х240
345
422
4РГ
5Б
512
5х2х0
5x10
6И
7И
790
795
7x2x1
7ПКВКтЭонг
8х4
8х8
814
819
800х1000
9А
9Ф
9И
900х2100
At
B500C
HD
RG
R32
UT
Ас
АР
А72
БЦ
БГ
БЭ
БД
Вд
ВЭ
Веш
ВРА
ВВС
Вагон
Го
ГКВ
ГМТ
Д0
ДБ
Диз
Деф
Дрова
Жилки
ЗО
ЗД
Зуб
ЗПВ
К0
Кз
КПКВ
Комб
Мб
Мед
Муль
М63
М175
Моно
Нар
Олов
Олиф
Пла
Пакет
П35
При
ПАС
Позицион
РУ
РПВ
Решет
Р75
Соль
Сея
Топ
Т12
УМК
Ф4
ФТ
Ц1
Э1
ЯКГ
ам
бле
баб
барь
боев
груша
дей
жим
зонах
затир
ими
куст
каланд
луч
лап
ман
мяч
мона
новой
ног
неза
пру
позицион
руб
расти
решетка
ровингов
роствер
раков
соп
суж
суд
суров
суп
слива
тек
таймер
ур
урав
улав
физи
цели
эфи
этиле
№22
№14
##сер
##сет
##сус
##совый
##ненные
##оек
##ониз
##онок
##вент
##вЭВ
##видный
##тер
##тных
##товой
##тельная
##дус
##детали
##ило
##иро
##иент
##иновая
##аний
##кб
##кок
##чом
##чев
##чивания
##лат
##лым
##леты
##хма
##500х800
##У1
##ьми
##КШв
##320
##370
##3бк
##бар
##юля
##ювет
##4x2000
##4кп
##зыка
##щелевой
##xст
##8бк
##гра
##ТК
##ТГ
##ФА
##цети
##Рп
##ЖР
##RS
##эта
##эфи
##эx0
##×90
##номер
##нолеум
##назнач
##стал
ммx1
##ерными
##олю
##оламп
##ологи
##ористой
##амзит
##амитовый
##онская
##одной
##одинами
##енения
##руйные
##анных
##анным
##калива
##ляции
навер
##опитка
##азоли
##енизированной
##око
##езчики
##ровым
##ровое
##рование
##ралях
##мику
##отным
##откой
##отекстолит
раздвижные
разновысо
##очках
безр
безоб
бездоб
##остоек
##едление
##кови
##тирования
##евозы
##олированная
##еплеты
обвод
обоев
100х240
100x40
100x1000
100x796
100x596
100x996
100x600x2000
100x800x2000
##ловентиля
силы
##ющими
##елеукладчики
##ивного
##иверов
##альцов
выгрузки
##ходов
##ходных
##ходим
##ходовая
##рощ
##рофильного
кгм
10x2x1
12У
12°
1217
12x6
1275
дози
свеч
поликомпонентный
полиакрил
конв
концент
зак
##атура
маршей
подб
подлив
подпорной
подкрановые
##ождения
##00х13
трубчатыми
трубогибочные
осью
трасс
50х4
50х6
50x5
50х8
50x2000
50x600
50х3000
50x3000
50x96
50x796
50x600x2000
50x800x2000
##2080
##1040
##анию
20сп
2065
20х4
20Г2
20x30
основой
##прия
##пряд
железа
25х1
25х4
##озки
15х3
15Б3
1525x15
неэлектри
прокат
прогрессивной
проезж
однов
одновит
одну
40П
40К
40Г2
40x2000
40x1000
40x3000
16х2
алюминот
##учного
##учести
##х1400
##х113
прирез
Ст5
Ст4кп
##нгиб
1000х700
1000х640
замерный
замазка
замедление
1470
1435
около
##илированная
##80х1190х220
объемной
двухзаход
двухходовой
спус
спойлер
сменной
медленного
электроламп
500x190
500x300x250
500x375x250
##онасосы
каусти
30х35
##x116
ручная
ручное
##правляющ
##цовка
##лопроп
##литные
##литовые
150х6
150х65
150х400
150х100х
150х300х
полимером
установочных
установку
45Х
453
45Г
45х4
45x496
45x396
45х45
45x496x871
45x396x771
сварными
250х1
250x200
250х400
250x510
250x440x219
##x24
##x263
##ваемых
базовых
1100х2100
11139
стеклопак
стеклопластик
полкой
полус
резцами
70°
70x3
80х5
80х100
80х65
одноуров
однофид
одноэтажных
однополюсного
601
603
60АтV
60х27
##сиальным
водная
водовод
водостойкий
водоводяной
3200х1600
##ключить
ПВ4
теплоизоляционных
##атиновый
площади
##ВГЭ
##х29
##х24
##х228
##х275
##х242
300x190
отверстие
1105
110Я
самоподъемные
средам
##оприт
##опреобразователь
Смыв
Смесители
##отами
опис
##х34
##х335
##х385
033
стойкость
120x3
пена
коробом
1830
линолеум
резьбовыми
вермику
колец
крепких
278
27х2х0
высых
176
1730
Отбой
скреб
гидром
цветому
цветодинами
##ничные
пандус
9500
95x3
95x496x871
95x396x771
95x96x380
трехклавишный
трехрядные
трехосноориентированная
трехжильных
трехпряд
0170
синтетические
##ещаний
600x65
24М
244
шпинелид
##ующее
гибком
термог
724
центраторы
предназнач
предприя
660х300х
##чатки
##устри
проволочная
высокопроизвод
Переплеты
Заготовки
комплектный
08Ю
400х6
400х500
76х76
клеммными
##нж10
светлых
##итанной
##х43
песк
418
4198
щебнев
##борочные
круглым
газовая
газообразный
дрени
удара
##нодеревян
1082
##лейка
633
63х25
63х40
плиткам
серная
серого
балл
холодные
##x320
##x312
2000x800
монтажно
монтажных
##екторного
##вердые
##оперлитовые
видов
раструбно
##руемого
350x290
аксиальным
многокомп
применение
КВ18
цельное
цельнодеревян
333
##x500x780
дерево
##земных
140x146
##х620
##95х95
200х300х
твердыми
пониженными
резино
ЛКО
##иглиф
секцией
многопрофильного
упрощ
IIIО
IIIБ
расчетной
4800
полиэфирных
люд
непаян
##328
градиент
сердечника
892
89х8
КМЭ
низким
гидравлическая
надомный
смолой
КУБ
цельносварные
цельносварных
огнестойкость
##х520
##х540
380x70x1
антикон
битумоперлитовые
##офос
##офельного
600х1000
##x660
##x670
##x643
цинкового
##x445
##x492
500х4
500х550
500х750
настенная
556
ПвКШв
холоднодеформи
постоянной
групповой
##линты
нормальные
##х700х
унифика
##оловкой
##угольная
одноструйный
одноступенчатые
325х13
219х9
64П
159х5
368
##11бк
остывания
люминесцентных
межп
961
23000
грузовые
85x496
85x296
85x196
85x396
85x96
2650
Пропитка
##коразмер
Подкос
Подкрановые
Подогреватели
389
38х3
091
##нуты
поверхностях
Пускатели
вспененным
##27п1
глубине
глубинный
##x76
##x778
многоц
ответвительных
130x496
130x296
130x396
инстал
противопожарной
##x566
##x573
##x576
##оподогреватель
крестовые
железнодорожной
черт
черные
распределительным
ПСЛ
закрытые
коррозионностой
однопарный
подвесах
##летные
##летевозы
##x200x17
240х300
грунте
нереверсивные
термоизолирующий
гравита
кромок
КНтп
тонкодиспер
550х250
550x450x200
##х95х65
учреждений
##ствий
##ствием
эластичное
влагостойкая
тросостоек
Колена
##ризацией
ленточных
ленточной
эпра
геополот
крахма
09Г2СМГК1
##x400x710
штыри
738
297
293
Д1АТ
полюсные
ТСД
##стирол
##фальтоукладчики
062
069
вытяжная
ПР6
ремней
##оящий
##тогр
ПКНтп
136x496
136x296
136x396
136x146
скважинный
скважинных
штыревых
штыревого
гранули
обмаз
##енцесушителей
ЛСН
394
подъемные
РТТ12
монорель
СКМ
специальный
специальных
взрывом
взрывобезопас
742
ААШВ
##x300x640
составов
320х140
волновой
МКРЛ
фундаменту
##00х1300
230х113
входе
переднее
уксус
маслопроп
377х16
Вентиляционный
рекламная
##олимера
536
538
Составы
492
838
Наклейка
59x66
5949
59x142
59x116
выводов
ШВМ
дутые
полотенцесушителей
естественно
траве
##хлорвини
хвостовик
патрубком
другие
четырехтрубные
антикоррозионное
8680
##x820
предохранители
мелкоразмер
684
072
076
двустенных
М125
##озащищенный
878
двухкамерная
горючее
невыгор
F1000
##х65х95
##опроцесс
скреплением
устройстве
устройствам
ниппелей
подстоль
двуосноориентированная
920х12
врезная
врезной
врезные
кнопочные
КПСВВнг
КПСЭС
773
забивных
дренажными
втулками
НС35
Полусфера
АДМц
АДМг
ФКА
модифицированные
модифицированного
ЛПФ
81x142
тканой
чистовое
стяжка
трубчатым
К115
бурового
помещением
СБЗВГЭ
гипсометаллические
скобой
рельсовом
рамная
жидких
941
946
91x496
##опогрузчики
диагностики
поддоном
##x707
МГК2
МГТГ
полимербетонная
570х25
##21нж
отражателя
стеклохолста
стеклянных
510x80x219
желобчатая
4х2х1
##23нж
унифицированные
М12П
дефлектор
##x2194
360x160x90
168х18
Звездочка
пазов
прорезью
гальваниз
50x50x1000
50x50x2500
50x50x165
ПДН
ПОО
светильниками
светильником
14нж917ст8
14нж917ст17
14нж917ст26
мягкой
индустри
1х10мк
нанесение
двухсекционные
запорного
50x100x1000
50x100x2500
50x100x3000
50x100x165
горловин
100х80х3000
сополимере
мачте
нефтя
##x2050
фиксаторы
фиксаторами
СБПЗАШв
сериографии
бесцветного
1х2500
3х185мк
скрученной
детских
##х985
PPRS
20295
202x200
второго
метил
цепочках
##37х46
композиционный
белым
расширения
восстановительные
узлов
Столы
перемещения
молоток
молочного
100x300x512
142x146
##x1894
компрессором
крупноформатные
200х80х3000
Направляющ
атмосферного
атмосферостойкий
сантехникой
105x63x500
105x63x2000
105x63x1000
105x63x700
105x63x1500
105x63x900
105x63x1800
105x63x1200
грунтовки
дистанционным
днищем
1х1600
1х1400
1х1200
2П1
30с76
30с15нж
фиброцементные
стружкой
100x100x312
сердцевины
ЦП328
автоматизированные
доводчик
100x400x612
активатором
инъекционная
РТТ5К
420х330
КБП
ячеистого
необслуживаем
автономные
комплектации
4х70мк
800х8
800х400
насоса
насосами
КД3
шкафа
цельнометаллический
разъемом
разъемами
100x500x712
высоковольт
74x63x500
74x63x2000
74x63x1000
74x63x700
74x63x1500
74x63x900
74x63x1800
74x63x1200
военизированной
1х50ок
##СОЭ
закрепленные
эмалированный
структуры
дюбеля
разветвители
ЛЭП
выпуклым
коврово
37x63x1000
37x63x700
37x63x3000
37x63x1500
37x63x900
37x63x2400
пиломатериалов
Тепловентиля
300х80х3000
F435
уровень
40x70x2000
40x70x1000
40x70x3000
40x70x165
40x70x161
40x70x183
##ландцемента
37x60x1000
37x60x700
37x60x1500
37x60x3200
37x60x4000
сочлененная
КФЦ
200x200x412
терракотовый
192x196
400х80х3000
100x200x412
150x150x412
4x4x1
туалет
##х125х135
СППК5
вспомогательных
АЦСС
ДО21
СМ9
анодный
50x80x2000
50x80x1000
50x80x3000
50x80x161
50x80x183
4х185мк
ОДРСП
набивная
40x50x2000
40x50x1000
40x50x3000
40x50x165
40x50x161
40x50x183
40x50x254
40x50x263
35Т4
токопроводящая
КШУ
КСПвЭВ
зернист
40x40x130
Контрдетали
109x60x500
109x60x1000
109x60x700
109x60x900
109x60x3200
109x60x4000
каучуков
индикацией
гипсокартонных
облегченные
просечным
гидрофобизации
держателей
АСБ2лГ
рукоятью
фальшпола
микроф
прозрачными
винипласт
шипованный
огнезащитное
Кабина
Кабелеукладчики
нулевой
платиновый
седловые
мостиках
огнетушителей
фиксирующие
фибрилированная
натуральных
пенобетонный
нагельная
непроходной
штампованная
##рьковые
150x300x512
92x496x605
92x496x778
92x296x405
92x296x637
92x196x305
92x196x566
92x396x505
92x396x707
Стеклообои
5х25ок
Б2100
рукавный
хлора
западная
звукопоглощающая
предохранителей
##гораемой
укрепляющая
ИПЛ
Триглиф
150x500x712
150x400x612
Резина
ШКЛ
агрегатов
траншей
##олефинов
потребления
74x60x500
74x60x1000
74x60x700
74x60x1500
74x60x900
быстросохнущий
5x1x1
5x185
РС16
##хваты
стабилизатором
аварийным
11ч3бк
11ч8бк
нагнетательные
бутилкаучуковая
Ванны
11Б27п1
##ерстяных
вспучивающегося
поляризацией
##яхиванием
разрезным
поршневые
##x405x60
3А4А
пастообразный
15с52
затвора
совещаний
квартиры
5х35ок
Водорозетка
Водоподогреватель
УП7
##епарат
обычной
серебристый
алкидная
ИОСК
МР20
солей
сульфатостойкий
начальных
сверху
ЛНФ
ШМА
ШМБ
сцепное
указателя
изогнутые
##x1292
шаровидная
трехмерный
ФБС12
Автопогрузчики
бревна
текстурированного
душевая
ступеней
защищенный
расходомера
32х25х32
Геомат
F141
F1490
молоты
ошипованный
ошиповки
инерционные
МКПпВБ
0806
##зова
##атомитовый
1225х325х75
перевозки
Ст1пс
Ст1кп
45x796x1180
45x796x855
45x796x1171
45x796x1092
95x796x1180
95x796x855
95x796x1171
95x796x1092
95x596x980
95x596x714
95x596x971
95x596x892
95x996x997
95x996x1380
95x996x1371
95x996x1292
телевидения
600х400х50
600х400х60
600х400х40
низковязкий
аналоговых
абонентская
2НЖ
бачка
##зырьковые
нелинейный
микропроцесс
Катализатор
ПЛУК
##ейдеры
Ст6пс
поддерживающие
15кч18п
15кч18п2
вилочные
умывальников
1270х125х135
375x250x219
транспортерных
мембранной
ОДОСПО
ПЗС
колеса
колесные
цинкования
Приставки
рычаг
рычажные
ЗВИ
рефнеты
утяжелителей
##стряхиванием
контроллера
гранулами
карликовых
подставками
200х100х100
2x1x1
2x1x0
НБМК
РДП6
вварное
процессе
крюк
45x996x997
45x996x1380
45x996x1371
95x96x332
95x96x318
95x96x381
многослойно
штуцерно
центрах
неглазурованные
Микротруб
замкнутый
МГП2
вагонетки
модернизированный
обогащенная
Керамзит
коксо
фидер
##х145х110
45x296x671
37x64
РОП6
50x50x212
Буквы
агрессивным
батарей
картофельного
моторное
ротором
целевыми
щелоч
экономи
преполимера
1000х500х800
автомагистралях
примыкания
легкосгораемой
насадок
толстослойные
1000х380х410
2х150мк
5кН
6х8Е3
Туя
капсюля
45x196x571
45x596x971
1190х100х115
плоскостей
балконов
цинконаполненная
ударопрочного
КФДЦ
упрочненные
изогнутыми
590х595х95
вихревые
рессорной
тампонажные
8АтVс
Тяги
носиком
фторопласта
50x400x2000
40Т7
самовыравнивающиеся
шарнирным
непропитанные
консолях
такелажные
инициирования
инициирующего
АНЖР
веерного
молочным
пищ
##кгс
развальцов
1235х195х75
50x500x2000
50x200x2000
50x200x3000
50x300x2000
50x1000x2000
портландцемента
45x96x381
одноцветные
косоура
95x296x671
95x196x571
Защелка
Защелки
серьгой
180x50x850
180x50x1050
600х600х105
влагозащитная
гравийная
вращательно
50x100x328
625х625х75
40x70x273
40x70x274
50x80x283
50x80x284
11Б41п3
Вкладыши
ФРФ
мебельный
ресиверов
##ермитной
25ТСОЭ
16кч11р
00551
водоразбав
шпилевидный
КВПЭФ
Электрооб
ШВПВЭ
резервированием
370х565
низкоэмиссионным
лепестковый
оранжевый
Акация
ПХК
детонатора
ендовы
стирола
контейнере
16x2эx0
##x145x50
шпуровых
импульсные
50x100x303
эффектом
2А6А
648x395
нетокоограничивающие
дезинфици
кокосового
продувочной
ДПМД
Заземлитель
кальция
опускания
элегаз
##ются
отбора
1200х295х95
подверженные
двухголовые
прямоточный
45ч15нж
гидроактивный
непрерывного
перекидной
фосфата
зарядов
нетвердеющая
препятствий
ориентированной
4Д8
Рефнеты
анионная
гниению
рыхлители
рудничные
фартучного
холстом
##реловые
##P8C
##олекулярного
##олибденов
15Б1п
однокозырьковые
самостоящий
надпись
окончательной
легковесные
инвалидов
междугород
Световозвращатели
Оповещатель
непрозрачный
МШП2
вантуза
высокомодульное
##исталлический
Индикатор
химстойкие
тоннелепроходческие
Асботекстолит
Диммер
М9П
Ножницы
пустотами
пламени
роллетные
рихтовочные
селек
улиткой
##леплавильных
##окоррози
арболитовые
Струна
огнеби
МКПВЭнг
тяжеловозы
блокировками
настроечный
вибровстряхиванием
ПКВтп
разделанные
вязаное
полиспастный
гиперпрессованный
Асфальтоукладчики
Вагонетки
Дизель
Дефектоскоп
КзП
КПКВнг
Медь
Нарезчики
Олово
Олифа
Прицепы
Позиционеры
Решетчатая
аморти
бабочка
боевиков
действием
незакалива
пруда
сужение
таймером
урет
улавливания
целиком
##зыкальный
наверш
##азолинов
безобжиг
бездобав
100x1000x2000
100x796x400
100x596x400
100x996x400
свечи
50x796x331
15Б3р
неэлектрического
проезжей
одновитковые
алюминотермитной
двухзаходная
спойлером
250x510x219
водоводяные
Смывка
описанного
линолеума
Отбойник
цветомузыкальный
цветодинамический
термоголовкой
предприятий
660х300х95
419813
щебневидный
многокомпонент
цельнодеревянный
непаянного
градиентным
380x70x156
антиконд
холоднодеформированная
унификации
инсталляции
тонкодисперсные
550х250х260
геополотна
крахмала
монорельсы
320х140х105
230х113х65
маслопропитанной
59x142x150
мелкоразмерным
невыгорающего
КПСЭСнг
81x142x250
необслуживаемая
Тепловентиляторы
микропроцессор
Микротрубка
экономичные
развальцованным
незакаливаемое
0м
1x4
1М2
1ЛМ
2x50
3Х
3Н
3И
313
4600
471
4ПКВт
5х200
5х400
5х600
5МСР
5х800
6р
6К
6М
6k
6х1
6400
6200
616
770
7400
712
7700
7ПКВКтнг
8x2
870
865
831
868
916
914
975
900х1800
A106
CA
F17
F22
F32
F24
F19
F34
F66
G1
M5
M300
M250
R2
SA
TVI
USB
x25
±40
АУ
Аэ
Анод
Амми
Алюми
Б6
БЧ
Бор
Бач
Б1500
ВЧ
Вним
Верев
Верх
Воск
Гар
ЖО
ЖС
Жесть
И1
КЭ
Кноп
К17
КПВ
Л4
Л6
Лату
Л15
ЛМП
М5
Мот
МЭШ
ММК
Мазут
Нав
Н75
Очи
ОСП
Пс
П6
П8
П15
Плав
П11
Р57
РТУ
Рябина
СЗ
Сиф
СКС
Сплав
Сигна
Тн
Тз
Тель
Ук
У6
УСО
УШМ
Усили
ФГ
ЦТ
ЦИ
Ш1
ШЗ
ШПВ
ЭО
Эти
Э60
ап
анд
агл
амм
амп
аспи
боль
вост
гом
гели
громкоговор
гроз
дель
засл
ирис
коди
киш
кОм
лавки
лекальные
мети
мембрана
монах
оправ
отап
пист
пента
рк
ран
сы
сем
себ
сут
суш
снего
тюбинг
указатель
фуг
фонта
хва
шина
шинами
шерстяных
элект
якор
№24
№26
##са
##ски
##сина
##скользящ
##нУ
##нения
##нему
##жир
##жению
##оана
##ония
##оопас
##рол
##роподъем
##ридная
##рева
##ве
##вола
##валом
##т1
##теля
##точной
##ди
##ду
##дина
##иатомитовый
##уй
##уол
##уци
##уара
##упаков
##аки
##агой
##афт
##яемый
##кл
##кН
##мень
##мости
##менной
##мочев
##лт
##ХМ
##ХФА
##08
##530
##527
##пШп
##поко
##У3
##УЗ
##ОМ
##165
##ьи
##фрам
##фская
##функ
##КпШп
##9п
##бо
##бер
##блю
##бур
##бская
##бути
##АОСП
##6БК
##зания
##затор
##зун
##щенной
##820
##8Е3
##гут
##шению
##штырь
##ВЦ
##ФЭ
##цера
##Р1
##Р6
##ГТ
##ГГ
##ГИ
##С2
##С3
##±40
##ES1
##Эл
##Дх
##ДЛ
##ИО
##элем
##as
##us
##ME
##нопор
##натный
##ова
##сто
##стер
##нир
##нировщики
##еррос
##ора
##орегулятор
##лик
##ливающ
##омост
##одня
##леный
##аска
##кати
##ляционный
диаметров
##атков
##атформа
изв
##опласт
##оплиты
##оплетевозы
##ститель
станков
пряж
##окрыти
##абан
##есча
##ровка
##ровоз
##ровыми
##рализ
##раивания
##мерации
##ейкой
стиро
##лаг
##лачом
##очки
клы
класси
##итоп
##оствола
##едит
##едельный
##новаты
размеров
##иненными
##инфская
##олива
номера
обив
обоз
оберт
##лоны
100х2
100х600
100х63
100х900
##ющейся
##ивочно
##ивании
##рованными
##рованном
выправ
выда
##ходовый
##роката
10а
10Т
10Б
1030
1040
12В
12x1
1290
12х12
12кч
полиола
полиминер
полисуль
полимочев
##ружной
##ружиненными
концов
залив
захват
##амида
давлений
подфор
подкра
##нитура
##00х16
##00х11
трубчатую
трип
раскат
распростран
504
50x3
##фильный
перех
##ольфрам
##205
##20x2780
коринфская
горкой
горками
стену
20x50
20х15
##ечными
##роводной
железный
25х32
25х17
##осиликат
Трубоплетевозы
##исторные
##истокислый
15х2
необр
##илокс
исходной
40У
404
40х17
1660
16x16
1600х2000
16кгс
шины
##х170
##х172
0016
##ановый
1000x1
1000х200
1000х300
1000х500
1000х800
1000x650
замен
замок
замков
замковая
1440
14x2x1
кратков
объемного
двухпол
двухлин
двухтрубные
двухфланцевый
двухупаков
спир
спуском
смоля
смешивания
электростан
электроста
темных
500x1
500x2000
##онаблю
горячий
калачом
30М
30Т
30x1
30х8
30х20
##25нж
90х40
90х90
90х56
комовая
1310
1316
13ХФА
##нопокрыти
##урик
прямолиней
##603р
150С
150x50
150х300
150х90
1505х195х75
200x400
Корчев
400с
400x2x0
455
451
##нительные
250х500
напряжении
##x2250
##ванопокрыти
1160
1130
##катная
##кателя
резанная
705
703
70х12
70АтV
801
80х6
80х12
80x40
80х32
одноряд
однооснов
однорукояточный
##ебных
6030
60х30
60x27x0
##сии
водопро
водораст
##елях
трубопроводы
##пуск
моющиеся
##зирующая
опору
##олокнист
327
32х4
32x3
ПВ2
повышение
##х235
##х2800
300с
300x150
300x300
гермети
места
300х500
300х100х3000
110х3
110х50
110х75
средние
Излучатель
352
35x15
35кВ
##ливной
опира
120х228
привед
пенод
##ильной
181
189
18сп
усовик
успоко
резьбовых
верт
##903р
коле
контактно
271
27x2x1
##ционное
Открытая
защитовые
##ничный
панелях
75х20
75х75
952
трехрожковый
трехкомпонентный
##иленые
600с
600x3
600x400
воздухоприт
247
24ч
24А
246
##ленной
прокола
накле
соединенной
##енья
шплинт
##ующие
связями
канатом
канальные
анкерное
##чатой
кНм
2240
гладкое
красителя
1930
19ПКВКтЭнг
19лс
вставки
встраивания
горячеоцинкованные
стеклопластиковом
комплектующих
082
21x2x0
герметичные
коллекторные
400х800
400х100х3000
дорожным
винтовую
##х460
##ивающийся
41х21
щебня
659
65°
65х12
МКТС
тяжелый
газоснабжения
газопол
газосиликат
160х100
160х110
160х350
дверная
трансляционный
нагрузку
песчаного
вентиляторов
63x2
плитой
сереб
сербская
0368
баллов
балочная
##227
##2250
125х125
жесткое
слое
885
изолированной
573
574
57х140
##оперфор
3000х4
3000х200х
450х900
вводная
350х70
##ошка
##ошип
##ошерст
СТп
лака
КВЭл
338
140x120
140x200
140x160
140x230
Компонент
ствол
##х62
##х635
200х250
твердости
пониженное
понижающим
фракции
180х110
##игельного
автоматическом
потолоч
587
секционная
ПБ30
ПБ32
ПБ44
отделочная
порошковый
мали
IIIС
Выход
сборка
28000
28x27x0
487
482
48з
деревянного
механических
273х7
скольжению
СПСМ
верхними
неполированная
периклазох
одномач
сигнальным
89х4
89х9
##роволочных
сетевой
##рицид
##удование
гидравлической
надземных
приводов
##формации
огнестойкая
##х109
##х53
противогр
380x200
380x180
антискользящ
##аботанный
лопат
600х5
600х6
##x68
##x435
##x484
настенно
55x50x28
ПвБШв
630х10
стыками
##х780
комбинированным
удлиненной
219х25
электрическая
межком
тонкий
хватом
легких
легированных
клею
Разделитель
261
Подлож
Подогреватель
Подмости
093
629
отношению
поверхностный
двухдис
резинового
вспененный
пружина
глубин
измерительная
керамических
468
многофунк
шестиугольник
##никах
##никающая
колодками
жалюзи
инерт
информации
##x540
##x565
##x545
рельсос
печи
печати
##х82
##х850
##х860
шестигранника
ПС2
ПСК
равная
пластикового
торцом
стеклошар
Крестовины
##оксил
навесного
коротыш
528
52х4х1
АСКП
##язочная
редуци
тройная
пластиком
пластифика
##x100x219
Геотексти
шарнирный
530х172
продольно
##ПБФ
##x200x80
усиленной
БСт3
БСт1
КНП
домик
домоф
прессованная
550х550
550x250x260
РК75
блочно
пористые
пористого
426х9
эластич
эластичного
литров
##1450
ленточным
двухкомпонентные
краны
пленкоп
промежутка
эпоксидного
эпоксидное
прокладке
свинца
Манжеты
выходов
выходами
штырная
291
2950
44±10
звена
звсб
АППВ
##x2520
478
##левый
ТСЗ
накладка
асфальтовая
линейных
линейным
промышленной
промышленные
Электроплиты
##кидные
ПКН
скального
56х36
обмоткой
##x604
распашных
##циональные
КВВГЭнгLS
угловым
шайба
стыковки
магистральное
СК2
СК3
СКПУ
специальным
взрывной
747
древесно
##x105
##x300x219
составы
волны
нити
МКРПБФ
крепежными
механизированной
вращающ
камерных
среднем
передвижная
водоструйный
экструдированный
##овозы
масл
377х13
377х14
силикати
4960
593
594
поликарбонатный
Стабилиз
стре
стрела
искрового
787
ШВК
##x98
игровыми
берего
четырехлучевая
четырехкомпонентное
вентилируемого
##x880
Колодки
рельсовыми
##копортландцемент
##38п
хромированная
поливинилхлоридная
поливинилхлоридные
двустворчатые
механизмов
ВТ15
фиброй
114х12
штангу
штанга
877
КОп
КОг
КОР
штуцера
откидные
1800x600
взрывозащищенном
ударные
гальванопокрыти
##опроникающая
остекленное
сквозь
стеновых
920х11
##40x1500
силикатной
##ембраной
видеонаблю
полотнами
ВССК
дренажная
дренажной
Ползун
вибраторами
шинными
штукатурная
бумагой
50х50х3000
скрытый
скрытыми
АДК
АДР
помощ
стрелы
модифицирующая
Окна
Расшир
шаге
кремовая
кремния
трубчатого
4х4Е3
органическом
##х3000х730
##х3000х580
##х3000х760
рама
улиц
отдельностоящие
обрезной
ПТУ
охранные
##x1650
МГК1
полимербетонные
металлопроката
100х50х2000
петлев
натриевой
780х2080
выключатели
заглушками
510x100x219
пропитанных
плавкой
плавленый
пароизоляционная
Термопреобразователь
900х500
900х800
900х700
матовой
##18бк
ответного
унифицированной
морозостойкий
кварци
##МПР
Звенья
ПМК
восплам
конденсации
адгезион
герметизирующий
герметизирующей
мягкая
Растворонасосы
глиноземистый
глинопор
карнизные
3х150мк
запорными
##опоритовый
любого
любых
присоединительный
СТД527
УЗП
##ручивающийся
импульсных
700х600
неподвижного
1200х600
1200х500х
1200х1200х
холоднокатаной
холоднокатаного
Штанги
дизельное
нефтепродук
МП20
##х99
##х900х
##х920
пристенные
магнитной
планки
перегородочные
временные
##фталевый
калия
метакрилата
цепной
Детектор
Подвеса
##x188
##x1850
эффективным
2x2x1
Нагрев
выносным
нагревательного
знаки
двусторонняя
двусторонние
резервное
тиксотропная
аккумуляторных
3x2x1
земля
стружечными
цинкнаполненная
3х240мк
доводчиком
изоляторы
лестниц
лестницами
шланге
разъемы
укороченным
вязкости
нейлоновая
##ично
закрепляемой
2х4М2
2х4Е3
УТЦ
коммуникационный
1х4М2
1х4М1
ВАГГ
САУ
30ч7бк
дюбель
пневмокамер
иглопробивной
финишных
финишное
##х100х100
остря
4х120мк
сочлененных
термоусаживающиеся
670х100х110
наборной
4х150мк
колонковые
колонкового
колонну
2А4А
телефонной
древесностружечных
антивандальным
пиломатериалах
СМК
поручни
поручней
одноместный
демпферные
ОДАОСП
ШУЭ
многоцветные
##вающийся
баков
овальные
сильфонные
35Т3
протяжной
200х100х3000
КСПЭВ
негабарит
никеля
НКУ
планочный
плафона
##рельсовые
1000х290х230
1000х290х430
4x1x1
4x1x0
595х605
ответвляющего
эксцентриковый
рукохода
КЦП
ГКЛВ
нумерации
платформа
седельные
##х190х95
тупиковые
паропроницаемые
метрополитенов
улучшения
свайно
##x1320x2780
ОКГЦ
пространственной
690x335
Б220
Б230
тумбовый
Ат600
Ат400С
ИПУ
1П60
мусороствола
##очастотные
волнистая
никелированная
гимнастическими
БНТТ
1320х310х100
5x1x0
Тюбинги
брек
стабилизированным
17с21нж
17с23нж
2УГП
2УВП
2УНП
едкий
сумма
11ч6БК
11ч18бк
параметрам
##лацетат
БЗ26
подкладкой
импостами
ГВУ
разрезная
разрезки
трамвайный
3А2А
камерой
пастовый
паркетные
паркетного
фосфорнокислый
МШК2
ОТ350
СНА
##АТИМ
##47нж
неутепленным
Крепеж
цельноли
антисептический
КСФ10
##x205x90
Лестничная
нулевая
Шарнир
перепадом
абразивный
четвертью
солом
сверхпр
коньковая
аргоном
##x170x505
УГВн
УГНар
595х595х42
латексированный
суммарной
6АIV
ванн
изливом
129x380x219
прямоструйный
трехмерно
Автогид
бревно
бетонируемыми
текстурного
текстурным
нишу
титан
титановые
калиткой
19с53нж
19с17нж
19с47нж
переключатели
специальными
междушпального
междушпальных
3x1x1
3x1x0
мозаики
концентрат
проникания
F137
МБР
извещателей
перевязочная
Ст1Гпс
ЛКПн
592x592
Грязевики
абонентов
катушка
козырек
1285х205х90
##x1920
36920
глубокопроникающая
ГТП2
ГТП1
Барабан
СФТК
текстильным
заполнителей
25х20х25
##x1404
звуковой
карбониз
15кч18р
15кч18п1
785х368х3
ASME
вилкой
оттяжек
оттяжках
неорганическими
водоналивной
веревочная
углекислый
транспортером
500х537х46
ОСГ3
3ПРГ
6х4М2
6х4М1
Ковер
обезжир
перегрева
перлитовые
2500х1200х
1400х2080
малос
ПСтО
ПСтО10
звенья
выпускная
рычажный
ЗВУ
котла
прокалывающие
двухуровневый
контроллеров
заземлителями
карликового
700х500х50
700х500х60
700х500х40
200х100х40
дождеприемный
дождеприемного
шлейфов
шлейфовый
Е116
ОЗС
РДС
шнекового
захвата
крюком
32х20х32
содержащая
штуцерное
Тележка
неоткрываемые
1БДР
2КД
свойства
плитняк
звукоизоляции
платформы
Погружной
САСУС
грубошерст
дезактиви
криволинейного
БрКМц3
азотистокислый
фунгициды
1хRCA
1хHDMI
980х2080
ЩУРВ
моторного
складной
33а17р
33а603р
33а903р
насадки
адресные
асбестоцементных
безбалластной
дискретных
4НЭ
Аммонит
ДПЛ
ксил
щеточный
этиловый
10УЗ
широкий
широких
1190х75х100
экструзионные
плоскостях
потенциала
500х500х100
тонкослойные
ШВПНЭ
цельнолитой
445x170x505
Шахты
глянцевый
столиками
пенополиэтиленовый
200х600х200
червячные
непропитанная
Кондуктометр
Газоана
Шлакопортландцемент
дюй
льня
оператора
солемер
фотолю
20x20x40
##ПКВПтнг
пленкообразующая
вращательного
Коуши
объединением
объединенные
органоминер
15ч14бр
Графит
ЗЩ1
ЦАГИ
ШОВ
прядевых
20х16х20
16кч9п
водоразбор
шпилечный
одностворчатое
бурильно
резервирования
низкоэмиссионными
1х300мк
Грузы
Дверь
ЦАСБл
ЦАСБГ
подпружиненными
распыления
окружности
окружающей
бескаркасная
бескаркасных
нейтральный
инъекционных
15кч16нж
15кч16п1
набрызг
набрызга
высокоогнеупорные
полуплощадкой
полуплощадками
теплозвукоизоляционной
4х8Е3
ЖКХ
Клинья
генератор
кипения
лаванда
негорюч
пунктов
слюд
тиристорные
приподня
150Пк
полезная
полнопиленые
Прижимы
пластифицированный
междупутного
автополива
рентгенозащитные
шестеренная
Вибропогруж
истиранию
Ревизии
источника
победит
подшипниках
полутвердые
усадкой
Переключатели
500х136х14
трещиноваты
Двойной
полукомпенсированной
молниеотводом
приклеенным
РМГУ
углекислотный
4ПКВПтпнг
Сирень
Э50А
Э42А
белой
вписанной
вулканизационные
дуплексных
коксовых
локомотив
хризотиловый
стульчик
конвейерных
огрунтованные
полуглян
##рамбовки
колоннами
кулачковые
прослойки
просвечиваем
мгновенного
рентгеновские
40с10б
подсветкой
противоослепляющ
эвакуационные
лучам
монашка
суровая
безригельного
конвекторного
подбивочно
1525x1525
16х2эх0
Ст5Гпс
##х275х140
трехпрядная
высокопроизводительного
пескобетон
упрощенные
гравитационные
##хлорвиниловая
индустриальное
нефтяное
микрофонная
Электрообогреватель
междугородные
огнебиозащитный
навершия
безобжиговая
бездобавочный
антиконденсат
CAT
SA106
Аноды
Аммиак
Алюминий
Бачок
Внимание
Веревка
Верхний
Гарнитура
Латуни
МЭШДЛ
Очиститель
Плавучие
Сигнализатор
Тельферы
Укрытие
ЦИАТИМ
ШЗВ
андез
аглопоритовый
аммония
аспирации
больничный
восточная
гомополимер
грозозащитный
заслон
кодирования
кишечного
отаплива
пистолета
себя
фуговочные
хвата
электровоз
##оопасных
##роподъемники
##штырьковый
##элемент
##ерросили
обознач
оберточная
выправочно
выдачи
12кч11бк
полиминеральный
полисульфид
подфорточной
распространения
необработанный
кратковрем
двухлинзовый
двухупаковочная
электростанций
электросталеплавильных
Корчеватели
однорядной
одноосновная
водораствор
120х228х99
пенодиатомитовый
усовиками
воздухоприточная
красителями
19лс53нж
газополные
газосиликатный
периклазохром
одномачтовые
противогриб
380x200x219
380x180x219
Подложка
редуцированный
Геотекстиль
530х172х84
пленкопористой
звсбз
гальванопокрытием
видеонаблюдения
Расширитель
глинопорошок
СТД527А
пневмокамерами
ОДАОСПД
плафонами
690x335x310
Автогидроподъемники
785х368х345
грубошерстный
дезактивируемая
Газоанализатор
фотолюминесцент
Вибропогружатели
трещиноватых
0п
0x2
0x6
0х200
0x16
1с
1У
1x7
1ПКВт
1х19
1х4х0
1x2x1
1x55
2ж
2е
2p
2x6
2x25
2х185
2x16
2x18
3т
3а
3x
317
3x150
3x120
3x50
3900
3КП
3x95
3РС
3РГ
3ПКВКтЭонг
4с
4т
4Р
4U
4x18
4ПКВКтЭонг
4Та
4ПКВтпЭнг
5Т
522
513
5ПО
5ПКВКтнг
5ПКВПтнг
6Ф
6600
6х0
612
6x4
6x80
6ПКВКтЭнг
6Та
7П
7A
700х3
700х800
700х1000
700х250
700х2х0
8м
8С
8Н
8х1
8х0
8х100
827
800х250
8фэ
800х2х0
8P8C
996
9200
985
9700
900х1000
900х250
Al
B35
Bas
DT
DC
G23
MG
M500
PAL
R9
RW
SM
TN
Vу
VТ
x32
±36
АИ
АКБ
АОС
Боя
БК2
Ваз
Вал
ВСТ
Вода
Ваго
Виш
Вакуумметр
Ваза
Включить
Гель
Гоф
Газон
ГКП
ГНУ
Д5
Дб
Д20
Дуб
ДВП
Делини
Жим
Жгут
ЗР
ЗН
Заг
ЗКВ
ИМ
ИЛ
КЖ
Кры
КВГ
Километр
Л11
Лаги
Леса
Ми
Мы
М0
ММ
МФ
Мост
М60
Маг
Механи
Мука
Моди
Масл
НА
НF
Нап
Н35
Н11
НПП
Неров
НПО
Н153
ОСТ
Обор
П50
П10
Пил
Пак
П40
Пести
Пено
П21
П18
Пунк
РФ
РЭ
РЕ
Роза
РЛП
РЭС
Сол
Спр
СКБ
С44
СЭф
Сепар
Ти
Т25
Тяга
Т62
ТЭС
Трамбовки
УШ
УР
УКЗ
У19
Ф2
Ф1
Ф6
ХК
ХН
Хок
Хлор
Цент
Цвет
Шпа
ШРП
Штап
ЩМП
ЩРП
ЭВ
ЭИ
ацети
басс
биб
баг
бута
брыз
вал
веш
ваго
вольфрам
дер
дев
дух
достав
днат
данных
ее
жи
жак
иль
ива
ионическая
ингиб
кка
куб
косы
карьер
клави
котор
ле
лев
лож
ланд
лебед
лома
мэ
мам
мПа
мочев
мембраной
оф
пам
пед
пая
поль
парк
пень
пала
писсуар
рв
риз
реч
рого
реци
рути
ранд
режущ
сч
сель
слт
тс
тет
там
того
торм
тяговый
уборочные
ухваты
фла
фист
ферм
флиз
фекальные
худ
хриз
хреб
цех
целей
шер
шлан
элев
яп
№80
№90
№100
№23
№33
##79
##74
##сн
##сфор
##смин
##секционный
##сарный
##нки
##нение
##нном
##нты
##нпропиле
##жка
##жат
##жение
##жил
##оит
##оап
##оаминов
##рин
##рными
##вни
##ватели
##ватом
##еу
##еев
##еек
##еолит
##тые
##товых
##тельный
##турой
##тельного
##тельной
##дно
##дом
##дная
##дорож
##довый
##довым
##ила
##игруз
##ирующий
##ируемый
##упа
##упроч
##аца
##яв
##кей
##кручивающийся
##ч2
##ычки
##мб
##мот
##мута
##ментов
##муника
##02
##04
##хождения
##2Е3
##2x341
##580
##5х330х70
##под
##позит
##пензия
##О21
##фа
##ПЦ
##К4
##93
##990
##3сп
##блок
##брас
##блон
##бжение
##юра
##АБл
##АКпШп
##4нж
##600х800
##6Е3
##6х410
##зот
##зад
##зации
##зрыв
##гат
##шафт
##ВК
##ВЕ
##цам
##Ш4
##±50
##S0
##SL
##Эп
##ЭBЭнг
##ИИ
##эти
##×68
##×97
##°C
##нав
##наб
##наторы
##овом
##овками
##оводу
##стная
##стры
##стерс
##стротверде
##станав
##стака
##льно
##льки
##ниц
##ническая
##нирования
##ертка
##ерсии
##етру
##етил
##олость
##ораж
##амми
##ойники
##лиот
##личи
##омсополимера
##одный
##одных
##одителя
##лена
##асовочные
##енники
##анка
##анное
##капс
##катив
##качивания
диамм
нагр
наголов
##ато
##ать
##ативного
изверж
изготов
избир
##опасности
##опонные
##опатели
##опуском
##ельвет
##ельники
##ельская
##арки
##арные
##азован
стаб
стары
пропиле
прораст
##роврод
##ассажир
##отруб
##откая
##отверж
##лак
##рыски
разгруз
##очек
безлот
безвор
безвозд
##ителе
##еда
##едки
##едений
##новое
размер50
##обитум
##ководителя
##евидные
##оливини
##носторон
облад
области
обжим
обзор
100М
100x60
100x10
100х30
100x496
100х300
100x296
100x196
100x396
100x20
100х500
100х1000
##кообр
силан
##ющихся
##ивы
##екучие
отв
##алки
выпрями
##роечных
##ронах
##ронаторы
10х8
1024
10х12
10x65
10ПКВКтнг
12Б
1222
12800
12x2x1
1200х1000
полив
полиров
полированный
полиакри
полиолефинов
##изоновой
конту
конечных
констр
заколь
запорная
заливки
##атурой
##коммуника
подав
подогрева
подъезд
##ожеств
##00х80
трубах
осна
осевым
трев
внутризоновой
распорка
раскладка
##полага
##нда
507
502
50Ш
50х7
50х12
50х200
50x496
50х250
50x596
50x72x150
50x46
50x72x250
##филь
##фини
##фические
перси
первич
перчатки
перхлорвиниловая
##ольное
##204
##2050
корок
корейская
20К
20А
20Ш
20Б
20С
20x2
2090
##шенной
типового
257
25x3
2500х3
2500х2
2500х1
25x40
2592
25ГЮ
##оски
##озитный
##ознав
поковками
##истые
##обетонных
15в
15x2x0
15х10
1526
15ПО
1500х2100
1500х1300
неопро
неогранич
нежил
проек
прокатной
##ъемной
одеж
40х6
16x1
1625х150х220
алюминированным
Плинты
##х1700
##х155
пригруз
придорож
арамид
##рава
00Б
##нга
##нглик
1000x250
1000мм
1000х600
1000х63
1000x550
1000x330
1000x430
замковым
14x2
окр
оксфор
кВа
##нец
##80х230
двухв
двухзаходный
двухлопастное
двухотводной
двухщелевой
устоев
кати
катион
катодной
##ида
справа
смола
сменными
медь
электронные
электропо
электрогид
темная
500x300
500x65
30У
30з
30х0
30кч
30x2x1
30x72x150
##x112
##x135
##x1150
##x128
##x175
##x138
##x144
##x1350
ручки
905
##ерикл
1380
1330
1317
1300х2100
1325х150х220
##ноплод
##цованный
ширма
##лополивини
##урок
##60В
##литобетон
##литочных
150x100
150х60
150х250
150х500
150х195
150x72x150
полимерную
установочная
200с
200М
200x50
Короткая
400x600
400x65
400x470
4500х1980х300
##уги
250x400
250х125
напряженного
##x21
##x265
##x285
##x244
базовый
##катели
полом
полной
полами
реза
70х50
70x72x150
70x66x150
80в
80А
80С
80х1
80мм
однот
однотарифный
одноотводной
##ебающие
60Б
60С
60х16
60х240
##сичных
водосбор
##рышник
##70бр
коврол
322
321
32000
32x1
##чающий
повышенная
повышенным
##утных
##ушного
гранитные
30000
300x50
300x100
300x65
местный
300х100х
##Х12Е3
##тывающих
профилю
110x60
110х80
110х90
##опрепарат
##опригруз
Смычки
357
353
3550
клинообраз
опт
оппозит
опознав
изоляционных
##х340
##х395
##х300х800
##исперси
0338
120Б
120С
120°
120х12
18А
1880
1840
18х2
18ч2
лицевая
токов
переходники
колос
соединительных
27У
27П
2714
##ционным
17нг
17Г1
террас
гидрат
гидроп
ковшом
##рующимся
##ластиковая
752
755
753
75х63
шарошеч
95x496
95x396
трехосной
0115
0168
синтетическими
600x200
600x350
600x450
600x599
воздухонепроница
воздуховоду
24x1
24x2x1
системный
подключаемых
##ованно
шплинты
IP21
##симетри
##агнези
канатного
канато
максимального
728
##крыв
##крываемых
##уста
высокорас
высоконаполн
220Ш1
22П
22ГЮ
парог
парковый
парковое
цементная
19x2x1
19ПКВКтЭЭонг
##айны
##айклер
комплектное
084
088
##огрунт
211
2180
2170
400х4
400х300х
условных
76х5
клемма
свету
светоот
зажима
##х445
##х400х3000
##х400х350
экраны
411
##ягкая
##устить
656
6500х1980х300
МКМ
##иратели
160Д
удельного
удельным
удлинитель
дверок
дверью
##изводительности
10800
108х2
800А
##12п
632
636
638
63х50
плите
серия
сервер
проходке
балочно
баллон
балласта
холодопроизвод
##x38
##x344
##x392
##x362
##x391
##x347
##x385x23
125х65
1255х330х70
1200x400
1200x740
2000х50
2000мм
фасада
монтаже
изолирующие
изолирующих
571
5700
57х6
видам
424
42U
3000х500х
3000х300х
372
373
376
3750
450х50
450x450
450х1350
450±50
примесь
350x490
350х400х350
активный
аксмин
приварным
СТУ
СТВК
КВР
КВ24
КВЛЦ
332
СБн
проточного
##x500xН
муфтовой
высокопрочная
##х680
##х675
##х600х220
200х600
200х400х800
200х600х800
твердость
ЭПС
вентиляционными
секционное
многопутных
ПБК
ПБ3
ПБ50
ПБ60
ПБ70
ПБ65
ПБ71
ПБ28
ПБ68
ПБ63
ПБ59
ПБ66
ПБ21
ПБ55
ПБ67
ПБ52
ПБ58
ПБ62
ПБ29
ПБ56
ПБ64
ПБ72
ПБ54
ПБ57
ПБ53
ПБ61
ПБ69
ПБ51
##полье
телекоммуника
порошкообр
встроенные
сборное
полиэфиров
286
формами
формах
сухарь
сухому
состоит
люков
273х6
273х30
СП150
##чиевидные
блокировкой
ППВ
##16нж
891
898
сетками
сетевым
гидроизоляционного
КМК
КМ3
построечных
##равлические
##удерживающий
##удронаторы
кровлей
надув
измеряемых
измеряемый
очистные
##ерсивным
##х59
##х570
700x400
700x700
700x450
битумосодержащ
##аботанном
##x150x2000
ячейковые
##x635
##x644
##x692
##x42
##x49
##x4200
##x431
##x444
##x485x23
500х28
500х600х
500х450
557
559
5500х1980х300
постоянным
630х530
630х295х75
гофротруб
1570х230х160
##незитовый
КСС
КСВВ
КСБнг
КСВВнг
КСВЭВ
##85нж
##85х30
##85x635
брусками
брусьями
удлиненные
##олоты
##олотом
##гибридная
наклонным
325х325
электрическими
бесшовное
361
3600х1800
люминесцентная
мостах
межколонные
поперечинами
##ажей
##ашковая
1500мм
967
1020х12
##х1600х2300
клеевая
237
2350
грузо
гофрированного
балконное
##низких
267
##корегули
Подкол
Подготов
##х120х60
384
38х105
38х38
094
098
624
628
рулонной
рулонного
уголков
341
349
##никовые
работой
спиральной
0567
##х150х65
##х150х3000
обратным
пружины
##x792
##x754
светодиоды
469
464
многослойная
130x25
130x72x150
130x66x150
шестизначный
колодцы
109x72x150
инсектицид
##x5000
##x570
##x527
##x568
##x544
рельсо
взве
133х7
##х830
магни
магнезитовый
черноплод
ПСБ
##одержатель
армированием
армированными
равно
равносторон
##х70х115х60
сжиж
полиуретановом
полиуретановое
торцевым
тораца
047
52x54
750х116х130
уплотня
##х1950
МКСБ
МКСГ
подвесами
подвесными
тройное
тройниковый
тройниковая
225±30
##x1005
530х10
продольный
бородав
##ПБбШп
##x200x300
240х240
грунтоцементных
термоактиви
термоупроч
514
51х51
ассиметри
КНЭ
фанерными
IP55
5000х1350
5000х1050
5000х1950
доменного
550х450
550х116х130
учебных
блочная
426х45
4000х1600х2300
эластичной
543
литопонные
##14нж
Комплектующие
##щика
ленточная
##оксида
геокомп
краям
крафт
крановой
дисперс
сплошной
промежуточный
промежуточно
92x96
ребер
кронштейне
##ециальное
станционные
станцией
вибра
734
##кардовым
обшивками
292
2944
АПР
472
47x75
##00х360
МЛСП
ограждение
автомобильный
437
439
патронах
061
IVу
конусами
ПР2
ПРР
##х205
##х20х16
ССВ
Электроблоки
Электропанели
реаг
скалолаз
оборудованные
орех
полосой
РОА
РОЧ
##х1280х230
воздуховода
ЛС63
820х11
картридж
карельская
опалубочными
397
392
398
асфальтобетоне
дымовой
СКФ
специфические
взрывных
746
##яющая
ТЗБГ
составной
составным
320х425
320х380
320±40
нитки
ниток
МКРТУ
посадочный
##00х165
камень
камню
115Н
115х57
115х115х60
115х115х40
230х230
РПУ
входных
##параты
столбе
реверсии
реверсивным
водостока
неразрез
маски
377х8
микровыключ
часов
добавки
запирающей
49x40
4900х16
83х2
599
598
5950
5960
59x72x150
Стар
Ставни
сдвига
783
##x94
##x990
##x985x635
полотно
игровых
игруш
разделя
четырехст
четырехгран
четырехканальный
четырехмест
поливинилсуль
##x87
##x84
##x840
расположении
рельсовый
звукоизоляционная
68x68
074
хромосодержащ
хромитоп
93А
936
статического
676
ВТФ
ВТИ
ригельной
желтые
несъемной
послед
##енсер
114х53
штангой
парапета
КОД
6160
61х4х0
теплоноситель
фильтрующей
натяжные
натяжного
кирпиче
##х65х135
ультрафиолета
скрепленный
действующих
подстолий
сдвоенных
двуосной
двуxст
витражей
струи
газонной
всем
вскрываемых
рядов
##44бк
кривых
кривошип
центру
центровая
84x5
##x3550
центробежная
НСБ
нагревателей
штукатурных
260А
подводной
165x72x150
165x66x150
коммутационные
модифицированных
сверли
парапетов
парапетом
зонтов
зондом
Раскладки
растворимый
растворителе
отдельных
тканые
конструктивными
стяжкой
буровую
лаке
##быстротверде
морской
скобами
тавровых
ламинированным
жидкок
200х50х3000
##x496x495
91х0
91x296
91x196
91x396
91x96
ЗП300
ЗП400
метизами
##х30000
ПТО
ПТР
##ляемым
плинт
однопутной
однопутных
Диски
100х50х3000
выступа
динасовый
петлей
Д315
трехстворчатая
Рулоны
780x600
780x920
780x954
смотровое
светофорах
заглушка
стеклянные
Котел
2400x750
71х71
скатных
желобчатые
900х300
900х200
900х900х
сливное
использу
МЛСУ
3х4М2
3х4М1
прутов
прутковым
прутьев
троллейбусные
лифтовой
лифтового
морозостойкости
##вании
треугольная
##окойной
ПМИ
ПМВГ
ПМЛП
паза
##андоап
пробками
50x50x150
50x50x27
50x50x341
50x50x161
50x50x183
50x50x254
ПДСО
восьми
восстанав
оголовником
##x296x495
водопроводный
герметизирующими
##оцид
Стеклор
##x396x495
270х116х130
27087
индук
кузова
сторонами
силанов
50x100x341
50x100x161
теплопроизводительности
Люстра
Люльки
ФБВ
кислор
химическим
##рабатывающ
штепсельный
ПФК
нефте
Горелки
заведений
##x20x40
##x30x1920
устойчивое
скамейкой
скамеек
700х300
700х400
700х150
700х900
710х310х100
540х1280х230
1200х600х
дизельных
электротехнического
опрессовочные
отбойная
132x110
масляный
##фланец
1000х2100
##епроницаемых
Спец
Специальное
кладочных
калибр
калиевого
светоотражающими
1х6М2
1х6М1
ДН19
метакрил
##37п
металлоконструкции
расширенной
расширительный
расширяющийся
152х2
152x500x780
152x400x710
152x300x640
ТЛВ
узкий
узких
ВСт3кп
ОПС
ОПРСП
молота
100x300x405
100x300x510
142x496x495
142x296x495
142x396x495
300х50х3000
выносной
520х900х
АЗС
105x63x3000
105x63x2400
105x63x3200
105x63x2600
105x63x3600
105x63x2800
грунтовочная
двусторонней
резервуара
4ПРГ
4ПСт
Автогр
локальные
Конденсатор
антикоррозионные
VIу
покрытого
покрытыми
30с41п
30с42нж
разделительной
100x100x100
100x100x205
100x100x310
127х2
##коростная
СОА
СОМ
ЦПО
радиаторная
100x400x291
100x400x610
100x400x505
активированный
##х595х105
влажной
влажных
толстост
ограды
КБч
КБУ
ячеистая
необслуживаемый
необходим
1140x1154
1140x1374
автономного
800х300
800х200
800х900
800х700
Скамейка
БПЦ
КДУ
шкафных
УВв
износостойкого
100x500x291
100x500x710
вязки
##x455
##опробойники
скользящий
скользящими
780x1154
780x1374
типоразмера
РВП
##Мц9
корундовый
калиброванные
2х4М1
ПН2
ПНТУ
пассивной
комплексная
500х80х3000
ВАК
30ч6нж
30ч15бр
1140x600
1140x920
1140x954
структурой
370х450
грей
грязи
дюбельным
жарочным
жаростойким
##46x620
приемно
односкоростная
пневмопривод
пневмопуском
коврового
37x63x500
37x63x400
37x63x300
старогодный
Аппаратура
Тепловозы
625х325х75
940x1154
940x1374
ШАР
измель
изменения
37x60x2000
37x60x900
37x60x1800
37x60x1200
М24x150
рельефным
коммутирующих
КФПУ
КФЛЦ
полиамино
задвижек
первой
200x200x391
19265
машинами
собиратели
100x200x410
100x200x305
400х50х3000
фрезеров
правосторонний
неравнопол
кремнийорганических
кремнийорганической
Маслонасосы
НТ320
##останцией
антивандальное
490х490
Пластик
СМЦ
УКН
откосных
подвижный
Коммута
Командоап
##x1800x2600
термостатический
АСБлнУ
КЛ00
набух
##езде
столярными
35Т2
##х310х165
шлифовочный
шлифовальная
200х1000
200х100х2000
пигмента
пигментированная
пигментная
02598
3х10мк
940x600
940x920
940x954
никелев
1150х116х130
Контрфланец
109x60x2000
109x60x1800
109x60x1200
каучуковая
пассажирского
облегченная
алюмосиликатная
алюмосиликатные
НКК
НКТ
ПГС
датчиков
техпод
наполнительно
паропроизводительность
микротрубочной
оксидированный
Стеклопластиковая
1000х290х510
1000х290х280
Теплообм
неармированные
микрокапс
Опустить
СЛУ
##иться
112х70х115х60
плинтусного
Лестницы
шведской
терморасширяющийся
Планки
седан
седло
загазован
марши
приклейки
П220
150х50х3000
непроходных
штампованно
бутылочная
410x330
1350х900
150x300x341
150x300x510
ППСРМ
92x496x500
92x296x500
92x196x500
92x396x500
пространственные
рукавом
1557
##х230х175
крылья
Уплотнение
Ат500С
Трибуна
ШБР
255х255
150x500x710
150x400x341
150x400x610
кранового
терморегулирующий
веществом
разноуровневые
бутилкаучука
1П7
1ПШ
Резиновая
ШКР
мусорокамер
ролика
роликовый
волнистый
F121
10АIV
потребляемый
кованая
17с6нж
17с7нж
17с16нж
200х200х60
200х200х600
200х200х40
200х200х400
200х200х200
посадочных
сферический
суспензия
обкладках
00536
00533
1340x920
150х80х3000
11ч38п
11ч44бк
11ч37п
клапанами
технологическая
##лацетальный
коронку
300х300х3000
термической
термитной
вспучивающийся
ГВВС
ГВЛВ
теплообменных
остаточного
древесноволокнист
паркетная
паркетных
паркетными
##ЛСЦ
каждой
каждая
водяным
ЗПСп
МШТШ
МШБЛ
ОТ3сп
1580х150х110
углеродные
##дающаяся
цельнокомпозит
состоящий
КСФ15
неразъемный
Акв
УП6
УПДК
##олазные
водонепроницаемая
индивидуальный
Мойки
Плуги
начальный
сверхнизких
сверхбыстротверде
##x55x75
146x45x144
146x45x244
146x45x344
146x45x644
146x45x444
146x45x754
146x45x544
595х595х105
орнаментованная
неметалли
250x120x138
пароизоляционный
ФБС9
ФБС24
интервалом
огнетушащим
башмак
руководителя
титана
защищаемый
распоры
калиток
32х25х25
компенсационные
KMПЭBЭнг
аудиов
европ
концентратора
проникающего
параболической
648x553
648x595x1000
МКПпАБпШп
3КН
3К72
620х595х105
робот
перильного
Ст1сп
диффузным
быстрораз
87x54x640
87x54x750
87x54x550
87x54x650
87x54x760
87x54x540
набортным
телескопическим
3ВСС3
ДС1
Рамы
светонепроницаемых
конвертах
##x1944
##x1480
##x1496
самосрабатывающ
172х115х60
172х115х40
17нж13нж
17нж6нж
17нж25нж
Пробки
Диффузор
энергосберегающими
Барбар
напыления
100х100х60
осадочных
25х20х20
катальная
ВКРФ
поддерживающая
ОГК
ОГЦ
биозащит
биокоррози
вилка
махагон
##99x1054
1270х65х135
неорганических
40х25х40
##х165х110
веревочный
высокоадгез
Ст3кп2
Ст3кп4
375x375x250
500х500х3000
500х500х800
500х500х160
475х625
дымоходная
ОДОСПДх
ЗША
ЗШБ
галогенные
цистерн
2500х1250
110x72x170
110x72x109
110x72x74
110x66x170
110x66x109
110x66x74
колесно
цинкованием
чердаков
ПСтт
дублирующих
260x50x430
охранного
шунгизитобетона
265х310х120
ЗВ4
РА16
С0T
реставрационные
##енератором
1230х100х95
1230х675
##x2232
однонаправленные
высокомагнези
лючка
200х100х60
бакелитовой
бакелитовый
дождеприемника
противоскользящими
Пневмопробойники
стыкоперекрывающие
1xHDMI
1xVGA
8АIV
ВГЦ
НББ
РДБК
зубьями
кроссы
регулятором
регуляторами
шнековым
##ющегося
погрузочно
500х615
500х350х25
доломита
фосфатированные
козырьков
хлопчатобумажные
2КУ
470х700
Микро
Микровыключ
Сливы
ТБП
ХСФС
40х32х40
Разрядники
каменноугольная
двухпутной
ГКЛО
обогащения
ЗКК
Ремни
однопрофильный
45x296x592
45x296x502
##ебойные
300х400х300
300х200х60
300х200х40
оповести
пенопласта
02272
02273
КВСМВ
##x650x180
ПС35П
криволинейный
криволинейные
##x496x880
50x50x235
50x50x263
##x396x780
АЗЕ086
300х300х60
бревенчатый
1хVGA
1Д30
1Д26
Карб
Картридж
Полиэтилен
картоном
роторного
ящиками
##89нж
тематическое
250x250x188
##x2650
складских
складируемый
##х52х138
частотой
термоусадочная
гипсово
1000х190х180
1000х190х130
насадкой
насыпью
выравнивающего
дискретного
дискретным
2х95мк
4НБ
PVC
П330н
венчающий
этилс
ясеня
разгружающие
силоксана
10У2
1600х2500
широкая
качающегося
45x196x492
45x596x714
сервисных
##ротруба
цинконаполн
волнообразная
нитрит
упрочнения
рессорного
тампонажная
645х330х70
АОСО
Биопрепарат
Бетононасосы
Торф
глянцевой
Стенды
1000х250х310
электропроврод
60x60x60
##х370х130
удобрений
200х400х600
200х400х400
200х400х200
200х600х600
200х600х400
состаренного
антистатических
антистатического
настольный
настольной
##x595x2000
червячным
адгезионный
Кондуктор
Кондукторы
такелажный
высокоэластичный
2х120мк
Шлак
веерные
льна
молочно
оперативного
солемера
диспет
диспенсер
наносимой
испытывающих
400x200x90
45x96x332
косоуров
клещевидным
отверждаемая
отверждающихся
гравийно
Термопластики
50x100x235
50x100x213
50x100x326
625х625х95
15кч19п
15кч19п1
15кч19п2
объектов
органораз
мультигибридная
4658
Граница
ЦААБл
змейки
змейка
пульта
слева
слесарный
томпаковые
##улированным
00556
456x450
положении
колпачок
колпачки
Коннекторы
722х285х30
вентиляторам
манометры
малогабаритная
Акарицид
отбурок
1240х295х75
подполий
300х500х300
600х500х60
торфа
импульсов
948x553
948x595x1000
50x100x304
нейтраль
эффективный
2А6АП
648x367
100х400х400
высокоогнеупорный
нетоксичных
дезинф
кокосовых
силоксановой
полуавтоматической
07037
ДАО21
пункта
релейный
слюды
укладкой
припасовочные
100х600х600
12зо
загрузочный
смывного
80x80x80
110х63х110
перекрестный
удлинительный
удлинителем
##х650х230
200х200х800
500х317х36
органом
гранулятом
автопавильона
800х600х204
сальниковыми
рентгенозащитное
шестеренные
амидоаминов
асимметричным
асимметричное
истирающие
1Х4Е3
1Х6Е3
БСП9
БСП6
ЗМКР
НлФ
Нащельник
Нащельники
Толуол
ЭКН
пусковой
пускорегули
павильонами
фенолополивини
разворот
разворота
разбавления
сваи
сваебойные
полиизоцианатного
длинна
90х75х60
150х600х600
70x54x350
70x54x340
80x54x450
80x54x440
60x54x250
60x54x240
трехфазного
строганные
высокоточной
высокотекучие
3000х1250
350x350x445
##x599x128
черепными
полотенец
МГНМс
оголовнике
С1TF
152x150x362
152x150x527
демонстрационный
демонстрационные
##ониторно
Гидромолоты
Гидромониторно
ГКТII
ГКТIII
1374x600
1374x954
1374x1154
1374x1374
Автобетоносмесители
Автобетононасосы
тактильные
A312M
нитроцеллюлоз
нитроцеллюлозным
500х633х35
500х633х46
240х280х100х60
240х280х100х40
микростеклошариков
микростеклошариками
5ПСт
аммиачные
включая
гаражей
полиаминного
переработанном
электролитом
полумягкая
коллективная
1735x985x635
термометры
непористым
водоотталкивающая
##х86х60
БрАМц9
куполообразная
энергетический
2ПС35
пассивированной
грязевики
антенн
высокоглиноземистый
16ч6п
самовыравнивающееся
ТЭНа
кондуктометра
Т10УОП
бензиновые
войлочной
ржавч
подвергающихся
2хоп
Зубило
Комбайны
Сольвент
Сеянец
бледно
барьерных
лапы
манев
мячом
ростверков
раковин
сопла
текучести
этиленпропиле
##этано
подливочные
одноврем
каустический
45x496x643
45x396x573
250х100х250
250x200x250
однофидерный
##х242х130
вермикулитобетон
скребком
шпинелидных
людские
500х417х36
##х700х700
межплиточных
коррозионностойких
подстольем
дефлекторов
гальванизированным
202x200x412
142x146x495
192x196x654
туалетной
зернистость
МКПпВБЭп
ОДОСПО12
рычагом
25ТСОЭ3
водоразбавляемая
ПХКЦ
648x395x2000
дезинфицирующее
##олибденовых
Дефектоскопы
многокомпонентный
КПВЛ
Навес
Сплавы
Усилитель
гелиевым
громкоговорящего
пентафталевый
фонтанов
##бурные
##ливающая
пряжечный
##рализаторы
стирольная
клыковой
подкрановая
##00х1190х220
триплекс
перехватом
замене
двухполотным
150х90х60
вертушки
600x399x1054
наклеивании
1930х730
потолочно
лопатка
600х500х120
межкомнатный
двухдисковым
многофункциональные
коротыши
пластификаторов
550х550х100
эластичность
силикатизированной
877x599x128
помощью
петлевым
1200х1200х1200
негабаритные
брекчиевидные
Крепежная
цельнолитая
соломы
карбонизации
обезжиривания
малосурьмянистые
1БДР12
органоминеральное
водоразборный
победитовое
локомотивная
антиконденсатное
андезитовый
заслонкой
электровозе
полисульфидный
водорастворимый
фотолюминесцентным
Base
MG20
SMA
±36°
Боярышник
Вагоны
Вишня
Гофротруба
Делиниатор
Жимолость
Километровые
Мишень
Механиз
Модификатор
Маслостанции
Напольное
Н114
Неровность
Оборудование
Пестик
Пеног
РЛП4
Солома
Спрей
Сепараторы
ТЭСС
ХНФС
Хоккей
Централизаторы
Цветник
Шпагат
Штапик
ацетилена
бассей
библиот
вешний
духовым
жаккардовым
ккал
косынки
карьерные
левосторонний
ложка
ландшафт
мэо
мама
пользов
палая
рандомсополимера
тетивы
тамбурные
флагов
фисташковая
флизели
художеств
цеховое
элеватора
японская
##мбовая
##брасыв
##блоня
##×97×68
##стерским
диаммоний
нагребающие
наголовник
изверженных
избиратель
##отвержда
безлотковый
безвоздушного
размер50х1
обладающий
100x102x291
100x496x400
100x296x400
100x196x400
100x396x400
100x202x291
10x65x100
закольцованный
##полагаемый
50x496x331
50x596x331
персик
2592x1944
неопрокидные
неограниченным
нежилых
одежды
придорожные
арамидно
##нгликоля
оксфорд
электропоезде
электрогидравлические
30кч70бр
водосборная
##опригрузом
клинообразная
оппозитные
##исперсионная
18ч2бр
17Г1С
гидратная
шарошечного
600x599x1054
воздухонепроницаемая
канатоемкость
высокорасполагаемый
парогенератором
##айклеры
светоотражатель
удлинительной
холодопроизводительностью
примесью
аксминстерским
порошкообразный
надувом
500х450х25
гофротрубы
Подколенники
Подготовиться
130x25x84
взвешен
[...]
