[PAD]
[UNK]
[CLS]
[SEP]
[MASK]
!
"
%
'
(
)
*
+
,
-
.
/
0
1
2
3
4
5
6
7
8
9
:
;
<
=
A
B
C
D
E
F
G
H
I
J
K
L
M
N
O
P
Q
R
S
T
U
V
W
X
Y
Z
\
a
b
c
d
e
g
h
i
k
l
m
n
o
p
q
r
s
t
u
v
w
x
y
z
«
°
±
³
·
»
×
˚
·
А
Б
В
Г
Д
Е
Ж
З
И
Й
К
Л
М
Н
О
П
Р
С
Т
У
Ф
Х
Ц
Ч
Ш
Щ
Ы
Ь
Э
Ю
Я
а
б
в
г
д
е
ж
з
и
й
к
л
м
н
о
п
р
с
т
у
ф
х
ц
ч
ш
щ
ъ
ы
ь
э
ю
я
ё
–
№
∙
√
##е
##г
##у
##л
##и
##р
##о
##в
##к
##0
##ф
##э
##м
##5
##x
##4
##2
##х
##б
##а
##д
##ю
##щ
##й
##6
##Б
##С
##М
##8
##9
##н
##з
##ы
##ь
##т
##3
##с
##ж
##П
##Р
##1
##7
##п
##ъ
##А
##ц
##я
##I
##P
##К
##ч
##ш
##В
##Г
##У
##Н
##H
##Ц
##З
##D
##S
##Ч
##Х
##Л
##Т
##A
##V
##Ф
##Э
##M
##Ш
##Д
##О
##B
##И
##°
##T
##F
##J
##Ж
##ё
##×
##Е
##C
##p
##c
##E
##N
##Ь
##±
##l
##G
##e
##s
##i
##r
##o
##Я
##R
##U
##L
##˚
##K
##X
##W
##Ы
##Щ
##O
##Й
##v
##Ю
##Q
##n
##q
##Y
##w
##g
##y
##a
##u
##t
##№
##h
##d
##Z
##b
##k
##³
##∙
##ны
##но
##на
##ов
##ст
##ль
мм
##ни
##ер
##ет
##ол
##00
##ный
##ор
##ам
##та
##ой
##ли
##ом
##он
##од
##ле
##ас
##ная
##ен
##ки
##ной
##ру
##ан
##ина
##ка
ди
##ные
##етр
##ля
##аметр
диаметр
на
##ние
из
##ат
##оп
##ель
##сти
##аз
##ар
ста
пр
для
##че
##ок
##аб
##го
##ци
##ем
##ез
##ров
тол
толщ
##мер
##ра
##не
##ми
##ния
##асс
ст
толщина
##от
##ла
раз
##ных
кл
##ей
класс
##ры
без
##ит
##ост
размер
##нов
##ков
##ед
##оч
##ав
##абель
##тр
##оли
##ти
##об
##ного
##руб
##50
##еп
##ности
##ая
си
ном
##ност
##иналь
номиналь
##ным
##чес
##ло
##лов
безоп
##асности
##ко
100
сталь
безопасности
##ющ
##пор
об
##ность
стали
от
##рован
##ив
##ес
вы
##аль
##ек
##ал
##ное
##ление
##ро
##еле
10
##ев
##остой
поли
##овы
##ин
##руж
св
12
##ход
до
##етон
##из
##ний
##ами
##мостой
кг
##Па
кон
за
МПа
наруж
##ух
##ну
дав
теп
##со
Кабель
##ком
номинальный
со
##лю
размеры
давление
##чески
##ату
под
дв
##де
мар
##нков
##цинков
##00х
##цинкован
##ейс
##нит
##ож
дли
сейс
сейсмостой
##лек
кабель
м3
труб
##ад
ос
##нутр
##им
внутр
##кой
##ег
тр
внутрен
##оля
длина
##ип
##пол
##же
##нд
##еди
##фи
##онный
##оль
кор
##ент
50
##10
##20
стен
##ый
##шен
##ерж
##ными
##рыти
пер
гор
##кости
##ирован
##оляци
основ
##ровод
оцинкован
##ые
##лой
тип
рас
°C
##ус
стенки
25
##нение
##ест
Труб
##ос
20
##етал
##оз
##пр
не
##ил
ис
##ловой
пок
од
##ист
##цев
метал
алю
про
40
##итель
покрыти
алюми
15
16
##ления
испол
##опровод
##х1
##порный
##лот
##ети
##ым
ши
##ниев
##лит
00
наружный
жил
алюминиев
##уч
##аве
номинальное
при
##рав
##ак
##лад
##нг
мин
##лап
высо
бетон
##000
##ори
зам
высота
ок
1000
стек
##вод
##ого
##елез
желез
кр
##анов
Ст
нерж
##авеющ
нержавеющ
##итный
##или
##альной
кВ
##абар
14
плот
##егори
##80
##обетон
##абаритный
##ств
Клап
##кая
##уф
сейсмостойкости
##яже
внутренний
##вер
##ее
Клапан
замком
##егория
##ерм
двух
уг
##тор
плотность
железобетон
##пер
тепло
Трубы
##лектр
##ном
уст
ог
кат
##очная
##вет
габаритный
##лан
исполнение
см
тем
##перату
минер
##ения
##фонный
Пли
температу
##ъем
силовой
##ник
основе
ар
500
##x1
##аты
Плита
##нием
##орож
сп
категория
жилами
электр
ка
руч
мед
##рашен
##ое
##илинд
##ви
соеди
пов
##лок
90
##прав
стальные
##ых
##ческий
##ери
##ноп
пор
##лоп
полиэ
##ех
##цов
пло
##так
##ям
30
ком
прям
##лер
13
огне
нержавеющей
##x2
ги
покрытием
##па
##льный
##60
полимер
м2
##яче
установ
ваты
##лем
обли
облицов
Кор
##изоляци
150
слой
##ур
марка
##тов
##нения
##онные
напр
запорный
горяче
##си
##уг
шир
силь
гра
45
##ания
##она
##аст
400
##ече
сильфонный
##нитель
марки
минеральной
200
##ел
Вт
стальной
##ость
напряже
##мату
250
стеклоп
##руп
##25
##ции
##озд
##кий
расход
Короб
свар
баз
объем
##иной
##онта
##600
##фор
70
11
рез
армату
установки
пол
80
одно
диаметром
Блок
##ласти
##кое
##кость
##овой
##еход
вне
вод
##ран
##30
трубопровод
огнеу
Муф
##рыш
##пус
60
окрашен
##40
##атери
по
флан
##ча
##зи
ширина
раб
управ
Стой
сече
ручной
##дение
возд
облицовочная
толщиной
##тиле
##рующ
##еля
##олок
##рой
##слой
##клю
##ней
металли
арматуры
##кат
ПВ
опор
повы
полиэтиле
Св
Стойка
32
повышен
мо
корпус
ков
оцинкованной
##уш
теплоизоляци
медными
##ированные
##ати
напряжение
##щад
ко
##еб
##ВГ
##овых
##соеди
пров
площад
присоеди
##х2
##70
пород
лот
##нт
герм
бол
мест
##виж
300х
##атор
комп
##ностью
##ающ
##жим
##рез
##лив
отвер
базаль
металла
##овый
##чат
##ред
гранит
Цилинд
Цилиндры
##вор
температура
ли
профи
отверсти
##ул
##елем
##лом
##кер
##очных
мощ
теплов
месторож
##ним
месторождение
110
##ция
##еси
теплоизоляционные
300
Из
кли
матери
##щит
площадь
##ота
КЗ
пе
##стру
оп
мощность
каб
изоляци
КЗС
##шов
сред
кгс
##ированная
фланцев
##18
##аг
Муфта
##ис
бес
##ладки
35
##опр
стой
##ока
03
сам
##ше
прив
см2
##ели
короб
120
##очный
железобетонная
##х3
стальная
гранитная
##нкер
##шированные
более
контр
переход
##ся
##ик
ток
##вар
контак
типа
волок
вер
соединитель
груп
##ьб
##ум
резьб
ус
свя
##нополи
проч
##ками
##90
зат
кол
##гна
##оче
сигна
##ыми
ни
креп
пенополи
раст
От
##ерных
бет
отверстия
выс
LS
Про
##цион
защит
##струк
мм2
тер
##ут
##300
18
контакт
27
цвет
##амер
##изонта
горизонта
##рующим
##15
повышенной
##еч
пан
##руг
##ластиков
##емент
полиэтиленов
ск
##ади
шар
крыш
##арк
##ца
##кого
термостой
Кон
тепловым
##нич
трех
рабоче
##ключе
бетона
95
внеш
См
кабельный
##оток
повор
синт
синтети
##угу
ковш
##иле
чугу
##Х18
##Х18Н
##вес
##ентр
синтетичес
##лект
вырез
##17
##да
##порные
##акет
воздух
затвор
##Х18Н10
ковшей
прок
##стем
систем
##лен
##ливочных
кабельная
##азливочных
сталер
сталеразливочных
75
##ВГнг
##сирующим
01
##гр
шиб
##лемм
затворов
17
##ветв
шиберных
600
##фик
само
управления
##камер
##иль
##сирующимся
##фиксирующимся
самофиксирующимся
##рози
кВт
##ольг
##рованная
##100
фольг
##ещ
стеклопакет
##шовные
гид
##ходной
##ень
подключе
Отвод
##ческие
ПВХ
нак
##унд
##Х18Н10Т
эк
опти
##ство
##товых
##500
соединительная
24
IP
##ожар
гиб
огнеупорный
##ующ
материал
обр
внешний
линий
связ
##особ
##енти
##оцинкован
Смеси
##елей
терм
##розион
##цевая
группа
фольгой
контроль
##рус
II
шп
##есс
##енным
полимерная
профиля
базальтовых
##ентри
алюминиевой
Трой
способ
кана
##рованные
##СТ
##рыт
72
##яж
660
мул
муллит
тепл
##урет
##ожух
шт
связующ
конструк
кожух
##ие
лист
##лением
##ассы
##асти
##ва
90°
Коробка
кашированные
##стой
трубопроводов
трассы
связующем
фас
Стак
Стакан
синтетическом
анкер
##ана
круг
##уль
класса
##ческое
##ня
220
прокладки
##нии
высок
SN
горизонталь
##анс
глад
##ян
цемент
цилинд
##еш
кН
стеклопакетом
оптический
стро
крас
опоры
горячеоцинкован
вст
сейсмостойкая
##лектор
##камерным
стеклопластиков
среды
##ий
##65
покрытия
##ковым
##кие
##ката
муф
классу
##лерод
Пер
коррозион
##ивной
комплект
##етич
коли
количе
##ид
##х4
22
##иб
##етка
##слойная
##том
##дели
##ован
количество
08
##леродист
теплопровод
мен
менее
##мати
##сп
теплопроводность
герметич
##еж
трубы
##ации
оцинкованная
##жения
19
пар
##очного
Труба
400х
пред
вин
##ское
##крыт
##х0
коллектор
клемм
центри
услов
климати
термостойкость
02
климатическое
кабельной
##нж
##фуг
центрифуг
##тика
вертика
подключением
зажим
наружным
кабельных
##енного
углеродист
##ветвитель
##уб
##ческим
##егу
##раж
свет
Кран
алюминиевыми
центрифугированная
присоединение
##ентиля
76
21
##етиль
внутренней
прямой
корпуса
##ог
муллиток
##оны
##ования
кабеля
##ивающ
##овые
##локи
конич
коничностью
##руз
железобетонные
рабочее
экра
соединения
##ита
пес
##етиз
##азный
##ерев
поворота
ав
корпусом
провол
гладкая
##x0
##400
##овая
Тройник
горячеката
##орон
Свая
##бор
пожар
##ец
##яг
изоляции
окрашенный
##усти
двой
герметичной
##сим
Кр
##аркас
строитель
дорож
шаровой
волокон
##ты
FR
МК
основа
нержавеющая
плос
лотков
HF
силов
Светиль
##ир
красный
##олод
мак
максим
SD
##фици
##ай
##ческая
сейсмостойкий
отоп
каркас
окрашенная
##обр
65
Уг
##аем
##нная
##ола
##енных
др
бесшовные
##оки
##ческих
##очные
°С
ниж
160
присоединения
##рованный
газ
фланцевое
панель
##рут
провод
угловой
##лемент
##ному
проволоки
##одуль
##лав
лотка
ВВГнг
##упа
##литель
##нопро
##ыше
свыше
уд
двер
сигнальный
автом
##чет
##делия
##ах
герметиз
Лоток
зоны
Прокат
дост
доступа
41
резьбой
##нос
##лей
плит
##енный
##мированные
пенополиурет
сечение
##орм
##опиле
45°
##ковая
##96
##орт
площадью
##обод
свобод
##движ
##пропиле
марок
##ства
наружного
трубопроводу
полипропиле
наг
вырезному
цилиндру
Изделия
108
SDR
##новая
общ
Светильник
Опор
песча
##ций
##амп
##ерх
бетонные
##адиатор
Отводы
##ап
##олоч
##онная
вентиля
нагруз
036
##овым
концевая
##ке
оцинкованный
прочность
тока
##альная
винтов
Крыш
800
##ечни
Г1
сер
##x3
изоляцией
##±5
##арт
25±5
электрос
комплекте
поверх
##весной
электросвар
Крышка
##дефор
300х300
бал
горячекатаный
Плит
##ообр
##ыр
холод
станд
##егули
##лого
углеродистой
125
2000
08Х18Н10Т
##нопроходной
внутренним
углом
фасад
##ани
##ард
##онтаж
##деформированные
неок
стандарт
бок
##омп
##кан
63
изоли
Радиатор
##ектор
перек
неокрашен
монтаж
чис
проход
основной
открыт
зажимов
свободного
неокрашенный
88
крепления
регули
ПЭ
Угол
оболоч
14нж
цементно
прямо
##рос
коль
##лу
круп
масс
##екция
раструб
сечения
ввод
сло
прим
##ости
##руем
элемент
##тей
300х600
герметизации
привар
57
##цеп
СТ
##иваем
##ованная
##форм
направ
контрольный
воздуха
Зад
Задвиж
Задвижка
450
Секция
4180
ак
##алов
короба
42
ла
примен
##ира
##12
контактных
гидро
яче
##извод
КВ
##теп
##лиф
цок
или
##енные
волокна
##рак
кабелей
жест
##дения
37
Ст3
350
СБ
ламп
##елый
лату
##ключат
перем
##ук
##льно
применения
##инд
ниже
##ош
прот
##КЗ
кругл
135
##штей
##онштей
##альный
##зем
##ярус
дерев
крышкой
400х600
##13
высокопр
##его
транс
##вещ
1200
##х6
##ивод
шпинд
шпинделем
сорт
гл
##x500
##движным
температуры
##95
##опер
##рутки
##II
##коль
За
##ента
чугуна
200х
жилы
140
ств
цель
##нный
ради
##эф
##опривод
кв
доп
пони
отопитель
числом
##луш
##нер
##акт
горячеоцинкованный
пониж
##ПК
33
агр
исполнения
огнеупорные
##дел
БКЗ
рези
##х50
##соль
##ителем
коэф
коэффици
Флан
ЭП
##45
##тая
коэффициент
щеб
трехслойная
3000
вентиляцион
##рыв
##тового
прохода
запол
фрак
##амот
электропривод
коробки
##ессивной
Комп
##ционный
након
сечением
шлиф
вид
ствола
минус
фракция
##ехни
сек
кожухом
PE
пот
##поль
пита
автомати
отдел
##исковая
##орунд
порош
муллитокорунд
теле
перекрыти
винтовая
##верд
Зажим
Плиты
180
встро
прямых
стальным
расцеп
агрессивной
##земной
коэффициентом
Провод
конструкции
Опора
высокопрочного
полиэтилена
песчаным
образный
##рем
наружная
уп
двухслой
Переход
вертикальный
##ини
##чный
защиты
расцепителем
производ
полиэфи
##ровочный
пониженным
##ческого
трения
58
Вы
пиле
конца
электросварные
##емы
тверд
##лиз
##ехани
##вой
##ческой
тяже
расчет
Выключат
базальтового
##нти
сух
вырезные
ма
древ
алюминиевые
полиэфир
сбор
поток
##икл
##нении
освещ
двухкамерным
кабельные
##уст
##оот
встроенным
##ярусный
105
деревян
273
коррозионной
квад
##22
сплав
СП
сколь
шлифованная
##ешетка
лю
сост
питания
холодно
стойкости
##рат
##оляция
Изоляция
##нез
##лог
сплавов
##агнит
полированная
наконечни
КЗСБ
ПЭ100
верх
##ительность
##чатая
В25
механи
##35
перикл
периклаз
неп
креплением
треб
воздуш
##рный
##голь
12Х18Н10Т
блоки
##ука
оконный
##актери
III
##ри
стакан
повышенными
##ованиями
требованиями
град
##ивающее
нижним
##32
усили
крышки
##анат
выдвижным
части
давления
##мк
##енты
одном
Муфты
усилие
##x2x0
однокамерным
чет
##ног
плоский
тепловой
сет
##оди
##ровочная
муллитокорундовый
28
наконечником
хар
гидроизоляци
##ПВ
оцинкованные
алюминиевых
##устим
допустим
##актеристи
характеристи
48
АВ
Фланец
КМ
##ета
лаковым
##16
напорные
##отда
теплоотда
теплоотдача
электром
металлических
оч
##вектор
Канат
мног
##яд
экрани
полимерный
##йки
##чатые
Конвектор
освещения
##итум
низ
В15
ПП
89
маркировочная
пиленая
##онент
##их
квадрат
полиэтиленовые
##ундам
боковым
четыр
сети
##анной
смол
##отный
##х25
кров
предел
##ивки
цельнос
белый
пост
управление
лампу
цельносвар
##200
измер
##ковый
скольжения
КУ
огнестой
Пан
утеп
условного
##х10
##ешет
степ
контактной
открытого
над
степень
клиновая
сте
тяжелого
##х5
##арку
масса
##минер
приварку
##уд
анти
##кашированные
10с
свивки
некашированные
кованной
телефонный
цельносварной
перфор
приварной
против
допустимое
лест
##РА
##абота
##x150
муфт
##ких
двойной
привод
КП
окон
##Шв
очист
пенополимер
пенополимерминер
##анием
лоп
##оф
рабоч
растяг
##ящ
380
##x6
##ники
##изоли
##нут
##СП
рабочей
цин
растягивающее
##сов
##чи
электромагнит
##ута
600х
воды
зда
700
##x4
цоколь
НГ
спира
##деч
сердеч
зданий
##еры
наст
500х
сигнально
##ерс
одномод
битум
Пв
##иг
отопительные
надземной
сварной
буч
##ЭВ
##ардированная
бучардированная
##ХЛ
блокировочный
##оян
##ПКВ
постоян
фланцевый
холоднодеформированные
##ущ
КЗСГ
лопасти
гоф
комб
##Энг
##алуб
Консоль
БСТ
УХЛ
##еств
##сц
смолы
##озит
полнопроходной
переменного
##сна
##равли
гидравли
##олов
дверной
##нителя
термообр
термообработа
630
##ированный
Заг
Анкер
оболочке
анкерным
Ск
##ровол
Заглуш
водоот
дек
##Пнг
пром
##ковое
производительность
декор
сты
Решетка
волоконно
##устот
##фер
##бжения
пенополиуретанов
##рная
кер
горячеоцинкованная
Провол
Проволока
##новые
ЛК
##ями
Дос
##грев
одноярусный
Модуль
##LS
эм
устрой
скрутки
термообработанная
шамот
##зна
##чения
Конвекторы
FRLS
стальных
##ивные
минералов
минераловат
длиной
комбини
##нением
удли
решет
##85
##азем
Кронштей
сердечник
##800
##енная
уни
##гиб
##ия
##ную
Ог
напряжением
транспор
55
КС
база
##низ
навесной
##форматор
##сцент
##несцент
##минесцент
малог
ПБ
зазем
ОК
одност
##рования
бесшов
сухие
325
люминесцент
всп
219
##незем
159
постоянного
##нтов
малогабаритный
##неземист
обс
ост
##ровкой
400x500
накл
щебне
полиэфирной
одномодовых
##тяж
##комп
##17п
рабочая
меж
сварного
лестнич
ЕК
гру
##х16
гофр
брус
##ельная
##ейств
исполнении
прочности
##аж
##11
##ацион
КЗСА
кле
цап
1020
##х35
##атель
декорат
##х7
максимальной
##ивный
экрана
##олот
металлические
##овод
##атериал
цапковое
##ника
1500
Раз
##няя
наружной
медно
крупностью
##ляющ
##шение
кожухе
норм
##тив
двум
балк
900
вводы
экранировкой
Заглушка
двумя
Со
форм
Профи
двухслойный
##нию
наполь
1600
1770
прямоу
Щеб
модуль
гибкие
Щебень
фасадный
отделка
минераловатных
основание
утеплитель
##х120
##фт
вертикаль
повивной
потол
##нные
##есины
групп
древесины
##омут
Пус
стеклопластиковый
##КС
канализ
муфта
акусти
перекрытия
Материал
##олет
##уров
##порная
рул
##олятор
муллитокрем
муллитокремнеземист
##створ
64
##ины
##катель
расчетное
96
отно
##кор
кабельного
угол
номинальным
силового
Кронштейн
##рам
##ряд
Радиаторы
##Г2
электромагнитный
верхней
отношение
назна
назначения
стандартное
направления
##компонент
тон
##пред
размерное
1570
##ич
блок
##ку
нагрузки
Блоки
##ласт
панели
##ера
металлический
переходная
Пускатель
балконный
##ено
2500
##росс
высот
##HF
оцинкованном
переходной
FRHF
##ников
##ивания
##х100
##ья
силовых
Доска
85
Ограж
##вич
111
##чатый
##рот
##ести
##х150
гибкий
резьбы
поворот
каналов
вспен
##ала
двухд
поверхност
гай
резинов
Под
##ими
##x120
##ПП
36
листв
##гран
подвесной
двухдисковая
38
##есущ
алюминиевого
пенополиуретана
##него
##энд
огнеупорная
обрат
стеклопластиковые
##преде
23
лег
связи
10000
##эндвич
пруж
наклонная
##пс
хр
многоп
ИА
В22
##сатор
сторон
##Г2С
трещ
пожарной
##x7
11165
##енной
подкат
сейсмостойком
подкатегория
круглый
62
##x90
##ционные
М3
вла
Перемы
измеритель
Перемыч
горизонтальный
##слойные
##ундамент
полиурет
##цемент
##ема
точ
керами
##ового
09
26
светоди
светодиод
ответвитель
противоп
Ст3сп
34
Клемм
##лы
проходной
##зий
монтажа
Соеди
вспененного
##ВБ
мост
шах
##ращ
05
нормальной
гидравлическим
Пр
190
шести
##верс
##клад
##чив
IP20
кровель
##утав
универс
##алю
##x250
КЗСВ
ПвПнг
##ПКВт
попер
жалю
противопожар
общего
##x5
напор
##71
температур
##х2х0
пружин
глух
##27
сталем
ячейки
##ерсивный
сталемед
##ВС
много
109
ЭН
##истра
композит
пенополиуретановая
Профиль
жалюзий
##чная
##авкой
газопровод
прямошовные
##еф
##лая
свариваем
Щит
повив
КГ
146
133
водоотвод
шв
##лятор
Изолятор
периклазовый
цинковым
точности
цветной
попереч
крест
электри
оконцев
ГО
##еда
130
##луж
оконцевания
##х8
маг
сварные
защитным
огнестойкости
##верж
##напр
профилей
ЭПРА
Панели
листовой
вз
##оу
контрольных
Выключатель
составе
техни
бы
концев
приводом
чер
##ителя
шестигран
строительства
ручным
##них
Уз
##x2000
ГОСТ
Ка
##ностой
##ерживающ
горизонтальная
##ирп
полипропиленов
##одерж
распреде
##х70
##орог
##уск
колод
напольные
рав
##руго
нер
полиуретанов
дорог
пластиков
##род
##ница
регулируем
высотой
сж
уси
двойная
Крест
##КБ
автоматический
вентиляционная
6000
стекло
заполнителя
арми
Кам
рель
##ровки
46
кладки
АВВГнг
нагрузка
отверж
##ечей
##едачи
##уже
устройства
печей
тор
##инами
вентиляционных
очистки
обслуж
ПС
##x190
стеклопластиковая
секций
обслуживания
##олем
##цы
растяже
Перемычка
част
##льных
Трубки
чугунный
бесшовный
##азон
одноп
медные
##важ
кольцевая
многопустот
жалюзийная
##150
кА
номер
горизонтальной
жесткость
акустического
металлическая
горизонтального
прямоуголь
подключения
коррозионностой
АС
сд
Разветвитель
свариваемости
люминесцентную
уплот
панельные
ин
##реп
##анж
##x150x90
закрыт
ред
сэндвич
##гостой
стерж
электропер
##x50
навес
подвес
##x100
МКС
прод
шарни
##ированного
полипропилена
рулонный
пласти
##нод
530
В30
содерж
диф
конструкций
редук
##тный
60°
##уп
##Шп
##рованной
##оза
750
Уст
горячедеформированные
панелью
лестничного
##250
128
управлением
Тройники
изолированный
Клеммник
электропередачи
##яз
трой
клеммы
цилиндри
ввер
манс
##ковыми
трубчатая
##x200
стойкий
мансард
##900
железобетонный
нерев
шамотные
магистра
225
##лет
##енци
##опуск
полиэтиленовой
вверх
##ыка
крестообр
##еллер
голов
усилен
##шив
##отки
пенополимерминеральной
стеклов
##сид
глуб
Комплект
отверждения
нереверсивный
##олб
металлической
04
##евой
Ст3пс
полиэтиленовая
термо
отверстий
КН
Пес
##айб
коррозионностойкой
Ге
кром
кауч
деревянный
##олист
стекла
417
##ох
14нж0
быст
240
слоя
фан
работ
тонк
шарнирная
##оя
30°
IP5
характеристика
##ференци
остек
дифференци
4178
52
Коль
##х95
гибкость
обществ
вниз
##лями
##онагрев
##костью
кровельный
##ирпич
Устрой
##оруже
воздейств
Бал
защитного
дом
##уко
##опо
материала
стойкой
550
5000
С3
##вест
##ыш
1400
максимальная
КВВГ
РК
полиэтиленовый
отопления
бруса
##лочный
распределитель
##олистовой
4000
эласти
##лич
##кана
перфорированный
битумно
влагостой
железобетонных
кольц
426
БКЗК
пресс
31
системе
Выключатели
ТК
##24
SDR11
материалов
упруго
##яжки
латунный
##охра
круглые
растяжении
реле
##стойчив
продоль
лит
##ание
##вижная
клап
Ленты
##III
трос
##лекс
##ушения
Конструк
односторон
##орта
блочный
дросс
##цией
##ветвления
электроприводом
Габ
Ду
##БШв
корот
##пок
замыка
РН
общественных
воздействи
одина
##ПБ
Филь
токопо
муфтой
эма
токопоисковая
315
##хслойная
##ёхслойная
##утавр
фанеры
воздействию
##отушения
пожаротушения
сталемедная
Шп
уч
##ена
изгиб
извест
ге
двухкомпонент
тепловая
обратный
IIIв
ас
##овыми
условное
Хомут
эпок
##нское
сварная
размером
##опроводов
##ильных
Кол
переходные
образ
проводов
эпоксид
плен
##ежут
промежут
хвой
##рож
горячего
хвойных
51
69
##енными
##очаст
##тором
технические
##онагреват
Кал
##x400
##каф
##епи
##укав
характеристики
##71фт
термоус
шириной
проклад
##рядная
##основ
##виг
##х36
порошковым
##аном
разветвитель
гидроизоляционный
влагостойкой
участ
Манж
гип
бетонный
полимерным
##егулятор
проводной
В40
##щи
##Гц
##ателем
##осна
##ЭВнг
2В
дис
покрытие
280
##лош
кронштей
штыр
преднапр
раструбные
каучука
##ект
подоснов
сварным
преднапряж
диап
бур
свин
##ированной
полос
вставкой
Манжета
##х40
сосна
железнод
железнодорож
Полот
##кар
обшив
диапазон
теплосна
выход
коррозионно
##ованные
строительные
##IIIв
сжати
тонколистовой
теплоснабжения
##рас
заклад
Соединитель
##7р
##альное
антикор
регулируемая
термоусаж
конц
##ильки
##28
ТПП
##овор
железных
дорожный
##ений
категори
АП
кра
##00х3
508
Скоб
круглого
54
БС
С2
фасадов
спираль
шпу
14нж9
трансформатор
удлин
ограж
92
##эп
синтетического
##нак
напол
полю
пожарно
подоснове
09Г2С
выше
опорах
274
нижней
потолочный
зв
пат
реб
сх
полимерные
Опоры
изолированная
##оснабжения
##стир
##рованного
##ческими
УХЛ4
МЛ
##мс
окрашенные
швеллер
##14
проп
##елями
автоматические
ВН
пролет
##еталли
IP54
полюсов
##за
неизоли
температурный
клинов
средняя
КМПВ
редуктором
однослойные
##гу
отвод
пределом
несущ
##19
пос
100х100
вытяж
три
трубопровода
##очастотный
##ТТ
квадратные
720
входной
##кос
762
дроссельная
ГВС
конус
скваж
порошковыми
пенополимерминеральная
##емб
стор
##ъемная
##75
порист
##рующая
шахт
##юс
штока
763
лент
##еци
сплош
##полюс
круглая
воздушных
W4
Лист
##стоя
##обав
расстоя
бетонных
окна
комм
наклад
муллитокремнеземистой
##оящ
##ата
сооруже
##х19
##нутый
##еров
полиэст
линей
периклазовая
непр
мансардный
категории
иг
рем
##танг
дву
##егм
латунные
головкой
стекловолок
сооружений
##чик
##ранс
дорожного
панельный
светодиодный
внутренних
виб
##х20
издели
контрольного
##кол
Прутки
Транс
мк
##ционная
перекрытий
ска
стойкостью
SN4
удерживающ
частота
крестообразный
Шр
##енц
обм
распа
механический
промыш
##оустойчив
ТППэп
промышлен
##дель
ТС
Фундамент
##кид
##есуш
воздуховод
##енцесуш
##31
##фаль
##аствор
##700
безопалуб
ручка
формования
температурным
асфаль
безопалубочного
##x60
углеродистая
трещин
Эм
##стан
##очной
##изот
схемы
Трансформатор
борта
##етри
створ
509
перехода
Устройство
##рованием
Ст20
кВА
##струд
фланцевая
коробчатая
ППУ
декоратив
закрытого
##онагревателей
Полотенцесуш
ор
ож
фут
##мм
##рафи
зап
сжатие
Электр
##ром
##тация
##лава
обор
##рованных
сплава
многопустотная
эмалями
бурения
воздуховодов
асфальт
820
ПР
гранитном
IP65
Комплекс
Узел
Конструкции
73
##нев
136
##луче
Ограждения
уплотнитель
кД
##х80
##арь
##есь
фланца
10с3
кДж
44
##рон
##ара
опалуб
##руемых
стороне
обмотки
распаш
##изотил
сто
НН
ми
пласт
строительных
крупность
КВВГЭнг
полосовой
обшивочная
гран
##х12
Ем
ЕР
УКС
##енсатор
двухслойная
углов
##ерыв
Фильтр
06
Роз
##ык
##рубного
опасности
##17ст
глухой
известня
ФС
пут
см3
миним
Манс
РТТ
Шкаф
чугун
##уровское
14нж017п
непрерыв
Полотенцесушитель
Мансуровское
грав
шайб
контролем
настенный
стыков
филь
29
Ввод
Пуд
дуб
стан
##нят
КМП
Панель
хризотил
оборуд
хризотилцемент
Возд
алюминиевый
##щищ
Воздух
кар
моно
поверхности
С345
стоек
4х1
дым
шум
##лам
##цевой
полов
заземляющ
модульная
мкм
ЛС
асфальтобетон
Рукав
рек
воздухонагревателей
гофрированные
##арьер
##ением
##вини
##ская
##ровой
##митация
##00х2
способность
220В
низкого
комбинированный
клее
G13
ре
##шина
##ози
бетоне
термоусаживаем
43
Воз
##жиль
подвижная
элементом
канализацион
##рождение
непрерывной
Возрождение
Джиль
Кур
##рные
##тау
##тинское
##ющим
##альным
##ожское
гора
##ваара
фаской
винтовой
четыре
Кашина
равнопроходной
Песок
кроме
Калгу
Пудожское
Джильтау
Куртинское
Калгуваара
АА
Знак
ТЗ
отк
##акси
коакси
настенные
##нтован
М350
##ине
##x10
##x300
древес
эмаль
доменных
##ностоящ
намот
##цо
покрытий
элементов
##x63
##ПКВтнг
Кольцо
##стирола
намотки
104
Камни
Зат
снят
##юче
фланец
взрыв
снятой
крепеж
IV
##льной
##ляем
##елья
одним
Об
##бШв
##новское
##акуш
термостойкости
воздушный
Емелья
Емельяновское
DN
RT
ракуш
##ечника
заполнением
Затвор
ракушечника
Фан
##ковые
слоем
Фанера
мрам
##лении
прогиб
средне
термостойкие
муллитовый
магистральных
кольцом
мрамор
вход
элементы
пленкой
##карб
РП
##остран
электрот
МКБ
МКР
уль
поливини
Проход
скважин
##офор
столб
6х19
В3
Д1
экструд
состав
нераз
коаксиальный
Проходка
кам
##совые
перим
прямая
полости
##ающая
листов
группе
водост
мостов
##ую
##товое
газопроводных
расстояние
230
320
вращ
рев
фик
трубам
вертикального
группы
реклам
##68
377
ВК
вит
мом
##нист
SN6
решеткой
клапаном
периметр
нит
венти
##34
двутавр
блоком
анкеров
друг
##уар
##вая
полки
водоснабжения
Листы
безна
добав
тв
##ёр
полимерных
115
чугунная
навесных
запира
##олимер
пс
распол
гиль
термор
винт
дроб
Ограждение
концевые
одностороннего
пластм
среднеп
##карбона
основания
Нак
туф
чё
##дости
сили
##евое
маркер
сеткой
четырёхслойная
стеновые
эластичная
гравия
оборудования
твёр
среднеповор
туфа
чёрный
маркерный
твёрдости
обе
##гани
вывод
поликарбона
подъем
футеров
74
АК
56
##остав
внутрит
50Гц
канала
каркасом
##ЭВЭВнг
изделий
гильз
ВБШв
Состав
вол
хв
час
##ающей
затяжки
максимальное
монтажный
радиус
сдвиг
ШВ
дут
##x9
##х60
##осы
прямого
кожуха
напорным
Вентиля
ест
##00х1
резьба
SDR17
концентри
естеств
47
##нита
Уголь
центр
##хл
##Пу
##астная
##нительный
металлическим
муфтовое
ячеек
механиз
клеев
##x190x120
специ
легкого
ККБ
бим
щеле
##вращ
##ород
##остов
консоль
иск
стойки
листвен
кронштейна
патруб
биметалли
##кань
блоков
##енов
##КV
##циона
панелями
УХЛ1
##оустойчивый
экструдированного
пластмасс
хвостов
СС
нетка
##альные
ограждения
СК
##алле
оболочки
тройников
антикоррозион
запирающим
170
ук
полот
межд
лип
150x150x90
воздухопроводов
вентили
дутья
трав
##х240
1100
встра
полипропиленовый
поливинил
39
##ехнических
УФ
тяг
##иком
##лев
вырыв
алюминия
латунная
расчетная
четырех
##канальный
момента
Вентилятор
##юб
##38
горных
Плитка
транспорт
Гру
##етки
трубчатые
плоские
общая
секционный
У2
воз
мик
##x8
##овоз
нав
##ранный
располож
дорожных
обеча
Бур
дол
##невой
##кому
##ипп
кони
балки
КУГ
вентилируемых
##ути
##Х13
защ
##ающие
предохра
решетчатые
безнапорные
встраиваем
##гов
подкос
##нители
окра
бесс
##нтованная
##хлори
##овозвращ
##онных
000
##ино
СТА
измерительного
противопожарный
короткому
замыканию
КМПЭВЭВнг
клееного
навивные
У3
облицовка
паралле
радиочастотный
продольном
##онка
гидрот
им
стациона
##остойкость
одной
проволок
звуко
хвостовиком
гидротехнических
Т8
ви
##ационный
##ковой
##очным
проема
стеклом
соединении
переходный
ячей
транспорти
разветвительная
клиновым
скальный
окраше
##ального
##чные
КВВГнг
стыка
резиновым
хром
поливинилхлори
стр
дета
мод
расс
зажимами
дверного
массив
3332
твердая
транспортировки
3332и
мас
жесткости
мел
##фоб
##Бл
заземлением
полиуретановым
среднеповоротный
##42
##мож
##x40
##зы
##ту
консо
световозвращ
открытой
лаки
возмож
В1
колодцев
RD
ВТ
ОС
нев
##ение
##уем
##аска
##опас
прочая
удлинением
##енаж
ВР
##обез
##ственных
пог
акри
гидрофоб
##ПВХ
грунт
В20
асфальтобетонные
риг
##вед
##яющ
##роводов
направляющ
после
внутритрубного
механизм
транспортного
59
Брус
Сегм
ал
фур
##пир
##товой
SN16
радиусом
бессвар
возможностью
2р
В45
сана
фиб
штанг
##пар
##ровая
регулирования
направлении
отопительный
##озащищ
распашной
##обезопас
санации
груз
шпона
А2
##уруп
##став
неоцинкован
ручкой
Краска
##ПКВтп
пружинный
Скоба
гранями
вращения
83
##ода
симм
сейсмостойкость
##опускная
упругости
Сегменты
М2
Ворон
вт
##азопровод
разветвления
двухкамер
теплонос
##урой
##ающий
консольный
РО
фундамент
жестких
фильт
ПСП
##коп
##бро
##енс
откид
горюче
Ответвитель
полипропиленовая
спирально
Воронка
ель
Ар
Г4
жел
##ион
отраж
прибор
##паунд
красками
раструбный
непод
измерительный
Габбро
невы
фурнит
53
М1
##оном
##НД
##ким
##осевое
114
пенополистирола
системы
шту
стены
межосевое
прямоугольного
Колено
Элемент
колодца
Риг
сор
##онесущ
1220
##ированных
присоединением
содержание
световозвращающей
пустот
49
##х65
толщине
смеси
приварная
трещинами
стеклонит
преднапряженная
игровой
взрывозащищ
ульт
теплоносителя
фурнитурой
КО
СВ
твердые
стру
конс
1800
##ключения
190x150x90
черный
шестигранной
монолит
Кирпич
бел
теплоизоли
##цовая
оконных
стержневой
моду
стеклонитей
ультрафи
Колод
##нот
##льные
Балки
86
Т5
брон
галь
##во
##2л
##бетон
##аны
стати
##оком
отс
##амид
плотных
способностью
антипир
остеклен
концентрический
лиф
G5
кирпич
нипп
водопр
раствор
щит
##иф
однополь
сдво
биметаллический
78
АМ
ИКБ
компр
компаунд
##нутые
гайкой
содержанием
##ембра
удерживающей
витраж
поликарбоната
ультрафиолет
бер
##тур
##сторон
заг
алюминиевая
газон
уголками
универсальный
Шпильки
АПв
Розетка
Армату
скреп
3С
кноп
хомут
##воз
##бр
##ят
сквоз
##17р
##ессов
гладкий
световой
КПС
##полюсные
##оды
480
##ма
распорный
##40x1
##ломоустойчивый
контроли
изолированные
устройств
керамический
взломоустойчивый
920
EI
Маты
Регулятор
##x600
соединение
##рующий
поворотный
SN32
цементе
провода
потока
10с96
очистного
SN48
режим
акрилов
##ведения
##63
79
Зам
##анси
разм
##есси
##егород
258
сварки
SN24
баланси
КУП
силикат
естественной
патрубка
##х30
##КМ
##онт
излуче
разрыв
двухсторон
болт
##четчик
сетей
водоотведения
дифференциальный
виде
сдвоенные
W2
ПК
1300
самонесущ
SN12
ответвительный
рельсов
торцевая
спиральношовные
излучению
Пок
фундам
##Кт
водог
прочие
штоком
щебено
##лизации
противопожарных
искус
водогазопровод
МС
М600
Т1
бук
зер
ряд
цир
##цем
##отуар
тротуар
стеклот
##x35
огнестойкого
##куля
опалубки
щебеноч
циркуля
слоями
фундамента
аэ
номинальная
Стойки
плитками
##ПКВКт
свинц
стороны
линейный
полотна
долгов
втул
##ембрана
долговрем
87
##ИП
Трубка
07
6х36
лаз
сопр
##оиз
##льная
натяж
дренаж
##омпозит
стекловолоконный
столбам
SN64
встраиваемый
антипиренов
ультрафиолетового
долговременный
##44
цилиндрический
однорядная
##катур
поверхностная
ребра
водопропуск
##цвет
##новой
рельс
ВС
бум
##нта
##х185
крив
##x1000
установка
сигнализации
чугунные
дорожное
##оводы
чугунной
Воздуховоды
компаунда
шин
##рытие
1ПКВтнг
вс
##фазный
##лений
##опро
дверных
оси
средней
скрыт
поверхность
неразъемная
НС
низкол
низколег
B15
Нас
Сетка
атом
##лощ
15600
Клапаны
##x130
цветная
пролетных
штукатур
##гольный
185
LO
ем
крут
моди
##ъеди
##отовая
HF1
удар
канализации
дисковый
алм
Ригели
витражные
##КП
50х50
нес
##нее
подземной
ручного
Смесь
автомат
СБПБ
грунта
##00х3000
коммута
##оизог
крутоизог
82
##59
анкерные
Р65
ШС
##ппар
##УС
##атой
##x2500
SN96
КВВБ
секции
Узлы
прессованные
пропит
ленточные
Камень
Покрытие
68
67
пай
##овина
102
1250
##ентра
шиной
фасонные
автомоб
##тепроводов
##ефтепроводов
одинар
компресси
газонефтепроводов
Замок
модифици
3P
W8
Свер
##юч
двухрядная
поверхностью
КГН
пластика
усиленная
троса
липа
штанги
3СIIIв
нагрев
обык
выпус
##остойкости
##инг
конд
подвод
400x250
стойкая
IIв
креплениями
##IIв
2ВIIIв
2ВIIв
Арматура
контролируем
обыкнов
Ста
отдель
Ок
действ
зон
##67р
##льное
СПА
##нтовка
обсад
Габион
БСЛ
вибр
мраморная
10с967р
каче
F300
врез
пом
##шивные
##ерепи
стальное
##рони
прошивные
##х200
компонент
основанием
гидроизоляционная
муфту
Прок
шайбой
Грунтовка
##х37
обечайки
2з
брони
тка
##отив
##обеж
конструктив
сборе
изгибом
лиственница
консоли
560
Пол
12Г2С
2200
Балка
К2
де
##арфор
стяж
трубчат
песко
14нж17п
14нж917п
центробеж
##урупы
Грав
##шир
однокамер
поя
##идная
стандартным
сетки
##х75
концевой
невыдвижным
Гравий
3х50
К1
лак
чист
##еная
свер
IP00
СБЗ
подвески
полиэстера
органи
4х4
ЛП
берез
61
E600
ветр
##мос
##бы
##92
отключения
лиственных
остеклением
водогазопроводные
деформ
B25
бу
##ун
облицовки
поперечин
стрел
5ок
93
Рас
точе
##делитель
одного
ширины
защитная
песчаная
квадратного
участка
КМПВнг
подкосом
меди
F1
центра
##бШп
##ъярусный
##CA
##ометри
натр
внутренняя
плотностью
##х3000
соединительные
резьбовым
скоб
гибких
керам
информ
прокладками
деталей
неоцинкованные
щебеночно
Электроды
рам
фр
шаг
##асл
##окрас
##ковом
ответвления
проем
##x25
корпусе
силовая
Зажимы
##створчатый
поверхностей
известняковом
минимальной
горючести
помещ
лакокрас
77
ИКС
лами
ули
##изи
SDR9
АВВГ
##родром
заполнителях
стеклоткань
аэродром
действия
ИКСЛ
ламини
260
железнодорожного
отдельностоящ
АД
СИП
аппар
тав
##Б1
##МС
##снов
##чным
##олст
##отовый
крем
##никами
##опресс
трехфазный
допол
комбинированная
ПБС
прессуем
створками
автомобильных
вибропресс
мор
##нистой
скор
ИТ
М400
Основ
Пред
Сд
бе
щита
осина
##лопастная
##х300
##сплу
200х50
##x496
шестигранные
быстро
гипс
промышленных
погруж
Предохра
##Х17
##сть
66
Мембрана
Пор
обрез
радиацион
Крестовина
Обрам
натяжной
емкость
радиационно
84
полнот
3х35
D400
Засл
О1
метиз
##возд
##фф
##мобезопас
##ющие
103
подд
прямые
арматурой
##ластика
##агности
бескана
соединительный
цветными
##амеры
отделкой
шамотный
АСБ
травмобезопас
##ПКВтпнг
контролируемого
бесканальной
##ители
сборные
##Х17Н
8000
Бол
Дв
ПСТ
гладки
##улов
диагности
##очками
##екционный
##ружеч
##ладка
эксплу
МКСТ
Уголок
стандартнопроходной
цоколем
непер
##ницаем
многопустотные
распределительные
двухкомпонентная
МЛСТ
14нж017п32
МКБСТ
зоне
##аш
1000х1
нитей
2P
2х1
3х95
ВВГ
##x70
##овое
##ними
##енное
##ющая
250х120
теплового
строений
электрическим
трубчатой
уличный
неперфор
жид
##66
упругость
метр
ох
##ских
##x16
цементной
##аемой
механическим
глубина
штыревой
вытяжных
имп
бессварного
балансировочный
сопротив
коммутационная
буро
1з
Бр
имитация
##орешетка
загр
##адочные
стенкой
пере
##илиз
полимербетон
1700
дверные
SDR7
Фланцы
керамические
однопут
Георешетка
двуполь
10с367р
эмалью
Угольник
антикоррозионным
поливинилхлорид
искусств
14нж917п34
метизы
буроопускная
загряз
##41
##жи
парап
3х70
E27
Дис
М4
М8
Счетчик
пле
##пы
##ступ
##орез
однокомпонент
оптическими
число
элементами
защел
Окно
МГ
борт
гайками
Эк
шва
##72
##насти
##ополот
разбор
100х50
##еся
гранита
3500
авт
каркасе
водоотводный
полиэстер
станций
между
лакированной
Сверло
тавровая
внутренние
165
Эмаль
Агр
фарфор
##Внг
##нителем
металлоп
##верде
напряжения
##х32
переходных
контактами
гофрированная
газопроводные
водоотводной
двухкомпонентный
преднапряженные
специальная
звукоизоли
сортовой
ниппель
14нж17п28
аэродромных
диагностирования
Агрег
М300
039
транспорта
900х
ГПа
ДСП
ад
дина
##гез
ключ
шпильки
анкерная
радиальный
деревянная
ремонт
М200
##онструк
##локонструк
оснований
водосточных
парапет
Д3
Камеры
готовая
##лый
##Бп
дистан
##готов
огнез
медная
полочками
стеклопакетами
горизонтальное
Компенсатор
твердых
Хомуты
неизолированная
пористых
10с371фт
хризотилцементные
микрот
расположения
параллель
##яющий
ударного
алмаз
Ру
С4
дБ
пет
##ированием
##онным
простран
##рата
тре
Светильники
регулированием
оболочка
##ярусного
ребр
окрашены
сквозным
натри
##ополимер
сид
строительной
проводников
прямоугольный
##x190x100
тягой
атомных
LOCA
3х25
К38
барьер
руко
слив
хом
##онов
##аи
##ащ
##рыва
безус
##x2x2
полок
##атора
твердого
Геополот
конусная
створкой
древесина
добавками
Регуляторы
тротуарная
динасовые
сидень
Геополотно
570
клен
##холст
##епро
выключат
выступ
кабельное
переп
##цевые
термометри
##изводительность
380x190x120
стеклохолст
отводов
электротяг
других
Након
предохранительный
заглуш
сверления
аппарат
Болты
безусадочные
термометрическая
гнутый
светофор
780
Плен
ленты
улич
##ув
##ках
сталей
сейсмостойкое
##ольтный
##ительного
плотности
Сваи
профили
##x350
потоков
магистральный
ремонта
симметри
бумаж
грунтах
информационный
травмобезопасным
электротяговый
Пленка
заб
АБ
ПТ
##26
##ыв
##ставкой
##опог
##изны
##цевым
спиральный
изгибами
несущей
рекламный
Колодец
##амидных
кривизны
бронированный
конструктивной
полимербетонный
симметричный
##образ
канализационных
3х120
А4
скат
##еив
##рующие
лицевой
##уму
фасонных
##х400
10с71фт
форма
поворотом
свинцовые
натриев
М250
Сталь
3х16
##хит
##ацией
##ровых
алюминиевым
архит
базой
2400
отделки
ОКЛ
термоусаживаемая
РПШ
футеровочные
желоб
ИТГ
архитект
Кот
Терм
ат
кед
##ью
##пти
##ерный
##евов
перед
##слойным
##ливания
355
переклад
Подстан
трансформаторная
дробления
гильзами
рассеив
отсевов
Диск
архитектур
Подстанция
##евые
сварочные
шахты
4х2
А1
Гиль
Свет
ЩО
##лли
##креп
##x80
##21
ответ
перви
компенсатор
крышка
условный
##ягаемой
##ротверде
легкие
Кольца
14нж017п31
ЛС59
терморегулятор
отражателем
АМг
зерен
обсадные
лакокрасочным
кедр
первичный
полками
резиновые
Реле
ТД
мат
рт
топ
##рации
##очное
##цевое
металлов
цементные
комплектом
комплектная
SDS
СБВБ
лампами
щебень
##польз
двухслойные
декоративные
##ерживающий
материалах
шпунтованная
самонесущий
Основание
##опоглощ
натриевую
##ллипти
ртут
ФК
##АС
3х4
Барьер
Ламп
М150
эллипти
##боль
раздель
использ
природ
теплостойкость
##ПКр
резиновая
верхний
измерения
Скваж
унифици
универсальная
универсальные
хомутами
Предохранители
Лампы
Скважина
510
98
97
##ланг
пустотелый
W6
ma
Имитация
опорный
##шный
##оскоп
стеклок
1420
##x219
породы
высокой
производственных
одноствор
##тивный
лиственные
пластиковый
пластиковым
закрытый
дифференциального
краном
удлиненными
масла
гальва
однопольный
поясов
гладкие
параллельными
Котлы
max
##олит
40х40
##ционных
cх
спор
##ником
неф
контактов
пара
быстротверде
геос
крана
шахтных
МКРС
компрессионные
вибропрессованная
рассеивателем
стеклокомпозит
cхема
М12
##рованным
сплошные
скорость
1P
Фик
Шурупы
квар
лента
тя
##бус
##плав
##Ат
##станов
##оллей
##при
стекля
арамидных
полимерной
соединительным
цветные
панелей
крышей
материалом
герметичное
дверей
14нж17ст
200х100
экранированный
обратные
угловая
##ерепица
выступом
геосотовый
Фиксатор
##оллейбус
##нка
арматурная
полнотелый
210
650
960
ЭТ
деф
прут
фаль
##шит
##етона
двуст
троллейбус
горение
150х150
канальный
электросварных
электромагнитные
##рядный
поворотно
спиральная
неизолированный
пористость
эксплуата
тянутые
##МП
скрепления
F5
ПРА
ХПВХ
Шайб
фини
##ояче
##сВБ
##нек
подставкой
трёхслойная
##ентов
одино
##нопроход
резиновыми
геояче
Скобы
циркуляцией
##оскопа
геоячейки
В35
ЗП
нас
МЛС
2х0
Зв
У1
плав
счет
##они
##180
прорез
##х13
водопроводов
цоколя
дерева
Доски
муллитокремнеземистый
шума
подъема
ячейковый
крутоизогнутый
однопутная
##УТ
мороз
81
D1
лм
##иеся
##23
##каливания
накаливания
##едка
##00х800
50x50
##рытия
##х140
бетонным
смот
цветных
газовый
полипропиленовые
слож
штырев
известняка
камня
щелевой
дополнитель
Светофор
##вента
175
08Х18Н10
инвента
вос
динами
мемб
паз
##ощ
##67
##нив
проб
##лави
оцинкованное
##простран
##x296
220x190x100
электросварная
утеплен
пенополиуретановой
композитной
распределительный
двупольный
##х250
##защит
##АтV
360
99
ТП
анг
буров
сшит
##аго
##ПРА
##арская
сварное
защитной
низков
ответвительная
цилиндрической
пропита
ЭмПРА
##00х2000
Двутавр
адгез
ангарская
М20
СГ
наружными
оголов
##товая
Сиб
гли
жильных
##рных
светиль
угла
электрод
медных
водопровод
условная
двойным
##ирское
герметизи
сталемедный
14нж917ст
##нистые
щелевая
одинарной
быстротвердеющие
Сибирское
6х37
168
2х2
Анти
##оци
##куму
##яной
конец
Стек
##x196
##x396
двухслойным
##ерса
полипропиленовое
винтовыми
дробле
клеевых
дефект
сшитого
##кумулятор
лифтов
418
94
Глуш
Т3
Трав
лощ
мяг
##огр
##М2
##нных
##атели
проз
##ческом
стальными
##х14
двухлопастная
системой
системах
листовая
нерас
свинцовая
канализационного
теплоизолированных
рядовой
барьерного
прозра
М16
вор
277
1х10
3х150
мА
факт
##роп
##ант
##анный
##ителей
##сос
трам
##ированное
##нтус
##даления
ввода
экранами
стационарные
конденс
заглушкой
компенсатором
##пространяющий
##агона
дефектоскопа
нераспространяющий
Дюб
##52
1х16
куль
шпри
##нет
##новит
##екла
##ектив
наружных
##цевидная
опорные
полиэтиленовым
термоп
встык
##огра
свободностоящ
раструбом
приварные
квадратный
пружинными
поперечном
армированной
гидрофобным
деформацион
С440
шприцевидная
245
сборных
215
91
Встав
ПД
туп
##уголь
##тной
##яем
диагона
налив
запор
50x100
двухс
армированные
установочный
зажимы
соединениями
##оотраж
вертикальная
сжатой
подвесных
угловые
сопротивление
ти
деревянные
F2
Yн
Шиб
сектор
##мнг
##дон
##зер
12000
теплоп
металл
резер
резьбовые
гибкости
##х4х1
композитных
крестообраз
ККБС
мелко
стяжными
быстрого
смотровых
электродвиг
теплопро
700х
E40
W12
Косы
Масти
Пат
Шнек
ха
##2и
100х80
окрашенное
##рующими
##х2000
прочностью
1900
СТД
люб
##x700
мансардное
##колон
удерживающая
карм
МКБС
белые
остекленные
импуль
Звено
4182и
культур
диагональ
Косынка
##ский
##яч
В5
М500
УЗ
инд
ку
сери
сополимер
##реб
##льного
##ойчив
##леум
##епс
##ностекла
стенка
горлов
устойчив
теплоизоляцией
##щитная
пеностекла
цветочных
штепс
прямоугольные
конусно
механизмом
##БпШп
Шибер
гвозд
кис
##1500
дорожные
640
W20
W14
Клей
Л63
##руч
##абилиз
##остабилиз
##порка
теплос
шарового
кольцевое
перемы
С235
втулочная
проемов
плеча
алмазное
атмос
Мастика
хаус
330
##бой
##опод
мач
укладки
Лак
ПО
ней
тур
##x30
##ПЗ
##окой
вылет
##адочный
##естав
##атором
коробов
275
скам
200х400
резины
##чиком
спиральновит
КМПВЭнг
открыва
фиксатор
фильтрующим
монолитный
унифицированная
теплопроизводительность
спиральновитые
хими
##кими
серый
карниз
F900
Лю
глав
роз
эфф
##x20
##ницы
##ателя
сита
двухъярусный
##онасос
монтажные
СБПЗ
сухой
гидроизоляционные
кровельная
##ешетки
противов
558
декоративный
мостовая
одинарный
КУГП
ПСПБ
неподвиж
погружные
неперфорированный
загрязнения
дистанцион
ртутную
спортивный
лощеная
импульс
СБПЗА
270
УГ
##ени
##ика
##сы
1200х
710
ВЛ
##ои
##аск
##опор
##ексти
1050
распорные
нефт
##х18
стеклопластика
полук
присоединитель
бесцвет
КПГ
грунтов
гайки
##оудаления
сплошного
ТППэпБ
неподвижная
силикатный
пропиткой
400x250x120
звукоизолирующая
прорезанием
штыревыми
Траверса
стеновой
1х25
3х185
540
950
Киб
##фнасти
##ерная
##орлу
##рап
##ейка
##аяся
сила
города
Столб
##резка
профилем
IP66
светоотраж
дорожной
##уктов
холодноката
Скорлу
люминесцентными
Профили
водоотводного
равнопроход
Устройства
промежуточные
ревизи
ШВУ
устройствами
архитектурно
27772
##донское
Кибик
Скорлупы
B22
153
##перси
керамическая
Лино
ПФ
##т3
##итинг
сиф
##лителем
300х100
базальт
Извещ
скруч
трехстворчатый
##х4х0
дорожная
наконеч
поворотная
стержня
дымоудаления
взрывозащищенный
Насосы
чистящ
Распорка
искусственный
переплет
конденсата
свободностоящие
карманный
горловины
Линолеум
В12
горяч
7х1
Бес
СВС
баск
дет
зав
нан
цепи
##утовая
##клави
##х9
##БбШв
##пт
##ЭШ
##етболь
различ
##кового
##очными
##20н
##етик
##елка
##катной
площадкой
листа
сером
##тепрод
волокнами
КУН
муфтовый
швов
электрические
литым
накладной
ФСФ
электротехни
точечная
защелкой
нефтепрод
динамический
баскетболь
нанес
березы
кислот
PP
Врезка
Гор
КТ
МП
Пос
Раствор
Штанг
вещ
план
##флан
##злом
##зящ
##РН
##анд
зад
перегород
1000х2
плотным
##торы
напрессов
объемная
водостойкости
фланцем
##дапт
способности
##движной
перфорацией
грунтованная
температуре
наполнителя
минимальная
разметки
двухсторонним
центробежные
Обрамления
хомутовая
##епроницаем
стеклокомпозитная
##колончатые
Беседка
Посадочный
М10
ШТ
теплоизоляционный
конструкцион
квадратная
460
B20
М6
врем
магнит
пути
сегм
##вели
##электр
##труб
##шко
##Е3
разд
001
##x18
кали
бетонов
сбора
сборного
механическая
пластиковые
уплотнительным
термоусаживаемых
пластмассовой
бронзы
##ПКВКтЭнг
металлополимер
топлив
любым
1х6
2600
C250
ДН
Сп
зна
клад
увели
цеп
##нений
коры
##естная
##прессов
15Х
##паника
Коронка
458
комплек
компози
##жимная
трехслойные
##яжущ
вентиляционные
холодного
тяжел
бесшовная
композитная
армированная
укреп
пространства
морозостойкость
Антипаника
серии
##электри
5х2
отбой
Вор
В27
мок
олов
опрессов
шла
##ии
##400х
##ационные
##асло
##аренных
стального
сос
50К
расшир
4500
ковкого
кабелем
358
контактом
IP44
высокочастотный
400х100
##x3000
гидроизоляции
низко
500х100
Подвес
швеллера
ТППэпЗ
СБЗПБ
поддерживающий
ключом
использования
восстанов
открыванием
противовзлом
Ворота
противовзломной
##37
##Ш1
двутав
порта
отверстиями
муллитокорундовые
водопропускные
4х6
5х1
Дет
ЗТ
##оной
##огрев
##чных
##чное
##стра
стопор
25А
проект
Стол
воздуху
связке
вводных
КУВ
##х10ок
стекловаренных
эластичный
эпоксидным
прокладкой
клеевые
ВСт3
пескоулов
отдельностоящий
мембранный
дробленый
нефтепродуктов
Метал
##остойкой
4х0
7х0
Сая
пиг
риф
сант
ут
##этиле
##анные
##каз
набор
##нели
##отроп
100x300
трубчатый
1500х
Кордонское
400x350
300х50
##чатка
мощностью
Перегород
горячекатаного
удерж
200х80
заполнения
кровля
600х100
Заглушки
стыкового
вывода
статический
все
скобя
фрик
Агрегаты
эксплуатации
эффектив
Штанга
Саянское
400x350x130
уз
##500х
152
оконные
крепежных
2x2
2х36
К52
Л68
энер
##х90
##цер
##язи
##новый
вынос
202
##х110
Ст2
142
установок
##ебр
##ающими
##илька
анкерно
крупно
Разъеди
кольцами
литой
заземляющим
автоматов
Горка
корытный
оловян
сантехни
B30
##оизоляци
##рад
7000
˚С
АЗ
Пласт
Черепица
ана
элем
##нопол
##ему
4050
бетонная
управляем
##рующих
##икс
##ечники
регулировки
105x63
КПсВБ
гидравлическое
черепи
АСК
закладной
шпунт
Розетки
двухкамерный
болтами
нагреватель
врезки
белая
Наконечники
теплосети
Пластина
71
##веллер
##фит
ВД
Герм
Лента
лока
тикс
упа
##ниц
##оннели
##анда
##етрич
##изоци
##орифер
смес
минераль
лотки
##ливки
фланцевым
SN8
предвар
##движные
перемещ
порошковой
измерений
одномодовыми
ПБВ
потолочные
акустическая
ТКП
280x190x120
антикоррози
С245
наполнителем
сторона
промышленный
М4П
ремонтные
двусторон
полукруг
элемента
тиксотроп
упаков
520
Швеллер
032
1х1
3ПКВтпнг
VI
Венти
Е40
Решетки
##кч
##2х0
##бк
##350
##ИД
ненапр
металлоконструк
контроля
током
Контак
трехполюсные
##ографи
плоская
стандартными
вводно
##чика
битумный
гайка
гипсовые
закладная
направляющее
1ПКВтнг6
скрытого
микротоннели
светоотражающие
Извещатель
Деталь
черепицы
Герметик
ненапрягаемой
микротоннелирования
30с
опорная
деревянных
3x2
4П
ПНД
Сэндвич
учет
##роб
##онки
##аситель
##роцемент
##ительности
двухп
##оечные
облицовкой
##елла
одноканальный
металлическом
фланцевые
трехслойным
##итанный
аккумулятор
сборный
очистное
цинк
гофра
Сооруже
торцовая
глубины
Конструкция
короткой
разветвительные
линейные
фиброцемент
двухкамерными
шинная
качества
рукоят
Сооружение
##евод
##1200
порошковая
останов
дисперси
##АтVТ
##оподъем
3х2
3х240
4з
Держ
М100
На
манж
чув
##58
##x96
##х500
##ба
##дцев
##тры
##36
##читанный
##ЭПнг
##олоп
##анья
диэлектри
##атлев
прочных
##чек
разливки
100x100
внутреннего
покрас
##х15
##иликат
##атыв
Связи
##ающего
внешней
IP40
канат
винтовых
023
пожарный
газа
сердцев
135°
ЭПУ
многолоп
##фера
##корост
ЭНТ
ТКМ
Фильтры
образная
Калорифер
участок
прогибом
рекламными
анкеровки
рассчитанный
приборов
белом
кирпичным
режиме
лазанья
1ПКВтнг10
Прокладка
Заслонка
УЗО
перемычек
присоединительная
задней
манжет
чувств
многолопастная
132
продольная
4P
С1
Сист
Тум
гнут
трап
##x95
разделитель
##еделка
##обор
10Х17Н
145
##х26
Профнасти
Конд
трехканальный
каркасные
плитами
SDR13
боковые
протектор
стеновая
ОККМ
многослойные
ААБл
открытия
Угольники
Прокладки
керамогра
бумажной
светильников
восстановления
удерживающее
эффективности
##нополочный
шпунтовый
10Х17Н13
Профнастил
20П
грузоподъем
##готовки
6х25
К42
СО
ЦП
ЭЦ
довод
нож
радиатор
чаш
##га
##кп
##зит
##жности
##онной
##еняем
прин
100x400
##евый
перестав
##лапковые
##онарез
самонарез
фольгированные
условия
##цепная
##х595
комбинированного
многоярусного
##есьма
водосточный
футеровки
##ружечные
огнеза
светофора
Гильзы
деформационного
Патруб
атмосфер
главной
увелич
принуд
самонарезающие
условиях
800х
мет
мол
полу
В2
ДР
буг
весьма
фиг
##тп
##органи
##окон
##окле
##роволоч
##лож
40Х13
Втул
самокле
контактного
проводника
холодной
Переходы
привода
головками
дифференциальным
##рожковый
огражде
патрон
РТТ5
консольных
ламинированной
разборно
треуголь
водопроводных
Вставки
резерв
управляемое
упаковка
чувствительности
фигур
##роволочными
пил
дви
ребрист
Вазон
ОП
##лг
##рил
##х600
##Б2л
##971фт
##зра
##енка
изолятор
##ельное
##азмер
разъеди
##рованное
##изированное
##оскорост
##x1500
электронасос
24В
высокоскорост
нижний
вентиляции
актив
ячеист
АВБШв
10с971фт
лестниц
канализационные
поверхностями
Пресс
промежуточное
несущему
ААБ2л
##ляемый
окрашена
остекленный
подводом
однокамерный
помещения
разделе
фрикционные
Система
ЭЦВ
переставной
850
W16
масти
плет
##устойчив
##жектор
##ИМ
##нине
##левой
##ану
станине
##цид
стяжки
конт
двиг
труба
20х20
необ
замковый
железобетону
медный
1140x1
штуч
плоскости
круглых
200х200
радиографи
гофрированных
защитный
лазерная
несколь
пайка
прессуемый
ниппельном
сегментов
мокром
оловянно
высокоскоростное
радиографическая
440
127
жилых
трехлуче
глухие
парапетного
1х2
4x2x0
4х25
4х70
ВЦ
Г2
Кое
Нд
ТПВ
вяжущ
дном
друго
шланг
##x800
##ып
##те
##ПЭнг
разно
10х1
##инское
дос
внутренними
прик
теплозащит
каш
теплоизоляционная
110В
##ластиковые
материалами
свето
строительная
Углы
раструбная
КПо
Скам
Кронштейны
инъ
Песоч
14нж017р
замыкающая
ФСА
скважинные
прессуемые
инвентарный
пескоуловителя
Контакторы
сердцевина
самоклеящ
##лгинское
электронасосные
Коелгинское
другое
5А
пола
Анкеры
поперечная
грузоподъемность
3х6
4х50
КБ
пли
##раб
##жд
##никовый
толст
##отексти
##нителей
особ
осевой
графит
фланц
##ающе
пенополиизоци
листом
основанию
плоским
СБВГнг
##олото
Клемма
усиленный
вибрации
дымовых
ТЗП
добавок
однокомпонентный
автоном
аппаратные
троллейбуса
фактур
трамвая
Люк
скрученными
наконечниками
##этилен
Разъединитель
##етричным
##анурата
пенополиизоцианурата
мал
##еи
битумной
стеклянная
1х70
420
Долото
ОР
Пе
УВ
пб
палуб
##AL
##онное
износ
##облоки
100x500
##инета
горка
Стелла
##абарит
теплоустойчив
облицовочного
##щитовой
креплений
Прожектор
##ещенный
гибкая
##айки
600х50
600х80
настрой
гофрированный
##х35мк
навесом
##озащитная
##полюсный
декоративных
опалубочных
хризотилцементных
реверсивный
74x63
##x980
консольной
коническим
##тура
откидное
кнопками
скрытой
керамзит
Экстра
сиденьями
уличного
скатом
буровая
карнизное
локальное
увеличенной
контуров
кашированием
Песочница
палубой
##шлиф
##азу
##углеродист
тонне
Шайбы
7х7
9000
кинета
шкаф
##уника
##луч
##фат
##x45
##товый
##точного
##нок
##онными
##кис
наплав
избы
##опластиковые
##ейные
10КV
20Х13
опорно
лотками
болты
##ерсивные
ОКБ
##x72
удлиненный
удлиненная
путевые
шумопоглощ
заземляющий
фикс
другую
лифта
штукатурные
пайки
компонентов
780x1
нейло
базальтопластиковые
низкоуглеродист
Вентиль
треугольной
избыточного
ПБЗ
1х50
4х16
РВ
ТГ
вяз
касс
шли
##Мц
##товые
##PC
##чок
разъем
##поразмер
корунд
14х1
3050
30Х13
контактными
цветовая
высоков
нагрузок
фасадной
воздушная
гидравлического
лестничный
декоративной
муллитокремнеземистая
##2700
распределителем
фильтр
станционный
открыв
поливинилхлорида
Бруски
акриловых
рельса
выпуском
счетчиком
типоразмер
калиб
Налич
ККС
##уля
##таж
131
вертикальные
2х4
4х95
ГТ
ЛА
НПВХ
ТУТ
УТ
ЭИМ
бут
дем
таб
##фанов
##СО
##ПМ
##РП
##ТЛ
##Эф
натура
##аро
закреп
подзем
освет
##ольш
5050
##х100х
1000х3
соединений
##x27
сварочная
##ающих
Оттяж
боковая
изолированных
сердечником
500х80
полиуретановая
эмали
Шкафы
составная
лиственницы
конической
симметричным
гальфанов
обыкновенного
органических
помещений
250х120х65
низковольтный
##клавишный
##ающимися
бугелем
кассет
гальфановым
121
технический
масля
Швеллеры
1х4
3х1
3х0
ВУС
Гц
ГГц
СА
втор
штор
##вяз
##эк
##4000
##щик
##йной
##ненная
##трубного
##КВ
##TP
##ельные
##чели
##оты
##отделитель
##рог
12КV
два
##цевый
смещенный
30ч
##пала
1140
опорной
##чатого
лицевые
профиль
клинкер
горячекатаной
силовые
холодоснабжения
##рывающимися
стык
межтрубного
вертикальным
##x796
##x250x200
пружинные
электрического
подключениями
распределительного
геотексти
образным
заземляющего
волнистой
консольные
нетканое
лакированная
ОСК
приборами
струк
охранный
перекладинами
сосны
нагревательный
Пенополи
В7
ПН
##авка
колеи
18П
армирования
ТСА
015
КД
Ушко
дюб
##шеход
##наруж
разветв
##остого
##обетона
##ловая
выдвижные
205
##лопроб
однос
комплекс
пешеход
переходах
##фицированного
боковое
стенов
##значный
одностоечные
бесшовных
модульные
Подъем
##x54
##ефлектор
Качели
эпоксидная
гипсо
коммуника
иглопроб
ФСБ
дуба
ТЗГ
##опрозра
бортами
Перегородка
доводчика
досок
Скамья
особо
шлицем
Оттяжка
Фундам
##46
##х11
14Х17Н
площадки
Фундаменты
14Х17Н2
4100
ЛЭ
М700
вес
зем
соч
срывающимися
##x65
##x900
##РС
##пук
##IN
##ораз
##енси
старог
выпук
##нур
##нометалли
150х100
##ающиеся
##жимной
затяж
стеклопластикового
##способ
светопрозра
37x63
Компози
скользящ
##нтовая
промежуточная
железнодорожных
трансформатором
ПРТ
винтами
гильзой
направляющий
низколегированной
Заслонки
гальвани
сложной
манжеты
керамогранит
лестницей
теплозащитные
Пенополиэтилен
старогод
затяжке
Композиция
2П
МА
ПМ
зеле
##нищ
Колон
PG
Шту
кирп
па
пасс
фос
##узи
##кли
##алог
##Пмнг
##одом
разрядный
##осетка
прием
##торной
водоблоки
300х80
компенси
##отаранный
каналы
1928
светостабилиз
газового
##ошок
противотаранный
резиновой
глубокой
IP53
##x400x150
вытяжки
реверсивные
Накладка
стационарная
фибры
ИКБнг
КУПЭф
обрезные
финиш
460x400x150
комплекта
двигатель
Штуцер
кирпи
19281
КУПЭфПмнг
##оматери
##остойкая
пиломатери
движения
370
4х120
625
6х7
940x1
DIN
F4
БП
Рель
ТЛ
Форм
нег
оцинков
уров
##орас
##омод
##лег
100х35
обвяз
трубка
раскли
40x70
##х100х1
приспособ
##ланд
##x2x1
базе
СвЗ
коуш
среднего
проволочный
37x60
сетчатые
многомод
остр
высоты
влажности
Соединение
##карт
шпунтовая
сплошным
коммути
скальных
РП1
АКВ
однопольные
штукатурный
400x250x130
фарфоровая
Глушители
двухскатной
дистанционное
завод
баскетбольная
М6П
металлополимерных
ВСт3сп
фланцами
гипсокарт
водоблокирующими
расклинив
ФБ
##аку
бортовые
1х95
R4
Гаситель
КФ
М24
Р50
инт
нез
форт
##62
##К1
##ВВ
##енз
изм
излив
##50x200
полиами
задвиж
20Ш1
арочной
повторной
200x200
террак
19х1
400х80
кольцевой
слоев
СБВГ
СБ2л
##укава
Перемычки
Геосетка
пленки
термоусаживающ
путь
тяга
расположением
водопропускной
нагрева
выпуска
##МСР
петлевой
КУГПЭПнг
опрессовку
несколькими
нейлоновые
высоковольтный
сочлен
гальваническим
030
340
днищ
пы
##лор
##ГП
SS
циф
##ела
##460
##9ТЛ
##жильных
##РВ
##чаты
##Вт
##Гсп
##омб
стар
##рубный
##лона
100x200
полистирола
12Х18Н
давлением
##ительные
15кч
##х180
14х0
полимерного
150x150
однорожковый
##х350
защитные
18Б1
обраб
192
400х50
клеммная
боковой
крупный
Ст3Гсп
##х63
200х35
квадрата
##етали
КУПП
огнестойкостью
антив
##нутой
светодиодными
участком
С285
вытяжной
декоративными
шайбы
щитов
кнопок
дренажные
автоматизированное
СБПБбШв
СБПБбШп
центральная
желобов
нефтяной
отбойника
автономное
Наличник
иглопробив
12Х18Н9ТЛ
8АтVТ
ВА
ФЛ
##енно
16П
водно
Дюбель
4x4
4х150
F3
S460
БНД
Теп
во
жар
инж
шу
##аТ
##йке
##ОС
##NH
##ометр
##раны
##остати
##ющими
пода
##х125
высоких
Ст0
двухм
Плинтус
соединительными
##ечные
фольгированием
нагрузкой
стандартный
акрил
СППК
кровли
Изоляторы
нерав
Шпилька
эпоксидной
##ециев
кронштейнами
обечайке
ригеля
откидной
СБЗПу
##унк
гипсовая
стеклохолстом
матра
дополнительным
мелкозер
ШТС
ДНаТ
##атывания
трапециев
КПоПЭнг
коммуникаций
S460NH
670
укор
этаж
удлинение
рельеф
дисперсионная
1х0
430
4x10
9600
C2
Бок
НТ
вок
ватой
неси
саль
##рно
##ву
##СМ
##нель
##янутой
##ВЭВнг
пропускная
##авис
##фибр
##проч
покров
бетонными
замковыми
спин
соединением
##рующее
СвО
300х200
35x35
##х360
##ционного
полиэтиленовых
высокого
горизонтальными
монтажной
телеф
сетчатый
шамотная
минераловатные
ОКК
муллитокремнеземистые
ответвительные
регулируемые
стеклофибр
усиленным
промежуточной
накладками
изделие
##оустойчивые
##невые
древесност
входят
##ставка
модулями
тканое
Порошок
##41нж
уличные
##образов
природного
утепленным
рифле
Патрубок
принудительного
ДРЛ
двигательным
кирпича
пиломатериала
антиванд
вокруг
несиловая
##ависим
рис
пре
прав
заготовки
324
освещением
ребрами
укороч
C1
Круг
Пласти
СМ
УК
ант
вет
габарит
##кост
##200х
##х800
##600х
##Гнг
##никовая
насти
##абор
размерами
обжимной
50x80
перв
##уска
##х130
поруч
горячей
27х1
##ленные
##няющими
парной
газо
SDR26
125х26
регулирующие
14нж17р
жесткие
37х1
##лизатора
непласти
##х54
ПвБ
##сцентри
межфлан
Щиток
электрической
отводом
стекловолокном
декоративная
4х185
ВБШвнг
Грунт
У220н
болтовыми
однокамерными
профилированного
раздельными
мягкие
##нетуш
нанесения
необрез
демп
кассетами
ПРТО
коммутируем
инжен
матрац
Ли
М22
П1
##М1
4x16
ОД
ШУ
адапт
добор
знак
ромб
соб
сорта
##гор
##ыс
##шип
##ОП
прол
разъемная
обнаруж
откос
подвиж
пери
##опроводящ
окрас
Стенка
##x1800
30х30
облицовочные
Коробки
одноярусного
##х220
контакта
##аркет
внешними
##ильные
термостати
строения
##х410
##ованного
вертикально
максимальным
пиленые
полиэфирное
##нителями
уголки
поверхностного
полиуретановый
АСБл
усиленные
##00х3300
##00х3800
##заход
ригелей
обыкновенные
ветроустойчивые
метров
однокомпонентная
адгезия
ревизионный
металлоконструкций
ограждений
разветвителя
уровня
##ландцемент
инженерных
490
АЦ
##43
ковров
муллитовые
продольное
качеств
ТЛК
Лифт
1р
1х2х0
2х2х0
Битум
анод
ов
##окий
##мент
##шин
##льным
налич
##опти
##азву
прит
##раст
столя
стема
##тразву
##обра
##ейся
горки
40x50
##литом
##обетонными
сильф
сварку
однолет
60х60
##чатое
##х310
токопроводящ
##х450
условным
углеродистых
регулирующий
протяж
200х1
заполняющими
рабочий
ПБШ
композитными
полиуретановых
глубокий
асб
скважины
крепежом
липким
фильтра
белого
##жильный
глинистой
ворот
сополимеров
сифоном
напрессовочные
знаков
анализатора
фиброцементными
разделительная
методом
наплавляемый
клинкерными
структур
ЛЭЗ
керамогранитными
независим
полиамида
терракоты
стеклофибробетонными
непластифицированного
обнаружения
наличника
стемалитом
однолетних
390
##олег
высоколег
многоцвет
ленточного
уплотнительные
3100
3х10
5100
5500
940
В10
Детали
КР
КЛ
КШ
КСП
М50
Масло
Па
ник
упроч
##кон
##фр
##хв
##ьев
##К2
изобра
##ранич
##ющий
облег
123
##жением
металлом
алюмос
40x40
##х160
двухполюсные
графи
1150
3200
отверд
стойками
растянутой
Контр
##ортландцемент
электросварной
переменное
вертикальных
резиновый
##x596
глухим
109x60
уплотнением
тройника
каучу
тросы
железнодорожным
выходом
ультразву
##x996
нетканого
##туры
ригель
желт
ИКСЛнг
кремний
Обрамление
##уловитель
прутков
индика
электротехнические
магнитный
##оконечные
Втулка
светоопти
многомодовых
остроконечные
изменяем
термоусаживающаяся
облегч
алюмосиликат
535
М5
106
##умм
Металлоконструк
остановок
415
4х2х0
4x50
5х16
Голов
Добав
НК
ПГ
ША
банда
дат
тар
чуш
##МРП
##тель
##3000
##ПС
##яда
##шаро
##ВП
##ВО
прист
##окомпозит
##лощад
##коуловитель
##рош
##истки
объемный
одножильных
водогр
##реза
##шечное
прочих
защитное
трехшаро
паропро
проводки
пенополиуретаном
открытым
кольца
##х500х
цинка
брусья
##х700
напольный
пластиной
цилиндрические
Пескоуловитель
дроссель
закладными
посып
распашные
##обезопасном
отражающе
бронз
растворителей
щитом
низколегированная
аппаратный
финишный
В55
кула
бесцветное
##огрева
крупнощитовой
Держатель
разделенных
земли
Форма
заводских
СППК4
покровом
независимым
изображением
кремнийоргани
Добавка
чушках
трехшарошечное
СЦ
##нного
Металлоконструкции
025
PN
ВБбШв
Гид
Дросс
Е27
Мат
Пу
ба
держ
##гии
##5М
##щенный
##Бнг
##МТ
##91
##чного
##шпол
##инации
##атух
##отраж
##епти
##порных
обогрева
50х35
##озатух
20000
##елые
самозатух
колон
система
системами
анкерных
проводе
цельнометалли
пониженной
сухая
блокировки
частичным
##одического
перфорированная
комбинации
наклонными
Соединители
С390
литерный
трансформатора
клиновид
Воздухорас
асфальтобетонных
пс5
центрами
пластмассовые
##x81
звукоотраж
Брусчатка
груза
самонесущих
тканая
центробежный
обрезная
АСБ2л
микротруб
желоба
фальшпол
##х140х2
Стеклоп
1000х290
конструкционно
202х140х2
полукруглой
открывания
Тепло
периодического
графическим
светооптическими
Дроссель
самозатухающего
Воздухораспреде
##овин
глазу
фундаментная
рельсовых
низколегированных
1х35
2А
4р
4x1
595
НФ
РЦ
Фреза
ШСП
ЭМП
Ящик
ами
даль
сад
##оэ
##мет
##дный
##септи
##чной
##ШВ
##оры
##леп
ответв
##10П
##ированными
неар
15000
исполнительный
144
##x180
##x1200
11с
1180
водной
##аторов
композ
средний
##х325
радиов
постоянное
УХЛ3
##низированной
##ажир
поворотной
светодиодным
пружинным
пластин
быстрос
железнодорожные
отводами
расстоянием
##озиционного
DN100
АКП
ячейками
теплоизолированные
рядовые
шагом
кремнеземист
ниппельных
Агрегат
рукоход
металлоч
скамей
утол
аккумуляторов
диэлектрический
Стеллажи
теплоустойчивой
расклинивающиеся
иглопробивное
демпфера
асбест
бандаж
водогрейные
425
оград
каркаса
стыком
стекловолокна
ворс
R1
Кросс
М75
МВт
ОА
Стр
Седелка
Фитинг
Шнур
больш
вини
мг
шип
##ионная
##29
##ха
##БК
##ЭТ
##ателей
простой
стока
раздвижной
обой
##евая
оцинкованных
40А
005
двухканальный
смаз
##оечная
облицованные
70x2
11000
пено
кабины
##х330
шпатлев
анкеруем
##аемый
песчаные
##цепные
##х610
шлифов
Провода
500х500
ПБП
##створный
шахтный
АСЦ
кромки
тонкост
домк
клапан
образных
уплотнительное
чугунных
##00х220
реак
##бШвнг
микро
коническая
Брусья
акриловая
КВВБГ
КВВБН
стрелочный
отдельностоящая
насос
герметизирующая
##М2Т
штепсельные
15Х5М
скобяными
предварительного
гнутого
10Х17Н13М2Т
резервуар
ребристые
шланговый
пассажир
древесностружечные
термостатическим
##заходный
садовая
760
СЛ
##ека
перевод
##1800
лестничные
разрыве
стрелочных
масляная
рисун
4x2
4x25
5х4
6500
SC
Орос
Портландцемент
С5
УН
ЩРН
бор
лет
пла
фаз
##жные
##плот
##асшир
изнутр
##гофр
##езд
10С
полистир
##ожж
25х25
негофр
покрыт
##ъемным
##оечный
##ластировки
пота
120x2
шаром
95x2
ковша
##ованный
400х300
общей
балластировки
63А
деревянным
ППГнг
600х600
КГЭШ
швед
шестигранная
ПСПКр
БСМ
наполнитель
швеллерная
неизолированные
терморасшир
силико
АПвПу
циркуляционные
Насос
##ружечных
1000х160
БрО
АМг5
пазогр
пробкой
пропитанная
термопластика
крестообразным
времени
##трубной
тяжелые
пигм
перемещением
антикоррозий
огнезащит
износостойкости
светостабилизированного
тонкостенный
Ороситель
изнутри
негофрированный
пазогреб
МД
С35
Шланг
##онита
электроизоляци
одинарная
переводов
3ПКВтп
5х6
F10
UTP
ГК
Е600
ЛВ
ЛД
План
Повор
ПУС
бути
зоной
мл
##АШп
##Эон
##ОСП
##олновый
##лях
накид
##стиро
стоечный
##екс
##шень
проката
проемы
##х190
##х195
Ст22
##торами
огнетуш
температурой
##x1180
спар
##рующей
мости
лицевым
самоза
1800х
шаровым
термостойкого
IP31
##ессор
газовые
стандартного
цельные
расчетным
##оотвод
##x66
ПвПу
комбинированные
М3р
многос
газопровода
##х88
выходных
14нж917р
отвода
вибро
##невый
##озиционный
Обои
фикси
М2р
М1р
М1ф
СВЛ
модулей
фронта
перенос
Экран
терморегулятора
эллиптическим
14нж17ст19
одиночным
оголовком
14нж917ст7
Дюбели
тупи
тупым
запорной
неподвижных
различных
приклей
14нж017р32
плинтус
толстолистовой
корундовые
Рельсы
##х100х110
ветви
14нж17р28
П1б
столярных
структурированной
паропроницаем
радиоволновый
кремнеземистые
пенобетон
анкеруемой
полистиролб
3ПКВтпБнг
Поворот
##Эонг
Ст22К
самозажимная
##упер
##рель
ступ
018
1х120
1х240
2х16
3600
3300
4х35
5х50
ДО
Уд
УС
вала
гр
ду
ну
фрам
фитинг
цик
##лон
##нем
##пен
##льха
##кинг
##рытая
##екуля
10x2x0
длины
перег
##ительный
15°
##лителя
##x13
150х50
опоре
полиэтилен
лоток
коробчатый
##ечник
##акеты
штамп
##ульси
горизонтально
400х200
плоских
SDR21
монтажная
автоматического
2800
многолет
КПД
битумная
заземления
ОКТ
противопожарные
однопроволочными
прямоугольных
КВВГЭ
закладных
крепежный
проволокой
фундаментной
трекинг
Наконечник
Гильза
СБВБбШвнг
герметизирующие
Глушитель
устойчивая
АЗЕ
ячеистых
штучная
буты
табло
коммутируемый
посыпкой
кулачок
неарми
утолщенный
обойма
резервуаров
##оотводчик
трекингу
В50
Ди
КЦ
лод
брусковая
Шайба
ОРЦ
3x2x0
4х240
580
F9
UPC
АПВ
Дефлектор
Зна
Оп
ШЛ
ольха
функ
##вЭ
##2000
##овентиля
##ованием
##ерст
диз
##опол
##азка
прос
##екст
основного
##равнив
Ступ
150x300
однозаходный
ПВС
трехъярусный
##ленное
эксцентри
термоди
SN10
##x380
фасадная
КВН
37х0
латун
сборно
низкой
ППС
ПвВнг
УХЛ2
ОКГ
мостам
прямоугольник
подвеса
кромкой
92x496
92x296
92x196
92x396
ТСС
##невых
дымовентиля
МКРГП
листовое
грунтом
фибр
##ающийся
кирпичной
КУПР
Поруч
##ффузи
поливинилхлоридный
##олитовые
Стекло
цепей
покраской
мастичный
##рабатывания
стеновое
выпуклый
сальниковый
Пластины
СЦБ
цельнометаллические
фальшполов
ответвлений
быстросъемным
потайной
многолетних
бутыл
Знаки
термодиффузи
термодиффузионным
Гвозд
П2
Площад
##33
наружные
нешлиф
массой
днища
ковровое
Гвозди
5х25
D1200
F8
А12
В60
Д16
Уплот
аль
апер
кры
тум
##лка
##вы
##фаз
##м2
##56
##йный
##шения
##Вг
##ЭИД
##чей
10х2
подок
внутри
##усор
##ества
14х2
30x2x0
сварных
70x2x2
опорами
##х230
##агр
120x2x2
услож
цвета
95x2x2
способа
протяжки
люком
500х50
пенополиуретановые
вспуч
черной
пластиковая
торш
##гостойкие
##онагреватели
##x850
подкоса
импор
поглощ
Элементы
АПвВг
ремонтных
пространств
забивные
прутка
14нж917ст25
фиксатора
равнопроходная
детский
укрепляющ
энерго
минеральными
трехлучевой
ТПВнг
Колонны
##чатых
первый
поручня
АЦЭИД
Стеклопакеты
14нж917р34
дугостойкие
дымовентиляционных
крыль
##лкауч
усложн
поглощающая
##ерей
одинарные
1000х1000
2х6
F25
Бак
Гайки
ККП
М25
Маном
ФА
ШБ
гим
хлор
##уз
##лоч
##мыв
##64
##Б2
##МД
##Инг
##опласти
##оклав
##отов
##альных
10х2х0
полированного
1280
кабельными
коррози
##осплав
1650
1350
150x500
150x400
112
80х80
##пусная
сечений
повышенный
##х21
##ающим
фланцевом
бескор
##окаче
прочистки
пенополистиро
##ечно
крыши
термостойкая
теплу
анкерами
высококаче
гладкой
194
19х0
##огнутый
максимальный
##аймер
плиты
##тейнер
СТОП
##укопоглощ
твердосплав
гидроизоляцией
КПЭТ
формы
855
поворотными
резиновое
Прип
шестигранный
кранов
удлиненным
звукопоглощ
двустворчатый
орна
4х18
шумозащитная
терморегули
нетканая
##юбинг
##енсат
модуля
ИКБН
крутоизогнутые
ИКСЛН
250х120х88
защелки
фарфоровой
сливной
АБС
терморегулятором
гальванизированной
наливные
сектором
горячим
веществ
вещества
укрепления
ТППэпЗБ
КПсВБГ
КПсВБН
разноуров
второй
гипсокартонные
обработки
Боксы
откосная
##хват
бандажном
терморасширяющ
Планка
ПУСК
бутилкауч
импортной
Манометр
##мываль
бескорпусная
КПЭТИнг
4А
##истый
##х45
пассажирский
4x6
4x35
5x2x0
5х70
D500
W10
Ат
ГП
Зонт
Рез
ШК
лив
мусор
ом
улуч
шуруп
##бав
##нной
##ыва
##АБпШп
##чал
##ополит
стаб
##емые
##емперату
##отемперату
##нущ
марш
##истого
металлог
двухлап
напрягаемой
арматурные
одноцепная
##ранные
##ранения
опорного
##х27
016
оптическая
IP68
термос
каната
конструкция
листовым
160А
герметизатором
57х3
##иваемая
состоя
воздушного
экранированных
Огранич
люминесцентный
##створчатые
поворотным
многослойным
полипропиленовых
равнополочный
14нж017ст
односторонним
разветвительный
полосы
выхода
стороной
двустворный
шайбами
ААШв
нетканой
бессварная
сквозного
устройством
КУПЭВ
##ерепицы
Поршень
метрополит
поливинилхлоридным
одностворчатый
фальцевым
штепсельная
гвоздем
импульсным
канатная
Тумбы
никели
алюмосиликатный
М550
тарель
металлочерепицы
шведская
фронтальное
апертуры
гимнасти
металлогалог
##86
##омог
195
кровельных
путевой
1м2
2х35
3x0
4х10
F12
G3
А15
БН
В70
Каб
Лам
Мпа
Ом
ШН
Шпала
авар
бенз
пя
роли
ряда
сф
тех
хол
хода
##гл
##лаб
##ицион
##мя
##хнущ
##тенов
##сси
##шня
##норам
##омер
##омыс
стружечных
безрам
##итковая
##един
##обм
##лонов
##ивная
##роения
12x2x0
зака
##сохнущ
мартенов
трубки
трубок
трубкой
оцинкованными
255
20x2x0
прочей
спуск
1320
однолапковые
##рующего
##аги
коробкой
##х300х
защитном
трехколончатые
наклона
##ующими
канал
конструкционные
2200х
фасадных
монтажными
Уголки
##х105
##x650x200
решеток
ОКПМ
формат
канализационный
##россельная
легкой
##кладка
##кладыш
водоотводом
частью
литые
короткого
замыкания
участков
свинцов
хризотилцементная
##нтованные
поликарбонатной
74x60
волнист
концентрические
междроссельная
кирпичных
ветроустойчивый
быстросохнущ
выключатель
электродвигателя
тяжелых
выносная
сантехнический
3ПКВтпнг6
вяжущем
##ающихся
панорам
компенсирующая
сочлененный
КУППмнг
подача
##конус
звукоотражающая
ЛДСП
спаренными
тупиковая
приклейкой
14нж017ст13
##омысло
мартеновских
##акри
сигнальные
анкерный
фасадные
сборная
непро
вспомог
вспомогатель
1А
290
5x1
5х95
НЦ
РС
Рукава
вогнутый
зонта
пл
рукав
рейка
ткань
шурупы
##ьмя
##овитковая
##онепроницаем
##анельное
##кал
##ельной
##гоны
стол
##лата
##епроводов
##еления
##инт
##полнитель
алюм
141
##x110
полимерными
##олокнистые
##кателем
кова
местного
300х35
тепловых
2700
цветов
внешнего
##ленная
##ленных
17с
##500С
листами
листах
анкерными
покрытиями
##идным
400х400
МКЭШ
##x32
вводов
200х200х
стволов
потреб
287
##161
электромехани
многовитковая
500х400
легированной
редукционные
домов
одностороннее
посад
##невым
путепроводов
естественная
антикоррозионной
неоцинкованная
Колодка
НСО
береза
АД1
2х18
МГШВ
хомута
выключателя
Термометр
ответные
эллиптические
природный
оголовка
наливного
секторные
мачты
скамейка
холоднокатаный
ревизии
двутавра
тиксотропного
тоннелях
Воздухораспределитель
пазогребневым
##оклавный
высококачеств
термоскреп
дуг
##х1000
##ага
дорогах
конструкционной
глазурованная
электроизоляционная
2У
2x2x0
5х120
F13
АРС
Б2
ЛГ
Р6
РД
ШП
ЭКП
бр
бух
крош
##ении
##гба
##ики
##М5
##ЕМ
##оле
изделия
##отор
сталью
обес
##алька
10А
10х0
конфи
подва
##х115
замками
оксид
железобетонное
Коромысло
150х80
широк
объемом
11ч
однолопастная
болта
линии
переходом
##ечная
Смазка
обработа
##ульфат
цементном
встав
муфты
параметр
##итая
SDR6
агрег
потерей
89х3
перфорированные
спирали
лестничная
##цементный
многогран
##онагреватель
клапана
Коллектор
прокладок
трансформаторов
КМПв
ТЗБл
витков
стационарный
мелкий
##x40x0
гидрофобиз
статической
МСС
ВСЛ
всех
метра
металлор
сополимера
химически
переплетами
скобяных
настройки
оцинкованием
неравнополочный
протяжкой
плинтуса
циклов
фибролитовые
ККПС
коррозии
терморегулирующим
бутилкаучу
##чалка
аварий
сфери
холостого
##гбаум
конфигу
525
690
ИП
##фра
##57
##бер
##ПО
203
##х295
178
предельная
##00х2100
гвозди
B1
B12
Ca
FC
F400
Адапт
Ба
БЗ
Ван
КИД
Краны
Лотки
МПП
М27
Сем
Тюбинг
ЦЕМ
витая
сб
сус
х1
цем
##лые
##рной
##онит
##тяже
##енную
пристра
##мисси
##отк
##остроения
##оби
##ловые
##ловым
объ
полированные
##инный
зак
тран
корон
основы
16x2x0
##лители
003
двухлапковые
двухцепная
1340
##x28
11Б
120х120
##х320
верш
трехполюсный
горячеоцинкованное
22К
21К
МКШ
песчаной
серая
Заполнитель
встроенными
машин
##x450
стыковыми
Оголов
325х12
полиуретан
Соединения
жалюзийные
электрический
концевого
черная
##родейств
армированного
растяжения
уплотнителем
тройник
##шивная
быстродейств
эпоксидный
##очастот
кронштейном
накладная
промышленности
##ючей
нитепро
АКЛ
ССА
деталями
фундаментов
модульный
растворов
двухстороннее
импост
##готовления
одностворчатые
плавкие
2х28
КПГС
холоднокатаные
горячие
кладочный
кладочные
##казатель
минеральных
Тумба
молекуля
керамзитовый
фиксации
низкоуглеродистой
односекционный
рифленая
правый
Головка
композита
шипованная
смазочных
П220н
Уплотнитель
вспучивающ
стабилиз
тканью
подвалов
широкопол
металлорукав
конфигурации
Cat
Адаптер
Семена
суспен
цемента
нитепрошивная
молекулярно
##атная
##ельного
##ительных
пролетом
С355
050
010
5x0
7х2
CГ
DAL
F100
F200
LC
ВП
В80
ГВ
Галька
Каркас
Лест
ОКЗ
Рог
Элект
ЭКМ
включения
греб
кос
лат
съемная
упор
##лс
##87
##300х
##жий
##ях
##нолог
##рупа
накат
##абир
классы
##итовый
##ющей
отход
##елев
наружу
соэк
подклад
##егом
##естные
40х30
##торов
теплообм
##x165
137
Корпус
стойку
колючей
защитно
шаровые
оптического
##ентированная
способом
Перг
19х2
пароизоляци
нагрузке
крупности
200х150
допустимой
##х58
перфоратора
комбинированное
КС5
потолков
рулонным
измерительным
Качалка
ПСО
пластик
наполнением
##струдированными
ТЗЭ
древеснов
предохранитель
строп
##x405
искусственных
зерка
##ПКВКтнг
пропитки
огнезащ
бумажные
кварцевым
прозрачным
крестообразного
куполь
мачтовый
ТППэпБГ
детей
##епроницаемые
##x96x3
Конденсат
графитовым
##x72x150
подземный
шторкой
АКВВГ
старт
шурупа
межфланцевый
пролета
пигментов
лоджий
состоянии
метрополитена
металлогалогенную
технолог
электромеханическим
бухте
обесп
сбегом
DALI
накатка
соэкструдированными
огнезащитный
##афра
##МК
поперечное
фундаментные
ПМБ
этажей
высоколегированных
##афраг
410
5х150
7х4
7x0
7x2x0
F7
F50
F15
R80
Ви
ИС
Тр
Трос
аз
камер
мая
позиционного
тру
ящи
##ура
##ре
##внг
##фуз
##бционный
##Пвнг
##оллер
праймер
100А
##ально
##остойкий
полиамид
кабельным
##олями
коротки
покрытая
двухколончатые
кажд
##онах
одноклавишный
одножильный
водя
изоляционные
терми
внешних
анкерного
##ежущ
МКУ
дверям
##ообраз
КВБбШв
ЭПП
воздушные
одноместная
перфорированной
решетки
заземлитель
##рядные
231
керамической
26161
##напряже
##язев
образной
закладного
наполнителей
##защищ
несущего
##192
моноб
##ляемая
патрубками
биметаллическая
предохранителя
АПвП
хомуты
рельсового
бумаги
атомной
одинарным
модифицирующих
дополнительный
гипсовый
АСБГ
терморегуляторами
АМг2
ЗПС
трамва
КУГПвЭ
чистящий
Растворитель
шлагбаум
двутавровая
предваритель
учетом
инъекционный
УТ2
эмалированная
фосфор
приемо
двухместная
собранные
##гораемый
тумбы
крыльчатый
усложненной
высококачественная
транз
Оголовок
Электровод
##абиринт
Пергола
Конденсатоотводчик
технологи
труд
коротким
КУГПвЭПвнг
шлагбаумного
ЛЖ
##лац
101
157
117
горячекатаные
##деформи
производств
путей
Диафраг
1х150
2х25
5e
5х185
8500
Дом
КИ
ЛУ
ЛО
МО
НВ
НЛ
Н13
ОТ
бак
габ
ед
км
левый
паркет
сов
текст
##ицид
##чком
##ЛВ
##KA
##нах
##омасло
##анная
разрез
классов
##очно
##очкой
100х200
подлок
неут
15с
1580
##учих
бетонной
плотном
углерод
##x160
30х2х0
широкой
однофаз
6050
склонов
крыша
Контейнер
##ульт
SN192
зажимом
света
Креп
СБл
##13нж
высокопрочные
цельно
состоящ
очень
антисепти
электромагнитным
ПвВГ
транспортный
КСФ
остат
брусчатка
нормальным
мостостроения
##x55
глухая
кольцо
эпоксидных
МЛУ
станции
ААГ
неразъем
##00х1000
антикоррозионная
ячейка
сорбционный
SN128
свинцовыми
втулочный
LOKA
компрессионная
пескоотделитель
пескоцементный
пояс
перенапряже
разборная
автод
парапеты
петель
выключателей
кварти
электродвигателем
розет
##x205
сифонной
перегородок
АЗД
смесей
двухпозиционный
рукояткой
ААБлГ
пбв
настройкой
керамзитобетон
##кислый
низкоуглеродистая
задвижки
ПвБПнг
микрофонный
полистиролбетон
Поручни
ФАИ
пенополистирольные
орнамент
улучшен
конструкциях
бензомасло
пяти
кованые
термоскрепленное
Р6М5
пристраиваемая
транзитный
подлокот
неутеп
бензомаслоотделитель
сед
##М3
##АТ
12П
405
каркасных
пластины
инвентарные
1x2x0
2100
5х35
5x35
880
D600
D800
F6
RJ
Ак
Вит
Мости
М800
Пет
СУ
УП
Шар
ЭМС
бент
бана
инер
опа
паст
рее
секция
сотовая
срабатывания
##ги
##робезопасном
##дающая
##98
##ские
##новения
обы
##ходомер
соот
трубой
трубной
трубками
20х2х0
##истой
169
##вернут
##ерметич
минерального
##x15
##x291
##изоляция
250х250
1120
водонепроницаем
профильные
оплет
##агниев
стойка
переходного
бетони
IP23
высокочастот
Перевод
##тейла
жесткая
##делки
четвер
КМ1
потолка
34А
кровельные
поперечен
армированный
торцевой
редуктор
распределительная
образного
граненая
4х14
неразбор
подъемный
искробезопасном
СКУ
##леватор
массива
алкид
невыдвижной
пустотелые
броней
статичный
заград
799
буквы
алмазный
подводкой
Расходомер
неперфорированного
жидкое
жидкост
перепад
забивная
##онирования
турник
СБПЗАШп
планкой
композиционных
Металлоч
пигтейла
малой
САМ
светопрозрачных
##ВВЭнг
спинки
пристав
аминного
пластинчатый
##х195х75
АПВБШв
бутылочным
твердосплавная
Припои
##акрилата
корончатая
АПвПг
Домик
автодорож
Мостик
Металлочерепица
МШ
ваку
супер
##ием
##кладки
##47
##88
корич
011
каркасов
4x0
610
800х800
R3
RAL
ИОС
ЛМц
МР
Мой
МГц
Насти
Т2
доля
лес
сол
сув
сульфат
##иос
##по
##чка
##есом
##альдный
##екционные
##инка
сверх
оспо
##фика
один
155
двухполюс
##x170
1340x1
сварка
полуф
однод
##х260
300х250
профиле
стойке
контактный
цвету
##русель
канатный
каркасы
газов
серебр
##x341
СБГ
переменный
шлифованные
##х57
рабочие
##ящих
многопроволочными
146x45
подвесные
тройной
049
##ыша
РКУ
Шпатлев
образные
699
кронштейн
бурильные
шпунтованные
конусный
декоративно
ЛС58
состава
волнов
четырехполюсные
мелкие
ригеле
скреплений
4х4х1
ветровой
точек
дистанционная
передней
СБВБПу
ПОС
розетка
УГВ
УГН
кислотный
кислотоу
##трубных
топливо
композиций
расширением
энергии
СБВГнгЭ
фактуре
шкафное
натурального
старогодные
6х7х19
ВСт3сп2
ВСт3сп3
излива
трапециевидная
необрезные
адаптеров
ромби
##раструбный
воротниковая
многоцветный
облегченного
держателем
595х595
АКПсВБ
скамейками
Удли
нешлифованные
торшерный
спускным
быстросохнущая
стартовым
маят
##ежущей
Витраж
автодорожных
сувальдный
Шпатлевка
сумм
##х200х
2960
светофоров
##лацет
вакуум
суммар
1х185
2х50
3А
310
4x120
5600
5х0
B2
А8
Ант
А16
ДУ
Меле
НД
Нипп
ХКП
ШМ
аб
ван
нем
пнев
седелка
слаб
тони
указ
яд
##уБпШп
##оизоли
##4А
##х900
##6бр
##БГ
##БО
##СНД
##НО
##ночный
изог
##мера
##лаж
##олиственных
##епар
##ког
выравнив
10х4
##евым
##инк
дожд
конь
50х1
##ированным
##озабор
бетонного
##ветств
арго
##x12
##x1400
прямост
Корз
горячедеформи
250x120
водяной
##рант
##атируемых
площадка
##ливаем
профильной
фланцевых
шаров
трехмер
воздухозабор
муфтового
экраном
строительный
МКВ
##носитель
плиткой
108х6
песчаными
монтажным
массовая
СБПу
ЭПМ
твердолиственных
стаканным
##х592
600х500
500х5
##алубка
тоннель
Щиты
бытовые
Карусель
полипропиленового
усиления
стержни
тройным
тросостойкой
образными
эпоксидно
вытяжные
накладок
камыша
Накладки
грузов
АПвВнг
КУППнг
дренажный
центральным
сиденьем
ОКЛм
эллиптическая
одностворный
одиночный
одиночных
термопласт
розетки
импульсной
СБПЗАБпШп
СБЗПБбШв
СБЗПБбШп
рукоятка
10Х17Н13М3
огнезащитная
ААБ2лШв
ТЗПп
вязкость
приспособления
интер
СБВГЭ
СБ2лГ
СБЗПуЭ
телефонная
Контрг
огнетушащ
Опалубка
функцией
##ерстя
подоконная
разноуровневых
никелированный
бутилкаучуковые
Ванна
древесноволокнистые
текстур
Петля
опаловым
соответств
бетонируем
высокочастотных
ядра
горячедеформированных
воздухозаборный
10Х17Н13М3Т
1х7
СН
ХВ
##дания
##3300
##ово
002
035
038
188
круглой
вентиляционный
цельная
4х10ок
590
680
F90
KM
Вод
Вин
Г3
Кап
Останов
ТВО
Фед
абр
бар
брез
вед
валь
ваг
душ
зет
их
ру
тита
уче
хранения
##мовой
##48
##хово
##тные
##1000
##шей
##ДД
##орания
##асыв
##окамер
##ционирования
##ровочные
стружечные
##ковых
1067
##хода
защищ
подним
двухтрубной
электропровод
калит
расходом
арматурной
одноб
32х25
площадок
компенс
колот
27х2
27х0
полиэтиленового
шаровый
##ленным
1750
горизонтальных
19с
пары
горячекатаная
пожарные
МКП
##айка
плитные
переклю
перекрыв
цоколе
потери
твердом
верхняя
##х510
##уди
600х400
ОКСМ
потолочная
##пределения
##x710
##x510
композитные
торцевые
Геом
пресса
уплотнительная
мрамора
мостовое
внутритрубный
встраиваемые
ВРГ
разрывная
МСБ
модифицирующими
ламинированные
скорости
##x161
переезд
900х900
сложности
ТПО
турб
турника
чистящая
металлополимерные
топливе
полукруглый
учета
Кондицион
радиаторов
тоннелей
1000х390
##x2780
приспособлением
окраски
КЛЛ
упрочненная
Гидрант
Теплоизоляция
перегорания
##агрессивной
укрепляющих
##отовское
брев
агрегата
гребня
латекс
Виде
однофазным
неразъемное
двухполюсная
профилемера
Антен
Мелехово
НДГ
Корзинка
Контргайки
KMП
Винты
Остановка
Федотовское
абраз
поднимающийся
Кондиционеры
БТ
ТАС
##унт
##39
##осты
паронита
свариваемая
Шпунт
тротуарные
качественной
ворсом
ступен
1х54
3x1
3800
5ПКВтпнг
7х6
EU
F14
G4
ST
Гр
НЭ
Сред
Утяже
ХКМ
Ящи
ауди
вкладыш
ев
луже
ним
ошип
пит
спр
тис
шат
##мента
##х85
##ненных
##скоп
##ПУ
##PT
##ши
##ЗП
##Ф6
##олаз
##олеф
##орми
##енном
нач
##арта
приз
простого
##аболи
##циям
##емя
##ково
##лота
##ивид
10К
##еводы
полиолеф
подсоеди
##ниточные
##имости
тремя
передачи
проника
1550
16Б1
Стул
14x2x0
302
полимерно
установленная
##урьмя
однотрубных
опорное
отверстием
бесп
034
ниш
крепление
Прогоны
184
Смола
воздухораз
600x500
2440
Переводы
##ованной
##матическим
параболи
##ивающая
герметизированная
стандарта
изолирующее
##х625
КМ5
битума
159х6
##ационная
##х76
рулонные
##кую
##x75
##утавры
композитов
поперечный
##х892
полиуретановой
##родных
подвесного
530х8
53086
усиленного
Комплекты
остекления
тросостой
известковые
Колпа
штырем
концами
концентр
орга
DN200
вращающихся
выводом
подъемно
пластмассовая
А2А
откидным
откидными
взрывозащищенные
теплоизолированным
АПвБ
всасыв
несъемная
модифицированный
органическое
ЛПМ
стрелочные
погружной
Двутавры
охлаж
LOCA1
передняя
АМг6
использованием
D1900
Вставка
индивид
бесцветная
диэлектрическая
покраски
помещениях
светопрозрачная
зеленый
цифры
преобразов
настилом
ультразвукового
бронзовый
дальней
многоскатной
нулев
свинцово
потребляемая
ШПД
аварийного
машинного
отходящих
состоящая
Аккумулятор
ЛМц58
волновода
Удлинитель
Ниппели
##инклер
брезента
вальмовой
МКПп
Антенна
Средство
Ящики
спринклер
шатровой
полиолефина
воздухораздающая
индивиду
665
715
баш
##вые
##тон
##тап
##облад
распор
004
##х280
35Т
24П
горизонтальные
полиэфирная
водоотводных
преоблад
супертон
преобладанием
080
235
2х10
3з
3ПКВтнг
5x95
7х4х1
EP
M25
SP
А3
А24
Гайка
Д2
ДГ
Дат
Жел
ИР
ИО
К60
МБ
М30
ПА
С8
Фонта
ФУТ
Цикл
вов
емк
кату
отр
пул
полями
тела
эласт
##еобразов
##ган
##иковый
##иционирования
##реж
##кам
##щитный
##6000
##тру
##Тп
##О15
##ноори
##нокислый
диод
извещ
##опита
##ельный
##неной
##отное
##ложения
100х2х0
отшлиф
относитель
##евых
1225
заложения
##люс
##нутрь
периль
##осноори
испар
16000
006
Ст1
Стерж
двухклавишный
электронным
медной
портом
поршня
305
прямым
##x2400
45x796
200x190
250А
250х150
250х200
расхода
полая
##ушп
300х400
300х150
##агонка
##шего
высшего
трехрядный
95x796
95x596
95x996
обрам
шпилька
конструкционный
конструкционная
##х47
1920
паровой
соединениях
##борник
пожарным
двойное
нагнет
108х4
направление
##кользящ
питающей
двухслойное
производства
##ратной
##x610
600х400х
битумом
630х12
ЛКП
решетками
КСк
КСПКр
ОКМС
люминесцентные
брусчатые
клеящ
светодиодная
глухое
Щитки
равными
быстр
лить
выходное
конце
несущие
декоративного
оребр
Электропривод
##ромког
ФСПКр
##x1080
##x1030
входа
среднеповоротное
футеровкой
междушп
110000
четырехрядный
стекломагниев
##енажер
592
струны
ниппелями
щитовая
87x54
##опроизводительность
кондиционирования
обсадной
Полосы
ламинированная
вибропрессованные
эксплуатируемых
звукоизолирующих
сливным
ПТА
Термостабилиз
тополь
стеклокомпозитов
эксплуатационная
плавающим
утепленные
буровых
низковяз
пропитанной
прозрачное
деформационных
СТДК
##х1830
ТППэпБбШп
баскетбольный
планками
рифления
наборные
аналог
тиксотропные
Держатели
разъединителями
14нж017р31
шумопоглощающей
фильтром
пешеходный
старогодная
АКВВБ
антенный
строениях
СППК4Р
шпатлевания
шлифовальный
накидной
виброформ
##рельс
эксцентрический
КВНтп
тарельчатого
гимнастические
гидрофобизированные
теплообмена
купольной
трамвай
совм
оплетке
заградителей
Мойка
абонент
термопластовых
Грязев
тисненой
2440х1830
спринклерный
Фонтан
Циклон
вовнутрь
емкост
катуш
пултру
отшлифованного
##осноориентированная
испарителя
оребренного
##ромкоговор
Термостабилизатор
пултрузи
8П
БК
беж
моза
##м3
129
201
коллекторов
648
ПРГ
ребристая
жаростойкой
мелкозернист
рисунком
супертонкого
2300
3ВС
3МРП
6100
825
NPT
Zн
ВМ
ДС
Диф
ЕС
М32
НР
Прот
РМ
РГ
РЛ
Рам
ФО
ЦВ
бло
кок
сот
ушко
х20
х16
чу
##елит
##щель
##зам
##сбер
##160
##750
##п1
##чки
##шные
##Л1
##Tx
##LTx
##сточ
##ерной
##линд
##линей
нащель
##цилинд
##новым
номинальной
100х4
##ющих
##алы
10х6
светон
12х1
1285
конвер
подв
двери
##адка
50х25
254
нелиней
##аклев
бетонное
14000
двухстворчатые
##x14
##x19
301
11КV
опорой
резьбового
бетоном
защитой
шаровых
7500
17нж
шпаклев
##яжка
конструкциям
нижняя
газовых
газобетона
плитки
вентиляторами
##x370
##x3200
##x331
Плитки
проходная
регулировкой
оболочкой
33К
телескоп
упруг
КПП
##x480
цокольные
Подкладка
точке
Проб
пружинная
133х6
регулируемый
промежуточных
дисков
обшивкой
пропуска
пролетные
ТСВ
уплотнительными
рекламной
периметром
основаниям
специальное
конические
направляющие
Ригель
монолитного
##ПКВКтЭонг
обыкновенная
Полоз
Предохранитель
двупольные
РПШЭ
ответной
СБВБАБпШп
нефти
дополнительной
двухсекционный
электродвигатель
чистящих
##клавишные
топлива
сантехнические
чаши
полуцилинд
разъединителя
плете
1140x1400
##лучатель
ГТП
геотекстиля
обвязкой
форточкой
необрезная
ультразвуковой
желтый
фиксирующий
1х240мк
фрамуг
неармированная
латунными
энергосбер
Лампа
перепада
суммарная
огнетушащего
турбинный
призматическим
подсоединения
эластом
1920x1080
Диффуз
блока
чулок
пропускания
полуцилиндры
энергосберег
040
2Н
620
Ткань
би
##оплав
151
113
172
трехлучевые
Ступени
1П
1х400
2х58
4х35мк
5П
6А
7600
A3
APC
IS
В65
ГР
ДК
Зак
Кли
Кис
ЛМ
ЛН
Лабиринт
Нат
Над
ОТТ
ПУ
РЭВ
Сер
Суб
Унита
бест
рент
тексти
хк
хлад
чех
шти
шест
##лочные
##риз
##оения
##оцемент
##фрак
##модуль
##x85
##бит
##йная
##Б3
##941нж
##токлавный
##сополимер
##РГ
##шающий
##оребр
##лизи
##лиевой
изготовления
##ари
##ровочным
##ейки
##новых
##авиль
##автоклавный
100х100х
12x0
##ходовой
согл
##люло
подстав
##адгез
осад
##оляриз
50х2х0
перего
распределения
25х3
25х20
##оса
неавтоклавный
##иллиевой
1620
##ановка
Ст6
угле
смесь
##x140
##x146
ката
соединителями
1370
##еллюло
арматурных
полное
##раншей
металлического
##х210
##х225
Извест
037
##х31
колонный
182
27x2x0
трехслой
##1700
##ещения
оптических
24х0
IP30
##ующего
##х41
655
##окис
37х2
37x0
##х600х
200х300
сухого
деревянными
##незд
КММ
утеплителем
##х500х1
600х300
700x500
##x412
500х150
##ущий
термообработанные
КСПВ
159х8
Подвод
369
М36
Приб
универсальное
##x250x219
##x57
КГЭ
колодкой
часторебр
инфрак
стержней
стержнем
пластиката
Установка
кромками
фанера
общественного
ТКР
замыкающим
Шпалы
известково
двухкомпонентным
гипсов
Полотна
зву
пролетного
Эмульси
карб
заземляющими
клееная
фиксирующим
ВКР
взрывозащищенная
КОП
струйная
бериллиевой
Насадка
Сверла
F170
Основные
обрезными
поддерживающ
##ющаяся
металлопластиков
А4А
14нж17ст1
счеты
водопровода
мягким
термопласти
##огранич
СТДТ
##х188
КТП
планка
наполнителями
##x183
опрессовкой
стопорная
100x300x2000
крупнозер
смеситель
чашей
100x400x2000
плетеная
4х25мк
4х70мс
самоклеящиеся
1х70мк
100x500x2000
калибровочным
осветительный
пешеходное
15кч18
ШУДД
анодированные
овальный
##ьевого
отвердителем
брусьях
##метил
##лепки
Строения
домкратной
реакторов
БрОФ6
антикоррозийное
переносной
КЦКП
просечно
Площадки
Кабели
обработанная
параметры
многогранная
закрытия
обеспеч
термически
перенапряжений
четверок
немерной
ведущий
однобол
питьевого
##урьмянистые
отрез
совмещ
ISO
Заклепки
Субмодуль
бестраншей
рентг
хкщ
чехлом
штиль
соглас
перегонов
Известь
часторебристого
инфракрас
бестраншейного
Мар
##гон
143
138
коллектора
рулонных
диск
специальные
1х500
2МСР
3МСР
3ПС
4400
5ПКВтнг
6x2x0
8x2x0
AS
D1800
А500С
ВО
Ком
Лаз
Лесом
ОГ
ОН
ПЛ
Пруж
С9
Скал
Указатель
ЭБ
ЭКС
готовый
лам
лавка
мах
пв
рай
счетчик
так
умываль
шн
эж
##лых
##раты
##аний
##99
##97
##ской
##служ
##пп
##Ц4
##Ф3
##направ
##лита
##кированным
##азовые
пропуск
##ровагонка
сточных
##остан
##олиней
1001
100х65
обклад
обделки
оттяж
##екционная
полиметил
1270
заст
##нутая
соедин
подставка
2500х
##осный
неоргани
прогр
40х25
1520
##х165
##лителей
прижимная
замковой
спуска
качения
30лс
облицованная
##ечек
водо
##олокна
металлическими
повышения
##ушки
профильных
пести
верев
крышный
##175
##ленный
600x600
экран
теплый
листового
##анав
круга
горизонтальным
цементный
строга
вставка
##х48
400х150
400х250
400х400х
028
центрифугированные
##ивающие
плоской
##айнер
6320
монтажное
открытый
450x250x200
Ст3кп
автоматики
пилено
##лизатор
273х10
273х11
##рием
АВТ
##х550
противос
цинковой
##x410
##x4000
500х250
заземлителя
325х8
##атериалы
36В
многопанельное
полипропиленовой
часть
навесные
влагостойкие
двухкомпонентное
прокладыва
сжатии
категорий
##закированным
пористый
##лучевая
опалубка
пластина
угловое
дымо
4320
камне
320х320
подъемом
пластмассовый
тройникового
3960
долей
параллельная
име
ОСГ
втори
отсека
КПСЭнг
акрилового
размет
двухстороннего
68х13
3х50мк
поливинилхлоридной
пленочный
профилированные
ПТМ
ОКЛнг
атм
3х4ок
14нж17ст10
мембран
пазовая
утепленный
ТПпп
1х16мк
неподвижно
различным
двусторонним
двустороннее
3ПКВтпнг10
Втулки
разнородных
4х16мк
4х95мс
подземных
обвязка
1х95мк
антивандальная
ОДОСП
датчиком
ВБбШвнг
##метакрилата
домкраты
3ПКВтпБнг6
3ПКВтпБнг10
штампованный
дизайнер
альзакированным
ливневые
сферическая
БЗН
КПГСН
Каркасы
Тренажер
праймером
аргоновым
прямостоечная
учени
охлаждения
Датчик
мелкозернистого
телескопи
фрамугой
Кислота
Надставка
Унитаз
Эмульсия
обеспечивающая
отрезной
рентгено
инфракрасный
Лесоматериалы
Скалолаз
эжекционный
пропускной
полиметилметакрилата
ТПппЗП
475
СФ
##рет
##54
##леивания
156
верхнего
Ката
##невая
канализационной
молние
1В
2МРП
3x6
3150
4x95
5x25
5х10ок
6х4
8600
D900
F11
БФ
Банда
ДВ
Ель
ЗШ
Ков
Кат
Лм
ОМ
ОЛ
ПЗ
Паркет
Цемент
ЦСП
ЭКВ
ака
бактери
галог
гнезд
кру
крыт
сцеп
угольный
хлоп
х25
шлей
эмисси
##ферных
##xН
##бир
##бола
##зов
##ьга
##78
##700х
##УК
##ТП
##овик
##стр
##енч
##анг
##лян
##атов
##атом
##гозащищ
##емян
стоя
##рубные
##еприем
##ностей
##косов
откосов
##есече
##остойкие
##остойких
12х0
##изит
##изованного
наружное
подстан
##егист
перлит
25х16
##естный
##х135
##нгизит
Стп
двухконус
электроизоли
##лопаст
303
##x270
полимера
установке
одноцепные
60х40
ПВД
110x72
110x66
##отая
саморез
переходов
сигналов
сигнализи
##утств
18000
27x0
##ечный
внешним
ковшовый
термов
660x1180
высоко
высокотемперату
2250
герметичный
19x2x0
дренч
газообраз
2000х3
##иваемый
##формат
4200
проточный
протечек
##оперек
180А
Переходник
##нези
градус
АВО
лестница
лестницы
380В
цинков
ОКП
219х10
клеевой
нормальный
##тивных
##компонентный
черда
ПСт
уплотн
инстру
##x505
цилиндрическая
цилиндрических
прокладочный
штырь
Полотно
обшивка
закладные
клиновый
ТСО
ТСВнг
Электронасос
уплотнительный
стыковой
дубли
термоусаживаемый
мраморизованного
добавлением
винтовые
СКТ
микр
параллельных
звукоизоляци
гидрофобизи
8320
двухкамерные
взрывозащищенного
отсутств
Арматурные
КПСВЭВнг
силикатная
силикатным
водогазопроводных
сопряже
дренажных
НСУ
826
выпуск
врезным
9320
F115
центральный
рамного
260x50
охран
сопротивления
сливами
780x980
3х16мк
перекладины
ртутные
2х2х1
1х16ок
запорно
950x600
равнопроходных
наконечник
электротехническая
4х6ок
узк
СОАС
фигурная
разделения
плетения
1140x1180
Прожекторы
шумопоглощения
780x1180
бутовый
геотекстилем
комплексный
ФБС
##акуумм
форточной
100x200x2000
4х150мс
шунгизит
настила
подвижные
200х100х
желто
микротрубочного
дальность
##10ПИ
рисунка
БрОЦ4
пространственного
МССД
1340x980
суспензи
моноблочные
фосфористой
труднос
1577
производственный
1580х100х110
Р6М5Ф3
неразборный
1340x1400
##ерстяное
Геомембрана
абразив
евровагонка
перильное
нащельниками
подвеш
шпаклевочные
Серьга
металлопластиковых
Пружина
районах
ученический
Бандажи
Категория
шлейф
эмиссии
подстанций
электроизолированная
сигнализирующий
##акуумметр
1Б
295
785
Бум
туг
##оренные
##ровый
##ить
##авки
126
##озыр
119
##улы
375
мало
прямоугольная
Д1П
0ок
2Ф
2x0
3К
4м
5М
5Н
810
B40
D300
D1700
F20
F18
F75
M150
ВВ
ГМ
Громкоговор
Д18
ЗВ
Кана
ЛБ
Пульт
РА
Роли
С7
ТМП
УО
У10
ФЯ
Фло
зар
иных
кп
моб
нет
оформ
порож
рестав
рефлектор
рукава
роби
съем
х32
чс
элит
##ули
##фейс
##местная
##бра
##БПнг
##81
##360
##сек
##суль
##АП
##АБп
##цент
##Гпс
##ЛС
##ЭЭонг
##ерт
##ется
##онтный
##калы
напорный
напы
##атформ
##опласт
##рай
##трос
##аянных
##ловый
100x2x0
обез
обте
##ивных
124
1230
две
трубная
501
50x2x0
251
Трубопровод
20х3
прошив
прокалы
40х20
##ительная
##х116
##х138
шифера
##учные
Стяжка
1400х
двухуров
железобетонной
арочный
##x17
##x1100
##вибра
портов
30x0
30x30
##x22
установкой
##изоляционной
##товолокна
200x100
250х100
1195
резная
однонаправ
воде
Связ
32А
теплоизоляции
##х22
##х287
болтов
болтовой
базальтоволокна
контроллер
##икет
Ответв
##15нж
синтетических
##ленного
24x0
24x2x0
##елейной
высоком
высоког
гладкую
стеклопластиковых
##ийся
##идный
224
##ежкой
19x0
светлая
21КV
песком
МКВВЭнг
##x36
125А
##каневый
регулировочная
СБС
лампы
33КV
питание
180х180
Переходники
воздушника
##х55
антивибра
500х600
500х300
ОКМТ
##композит
формованной
потолочного
потолку
вспененной
14637
армирующая
армированное
отверждение
коррозионностойкий
навесное
воздействия
односторонний
сжатию
накладными
ремонтный
запаянных
гранул
карли
DN300
DN150
5632
тройниковых
четырехтрос
грунтовый
раствора
растворителя
компрессор
щебеночного
дренажным
тканого
сверло
4х4ок
березовая
деформации
рамой
250х120х140
искусственного
загрязнений
загрязненных
##41п
16523
огнезад
забивной
##образной
передающая
ответными
стеклянный
##х1390
D1400
ПДС
F215
700х500х
атмосферных
Люки
базальтокомпозит
шлаковый
Подвеска
утяже
набортный
Перегородки
##оборотный
ножками
активных
1х2х1
вяжущего
3х6ок
графитом
Стеллаж
теплоустойчивых
780x1400
натуральный
стыкоперек
4х120мс
укороченный
отвердителя
индикатором
изменяемой
клиновидной
##x1807
большой
насосов
покрытые
паропроницаемость
фитинги
4х240мс
ПВСнг
##x380x219
##бавитель
двухлапчатый
Ограничители
рукавов
МГШВЭ
Термометры
быстродействующими
импостом
вспучивающейся
Лестнич
стропильные
зеркальной
Электроводонагреватель
Диафрагма
квартир
розеткой
вакуумным
дождеприем
шаровидным
интерфейс
зетобразной
параболическая
преобразователи
715х1390
Желоб
##еобразователь
обрамлении
Грязевик
светонепроницаемые
конверты
Пробка
Диффузоры
##сополимера
одноболтовые
застежкой
строганого
противоскользящ
прокладываемые
имеющая
саморезы
дренчерный
газообразное
трудносгораемый
Громкоговоритель
Флоат
порожки
рефлектора
робинии
элитная
четырехтросовое
базальтокомпозитная
стыкоперекрыв
Порта
С0
прож
##кообраз
139
041
проемами
Колонна
пыле
рельефные
тугоплав
Портал
прожектор
1x
1х36
2x1
2х70
3х10ок
4ПКВтнг
4x70
5400
5х10
5x6
6700
A15
B0
F150
ВГ
ГА
ДМ
ДТ
Е1
ЖБ
Жид
Мер
НБ
ОЗ
Пл
Пожар
Ради
Сосна
ТВ
УПВХ
ХПП
Шов
ввар
кросс
поч
регулятор
сепар
тун
фу
фона
флу
цанг
элеватор
##ужные
##лнг
##лазу
##рес
##ратором
##оев
##оогранич
##5х2
##зап
##тучные
##сВГ
##7фт
##плош
##штучные
##ГМ
##НУ
##±10
##нообраз
##напол
##орес
##орежущей
##лест
диаметрами
наб
налев
##опоток
##азут
##абили
разре
беззам
##обум
##обазовые
стальном
обжимная
10Х
10°
##ходная
осевое
##егазопровод
внутреннее
##жение
##фильного
перев
перовой
нелет
неотк
алюмин
15ч
16ч
##опровода
##х1500
##лапчатое
##перс
##x210
установочными
150х350
45x996
##астной
резные
резных
полным
однополюсный
водных
32х20
##чатобум
##струйный
беседка
переходными
колотая
креплении
защитными
трехзначный
95x96x3
##ленными
анкером
Пересече
##идные
22КV
08Г2С
76х3
Крю
строительным
проводимости
##лейки
108х5
общее
проходок
вводами
направо
##ирающаяся
высокопрочной
телев
упак
##иницы
твердое
сборочной
воздушниками
воздушником
КМ2
экранирующей
низк
КУПВ
антиадгез
10с67р
10с67
перфорации
лопастной
рабочих
##x630
##x640
700x650x200
цокольный
500х200
500х350
пенополиуретановый
325х10
159х4
##аженными
акустические
Материалы
##x750
противопожарная
многослой
многоструйный
крестовин
магния
техническая
неров
армировки
рельсовые
торец
растяжению
навеса
53085
содержащ
##озащит
глубиной
52х1
Балласт
упругозап
известковый
280x190x100
спиральным
пролетная
клиновой
игровая
двужильный
декоративным
реабили
ТЗАШп
##x109
взрывобезопасном
##ляемой
Облучатель
DN400
МКРП
##уют
анкеровке
##x920
##00х120
пластмассовым
долом
виш
##ионным
штуцер
494
струновой
монолитном
480x480
контролируемых
10с967фт
аэратором
##ПКВКтЭЭонг
НСПКр
несплош
220000
стяжные
14нж17п29
однокамерные
деформационный
рамки
3х35мк
Брикет
перелив
М450
МГУ
3х25мк
архитектурного
матовый
матри
раздельный
спортивных
Фиксаторы
троллейбусная
У110
##67п
адгезионная
дробленого
фактура
крестообразная
мелкоштучные
гвоздь
нефтегазопровод
1х25мк
950x650x200
знака
расширительные
стопорный
перемещение
металлоконструкцией
остановочный
протектором
Патрубки
атмосферостойкая
##оконтак
фигурный
штучный
4х50мк
##ающееся
шумопоглощающая
1х50мк
скользящем
фосфат
компенсирующее
финишного
неглазу
КУППлнг
рельефной
габаритами
подвижного
приточно
сильфонное
токопроводящими
кремнийорганическая
11с67п
АМг5П
мостиками
фрамужные
F83
мусоропровода
омед
##х273
Ограничитель
безрамного
безрамным
закаленным
панорамного
панорамным
алюмо
крошки
Баки
вершине
бакелит
габионная
единицы
поясами
орнаментованные
банановые
обычные
Настил
полуфарфор
2960х500х1
тонированным
соответствующего
электропроводки
АПвБШп
нулевым
нагнетания
быстрорежущей
низковязкая
сотового
эластомера
Натр
осадков
700x500x200
разметочные
дизайнерских
акации
хлопчатобум
отсутствуют
узкобазовые
оформлением
прошивкой
Связь
Мертель
Пожарная
флуорес
##оограничивающие
налево
беззамковое
нелетучих
Пересечение
10с67фт
упругозапирающаяся
реабилита
480x480x205
несплошного
нефтегазопроводные
хлопчатобумаж
флуоресцент
017
265
Вр
ЛТ
козыр
204
206
147
177
##500C
связующего
212
квадратными
рулонная
046
траверс
жидкий
доборный
Шланги
Ступень
Площадка
Бумага
1К
1х35мк
2т
2К
470
4ПКВтпнг
5200
5x70
5х35мк
730
8х10
9x0
B10
F80
F600
Ам
В4
Гер
Гпа
Ин
МЗ
Мик
ПЖ
Паст
РЗ
Р68
Слив
ТР
ТО
Умываль
ХС
ХЛ1
дм3
зуб
кПа
тент
хок
шну
швар
##лами
##рш
##вающий
##кновения
##фэ
##фузи
##5х195х75
##бетона
##ация
##щев
##СК
##94
##9х21
##ыкового
##ыкателем
##сил
##пини
##яй
##ВВнг
##ГА
##ТУ
##ЭС
##ШМ
##Ом
##RCA
##овки
##стыкового
##ерные
##ерованные
##ершающий
##орюче
##одис
##антов
статив
прост
развер
##оста
##ющего
обог
##роны
свой
захват
подлож
подпорных
стене
##озяй
40х32
##нгицид
замк
окантов
железо
плотные
двухраструбный
устанав
смыв
сменяем
##локс
13000
облицовку
##товное
454
200x500
2501
полка
однотрубной
однониточные
водона
теплоизоляционное
##х290
бесстыкового
35000
высаженными
горизонтали
цементного
##65нж
комплектующими
##х46
08А
08кп
76х4
21x0
##тыр
нижнего
плитная
плитня
42x0
латуни
##индика
200х65
резинот
##ремниев
двухслойной
наконечников
сетчатое
характеристик
ПП57
89х6
89х5
утеплителя
##х530
муфтами
КПЭПнг
600х200
600х150
600х3000
декора
шамотно
гофрированной
Разряд
Разбавитель
напольная
рулон
Подшип
##x550
133х8
пластиковыми
диффузи
глубок
односторонние
несущая
накладные
Электрод
минимальным
монолита
##00х2х0
момент
выводной
Вентиляторы
КУГВЭВнг
детали
бессварные
кнопкой
балансир
кривой
6713
пайку
модифицированная
участках
морская
гипсовых
полнотелые
3х95мс
МГП
Экраны
раздельно
пропитанные
мелкощитовой
700х700
Патроны
##x305
импульсный
СБПЗАуБпШп
равнопроходные
переплетов
завершающий
перегородочный
напрессовочная
напрессовочный
двухпут
принудительная
мастичные
дюбельной
скользящим
скользящего
зеленой
пару
негерметич
стартовый
подачи
пролож
390х190
каучуком
индикаторами
изменяемые
ПуВ
АКПсВГ
СЛМ
5х4ок
5х6ок
ГКЛ
накидными
переносная
1х120мк
5х50мк
ОКТМ
неармированной
альпини
##опластическое
1280х100х110
терморасширяющаяся
Резист
столкновения
посадочного
вставками
широкополосный
предварительной
1х150мк
улучшенной
реечного
ТЗПпБПнг
##окамера
калитки
Утяжелители
диодами
Стержень
нелинейные
упругопластическое
Марши
ламина
пестик
бактерицид
сцепления
##гозащищенный
градусов
инструмента
огнезадерживающий
разрешение
телевизи
низкотемперату
неровностей
вишневый
2960х500х115
Натрий
флуоресцентной
Паста
швартовное
обогащ
окантовкой
сменяемые
резинотканевый
диффузионная
альпинист
1М
1х37
Б1
Б3300
гол
здания
##П4
##отвод
кап
326
354
красная
##ованным
197
холодная
отделочные
##ихта
055
поливинилацет
столбы
фундаментный
узкой
2x4
3x10
4М
4900
4700
4ПКВКтЭнг
6300
7x1
7x4
8700
CM
FTP
M75
W18
Баш
ГНО
ДСО
ЗК
Кер
К10
МУ
Манов
РР
Руко
С10
САС
Части
вечно
дез
золь
клей
куму
киос
пир
речная
тах
фид
хозяй
##иап
##рного
##кра
##кремниев
##фектив
##метр
##53
##5х90
##бГ
##бал
##61
##89
##зовый
##100х3000
##п2
##пис
##Г1
##НТ
##НИ
##ЦП
##ХП
##О0
##BЭнг
##TM
##ЕК
##OS
##ерниз
##орелейной
##лид
##руйный
##кальная
нажим
наиб
навернут
##ателями
##опительные
##ельник
##азовая
##азонная
##цит
безфлан
##нового
##порной
обожж
107
10х10
##овыход
теплот
##дений
##цинковым
длине
##ипс
50х40
50x63
2560
однопро
40x2x0
40х60
16x0
##х17
##х145
железобетона
##ановленными
Стоп
##x23
##x2600
##x2100
полимерное
полимербетона
1501
##сида
45x296
однослой
однозер
одноконус
однолучевая
водонагревателей
водостойкой
32x2x0
300х400х
300х200х
300х300х
компью
Издели
пеноп
опов
переходы
волокном
##очек
сигнала
Отверд
##154
##15М
##адиацион
шариковый
термостойкий
трехст
трехходовой
Смес
синтетической
##171
затвором
174
накопительные
660x1400
##идкремниев
##х426
196
400х2х0
предуст
клеммой
0227
горячекатаных
##ягчения
силовом
654
160х160
##кея
стандартнопроход
изолирующий
массовой
450х450
лаком
КВВ
37x6
350х150
высокопрочных
##х630
радиорелейной
##эффектив
33x0
автоматических
электромонтаж
квадратной
КУФ
КПЛВ
##x650
600х800
600х250
##x440
##x495
КС3
219х8
219х11
##тивного
Пуск
высоте
легкая
Прист
##x580
многооборотный
##ефнет
магнези
##ностойкий
##одержащ
армирующим
ПС35
уплотнения
##лички
клапаны
изгибе
549
трансформаторным
КМПВЭВнг
футерованные
хризотилцементным
ТЗШп
крепежа
DN500
каменных
терморадиацион
винтовым
АКК
АКВБ
часа
##00х140
##левла
модерниз
акриловой
грунтовых
направляющими
грузовой
сортового
растворе
щите
режима
размыкателем
размягчения
##КМц
МССО
криволиней
КВВБбГ
стяжек
61х1
ветрозащитная
##ометрический
скоба
рамке
аппарату
##x496x8
БрКМц
3х70мс
М8П
фарфоровый
барьерная
АБК
перекладина
природном
50x50x2
пазом
ТПМ
глины
##оцианат
##x396x7
50x100x2000
перемычка
переплетом
перегородки
1000х210
15Х15М
##374
##огреватель
ВСт3СП
учетно
##x954
ОККМС
ограждением
ОПСП
1140x1600
светоиндика
фиксированного
780x1600
2х4ок
осветительных
вторая
940x1600
940x1400
940x1180
КФД
пылевла
антра
межфланцевое
4х185мс
доборные
высоколегированной
940x980
борти
АЗЕ0
эксцентрические
латунным
5х25мк
энергоэффектив
ТППэпЗБбШп
роликовых
платформ
крошкой
оксидированные
КМПвЭВЭВнг
широкополочный
1374
ТЗЭГ
ТЗЭБл
предохранительными
АКВВГЭ
азот
ящиком
каждый
технологическим
неутепленные
однодиап
1х185мк
трехмерной
бревен
Видеокамера
междушпальный
стекломагниевого
трамвайных
катушки
пултрузионный
##x370x1807
энергосберегающая
1х400мк
##оляризационная
Ст6сп
совмещенная
согласованным
ASTM
обкладок
стояком
шунгизитобетон
УОНИ
мобиль
реставра
обтекателем
##х116х130
Ответвители
прожекторные
сепаратором
фунгицид
фонарных
антиадгезионным
алюмоцинковым
реабилитационные
Герб
хоккея
шнуров
##тырь
Подшипник
негерметичный
390х190х188
CMOS
ГНОМ
Мановакуумметр
Рукоход
кумуля
киоском
тахометрический
наибольш
навернутыми
безфланцевая
однозеркальная
компьют
Изделие
предустановленными
стандартнопроходные
терморадиационностойкий
светоиндикацией
энергоэффективного
однодиапазонная
АIII
НСП
минеральная
013
Подкладки
мозаич
поливинилацетатная
020
1х
1x120
2п
2х10ок
3У
3x16
5°
5x150
6х6
7ПКВКтЭнг
B3
BВГнг
Аппар
А64
Би
БВ
Вяз
Вяжущ
ГУ
Гипс
Иг
Источ
КЧ
Кар
Л90
М42
НП
Наб
Н14
Поли
Пиг
Рем
Трап
ХМП
ХПМ
ЦХ
Центр
ШР
Швед
ЩУ
ам
бис
вил
внах
ерш
карт
мы
мч
мех
муль
сни
фок
целев
шпала
эко
ящик
##елая
##еотк
##ула
##уры
##рик
##фос
##мА
##ака
##ании
##дю
##650
##ненные
##заторов
##120
##ГВ
##S1
##ФЧ
##ём
##овинами
##ером
##лис
##леж
##кив
##анк
наде
##аза
##ария
преп
##чем
##гого
##ровые
##ранок
безбал
##итовая
##очка
##обои
сибир
100х1
100х40
отжим
отожж
##альде
##екер
##роиз
##остойкого
дозаторов
##ухомут
##нутом
трубчатых
##ольтные
50х3
основными
##ослой
20х1
неэк
профнасти
401
1530
прикреп
замковое
1000х5
##огона
крю
14x1
темати
минеральным
##вис
30А
##x2200
облицовочных
грани
400А
250x250
70х47
1145
водный
трубопроводах
управляющ
##х219
300х2х0
компакт
литая
мощности
##агистра
351
переходным
вершин
резьбовая
резьбовое
сигналом
скот
склад
крышу
воздухе
012
17360
600x250x200
IP43
##яженных
220x120
цилиндровый
строгого
##спира
герметичная
1950
двойного
##фицированные
652
панельных
автомагистра
свободная
2000х4
боковинами
монтажном
примыка
жесткой
переменных
200х2х0
33а
агресс
питающий
перекрытием
полиэфира
лючком
верхнее
##х52
перфорация
комбинированных
##х750
нормально
##х120х90
тонко
блоксополимера
легкос
керамики
светодиодные
054
051
Привод
газопроводов
133х4
крестовина
электрических
частот
426х8
тросов
термоусад
подосновы
##00х350
##144
720х10
##x605
ПРВ
гравии
оборудованием
Воздухонагреватели
РП2
столбу
другой
располага
выводами
ограждениями
полотне
струеотк
монолитная
монолитных
дренажа
подвода
14нж917п35
органической
скобян
фриз
кремовый
1000х190
однопутный
адрес
3х25ок
сиденья
3х120мс
перекладин
двустенные
насып
##х133
D1000
D1100
Антисепти
##яемых
устойчивость
главного
магнитоконтак
комплектация
композиции
стопорные
стопорами
30с941нж
разделительные
радиатора
чаша
активированного
ячеистой
толстослой
разъемные
ККСС
УТ1
1000х380
30ч6бр
геотекстильное
015П
##чатыми
обработ
акрилатная
неравнопроходной
мелкозернистые
укороченное
окраской
овальной
5х16мк
ПГН
датчик
бронзовые
бачком
клиновидного
асбестоцемент
бордю
многосекционный
паропроницаемая
ОКГМ
А128
волнистых
вершины
цементах
подкладку
F155
азд
водяные
МКУФ
##x160x90
подлокотников
подлокотниками
бентонит
жидкостей
сульфатостойких
серебря
коньковые
##ливаемые
вагранок
беспазовая
бежевый
смесью
ВОЛС
##служиваемый
826x370x1807
стыкоперекрывающий
ЖБР
Жидкость
матрица
тентовая
развернутом
подложкой
устанавливаемые
Резисторы
зольном
нажимным
АКВБбШв
Источник
Центратор
Шведская
внахлест
ершами
мчПа
фокус
шпалах
##альдег
профнастила
70х47х41
вершину
220x120x90
крестовинах
располагается
струеотклон
Антисептик
685
ВБ
ЛСП
ТА
штап
##мы
10П
207
14П
116
118
##х38
024
027
звень
каменно
нетканым
фильтрующая
Колодцы
мелкозернистой
коричневая
штапельного
2Б
2Д
2х150
2900
2х95
2х54
3Т
4Н
4Т
5к
6П
6х8
8А
A500C
B5
B7
D2000
F16
MM
PV
Zn
А0
А6
А96
Амм
АУК
А144
Банк
В8
ГС
ДВО
ЗС
Ко
Кв
ОПБ
Паро
Сед
ТБ
ТОС
ТОСП
ФВП
Флюс
бав
бата
вен
вих
груб
гнутые
зр
оката
пи
ры
ров
род
рессор
срез
тамп
ткан
утяж
х3
шнур
эти
яс
##груз
##ужения
##иков
##рок
##рением
##оновой
##эВнг
##мак
##2х2
##2x291
##ач
##аше
##длеж
##С58
##МБ
##84
##ню
##злых
##тью
##соли
##счетчик
##скал
##с13нж
##жно
##пира
##чату
##чания
##ВЭВ
##НС
##HD
##ХН
##Al
##Ш2
##Ж60
##нозем
##овочные
##овины
##сткие
##етов
##олец
##лина
##линт
##енчатого
##руш
##руко
##инадлеж
##кани
##казы
нанот
изоцианат
##ополь
принадлеж
##мерзлых
##рани
разного
##рыз
##острением
##рубками
силокс
100х60
100х500х
выраб
##екции
##алет
10x0
полированным
122
заострением
двус
##имся
50х30
25°
одна
1600х
широ
14х2х0
двухцепные
угля
##x1600
##x122
##x1700
электронагреват
кача
капс
полимеркомпозит
45x196
45x596
##еллект
##255
1190
полуже
80х50
80х40
водой
водопо
водостойкая
водостойкие
ПВКВ
опорными
32П
32х3
##жимы
##чатым
110ПУ
##струзи
35х35
##шечный
##х370
##х315
резьбу
колюч
коленчатого
LSLTx
18пс
1800х2000
горизонталей
склейки
Консоли
воздухопроизводительность
1745
накрыв
экструзи
##ующих
штур
##х425
08ГА
19ч
216
##огазон
пожарных
пожарного
плоскост
лотковый
сервис
##x310
##x3600
2000х2000
боковин
открытом
открытых
раструбное
слоистого
350х300
350х250
1200x600
##95Al
холоднот
одноместные
48x0
муфтовыми
окончания
##нутых
цинко
600х2х0
600х350
настенного
500х800
500х2х0
комбинированной
решетчатых
##низительных
заземлителей
##х720
Разъем
акустическим
##х150х110
Подхват
##x714
влаж
влаги
мостовой
напорного
электрифицированные
бытовой
однопанельное
стержень
цилиндрическим
048
термоизоляционной
РКГМ
литых
клапанов
изгиба
геор
кронштейнов
выходная
спиральные
схв
накладкой
дымогазон
входного
##нистая
нитр
безнапорных
обеих
гильзах
волнистые
волнообраз
ШВП
##00х1600
тяги
четырехколончатые
грузонесущ
СВО0
кнопочный
КПСк
водопропускных
штукатурки
ударопр
ШСК
##х377
Полоса
ЛПО
F125
скобы
##x254
лакокрасочных
травмобезопасные
Брев
искусственная
Компенсаторы
петля
ОКЛН
4х24
кварцев
F510
##х1350
D1600
дополнительного
360°
низковольтные
глиня
прозрачной
##ребок
неподвижный
дистанционной
дистанционного
1200х1500
1200х1200
1х25ок
3х185мс
нанесении
перегородочная
временное
магнитного
сегмент
раздат
портальная
антикоррозионный
антикоррозийной
30с41нж
двухпозиционного
аккумуляторная
100x100x2000
ДРИ
шланга
##Мц59
открывающееся
калиброванный
ЛАЖ60
шторками
2ПР
светостабилизированным
финишные
интеллект
двухместные
Бокс
спинкой
телефонные
рифленые
ПвБШп
приточной
Головки
ПуГВ
Теплосчетчик
Фитинги
шпатлевочные
МДФ
мостиком
330000
МКРГПО
2х6ок
шурупом
столеш
МССР
быстродействующ
косым
F790
предварительно
ЛЖС58
ЛЖМц59
ЛО62
разрезные
углеродных
цельнолит
остаток
бентонита
пастой
##фикатор
АКПсВБГ
маятниковая
изогнут
590х595
душевой
перекрывным
переездов
луженые
Колпачки
##реждений
относительное
литьевое
Рама
A335
хладостойкости
маховик
умывальника
экранное
дублированные
##опласта
однонаправленных
180х180х8
противоскользящим
Плети
##5х200х140
10ХСНД
неоткрыва
омедненная
##одисперс
простая
низкотемпературных
альпинистская
вечномерзлых
обожженная
ОПСПО15
пылевлагозащищенный
кумулятивного
Вяжущее
биспира
снижения
надежности
отожженные
обработке
серебряный
фокусное
Zn95Al
Паронит
Седло
ТОСН
бавария
зрения
окатанная
рыча
тампона
##чатую
##рукоят
##казывающий
нанотрубками
двускат
электронагревателями
полимеркомпозитной
водопонизительных
накрывные
окончаниями
грузонесущего
интеллекту
Zn95Al5
3П
6АтVТ
Вата
сход
##ЛП
10У
##00х150
161
изоляционная
крепи
193
балко
500х500х
РП4
шинный
насад
зеленая
доборная
многоцветная
##овингов
дискрет
1Д
445
5мк
618
740
7х2х0
7х4х0
980
900х2000
D1500
F62
F175
LV
M35
NC
SF
А7
Бенз
ГЕК
ДД
Карт
Набор
Пнев
Рот
РРВ
СД
СИ
С255
ТМ
Тор
У35
ФП
Фиб
ЩМ
вм
вд
глян
ели
ини
лин
мя
мазут
нг
нос
норми
сетка
тм
умер
фтор
флис
щет
эр
эскал
##улав
##ионные
##оний
##вож
##49
##450
##зв
##зированная
##тнг
##пад
##цей
##ша
##шп
##ЭПЭнг
##MI
##ДМ
##стати
##олей
##олочек
##онцев
##антом
диметр
##лям
##опан
стары
##емых
столи
##новоз
##ностями
##лое
100x50
оболочек
отд
вывернут
##рого
##евыми
##евское
##овыравнив
1200х2000
трубных
##адрат
##егр
50x400
горна
оцинкованным
##уском
##осборник
20х10
покрытии
алюминием
15Д
15нж
162
##х159
007
пригл
бетону
окном
1000х250
14x0
электроп
##видный
соединителей
##x220
полимерцемент
облицовочный
облицовочное
2001
сварочный
70х70
однополюсные
одноклавишные
##30н
60x60
показывающий
работа
##ключ
32x60
##х23
болтовое
самовыравнив
переходное
переходник
колер
сигнальных
пенополиэтиле
чугуновоз
синтетическая
17000
термок
листам
фасонный
анкеры
анкерной
высокоэ
##идной
##х44
##ибу
##ованное
198
предельное
винтом
76х6
проволочной
##аемого
нижние
удобр
дверцей
##носиликат
800x800
##x340
##x3300
##x335
##ообразный
ПЭ80
кольцевые
350х100
СБэВнг
деревокомпозит
##134А
глаз
200х400х
200х600х
порошка
сухом
полиэфирным
состар
периклазовые
постельная
огнестойкие
антистати
##x620
600х3
600х2000
настоль
Скребок
устройство
решетчатым
ОКМБ
219х6
остальных
брусьев
##оводяной
форме
напольное
8568
36П
пружине
##x760
мостовых
##x512
##x595
##x592
композитного
композитным
КГП
водоотводные
13075
черв
полипропиленовым
пластиковых
ПСВ
стержневые
шарнир
редукционный
редукционная
##озащитный
литья
эпоксидные
##28МД
накладного
линейной
непропита
двузначный
асфальтобетона
820х10
##невыми
06ХН
ЛСР
термоусаживаемые
мраморной
составом
377х12
гильзы
##х605
##00х1400
центратора
механизированного
клеевым
##x88
расположение
ОСЦ
гидрофобизированное
##яющего
желтая
приборам
КОВ
консолей
ниппелем
##турный
КПСнг
##x600x2000
силикатного
стеклоткан
модифицированной
Оконцев
качели
врезного
врезаемого
Полка
4х4х0
61x0
стрелочного
точечный
F160
натрия
рамы
рамные
АД0
АД31
3х35ок
3х95мк
жидкости
сопротивлением
автоклавный
фарфоровые
металлопласт
параллельным
забег
##больные
плавного
D1300
пробки
пробковый
адгези
светильника
1х10ок
фактуры
##угольник
наливных
металлур
резерва
СТД134А
устойчивые
теплосет
химической
присоединительными
грунтованной
КТЗ
цепях
15ХСНД
мокрого
пескоуловителем
1500х1500
выносом
4П25
##асительным
керамогранита
изоляторами
4х25ок
##x800x2000
КПоЭПЭнг
самоклеящаяся
фактурная
малым
##x456
ОКБН
фиксацией
осветительные
шторки
дюбелем
стенового
##х100х115
интегр
пыли
цифровой
##РВМ
УКЭ
качестве
приточные
##ющийся
кремнийорганический
микротрубок
скамейки
виниловые
фазная
силиконовой
МДК
ППСРВМ
Д16П
непроходная
5х95мс
хомутах
дуги
КМПвВЭВнг
ВСЛМ
Cat5
суспензий
полистиролбетонные
коричневый
ромбического
595х595х70
маятниковый
ванны
пневм
250x120x65
рулона
вкладыши
ошипованная
тросостойки
органосиликат
распорки
виброформованное
ПРГН
1285х120х90
Клипс
##x855
подставок
такела
Коврик
высокотемпературная
гидрофобизирующая
суспензии
подвешивания
ФЯГ
##сульфи
обезвож
утяжелитель
пылеулав
тугоплавкие
туннель
цанговый
захватами
Разрядник
инструментальной
7x4x1
пирамид
хозяйств
##крановые
Отвердитель
аппаратуры
наибольшее
Игровой
Набивки
Пигмент
безбалласт
сибирская
отжиманий
скотчем
Квадрат
вихр
утяжеле
полужесткие
колючая
штурма
георешетки
дымогазонепроницаемые
Бревно
биспиральные
интеллектуальным
LVT
NCS
Пневм
Ротаметр
ЩМА
вдоль
иниции
флисовой
эскалаторов
вывернутое
пригласительным
чугуновозных
высокоэласти
деревокомпозитных
##28МДТ
06ХН28МДТ
органосиликатная
обезвоживания
пылеулавлив
395
АО
ДП
ДПО
пакет
##51
##жный
328
лестничных
346
несущих
299
499
малый
укороченная
Катанка
козырь
1Ф
1U
1x0
2Т
2х120
2УТ
3Г
3400
4х
4x150
5x120
5x50
696
645
675
900х3000
M10
M15
RS
x3
Ап
ГЦ
ДГ2
ДПС
КА
Касс
КИП
Киос
Клям
Л80
Л85
МТ
Но
ПЦ
Прут
Поя
С6
СР
Сул
Таб
Ур
ШЧ
Южно
ве
вари
дю
зона
кантом
ль
леп
молоч
моби
опер
погона
сани
солем
уголь
фот
форми
хруп
шля
##кВ
##фный
##эК
##мость
##бе
##6нж
##нция
##РД
##целлюло
##янутая
##чном
##УЦ
##НП
##SB
##ХГ
##BS
##ование
##олета
##оружения
##амин
##тал
##тари
##таевское
##онного
##левая
##асного
дисп
##абль
разв
##ейболь
##еденный
##олиф
безопасного
100x96
100х300х
обеденный
отбор
##еса
##евельник
1235
1200х3000
запорные
зацеп
сооружения
##люми
подготовки
##00х19
кабельр
50А
50x500
50x200
50x300
50x1000
##естро
20x20
неформат
исп
##истор
проник
16А
16Д
16х16
##лителями
##акти
Стен
нержавеющими
1495
14х4х1
14х4х0
##80х300
##ством
двухстворчатый
двухполюсный
##переб
##x185
##x142
##x1171
порт
порол
30нж
Коронки
Корабль
150х35
150х2х0
##урированное
4543
45x96x3
400x190
400x200
400x81
400x405
250x190x120
70x4
одноцвет
однофазный
одноосноориентированная
##аторами
лирой
110х2
300x250x200
300x81
КЗНС
беспереб
##елизированная
токоограничивающие
##153
95x4
95x296
95x196
1700х
##ильная
термина
шпоном
каналом
##ванием
строением
строган
краски
красок
##х430
226
##тометр
герметичных
19х4х1
19х4х0
400х350
условные
2150
##оглуш
экранов
проволочного
двойные
каркасно
65х50
газовым
удельной
общестро
Крышки
серь
##x330
балкой
холодных
2000х1500
неокоренные
стандартные
проходы
регулирующая
раструба
##руемое
элементам
КВС
37x1
350х200
350x250x200
лампой
##уктометр
##кольцевой
Защ
отопительному
335
резинометалли
заполнение
180x50
малая
273х8
##логу
верхним
12Х18Н10ТК
##32п
485
899
##х108
перфорированных
##x612
##x671
600х700
600х600х
##x430
##ПКВП
630А
630х8
159х7
наклонных
клещев
1020х10
формальдег
блоками
##естимость
резиновых
Подд
3840
2360
##x712
влаго
измерительных
измерительными
светодиодной
Преобразователь
универсальным
поперек
##x571
##x550x200
многоярусный
##х84
регулируемое
однопозиционный
навесами
подвесная
головки
Геокомпозит
52х0
550x550x200
ТКВ
литейные
образное
пленка
антикорневыми
пролетным
720х9
орт
футбольные
пластинами
гравий
Воздухосборник
рекупер
##x1092
##x300x250
крепежные
##ляемыми
входное
экструдированная
составного
составными
320х400
320х500
320х600
320х800
320х700
витых
волейболь
##x971
##x997
17066
четырехзначный
прибору
4971
взрывозащищенным
КОГ
струн
АМС
газонепроницаем
акриловый
силикатные
тротуаров
свинцовый
рельсам
рельсами
НСПК
несгораемый
пропиточный
одинарными
Станция
конструктивных
##х75х100
органического
органическими
точечные
F110
центральные
АД35
АД33
погружения
Болт
гладким
1000х145
2х14
ВВГЭнг
жидкая
##оновый
сиденье
светофорная
3х120мк
Термопласти
##21п
ответных
АМг3
14нж17ст20
210х210
ЭТН
фальцевые
F51
3х150мс
50x100x2
50x100x3
F265
секторными
фиксаторов
полуколец
скрученных
электротехнический
Сплит
наборного
100x300x2500
1500х7
узла
Разъединители
фиброцементных
100x100x2500
манжетами
гнутых
ножевыми
радиаторный
100x400x2500
атмосферостойкой
полукольцевой
изолятора
изоляторов
разъединители
ТЗПэп
100x500x2500
4х16ок
разъемное
ГТК
ГТК1
ГТК2
ЛА16
ЛА11
закрепляемыми
выпуклые
625х625
40x70x27
200x200x2500
100x200x2500
15кч19
150x150x2500
трапециевидным
габаритные
50x80x28
адаптера
анодированного
сильфонная
каучуковый
изменяемый
ШАК
колонн
4x185
11с32п
11с21п
композитный
асбестовые
плашечный
фазы
##ожжевельник
##x66x150
виброизоли
полистиролбетона
4х35ок
Удобр
УСК
##x1380
##x1371
150x300x2500
92x496x250
92x496x710
92x296x250
92x296x510
92x196x250
92x196x410
92x396x250
92x396x610
150x500x2500
150x400x2500
звукопоглощения
5х70мс
шурупно
2200х1500
волнистым
5х120мс
ЛГОм
##х115х60
вставок
многогранные
КИДМ
объём
11Б41п
косой
пароизоляционные
полиамидный
Электроводонагреватели
НВМ
бакелизированная
Крепость
КСФЧ
##АТэК
RJ45
секциями
лесенка
ПОСС
ромбическими
пневмати
выравнивания
Водонагреватели
Капитель
защищенных
колотого
перекрывающие
KMПBЭнг
тросостойками
органо
всасывания
индивидуального
МБС
емкостные
3ВСБ3
РЛСМ
плетеные
##авильона
каталогу
Подводка
Прибор
соединяющий
веревкой
400х400х12
круче
крытой
ПВДФ
сопряжении
прокалыванием
двухуровневой
вварные
перевода
15ч14
многослойных
стативов
плитняка
глубокого
двухпутный
однопрофильного
однослойное
пенопакет
Смеситель
##ефнеты
магнезиально
##x496x871
##x396x771
антрацит
АЗЕ088
мобильного
реставрационных
Гербицид
компьютерная
Вязка
КЧМ
мульти
неэкрани
прикрепляемой
магнитоконтактный
струеотклоняющего
Банкетка
ЗСГ1
Коуш
ровной
схватывания
глиняный
раздаточное
##рукояточный
сходни
вместимость
нормируемое
##опанели
15ДК1
колерованная
термоклей
глазурированное
Оконцеватель
теплосетей
пылеулавливающий
2УТК
АпАТэК
ДГ21
Кассета
Киоск
Кляммер
Пруток
Пояс
Султаевское
Урна
вариант
мобильный
погонажные
шляп
##тарифный
зацепами
##00х1980х300
неформатного
проникновения
14959
400x405x120
бесперебой
строганным
резинометаллический
рекуператоров
волейбольная
газонепроницаемая
неэкранированный
217
930
915
АН
##угольный
##окол
154
008
148
149
ширине
014
228
214
053
294
полотном
СВП
водоприем
химических
Столбики
2ПГ
нешлифованная
Диафрагмы
голуб
1а
1п
1Т
1х800
2Р
2х40
3Б
3п
311
4х36
5Е
5х240
D200
F42
M50
M200
PC
x20
АГ
АТ
БМ
БР
Бп
Вкладыш
Газ
Груп
Глина
ЗЩ
Ива
Можжевельник
Н60
Спир
Сборник
ТФ
ФР
ЦА
Цок
ШО
Шина
Шла
Штор
Шум
Штырь
Элеватор
ан
алиф
бил
дж
зм
меб
мерных
мини
мотор
офи
ори
пуль
пульт
рей
сле
том
тыс
уш
чече
щел
##ению
##груж
##ратор
##оно
##кас
##фона
##эмисси
##БбШп
##БНТ
##СС
##МГ
##МШ
##нным
##ненное
##зБбШп
##тных
##3р
##жная
##жка
##110
##7нж
##7х31
##АЭ
##К3
##НМ
##Нтп
##ШК
##ДА
##CT
##ороз
##ойки
##рушения
##ельных
##арный
пряд
##емый
##емзов
##нец
##откань
разде
##авлив
##тицид
##обслуживаемый
##епловые
100х5
100х150
100х400
100x40x0
1060
10x10
12х4х0
соз
подст
подрель
марган
##00х50
##00х100
длитель
внутрь
50x60
50x40x0
город
основная
типу
25Т
25х2
20х16
##истал
проолиф
1500х2000
16х2х0
16кч
##х1200
приготовления
##акрил
высокие
оксида
1000х400
стеклами
нержавеющий
1425
двухг
##нометр
огранич
спут
электропита
30мА
13600
##x26
##x260
400x400
##ечения
200x2x0
250x380x219
сваренные
полуш
однораструбный
водораз
водоэ
металлическое
32х1
32х15
##х2700
местами
##аторная
##чатели
лиана
300x200
##исс
##исковый
##оприем
120x4
токовые
колпа
1820
18кп
2750
Коннек
трехэк
751
75x40x0
179
1720
1792
стеклопакета
накладки
оптико
IP67
связанные
термоза
шпиле
722х2
анкера
220х220
цементных
краской
количеством
предела
винта
клеммные
центрирования
##убер
песка
газобетон
газораз
газополь
##движная
сернокислый
##x345
неокрашенные
проходного
575
применением
КВП
350х350
##х640
ЭПДМ
секционные
потенци
твердый
манометр
105х50
механической
воздушным
##риг
гидроизоляционных
допустимая
стенах
перфораторная
600х2
600х1500
настенных
500х700
битумное
ПвзБбШп
декорированная
эмульси
##ажи
##тивной
напольной
группового
перекрытиях
##вичного
поворотные
поверхностной
Подушки
обратного
##x74
052
##едач
##х820
технического
Кали
пластиковой
частями
продавлив
продажи
##х368
бурт
##каркас
выходного
АПРН
54±10
конуса
Полотенцесушители
футбола
Электро
оборотов
068
заземляющее
##x1036
древесного
электротепловые
##ающаяся
водосточная
377х6
##нисто
нитями
волновая
ШВПВ
##х60х65
##ородный
траверса
##38нж
бессурьмянистые
параллельные
##копемзов
прибора
1220х14
струно
статическом
кирпичом
КПСВВ
размыка
размещения
двухсторонние
видеов
1300x600
натяжная
ВСХ
несрабатывания
автоматиз
обыкновенный
ткани
центробежного
чистых
аэродромов
кремнисто
неперфорированная
БрБ2
БрБНТ
разборные
ниппельное
заглушки
профилированный
А48
передвиж
##21бр
раздельном
1420х14
F55
##оническая
##676
ПДУ
резерви
##x700x850
Извещатели
переплете
различного
нанесением
##трубные
отбойные
шлаков
шлакопемзов
низкоэмисси
двусторонний
фигурной
инъекционные
самоклеящимся
4х50ок
фактурный
калибровочный
калибровки
ЛАД
односекционные
370х5
F47
Рельс
оцинкования
оцинковыва
обвязки
задвижка
трапециевидные
первого
##сцентриковый
качественная
сильфонным
200х125
Воздухораспределители
ворса
##х330х150
реактивной
силиконовые
огнезащитным
подоконные
ШБМ
хлористый
звукопоглощающие
терморасширяющейся
свинцового
посадочными
ТЗБлГ
объек
КИПу
ЛУм
ЛО90
пояса
банановый
водонепроницаемости
АПВБШвнг
однодисковый
указатели
бетонируемой
бетонируемая
компенсированной
19с38нж
переключения
EU4
вкладышем
проникающие
Колпачок
всасывающий
башня
виброформованные
Против
Протектор
ОТТМ
ОТТГ
трехслойный
крупнозернистые
##останция
дымохода
вторичный
перлитобетон
термовставкой
чердака
охранно
малообслуживаемый
##сектицид
напылением
болтовом
Лестничный
Радиостанция
##наполненная
доломитовая
неглазурованная
свойств
водонапорных
МГП1
ламината
телевизионная
Башмак
##53нж
оповещения
БрКМцЗ
фунгицидными
##фосфат
тематическими
термоусадочными
насыпная
ДВО0
батар
тканевой
##ашеная
изоцианатного
принадлежностями
19ч21бр
холоднотянутая
Фибра
линзовый
##ибуна
червя
металлургии
интегрированными
рулонах
Клипса
лепест
кабельроста
поролоновый
терминалом
общестроительного
ПОССу
Группа
Шумоглуш
билетов
офис
чечевичного
марганцевой
проолифленные
электропитания
водоэм
трехэксцентриковый
термозапорный
газоразрядные
газопольные
продавливании
БрБНТ1
шлакопемзовом
оцинковыванием
1Н
8Т
Гра
П3
Шах
кот
##кг
##125
259
##истая
40с
163
167
187
контрольно
##руемой
стаканного
балконные
649
044
##нистый
кислоты
приклеивания
Приставка
1Р
1х300
1х4х1
2м
2С
2ПП
3Р
3x4
3x25
4п
465
4МД
5МД
845
918
900х3300
900х3800
B11
CО
D700
F70
F65
F68
M100
UV
Ака
А36
АНО
АШМ
БУ
Бер
Бар
Груз
Див
Двер
ДМС
ДБК
ЕИ
Кожух
Крош
Меш
М900
НЖ
ПХ
Пена
Павиль
Прай
Пихта
Раст
РАС
Регист
С11
Секции
Тон
Таль
Тяг
Упор
Указ
УБО
ЦАС
Шести
ШУС
ЩРВ
ЭА
бели
врубные
год
ганд
детона
енд
кбит
лун
лабор
м°
ой
пру
пти
режущей
семян
ты
тече
тонов
ушир
целлюло
##еные
##утовой
##оид
##вол
##ватыв
##2H
##би
##бул
##См
##ьями
##3P
##Пэп
##РСП
##АуБпШп
##IV
##ч6бр
##шка
##DF
##О10
##BЭВнг
##ZH
##носим
##ерми
##омед
##одкоп
надвижные
##опленное
##ельным
##армированные
##аралле
##окомп
##абри
##гоб
##цин
##рового
##неу
строй
стир
##отвращ
разных
разгруж
##итка
##авляем
##лоном
##порность
отде
##ивным
##есей
##есодерж
выдвижной
##розащищ
10x1
10x2
1025
10х3
##евого
##остойким
1240
12х2х0
1200х800
12х4х1
1200х3300
1200х3800
подс
подп
подкладки
##имый
##фид
505
50х20
50х32
##106
##101
первая
распорная
2550
2520
25000
2542
209
2020
##илка
40х16
##ительным
1500х3000
1500х3300
1500х3800
16x2
16МТ
##х175
минут
окруж
нержавеющих
14ХГ
двухрожковый
теплозв
устранения
##ъемные
500x500
##x145
электронный
прямое
134
##x240
##тованные
напряг
горячее
200x81
250х50
полож
водоу
окрашенного
сечению
ПВ3
32х2
32х16
герметик
местной
300х3
300х500х
##аторный
профильная
печные
средах
бескаркас
стойках
##х39
контррельс
токоприем
##90х52
сигнальная
LSZH
##ционной
1800х3000
1800х3300
1800х3800
контакты
контактная
##ругления
полиэтиленовыми
скуль
Конус
##лекты
##17х36
01676
##розионный
##500н
гибкое
гибкими
IIу
II2H
шплинт
круглое
##няющие
SN2
красно
##65бк
##катанным
##идов
##х480
221
2220
2200х3000
2200х2000
2200х3300
2200х3800
##томат
08пс
19x1
19х2х0
паро
предотвращ
клеммной
светлый
##огнеу
нижних
песчаный
песчаных
вентилятор
##x375
##x368
холодопроизводительность
2000х3000
2000х500х
2000х2700
стандартная
бокового
63х32
открытые
примесей
направлений
##1250
гидрозащит
жестком
жесткими
латунных
высокопрочный
140х200
140х300
140х400
муллитокорундовая
пиленого
сухим
273х12
##указ
частиц
28П
2850
48П
КМЛ
четырьмя
поставляем
измерение
стенок
##х56
##удом
противоэ
цинковые
##чиков
600х500х
600х2700
600х4000
600х3300
##x420
##x460
500х1000
гидравлический
Скреп
промыв
##устотным
удлинении
одностоечная
##комплекты
##х730
##ляющего
модульон
##компонентная
FRHF1
##ротруб
Подставка
##x120x219
##гранник
противоподкоп
190x196
напорных
многоцепные
бытовых
Камбул
торф
частей
электропередач
работы
дома
426х10
31ч6бр
тросом
наполненное
##защитный
мкСм
декоративное
ПРМ
ПРН
Емкость
063
путевым
Вводы
Воздухоотводчик
коаксиальные
DN160
Затворы
МКРТ
377х10
нитро
вентильный
115А
волновые
##00х160
##хлор
специального
искрозащищ
СКР
У220
КУГВВЭнг
встраиваемая
стыках
мелкоп
ОСД
гидрофобный
отражающая
##НДЦ
броне
отсчет
антипирен
АМц
скрепленных
КПСК
920х10
##x600x850
акриловым
стеклоткани
втулкой
лаза
емкостью
коммутации
821
пропитке
компрессионный
кондицион
конструктивные
61х0
медицин
F140
ламинированное
##x496x2000
##x496x1030
##x496x1036
гипсост
поддерж
поддона
охватыв
поливинилхлоридного
разборный
900х1500
900х2700
900х4000
алмазные
петли
выключателем
профилированная
ПТС
3х16ок
ответственных
компенсаторами
СБВБАуБпШп
кварцевый
троллейбусный
плавких
50x50x2000
адгезии
948
прозрачный
свободностоящая
запорным
50x100x30
F260
F230
F245
индекс
мачтового
фиксатором
карнизная
эффек
1200х2700
1200х4000
равнопроходный
различной
##фланцевый
1х630
сосудом
расширительным
утопленное
1500х2700
1500х4000
##х90х40
оловянные
сантехническим
перемещаемой
тиксотропный
Вентили
3х240мс
гнутым
ножках
##х595х75
800х600х
резервных
движение
изолятором
активной
инъек
самоклеящейся
самоклеящийся
плинт
ТЗПАШп
пбс
корундовая
закрепленных
##x27x0
ПНАЭ
приемной
задвижкой
200x200x2000
15кч16
150x150x2000
F360
жаропр
670х315
этажные
490х592
490х287
##раструбные
КРУ
ШАМ
пристенный
колонковый
звукоотражающий
микротрубочных
1000х290х360
глазурованные
2А6
##х325х75
Стремян
больших
##х330х70
антикоррозийная
огнезащиты
огнезащитной
F105
ЛВМ
ЛВЧ
1800х1500
1800х2700
1800х4000
01836
01839
функциона
150x300x2000
Поручень
150x500x2000
150x400x2000
маршрут
двухлапчатые
тарельчатый
Ламели
каналами
2200х2700
2200х4000
вспомогательной
РСУ
алюмомед
203x456
203x496x2000
Баля
ГВЛ
включениями
упорами
предохранительные
водяного
габионные
Крепление
керамзитобетонные
инерционная
реечном
алкидный
приставная
610х610
Настилы
солесодерж
полуфабри
2х50мк
ТЗПпПэп
текстурированная
188x496x1030
МСБВБ
1000х390х510
ступенями
начального
184x496x1036
концентрированная
ИОР
извещателем
относительном
##рельсовый
648x3
кокос
100х400х
плетеной
5П25
Подводки
Приборы
1х500мк
неорганической
водоуказ
ОДОСПО15
БЗН18
рентгенозащит
##атовское
двухконусная
двухконусные
##лопастное
высокоогнеу
2000х3300
2000х3800
цинкование
абразивности
785x368
Канаты
Ролик
заряда
неток
Трубопроводы
высокогерметич
антивибрационные
ОЗЛ
кроссовый
регулятора
Крюк
содержащие
49445
хлопчатобумажная
траверсами
Умывальник
##орючее
проложенным
дезин
Ремкомплекты
ЩУРН
ящикам
2000х4000
бордюры
ТАМ
PVDF
ГСИ
##ноземистый
силоксанов
столешница
быстродействующим
SFP
Картон
##шпальная
диметром
отдельная
15нж65бк
600х3800
утяжеленные
ДПСк
формальдегидов
пневматической
крученая
водоприемная
голубая
алифати
джутовой
##убероид
600х290х52
Калий
струноармированные
B11BS
Диван
ЕИУС
Крошка
Павильон
Праймер
Регистры
Тоннель
Указатели
Шестигранник
лунно
лабораторный
м°С
течении
уширенная
стройкам
разгруженный
14ХГНДЦ
теплозвуко
водоупорность
скульп
II2H3P
##x375x250
поставляемые
противоэрозионный
Камбулатовское
искрозащищенном
мелкопустотным
охватывающего
670х315х295
Стремянка
алюмомедные
203x456x1030
солесодержания
полуфабриката
ТЗПпПэпБГ
3м
6а
М18
Нить
молот
объемные
полуп
191
213
##1200х
552
348
через
529
пленкообраз
АМЦ
раздельного
стеклянного
ПОГ
двутавровые
вспомогательного
подкладные
070
065
045
2G
2ПКВтнг
385
3х2х0
495
4х8
5ПКВКтЭнг
6з
6Д
7х10
990
AL
CВ
E14
GX
RCT
Ав
АПК
А32
БЛ
Бир
БКМ
ВУ
ВЫ
Вой
Верст
ДА
ДПМ
ЖК
Зон
Зем
Зазем
К11
К34
Леж
Мод
Масс
НАС
ОВ
Печ
При
ПКС
Пара
Сна
С250
СРС
ТН
ТРА
ФВ
ФЦ
ФФ
ЧДА
ШЦ
Шти
ШВГ
ЭЗ
ЭД
Э46
ави
асим
бад
бука
драй
жив
исти
кс
каль
кал
лав
лабиринт
мойки
оран
опус
пус
пят
пунк
рег
релей
русти
ротор
рейки
слю
слу
снаруж
ту
удаления
шаб
##еид
##ге
##гой
##гай
##уБп
##ретка
##вей
##вовой
##куч
##фин
##фты
##этаж
##бный
##бовый
##ды
##дающих
##ют
##ювовой
##БТ
##тра
##3бр
##П6
##ПЦ
##76
##пра
##пула
##КГ
##ший
##ХО
##ФС
##ФВ
##Ш3
##ДК
##ДБ1
##Bнг
##TE
##ЕВ
##овозд
##овяз
##овидной
##ерного
##олера
##орти
##орегист
##тарно
##одинами
##енности
##енников
нашпальная
##атные
прип
##еза
##нес
##отках
##лащ
разруш
клювовой
##ейный
##оступ
##очистки
##олик
##тий
сидения
100х6
100х600х
обрушения
##рованному
##ива
##иванием
выходной
##роз
полиамидных
##иненные
12з
1260
1200х2
подверж
длинные
ослаб
##егатные
трет
##финов
50х5
основовяз
##осбор
##озна
##илки
406
40Х
40х1
алюминий
15Г
166
алюминиевом
высоким
высокими
1000х500х
железной
Стяжки
Ствол
Столик
двухрядные
двухклавишные
железобетонного
железобетонным
арочные
сплит
ручками
9060
304
3016
прямот
##x29
##x225
##x2800
полимеров
150П
150x2x0
##сины
сильно
456
45ч
объемным
704
7060
1110
арматура
полнок
80x80
одноагр
однолапчатое
однораструбные
##ластик
водопоглощ
водовозд
##305
##ключа
ПВБШв
опора
3250
32х32
моек
##ушной
##ушпала
косо
##х28
##х270
##х200х3000
лотку
температурах
##керные
тепловые
110х63
300x2x0
средств
03НУ
контргай
контролера
##иками
сигнальной
высший
защите
183
1850
18Гпс
27x1
27х4х1
цветности
цветное
склеивания
трехместная
трехлапчатое
трехкомпонентная
внешние
##енью
24х1
2430
24х2х0
IP41
термостабилиз
7200
шток
листу
комплектные
##х440
223
##ованных
паров
парковой
022
029
светлой
##оги
проволочными
##ецеид
лотковые
651
65х4
65х40
65х32
##олаком
нижнее
160x160x90
ВВГнг4
песчано
балок
холодильных
изолирующим
перекр
##руемая
57х4
гидроак
КВБ
КВУ
КВТп
3700
37х4х1
##136
##х650
200х2
200х3000
140х140
радиальная
вентиляционным
заполнителем
заполненная
##ехническими
секретка
порошкообраз
тяжелая
полиэфирного
СПРД
стаканный
сетчатую
288
характеристиками
очи
ППР
##х255
поставки
##сового
##x46
##x442
настенной
500х3
битумных
постоянный
##значная
FRLSLTx
Огнетуш
1020х14
##олотые
3850
##x740
190х190
##x250x120
##x530
напорно
свариваемой
крестовины
1305х200х140
регулируемой
ПСУ
стержне
продув
пластифици
##уплекс
магистральные
042
КНТп
##олистный
эластичные
эластичным
прессованных
##24q
короткие
двухкомпонентной
гипер
штыревые
шпура
схема
лентами
распаечная
промышленного
Электростан
путевых
чугунное
стыковые
станционных
КМПBнг
оборудование
клееный
##инелид
взрывчатого
крепежной
Обте
DN110
мраморные
входные
МКРФВ
320х5
ВКП
пластмассы
##x940
клеевого
уклоном
четырехкомпонентный
У330н
параллельно
параллельное
ВТ1
фильтрации
М1000
1220х10
пустотные
1800x580
статичная
АМН
витражами
ультрафиолетов
заграж
##ятств
КПСВЭВ
EI60
##ессирующего
двухсторонний
видеопоток
циркуляционный
втулка
емкости
ШСУ
контролируемым
обсадных
Полушпала
чистый
бункер
лакокрасочными
гладких
1000х135
250х120х138
жидкого
перекид
пленок
автоп
900х600
парапетные
##яющийся
сливного
выступов
профилированному
Термина
3х4Е3
14нж17ст11
насеч
прорезиненные
сложных
пазами
Трава
лощеные
мягкий
конденсационный
тиокол
700х500
нейтра
химического
СБПЗАуБп
##х91
МПУ
1000х285
временных
увеличения
отбойник
фрикционный
смесителем
смесительный
дисперсии
канатных
трапецеид
чашами
800х600
нескольких
фланце
фактурной
УВК
шкафом
вязкий
таблички
закрепления
закреплением
эмалированные
30ч47
дюбельное
приемный
Формы
иглопробивным
акрилат
этажа
рельефная
НТК
сальников
ОККН
антивандальный
антивандального
ветвей
14нж17р29
собой
##х310х120
##х310х100
токопроводящие
протяжная
Контроллер
облегченный
5х16ок
ПуВВ
бака
клиновидный
1000х290х330
амид
винил
винилов
летучих
плакуч
огнетушителя
ступенью
2х16мк
гре
ШЛА
##вЭBЭВнг
дизельные
##екстолит
торшерные
пространственном
поручнями
Припой
звукопоглощающий
ШКУ
роликовой
закаленные
255x250x120
вспомогательными
287х592
287х892
287х287
РДП4
изделиями
##х295х70
импоста
Лестница
стропильная
обеспечения
5х150мс
ящиков
##рея
5х185мс
КИС
15с65нж
антисептированные
остатком
розеток
седлов
водонепроницаемый
кислотоупорная
слабо
250x120x88
МКВУ
МКВФ
тоннельный
тоннельным
соответственно
Капс
титановых
колотые
1000х390х410
латексная
Видеорегист
KMПвЭBЭВнг
БТС
ступенчатая
аудиопоток
аудиовыход
луженый
С8а
305х610
клеящая
емкостной
Клин
ПУА
звукового
поддерживающего
КТПИ
143А
Компаунд
С9а
прогрессирующего
водоочистки
телескопический
рентгенозащитный
6х4Е3
гнездовой
абразивного
ЛБС
С7а
нетверде
1195х595
антивибрационный
интерфейса
1xRCA
почтовый
бакелитовая
полуфарфоровый
полуфарфоровые
ВрБО
Ампула
зубчатыми
моментом
теплотехническими
##x440x219
мытью
целевых
препятств
автомагистральный
легкосъемная
фризами
устойчивостью
звеньев
Аммоний
венге
ясень
##HDMI
сервисный
нитролаком
цельнолитые
двускатные
ТМЛ
умеренное
эркерные
старых
состаренные
стеклотканевые
Cat5е
хозяйственно
ШЧУ
санитарно
угольник
формирования
хрупкости
##талкив
##активи
1500х730
виброизолирующая
Удобрение
шляпный
бесперебойного
Спирт
Шторка
ангоб
ориенти
создания
подрельсового
двухгол
автоматизированной
передвижной
Шумоглушители
офисной
Мешки
Раструб
годности
гандбола
контррельсом
предотвращения
гидрозащитной
Скрепы
промывки
кондиционера
водоуказателя
высокогерметичными
494454
скульптурный
AL2
GX24q
ВЫХО
Войлок
Верстак
Зонты
Земля
Масса
ПКСВ
Парафин
Снаряд
ТРАС
Штифты
асимм
драйвер
истира
оранж
рустированный
служе
снаружи
шаблон
ослабление
основовязальное
301629
полноколотые
одноагрегатные
водовоздушной
контргайкой
термостабилизированного
Огнетушитель
Электростанции
Обтекатель
СБПЗАуБпГ
30ч47бр
Видеорегистратор
ангобированное
ВЫХОД
2а
218
365
396
835
АI
Косты
##ферм
##ского
##100х
##130
##ТС
подферм
50х100
##ственного
30П
Прогон
171
242
КС20
966
383
IIIвт
442
грануля
066
393
оголовков
горячая
Б2400
производственного
бежевая
каменноугольный
0А
090
1Х
2М
2с
2U
2х35мк
3В
3U
4а
4Д
4x2x1
4ПКВКтнг
5с
5x4
614
860
890
811
A500С
EV
Et
F800
F27
F38
KC
LA
XP
pH
x1
x16
Бк
Буг
Бук
БВС
Бата
База
Виб
ВВП
ГФ
ГШК
Де
Двой
Довод
ЗФ
ЗМК
Инд
КК
Клен
КПК
Кала
Коса
МН
МСП
Нл
НКЗ
Нащ
РТ
Рев
Руч
Рейка
РРН
Ска
Сви
Сопр
Сжимы
Т4
ТЭ
Туп
УБК
УБТ
Фотор
Хр
Х34
Холст
ЦН
ЦЛ
Шт
ШФ
Щетка
ЭК
аг
ани
акан
анем
гние
гаш
зоновой
источ
косты
лк
ной
поб
плюс
павильона
рес
слан
сниз
тест
тир
тушения
укомп
фарт
фено
хим
холст
ходом
цент
яр
№27
№36
##ены
##еция
##еновые
##уче
##унков
##вива
##фата
##эх0
##55
##xI
##400х800
##2А
##бде
##бур
##ди
##деле
##дик
##6бк
##6x122
##МХП
##900х
##ыключат
##РМ
##7бк
##ъектор
##яные
##P8
##КА
##ГЮ
##ГЭнг
##ЛЦ
##ТШ
##ТХП
##VG
##Э5
##ЭФ
##NC
##±15
##er
##et
##O3
##net
##her
##нат
##овещ
##стный
##олекуля
##орист
##лин
##лиц
##ома
##омат
##онстра
##лент
##ензи
##анного
##етроб
наносим
излу
##емный
##ровыключат
##роветроб
стелла
##отруб
##лаг
развор
разбав
##ито
##остек
##оствер
##остаты
##осторон
##новления
##трид
##олий
##олибде
##обаль
##обоскопа
синий
100С
100x81
100х200х
обновления
##еклю
10ПКВКтЭнг
полиизоци
свай
конфор
контейнер
заделки
##соедин
подшип
марпр
##нителе
осевые
кордонское
503
перпен
##усфера
25x25
25х15
##оск
##осной
##осин
##осодержащ
2050
20х12
##илля
испы
металлу
40х4
158
1560
15Б1
15х15
##х1100
приема
прикатанным
присоедин
##водород
кран
Створ
1410
1490
##обетонные
двухниточные
уголок
катионная
смеж
минеральные
##x125
##x1900
медным
90х75
150х200
150х125
150х450
150х600х
##урного
##урник
45х2
##онапол
маркировочные
##елки
##елых
##25х150
Короба
70x54
резки
полез
полые
полноп
полут
полухомут
80x54
одноко
водопод
60x54
окрашенными
показ
опорам
повышенного
площадками
клиновые
кабеле
35x7
стойкое
самост
коробок
1205х195х75
##х300х120
типах
волокнистая
резьбовой
усад
колбе
растений
Ответвления
276
27ПКВКтЭнг
##ечи
##ечных
##ечным
скругления
трехстворчатые
синтетический
01А
##ильной
гидроветроб
эквива
гибкой
шпуров
##ессованные
связующим
220х7
высокот
краситель
Переклю
##идном
##х490
400х500х
проволока
проволочные
двойных
МКТП
МКЦП
основании
силовым
каркасной
удельный
дверка
герметизированный
плитным
свободном
вентилятором
##x38
##x37
##x360
##x3x0
##x3800
##x346
балла
холодный
125х100
125х80
боковыми
##ектора
перекрыва
монтажного
монтажную
проходческих
8800
ПЭ63
массе
##руемый
применению
350x350
350х700
##егося
цельной
заполнителе
автоматическим
порошковое
малого
сборной
освещенности
##22нж
СП100
люка
наконечника
верхние
непаралле
IIIу
IIIВ
КММц
ППЭ
##х1050
надпис
##х580
##удар
противо
муфтовые
КПп
оконными
окончат
оконечная
380x250x219
цинковый
600х900
##x470
##x490
настенное
500х6
500х63
500х23
500х136
декором
ЛК70
##значной
##855
##85x23
унита
КСБК
малогабарит
ОКГнг
бесшовным
##компенс
брусковые
##ательные
##х760
напольного
потолочных
тонкой
поверхностно
поверхностные
поверхностям
Поднят
легков
трещи
##x780
полиуретана
мостового
шестилопаст
##x58
##x599
пружинной
многотарифный
##истрации
133х5
13016
##оугоны
черного
череп
шестигранными
полиуретанового
пластиковом
стеклообои
ПС10П
ПС10ПИ
однополяризационная
прямоугольной
инва
##x502
пластичные
530х12
усиленное
стекловидном
240х280
остекление
426х12
тросовое
геопласти
691
дисковые
2746x122
швеллерные
швеллерного
##еталлические
пористом
сплошное
##полюсного
непрессованные
стекловолокно
##х2080
##х205х90
Электронагреватель
Емкости
углового
моноспира
шумоотраж
##арьером
##00х2300
клееной
ААК
##x1054
взрывозащитная
крепежная
Обвод
среднеагрессивной
входов
##карбидкремниев
РП101
электротехнических
МКРУ
столба
320х550
377х9
полотен
четырехъярусный
четырехместная
##x892
##гово
вишня
хрома
хромированный
хромокис
стробоскопа
##42р
консольно
ВТ6
ВТ9
ВТ12
ВРУ
поглащ
##ставки
неоцинкованных
пустотелая
пустотелых
##х655х90
монолитные
щитовыми
скрепление
3Стп
хомутом
Поковки
втулочными
сопряженных
крутоизогнутых
модифицированным
нагревателями
выпусков
##ингер
##ингалет
компонентные
бронированного
##отивление
Полки
3х50ок
чистоты
F190
рамный
рамочной
гипса
##ружечная
МГНМ
звукоизолирующий
парапетная
алмазной
алмазным
сливная
##ывания
скаты
Термопанели
архитектурный
4х28
Световозвращ
##x80x219
матовая
3х4х0
унифицированный
510x120x219
фальцевой
F57
насадочные
994
9940
пропитанный
оголовник
прозрачная
тупик
запорное
F240
открывание
химический
УГР
бесцветный
грунтовочный
Столбы
1х6ок
кладочная
цепные
комплексов
шлака
сосновой
Подвесы
##огревателей
стопорным
1500х700х
152x150
двухполяризационная
рукоятями
##x96x380
С120
трапеция
радиаторной
800х500
полукис
полукомпенс
бугельная
##тпнг
фигурные
8504
штучные
вяжущих
прикле
инъектора
плита
ТЗПАБпШп
ТЗПАБп
шкафов
наплавки
##x72x250
типоразмеров
Наличники
##улярно
ЛА8
демонстра
осветительного
30ч39
односекционная
пешеходных
негашеная
заводской
гипсокартоном
расклинивания
КФУЦ
сочлененного
цифровых
БНДм
рисунков
адаптером
ромбовидной
490х892
КРТ
КСПФ
КСПВГ
упрочняющие
тарные
Гидро
башен
держателя
1000х290х410
##оэнер
асбестовая
ОАП
шлифовальные
насосно
##екальные
##ездочка
силиконовый
1000х160х260
ГКТ
ЛВЦ
гриб
переговор
##ульсионная
КЦМХП
КЦТХП
F93
Оповещ
усложненным
хлорсульфи
пенополистирольных
##х45х80
ливневой
ливневых
шурупами
БНМ
спускной
непрозра
плату
рукавная
дуговые
##х115х40
оксидированная
обработанных
525x442
##х295х75
11Б6бк
стабилизации
пароизоляцией
купольная
полиамидная
моноблочный
трудног
2х25мк
15с22нж
##x553
перенапряжения
пятизначный
пятиугольник
##x155
неразборная
МШП
1340x1600
кислотоупорный
кислотоупорной
Витражи
ванту
слабых
тонированный
указателем
680х605
переездной
Утяжелитель
МКПпАБп
индивидуальные
башни
ПАВ
извещателя
клеящими
литьевой
стекломагниевым
592х592
592х892
АКВВБГ
пултрузионная
ДСУ
РМГ
A312
ДКН
текстильный
углекис
углеводород
655х655х90
гипсоволокнистые
карбидкремниев
термопластичные
термопластичного
крупнозернистой
такти
оттяжки
мембранного
БЗН24
475х5
галогена
гнездо
крытый
110x72x250
110x66x250
термовставки
микростек
звукоизоляционные
260x50x250
260x50x109
заряд
съемный
высокомодуль
карликовый
растворителях
компрессорно
компрессорным
ГАУ
16ч42р
Крюки
переливной
фосфатной
Инъектор
смывной
200x500x2000
шамотнокарбидкремниев
бактерицидный
##отводной
капилля
ДСО1
Керосин
фидеров
одноконусная
одноконусные
трехстоечные
трехстоечная
02274
37x64
37x61
электромонтажных
1000х210х410
1000х210х310
бортик
1374x1
ТЗЭБлг
Биомат
ШРО
##роизолятор
примыканий
агрессивных
тонкослой
датчиками
асбестоцементные
бентонитовый
685x335
##рызг
выработках
качающийся
капсулы
экструзионное
волнообразные
изогнутым
590х595х85
Бензин
СИТ
Торгово
щеточная
##падающаяся
полимерцементной
работающих
удобрения
##x595x1000
адгезией
безбалластного
##целлюлоз
Стенки
Поддерживающий
Термопластик
Кляммеры
Цоколь
ушком
##исталли
ограничителя
спутниковый
Противоугоны
свойствами
водоэмульсионная
белила
целлюлозы
напрягающий
токоприемник
нитроцеллюлоз
гипсостружечная
1х630мк
жаропрочной
функциональных
Балясины
молотый
Автомат
Бирки
Модули
Печь
авиационный
бадделе
ксс
опуска
регистрации
третья
сильноагрессивной
водопоглощение
порошкообразная
заграждения
Терминал
насечкой
плакучая
седловидный
слабоагрессивной
Капсулы
1195х595х70
AL2O3
служебный
подферменников
EVA
Ether
LAN
XPS
Бугель
Батарея
Виброизолятор
Делитель
Индика
Калач
Скала
Сопротивление
Тупиковый
УБКм
Фотореле
Хризотил
Штекер
акантовые
анемостаты
гашения
снизу
укомплек
химстой
##xIP
##дикулярно
##VGA
наносимого
излучения
стеллаж
##осторонний
##тридж
марпреновые
перпендикулярно
присоединяемых
Створки
смежный
##25х150х220
водоподогревателей
показателей
гидроветробарьером
эквивалент
перекрываемые
непараллельное
500х633
500х237х31
КСБКнг
Поднять
шестилопастным
240х280х100х
геопластических
2746x1226
моноспирального
шумоотражающая
хромокислые
поглащающий
полукислые
30ч39р
карбидкремниевый
микростеклош
шамотнокарбидкремниевые
685x335x210
бадделеито
Ethernet
925
ЗКП
сжим
##М6
##ора
##остойком
256
40Т
009
окоренные
стеклор
307
459
457
356
##90х220
248
243
241
2400х
227
086
светло
изолируемой
576
334
285
КС15
балконная
269
342
мостовые
##упут
кронштейны
548
СКИП
междупут
##жии
ПДО
ОРУ
БП1
жаростойкая
лоджии
серебристая
молниеотвод
2БФ
котлов
полуплощад
пленкообразующ
Костыли
сжимаем
стеклоровингов
1б
1т
1ПБ
1ПКВтпнг
1x185
232
2ПКВтпнг
2x36
3x35
3КВ
4Б
4С
4300
435
4МСР
4ПКВП
5x2
5ПБ
5x60
5ПС
6Т
6х2х0
7x2
716
830
840
8х2х0
970
D350
F60
F250
F700
F1800
F305
F855
M400
OSB
VII
АУС
БА
БЖ
Баб
Во
Вилка
Дим
ИСО
К3
К20
КБ1
КРН
К56
К54
ЛБО
ЛЕВ
М9
Метр
М40
МВС
Нит
ОУ
П5
ПШ
ПИ
Посты
Р2
Р1
РТЛ
Рубероид
Си
С100
Сир
Сгон
ТТ
Теле
Т10
ТСП
Текстолит
Турник
Ф5
Фольг
Х60
Х70
Х65
Х56
Ш3
Шины
Э50
Э42
аспира
вой
вар
впис
гар
гров
дб
деж
дуплекс
зим
камеры
кобаль
локом
левая
нм
неле
окис
паль
пуд
плам
рж
рол
сго
селе
сурьмянистые
срок
улит
фон
шел
шерстяное
эв
№20
№30
№40
##ея
##гированной
##лод
##ильный
##ирования
##иловый
##раз
##расс
##оник
##оудар
##вен
##кр
##ктур
##фон
##эласт
##4Е3
##хм
##бШ
##бина
##блем
##аков
##Ст
##Мг
##800х
##ненный
##зыр
##зированной
##ысо
##жиг
##100х2000
##плит
##пласт
##плам
##ъезд
##цессор
##ябина
##НЭ
##S2
##VI
##ДР
##BNC
##Е2
##номи
ммx1
##ереп
##еты
##амм
##тах
##тальная
##ойлер
##личи
##омный
##омоб
##ометаллические
##енник
##руктур
##каниз
напорная
натяже
##окс
##емая
##емыми
##езж
##рова
##ровочного
##ралюми
стуль
##отлит
разности
разряд
раздвижная
##новысо
##едлитель
##авес
100х12
100х3000
##ющиеся
обхват
##ивер
##ивание
##есные
##альными
##алом
##елевой
1080
##остойкостью
полис
полиамин
##ину
12Ф
##аминов
конечный
наружную
теплиц
подвер
подключа
##ейская
##лектив
##адная
##адочного
трибуна
##ольт
##105
##10x940
оцинкованного
##ослеп
2030
20х2
##прис
##пресс
##илометр
402
40х5
40х8
40±15
15П
16с13нж
##х1250
##етический
##ниевые
##литка
00А
##учреждений
прижимной
замкового
1000x500
1000х100
1000х150
1000x1000
##ановая
Стру
14500
14ПКВКтЭнг
двухколон
двухрукояточный
двухрельсовый
##тора
огру
темный
минеральный
500x250
##x1300
спеч
электроэнер
медучреждений
соединителя
##локоническая
90х63
13П
##x230
##x290
##x268
установочные
150х55
напряженных
45нж
45с13нж
напряжений
250П
250х60х65
##2500
##25x15
полная
полуг
полум
полочкой
80х60
водонагреватель
водородный
показатель
32x32
##ушка
##х2400
##х245
болтом
300х3000
профильного
##улканиз
110П
110x5
##щитные
опцией
среде
стойких
самос
##елини
коробчатого
##х380
##х300х3000
коллектив
сигнал
Отсек
защитных
186
272
27х4х0
цветом
##15бр
трехстворный
рабочего
синтетическое
##17нж
75х40
75МТ
019
17П
1735
249
термопр
термоу
термометр
шпал
канатной
штекер
конструкцией
круглоконическая
##анская
цементное
красного
##65х91
##х42
##х420
222
19000
1910x940
паром
пароводяной
400х3000
коллекторная
клеммами
климатических
026
##огорючее
кабелями
##еревян
##400С
МКПВ
653
проводного
полипропилен
108х8
балласт
63х2
изолирующая
числе
57х5
направленного
37х4х0
переменными
##уктор
протека
круглыми
##ярусные
##139
##х64
##х66
Защитные
200х500х
радиальные
допуска
отопительно
PEX
180°
встроенный
расцепителя
непорист
блокиров
блокировочные
сетчатая
АВБбШв
ППТ
квадратных
##х2500
стена
##х51
##х560
антиприс
перфорированного
##ящего
##x680
##изолирующий
##чики
##x450x200
500х14
500х19
500х600х
500х3000
500х650
500х153
##ХЛ1
##ущих
630х595х75
водоотталкив
ЛК120
решетчатый
КСР
одностенные
одноступ
одностенными
219х7
наклон
наклонные
##11р
##х71
балконными
напольных
вертикальной
##створчатая
уголка
##компонентное
##ичной
##енок
Поддон
363
236
хризот
##x720
измерительно
266
Проступ
##x250x260
многофазный
композитно
КГВВнг
поперечины
электрифицированного
##х86
концевых
концевыми
Калитка
регулируемым
отвержд
##x50x28
продуктов
содержания
диффуз
043
термоэласт
тонкодисперс
52х4х0
Баллон
С375
распределительное
426х16
426х14
тросу
тросовой
Шпингалет
изгибающий
прокладников
дисковая
кронштейну
диапазоне
выходным
С21
трансформаторное
ограждающих
конусным
Листвен
линейно
##колонные
Трансивер
Эмблем
ПРКА
739
распашным
распашными
стоимости
стыковочная
стыковочные
Пудра
шумоизоли
шумозащит
##x1050
древесные
##x637
составные
каменной
другим
566
ШВВП
##00х1100
479
пластмассовыми
укрытия
междуг
траверт
транспортных
##x89
ячейкой
хромированные
хромоник
мелкост
##42нж
ВРм
направляющих
##ПКВтпЭнг
фильтров
Арка
КОО
консолями
АМР
акриловом
Замки
Замедлитель
балансировочные
балансировочного
разрыву
видеовыход
ПКВ
рядовая
##цемента
874
079
##44В
СБПБГ
конденсатор
кондуктометр
качество
Полухомут
чистая
ветро
Раскладка
F120
F130
F195
F145
информационная
морские
ИТС
ИТО
гипсобетонные
полнотелая
##x70x1
БрА
поливинилхлоридных
3х70мк
Дисперси
##ступен
однокомпонентное
900х400
профилированной
бумажных
А1А
ответным
матового
3х4х1
гальваниз
быстротвердеющий
квартальная
##приемный
F550
F570
F535
ПРАВ
ЗПУ
населения
счетчика
50x50x3000
сложного
дополнительными
динамические
пробковые
буровой
налива
F270
F290
секторная
карманные
купол
устойчивый
Лакоткань
ПОН
фиксаторный
противовесом
270x630
Столбик
холоднокатаная
вещания
заднее
время
бетоновода
Подвески
##огреватели
удержания
узел
нагревательные
локального
двусторонними
##ографии
30с65нж
фиброцементная
остановки
покраску
ножами
ножевой
атмосферостойкого
изоляторах
разъединителей
активного
ВЦП
маломоб
износостойкая
вяза
разъемный
4х95мк
закрепляемый
подземная
##х100х95
1000х385
масляных
1х4ок
1х4Е3
30ч3бр
##x654
керамогранитная
пассив
финишная
финишной
F450
F420
F470
F490
##легаз
многомодовым
форточками
пылевой
15кч33
F320
F330
F370
F345
F385
двухместный
спинками
правая
Круги
СМА
антен
ПвБП
окраску
токопроводящий
отвердитель
каучуковой
датчика
Гидроиз
1х35ок
##леплави
металлочереп
ворсовой
Стрингер
большей
мгнов
покрытой
антикоррозийным
пазогребневые
электроизоляционный
F1080
F1060
F1040
##x1180x2780
фиксирующего
ступени
01860
2х16ок
грязев
F920
F960
F990
F975
прослой
бутылочные
F820
F865
##х230х160
1280х150х110
твердосплавные
крановых
орнамента
разноуровневый
терморасширяющиеся
Резец
двухлапчатое
2х35ок
F1220
F1260
F1290
Кабины
закаленная
##x1102
200х200х6
F135
F1330
F1370
сферическими
объедин
стабилизаторами
упора
##елевого
зеркальным
F760
F1550
##ообразная
технологической
2х25ок
углеродными
цельноотлит
антисептиком
керамзитобетонный
улучшенная
неутепленный
F625
F640
F675
редуктора
алкидно
жидкостной
приставной
приставными
МР25
лесов
ШМР
слабогорючее
изогнутая
выравнивающие
дождевой
##x1220
тоннельных
вагонный
зетовый
рупорный
компенсации
1000х390х610
EU5
EU3
F1440
беспустот
АПвБП
нулевого
МКПпАШп
Стержни
клеящим
трамвайные
абонентские
3ВСЭ5
РГУ
РЛНД
кокс
100х480
##x1450
КППГЭнг
текстильных
хладостойкостью
##биты
трехслойной
##окислый
гипсового
звуковое
##99нж
30лс41нж
30лс941нж
30лс15нж
вторичной
молниеприемный
F1160
F1190
кручения
##форматные
подвешивание
шлейфа
F205
F2040
F185
F1880
съемной
1195х295х70
контроллером
высокогли
2х70мк
ДТ350
элеваторные
16ч6
переливом
Амми
Инсектицид
Умывальники
##орючего
проложенными
обогащенный
теплотрасс
электромонтажная
модернизированная
бортиком
бревенчатые
мозаичная
6х6Е3
Аппарат
100х100х3000
1000х520
управляющих
компактная
1000х190х230
ВБбШ
F1610
F1680
грубой
##грузки
##нюю
кварцевого
сегментный
A335M
неоткрываемый
балконом
618x268
носителя
пенополиэтиленовые
пирамидальным
вихревой
Пневмоудар
высокоэластичные
Таблички
дюралюми
фото
30нж41нж
клещевидный
2360x1180x2780
15ч14п
5х240мс
рейками
##МГК1
##орозетка
длительно
полушерстяное
##иссуар
Коннектор
722х265х91
##х368х3
размыкаемыми
видеовхода
40с10
Береза
птиц
тыльной
отделителями
подсвет
противоподкопным
ПРМз
отсчета
медицинских
поддержания
маршрутным
785x368x345
алифатического
2G11
НАСУС
пять
##этажных
##несущих
разрушающая
сидениями
гиперпресс
320х535
ультрафиолетовую
бункером
тиоколовый
трапецеидальные
виниловых
греющего
Доводчик
Ручка
Свинец
ТЭН
Х3444В
Холсты
костыльного
тиристор
кабеленесущих
противоослеп
инвалид
переговорное
хлорсульфированного
трудногорючего
475х515
укомплектованные
1ПКВтпнг6
Баббиты
Метро
МВССК
Т10У
Фольга
варочная
гровер
дежурного
кобальта
локомотив
нелегированной
пальцем
пудры
ржав
сгоном
эваку
##руктурной
подверг
двухколонковый
спеченный
электроэнергии
45нж13нж
протекающих
антиприсадочного
500х149х21
500х199х21
500х153х21
одноступен
термоэластопласта
Лиственница
Эмблема
шумоизолированный
травертина
мелкоструктурной
Дисперсия
маломобильных
15кч33п
Гидроизол
металлочерепичной
цельноотлитой
ВБбШнг
618x268x270
Пневмоударники
дюралюминиевые
096
2ПБ
318
5К
668
775
896
813
8АтV
М14
бл
меш
пихта
##Цс
##анкер
##окор
заготов
длин
50н
208
40н
темно
арб
45М
701
605
602
60н
опорных
##чатным
18М
1860
вырезом
75х50
24У
083
414
##изводственного
336
588
##устотный
644
364
234
264
056
058
Колонка
ПРП
ПКЛ
2ПС
непроизводственного
СНЦс
35Т5
пакетные
2ПГ6
8Та
075
0x10
1х2000
1х18
2х
2СП
2х240
3Х
312
345
3ПБ
4ПБ
4РГ
5а
5Б
5У
5300
512
5х2х0
531
5x10
6И
7А
7И
790
795
711
7x2x1
7ПКВКтЭонг
8х4
8ПП
8х8
814
819
838
800х1000
9Ф
9И
9ПБ
941
900х2100
At
HD
RG
R32
UT
А72
БЦ
Вд
ВЭ
Веш
ВРА
ВВС
Го
ГКВ
ГМТ
Д0
ДБ
Дрова
Жилки
ЗД
ЗО
Зуб
ЗПВ
К0
Кз
КПКВ
Мб
Мед
М63
МБК
М175
Мач
Олов
Олиф
Пы
Пост
Пакет
П35
ПАС
РУ
РПВ
Решет
Р75
Рефнеты
С80
Ту
Т12
Триг
УМК
ФТ
Ц1
Ши
Э1
ЯКГ
баб
боев
вое
жим
зонах
ими
леж
мона
мембра
новой
ног
пози
поляриз
решетка
ровингов
рефнеты
раков
соп
суд
суже
суп
тек
таймер
урав
улав
урет
фрез
физи
цели
шне
этиле
эпра
элегаз
№22
№35
№14
##уми
##лым
##лори
##иро
##иент
##рев
##оек
##ониз
##онок
##вЭВ
##кб
##кок
##фта
##эта
##эфи
##эx0
##500х800
##5х330х70
##4x2000
##4кп
##бо
##дина
##дус
##добав
##детали
##денсат
##юля
##щелевой
##83
##8бк
##ьми
##ьковые
##тер
##320
##370
##3бк
##сб
##сет
##сные
##сус
##совый
##Рп
##цами
##цети
##цесс
##КШв
##чными
##У1
##ТК
##ТГ
##ФА
##TF
##ЖР
##×90
##EF
##RS
##нами
##назна
##стал
##ерными
##оло
##оламп
##ологи
##ористой
##амзит
##амитовый
##лик
##онская
##одной
##енер
##енения
##анных
##анным
##ляции
навер
##опитка
##азоли
##арис
##ариками
##абан
##ровым
##ровое
##рование
##ровстр
##мин
##мику
струж
##отным
##отверж
раздвижные
разновысо
безоб
бездобав
##остоек
##кови
##едление
##очках
##олированная
##аянного
силы
##лового
##ловентиля
100х240
100x40
100x1000
100x796
100x596
100x996
100x600x2000
100x800x2000
обвод
обоев
##ивного
##иверов
выгрузки
##альцов
##ексов
##рощ
##роечный
##рофильного
10x2x1
поликомпонентный
полиакрил
##ружной
свечи
12°
12500
12x6
1275
##ходов
##ходовая
##нуты
##атура
подлив
подпорной
подкрановые
##00х13
##ождения
трубке
трубчатыми
осью
##имых
трасс
внутреннюю
##олях
50х4
50х6
50x5
50х8
50x2000
50x600
50х3000
50x3000
50x96
50x796
50x600x2000
50x800x2000
##1040
основой
типов
253
25х1
25х4
2065
20х4
20сп
20Г2
20x30
##пряд
##прия
неэлектри
одновит
##истер
прокат
проезж
процесс
40П
40Г2
40x2000
40x1000
40x3000
алюминот
15х3
15Б3
1525x15
16х2
##х1400
##х113
##лотный
##етирования
##литные
##литовые
##учного
прирез
##нгиб
замерный
замазка
замедление
около
1000х700
1000х640
железа
Ст5
Ст4кп
##илированная
1450
1470
1435
двухзаход
двухходовой
##ланные
сменной
500x190
500x300x250
500x375x250
##x11
##x116
спус
спойлер
электро
электролит
электроламп
каусти
ручная
ручное
медленного
##видения
902
##правляющ
##лопроп
##цовка
30х35
огнеби
##x24
##x263
##пастный
полимером
установочных
150х1
150х6
150х65
150х400
150х100х
150х300х
напряж
##сиальным
45Г
45Х
45х4
45x496
45x396
45х45
45x496x871
45x396x771
250x200
250х400
250x510
250x440x219
стеклопак
стеклопластик
сварными
сварочной
базовых
объемной
70°
70x3
11500
1100х2100
11139
резцами
полкой
полус
80х5
80х100
80х65
одноуров
однофид
однополюсного
водор
водная
водовод
водостойкий
водоводяной
603
60х27
##зирующая
##катели
ПВ4
3200х1600
теплоизоляционных
##атиновый
##ВГЭ
##х24
##х29
##х228
##х275
##х242
##чатки
отверстие
1105
110Я
300x190
пена
опис
средам
##оприт
##опреобразователь
стойкость
коробом
120x3
##х34
##х335
##х385
вермику
резьбовыми
колец
колеса
крепких
Отбой
высых
##ционным
1830
контактные
27х2х0
цветодинами
пандус
##ничный
трехклавишный
трехжильных
трехфаз
трехрядные
трехосноориентированная
трехпряд
9500
95x3
95x496x871
95x396x771
95x96x380
Смыв
синтетические
затвора
0170
1730
600x65
##ещаний
гибком
термог
шпинелид
660х300х
строг
комплектный
##х43
085
08Ю
400х500
предназна
предприя
клеммными
##нж10
76х76
##итанной
песк
проволочная
дрени
газовой
газовая
газообразный
4198
##лейка
плиткам
нагельная
1082
серо
серная
серые
серого
##x320
##x312
балл
2000x800
633
63х25
63х40
монтажно
раструбно
##руемого
аксиальным
применение
376
350x290
##укт
##ошерстяное
проточные
круглым
##земных
дерево
##х620
##x500x780
##95х95
##оперлитовые
Заготовки
200х300х
140x146
цельное
цельнод
пониженными
331
резино
видов
секцией
телевидения
##вердые
упрощ
твердыми
расчетной
сухих
маш
полиэфирных
##устри
непаянного
IIIБ
IIIО
градиент
##328
282
4800
КМЭ
многокомп
низким
89х8
смолой
цельносварные
цельносварных
КУБ
огнестойкость
надомный
##х520
##х540
антикон
##офос
##офельного
380x70x1
##x68
##x660
##x670
##x643
цинкового
600х1000
##x445
##x492
настенная
настроечный
500х4
500х750
битумоперлитовые
ПвКШв
постоянной
гидравлическая
##оловкой
ЛКО
унифика
556
КС10
одноструйный
325х13
люминесцентных
219х9
159х5
остывания
щебневидный
груша
##11бк
##х700х
Разделитель
нормальные
групповой
Пускатели
64П
##коразмер
85x496
85x296
85x196
85x396
85x96
вспененным
Подкос
Подкрановые
Подогреватели
386
38х3
обратной
23000
многопрофильного
##x778
ответвительных
059
Пропитка
противопожарной
##x566
##27п1
многоц
крестовые
130x496
130x296
130x396
черт
черные
усилитель
торц
торкр
ПСЛ
однопарный
инстал
закрытые
подвесах
##x200x17
нереверсивные
##летные
##ыкальный
глубинный
термоизолирующий
КНтп
кромок
240х300
##х95х65
550х250
550x450x200
распределительным
эластичное
тросостоек
учреждений
геополот
Колена
промежуточного
692
##x400x710
штыри
железнодорожной
концентра
крахм
С2TE
полюсные
09Г2СМГК1
##стирол
вытяжная
шахтные
ленточных
ленточной
##оящий
ремней
двуосноориентированная
вибровстр
обмаз
ТСД
##енцесушителей
запас
западная
136x496
136x296
136x396
136x146
449
гранули
069
РТТ12
ААШВ
##x300x640
взрывом
входе
МКРЛ
скважинный
скважинных
Д1АТ
230х113
320х140
рекламная
377х16
другие
##олимера
Наклейка
выводов
742
волновой
ШВМ
дутые
Вентиляционный
##00х1300
естественно
специальный
специальных
патрубком
хвостовик
хвостовика
антикоррозионное
уксус
полотенцесушителей
траве
четырехтрубные
##x820
предохранители
предохранителей
маслопроп
мелкоразмер
59x66
5949
59x142
59x116
##озащищенный
двухкамерная
фундаменту
горючее
отражателя
невыгор
М125
пустотами
##х65х95
консолях
белым
8680
ниппелей
скреплением
кнопочные
КПСВВнг
КПСЭС
устройствам
920х12
ПКНтп
зернист
втулками
878
дренажными
##опроцессор
НС35
ударно
модифицированные
модифицированного
действием
врезная
врезной
врезные
тканой
Полусфера
стяжка
трубчатым
К115
чистовое
чистошерстяное
СБЗВГЭ
F1000
центрах
скобой
информацион
рамная
773
АДМц
АДМг
гипсометаллические
664
поддоном
##x707
жидких
полимербетонная
МГК2
МГТГ
слива
570х25
забивных
желобчатая
переднее
4х2х1
##21нж
ФКА
унифицированные
510x80x219
981
##x2194
М12П
стеклянных
двустенных
троллейбусов
Звездочка
прорезью
81x142
##23нж
50x50x1000
50x50x2500
50x50x165
штыревого
штыревых
пазов
##защиты
##защитная
360x160x90
светильниками
светильником
14нж917ст8
14нж917ст17
14нж917ст26
168х18
прозрачными
1х10мк
91x496
##угольная
запорного
50x100x1000
50x100x2500
50x100x3000
50x100x165
100х80х3000
индустри
сериографии
сополимере
горловин
##оподогреватель
мачте
фиксаторы
фиксаторами
##x2050
СБПЗАШв
нефтя
бесцветного
1х2500
3х185мк
скрученной
детских
##х985
нанесение
PPRS
##x1894
цепочках
композиционный
расширения
восстановительные
##37х46
Столы
пигмент
100x300x512
200х80х3000
узлов
20295
202x200
142x146
крупноформатные
сантехникой
105x63x500
105x63x2000
105x63x1000
105x63x700
105x63x1500
105x63x900
105x63x1800
105x63x1200
1х1600
1х1400
1х1200
30с15нж
30с76
рукоятью
Направляющ
100x100x312
сердцевины
С110
ЦП328
доводчик
100x400x612
атмосферного
атмосферостойкий
800х400
метил
молоток
молочного
РТТ5К
активатором
ячеистого
необслуж
4х70мк
инъекционная
КБП
100x500x712
74x63x500
74x63x2000
74x63x1000
74x63x700
74x63x1500
74x63x900
74x63x1800
74x63x1200
шкафа
1х50ок
разъемом
разъемами
ККСр
##СОЭ
натуральных
закрепленные
1000х300х150
эмалированный
второго
структуры
КД3
дюбеля
разветвители
ЛЭП
земле
выпуклым
37x63x1000
37x63x700
37x63x3000
37x63x1500
37x63x900
37x63x2400
фосфата
300х80х3000
F435
негор
уровень
40x70x2000
40x70x1000
40x70x3000
40x70x165
40x70x161
40x70x183
##ландцемента
37x60x1000
37x60x700
37x60x1500
37x60x3200
37x60x4000
гипсокартонных
КФЦ
незака
200x200x412
терракотовый
400х80х3000
сочлененная
днищем
100x200x412
150x150x412
192x196
4x4x1
Тепловентиля
##х125х135
СППК5
СМ9
50x80x2000
50x80x1000
50x80x3000
50x80x161
50x80x183
4х185мк
демпфер
ОДРСП
##гораемой
АЦСС
коврово
анодный
40x50x2000
40x50x1000
40x50x3000
40x50x165
40x50x161
40x50x183
40x50x254
40x50x263
токопроводящая
КШУ
КСПвЭВ
упрочненные
40x40x130
Контрдетали
109x60x500
109x60x1000
109x60x700
109x60x900
109x60x3200
109x60x4000
каучуков
индикацией
облегченные
кулач
бачка
держателей
колонны
цельнометаллический
АСБ2лГ
фальшпола
винипласт
шипованный
00551
микроф
огнезащитное
огнетушителей
мостиках
фиксирующие
пенобетонный
ДО21
нумер
штампованная
просечным
150x300x512
92x496x605
92x496x778
92x296x405
92x296x637
92x196x305
92x196x566
92x396x505
92x396x707
фибрилированная
Стеклообои
5х25ок
укрепляющая
хлора
##узыкальный
##лочно
150x500x712
150x400x612
Резина
ШКЛ
маршей
Кабина
74x60x500
74x60x1000
74x60x700
74x60x1500
74x60x900
быстросохнущий
вспомогательных
5x1x1
5x185
РС16
платиновый
рукавный
потребления
РДП6
##олефинов
11ч8бк
11ч3бк
агрегатов
гидрофобизации
бутилкаучуковая
аварийным
Ванны
11Б27п1
вспучивающегося
стабилизатором
латексов
##яхиванием
отходов
##x405x60
совещаний
15с52
квартиры
седловые
5х35ок
УП7
пастообразный
обычной
алкидная
ИОСК
МР20
солей
сульфатостойкий
сверху
3А4А
ШМБ
ШМА
указателя
изогнутые
##епарат
##x1292
##ливаемое
шаровидная
трехмерный
500х550
##ерстяных
текстурированного
Водорозетка
Водоподогреватель
душевая
защищенный
расходомера
32х25х32
Геомат
F141
F1490
ошипованный
ошиповки
начальных
МКПпВБ
0806
##режд
1225х325х75
Ст1пс
Ст1кп
45x796x1180
45x796x855
45x796x1171
45x796x1092
95x796x1180
95x796x855
95x796x1171
95x796x1092
95x596x980
95x596x714
95x596x971
95x596x892
95x996x997
95x996x1380
95x996x1371
95x996x1292
600х400х50
600х400х60
600х400х40
низковязкий
аналоговых
абонентская
коксо
нелинейный
2НЖ
ЛНФ
##ариков
подставками
Ст6пс
##x576
##x573
поддерживающие
15кч18п
15кч18п2
ПЛУК
умывальников
1270х125х135
прогрессивной
мембранной
ОДОСПО
Катализатор
молниезащиты
ПЗС
##атомитовый
цинкования
микропроцессор
сопряжения
200х100х100
375x250x219
ЗВИ
контроллера
гранулами
карликовых
утяжелителей
2x1x1
2x1x0
НБМК
вварное
набивная
45x996x997
45x996x1380
45x996x1371
95x96x318
95x96x332
95x96x381
многослойно
штуцерно
неглазурованные
Микротруб
замкнутый
МГП2
обогащенная
Керамзит
фидер
##х145х110
45x296x671
модернизированный
50x50x212
КФДЦ
аморти
картофельного
целевыми
экономи
преполимера
1000х500х800
автомагистралях
примыкания
агрессивным
легкосгораемой
толстослойные
1000х380х410
2х150мк
5кН
6х8Е3
рессорной
капсюля
45x196x571
45x596x971
1190х100х115
плоскостей
цинконаполненная
ударопрочного
изогнутыми
590х595х95
рычаг
тампонажные
насадок
носиком
фторопласта
50x400x2000
##ключить
самовыравнивающиеся
шарнирным
непропитанные
такелажные
вихревые
инициирования
инициирующего
веерного
молочным
развальцов
отбора
1235х195х75
50x500x2000
50x200x2000
50x200x3000
50x300x2000
50x1000x2000
портландцемента
45x96x381
одноцветные
95x296x671
95x196x571
серьгой
Защелка
Защелки
180x50x850
180x50x1050
600х600х105
влагозащитная
гравийная
50x100x328
625х625х75
40x70x274
40x70x273
50x80x284
50x80x283
11Б41п3
АНЖР
3БФ
Вкладыши
ФРФ
мебельный
моторное
разделанные
подстоль
25ТСОЭ
16кч11р
водоразбав
шпилевидный
КВПЭФ
Электрооб
ШВПВЭ
резервированием
низкоэмиссионным
370х565
лепестковый
##кгс
Акация
ПХК
Тяги
детонатора
ендовы
пруда
##ермитной
стирола
16x2эx0
##x145x50
##хлорвини
50x100x303
эффектом
2А6А
648x395
кокосового
нетокоограничивающие
дезинфици
ДПМД
Заземлитель
Лежень
кальция
каланд
ротором
туалет
##ются
1200х295х95
подверженные
прямоточный
45ч15нж
гидроактивный
продувочной
перекидной
нетвердеющая
препятствий
ориентированной
двухголовые
оранжевый
4Д8
Буквы
анионная
гниению
ресиверов
фартучного
холстом
##учести
##P8C
##олекулярного
контейнере
15Б1п
однокозыр
самостоящий
шпуровых
надпись
окончательной
легковесные
Световозвращатели
Оповещатель
непрозрачный
МШП2
вантуза
зарядов
высокомодульное
##исталлический
опускания
Индикатор
химстойкие
Диммер
М9П
пламени
роллетные
селек
улиткой
натяжения
полиспастный
##ольтное
Струна
цветомузыкальный
##еревянный
МКПВЭнг
блокировками
тонкодисперсные
ПКВтп
вязаное
##леплавильных
беспустотная
гиперпрессованный
инвалидов
ржавчи
арболитовые
КзП
КПКВнг
Медь
МБКГ
Олово
Олифа
Решетчатая
Туя
Триглиф
бабочка
боевиков
военизированной
поляризацией
сужение
таймером
улавливания
целиком
шнековое
##азолинов
стружкой
безобжиг
100x1000x2000
100x796x400
100x596x400
100x996x400
50x796x331
неэлектрического
одновитковые
проезжей
процессе
алюминотермитной
15Б3р
двухзаходная
спойлером
250x510x219
водоводяные
описанного
Отбойник
цветодинамический
Смывка
термоголовкой
660х300х95
предприятий
419813
цельнодеревянный
градиентным
многокомпонент
антиконденсат
380x70x156
унификации
торкретирования
инсталляции
550х250х260
геополотна
крахмала
вибровстряхиванием
230х113х65
320х140х105
маслопропитанной
мелкоразмерным
59x142x150
невыгорающего
КПСЭСнг
81x142x250
необслуживаемая
незакаливаемое
Тепловентиляторы
Микротрубка
экономичные
развальцованным
однокозырьковые
1С
2ЛП
316
6Б
БД
С90
руд
роствер
суров
эфи
##±30
12У
##00х4
40К
164
453
печатным
стойкие
033
18Б
24М
089
021
422
961
влагостойкая
738
062
297
394
РОП4
536
492
водопропускного
морозостойком
полуанкер
СЦс
серебристый
ступеней
Приставки
балконов
Шахта
811К
сжимаемость
##окоррози
заготовок
полуанкерная
0м
1x4
3Н
3И
4600
4ПКВт
471
515
538
5х200
5х400
5х600
5МСР
5х800
6р
6М
6К
6k
6400
7400
7ПКВКтнг
8x2
870
8ПБ
831
A106
CA
F17
F22
F32
F24
F19
F34
F66
G1
M5
M300
M250
R2
SA
TVI
USB
x25
±40
Аэ
АР
АУ
Анод
Алюми
Б6
БЧ
ВЧ
Вним
Верев
Верх
Воск
Гар
Дроб
ЖС
ЖО
И1
КЭ
Клю
Кноп
К17
КПВ
Лату
МЭШ
ММК
Мазут
Моно
Н75
ОСП
Очи
П4
Пс
Пог
Р57
РТУ
Рябина
СЗ
СКС
Сиф
Сплав
Тн
Тз
Ук
У6
Уси
УШМ
ФГ
ЦТ
ЦИ
Ш1
ШЗ
ШПВ
Штап
ЭО
Эти
Э60
анд
амм
боль
барь
блочно
вост
включ
гом
гели
громкоговор
гроз
дель
засл
ир
ки
кип
коди
ксил
кОм
луч
лавки
лекальные
мети
массы
мембрана
мяч
монах
оправ
отап
пист
пента
рк
ран
роб
расти
себ
сут
снего
тюб
тюбинг
указатель
фуг
фонта
хва
цистер
шина
шинами
шерстяных
№24
№26
##ело
##елок
##уй
##уци
##лт
##иж
##ило
##иновая
##иатомитовый
##роли
##ридная
##ония
##оана
##вола
##вающие
##вающих
##валом
##кН
##крытая
##08
##фская
##элемент
##моче
##мень
##530
##527
##бных
##блю
##бская
##аки
##дная
##ювет
##юминесцент
##6БК
##С2
##С3
##850
##820
##8Е3
##9п
##нУ
##нему
##зания
##затор
##зун
##ть
##т1
##тным
##тый
##теля
##точной
##сер
##сина
##сили
##скользящ
##жир
##Р1
##165
##73
##пШп
##АК
##АОСП
##цера
##чом
##чати
##штырь
##ВЦ
##ГГ
##ГТ
##ГИ
##У3
##УЗ
##ХМ
##ХФА
##ЛМ
##ФЭ
##Эл
##ME
##Дх
##ДЛ
##ИО
##as
##us
##нопор
##нолеум
##натный
##стое
##нир
##еренная
##олу
##олюминесцент
##орные
##ораст
##орегулятор
##оритовый
##ому
##омост
##лена
##леный
##ленд
##кати
##ляционный
диаметров
наличи
##атков
##оплит
##ститель
станков
##окрыти
##ровыми
##раф
##миа
стружеч
стиро
##откой
##лачом
клы
класси
безриг
##итоп
##итыв
##оствола
##новаты
##ковочная
##едит
##едельный
##олива
##тирования
номера
##лоны
100х2
100х600
100х63
100х900
обив
объеди
оберт
обозна
##рованными
##есча
##екчи
10а
10Т
1030
1040
10ПБ
полиола
полисульфи
полимоче
##иненными
##ингов
##инфская
##ружиненными
12В
12Л
1290
12кч
##ходовый
##амида
конвектор
залив
давлений
подфор
подступен
##нитура
трубчатую
трип
##жению
##фильный
коринфская
504
50x3
##20x2780
стену
перер
перех
горкой
горками
##роводной
распы
распростран
25х32
25х17
##осиликат
20x50
20х15
необр
однов
##истокислый
40У
40х17
алюмини
15х2
1660
16x16
1600х2000
16кгс
##х170
##х172
шины
0016
замок
замков
замковая
1000х200
1000х300
1000х500
1000х800
1000x650
железный
кратков
##ановый
1440
14x2x1
двухпол
двухупа
двухтрубные
двухфланцевый
двухлин
железобетонными
смоля
смеш
темных
Плинт
арм
500x2000
##x112
##атыва
спир
спуском
электроста
калачом
##вины
90х90
90х56
##нопокрыти
##лопоритовый
30Т
30x1
30х8
30х20
комовая
прямолиней
1316
13ХФА
##x2250
##603р
установку
150С
150x50
150х300
1505х195х75
##урик
455
451
##онаблю
400с
400x2x0
##нительной
200x400
напряжении
250х500
##25нж
объемного
705
703
70х12
70АтV
1160
1130
резанная
80х6
80х12
80x40
80х32
одноряд
однооснов
однорукояточный
водопро
трубопроводы
##пуск
601
6030
60x27x0
##елях
##олокнист
##катная
##кателя
ПВ2
опору
повышение
32х4
32x3
моющиеся
##атир
присоединительный
##х235
##х2800
гермети
места
300х500
300х100х3000
##ливной
##чатой
линолеум
110х3
110х50
110х75
300с
300x150
300x300
Излучатель
клин
печи
пенод
печати
опира
среднем
##18бк
##агой
##агент
35x15
35кВ
##шению
##шечного
привед
120х228
верт
резьбовых
успок
усовик
##903р
коле
##гнализатор
сигнальным
Открытая
##ционное
защитовые
18сп
контактно
278
27А
27x2x1
панелях
скреб
трехрожковый
трехкомпонентный
952
##иленые
воздухоприт
##ленной
75х20
75х75
600с
600x3
600x400
##енья
накле
24А
24ч
##ующие
связями
канатом
канальные
724
анкерное
гладкое
красителя
горячеоцинкованные
стеклопластиковом
комплектующих
##х460
герметичные
1930
19ПКВКтЭнг
19лс
паровые
паронит
400х6
400х800
400х100х3000
коллекторные
светлых
21x2x0
##ивающийся
дорожным
МКТС
##ирен
65°
65х12
160х100
160х110
160х350
газоснабжения
газопол
газосиликат
дверная
41х21
плитой
песчаного
##аполь
нагрузку
0368
винтовую
сереб
сербская
баллов
балочная
125х125
63x2
вводная
слое
574
573
57х140
СТп
450х900
лака
КВЭл
жесткое
350х70
##ошка
трансляционный
##х62
##х635
##оперфор
200х250
140x120
140x200
140x160
140x230
пониженное
понижающим
3000х4
3000х200х
заполнителей
фракции
Компонент
секционная
потолоч
автоматическом
отделочная
порошковый
180х110
Выход
твердости
тяжелый
мали
сборка
деревянного
273х7
##2250
СПСМ
скольжению
верхними
механических
периклазох
неполированная
IIIС
##рицид
градирен
одноместный
сетевой
28000
28x27x0
48з
892
89х4
89х9
огнестойкая
##х109
надземных
##х53
антискользящ
противогр
##аботанный
приводов
лопат
380x200
380x180
600х5
600х6
##x435
##x484
сердечника
настенно
ПвБШв
630х10
##роволочных
стыками
55x50x28
заземлителями
219х25
межком
клею
##х780
##никах
##никающая
##ляющий
формовочные
отношению
тонкий
вспененный
двухдис
поверхностный
поверхностях
Подлож
Подогреватель
368
389
легких
легированных
пружина
##x76
керамических
093
091
2650
шестиугольник
жалюзи
##x540
##x565
##x545
электрическая
##х82
##х850
##х860
шестигранника
колодками
равно
пластикового
Крестовины
отвержда
ПС2
ПСК
АСКП
редуци
навесного
##x100x219
шарнирный
пластиком
пластифика
530х172
##язочная
тройная
##x200x80
магистральное
усиленной
КНП
Геотексти
52х4х1
домик
домоф
550х550
550x250x260
РК75
эластич
эластичного
426х9
прессованная
продольно
литров
коротыш
##ПБФ
эпоксидного
эпоксидное
пленкоп
промежутка
Манжеты
штырная
свинца
выходов
выходами
АППВ
БСт3
БСт1
удлиненной
звена
звсб
##1450
пористого
ленточным
сплошная
накладка
линейных
линейным
игровыми
двустворчатые
скального
обмоткой
промышленной
ТСЗ
##x604
орг
Электроплит
44±10
распашных
КВВГЭнгLS
угловым
непрерывного
шайба
2950
##x105
##x300x219
древесно
взрывной
крепежными
МКРПБФ
экструдированный
составы
камерных
водоструйный
вращатель
377х13
377х14
нити
силикати
поликарбонатный
747
56х36
хватом
ШВК
##x98
специальным
специальными
##ородные
искрового
СК2
СК3
СКПУ
вентилируемого
встраивания
тяговое
##левый
четырехлучевая
четырехкомпонентное
##38п
##x880
хромированная
стрела
ВТ15
594
593
фиброй
штангу
штанга
##копортландцемент
откидные
114х12
штуцера
4960
взрывозащищенном
КОг
КОР
КОп
1800x600
модулем
Колодки
остекленное
787
загруз
сквозь
##40x1500
силикатной
видеонаблю
ПКН
зерна
полотнами
877
076
дренажная
дренажной
рельсовыми
ВССК
бумагой
шинными
##опроникающая
скрытый
скрытыми
штукатурная
ударные
50х50х3000
684
модифицирующая
Окна
вибраторами
Ползун
трубчатого
##ширитель
органическом
4х4Е3
Расширитель
центральной
##х3000х730
##х3000х580
##х3000х760
информации
рама
шаге
##x2520
улиц
##изии
отдельностоящие
АДР
АДК
кремния
белой
обрезной
диагностики
охранные
##x1650
полимербетонные
поливинилхлоридная
поливинилхлоридные
МГК1
100х50х2000
900х500
900х800
900х700
900х1800
натриевой
выключатели
стеклохолста
заглушками
ПТУ
Термопреобразователь
передвижная
ответного
матовой
унифицированной
510x100x219
одностворчатое
гальванопокрыти
кварци
дефлектор
##МПР
Звенья
плавкой
плавленый
морозостойкий
восплам
пропитанных
адгезион
глиноземистый
глинопор
герметизирующий
герметизирующей
946
мягкой
мягкая
3х150мк
ПДН
##яемый
запорными
двухсекционные
700х600
СТД527
любого
любых
УЗП
##ручивающийся
неподвижного
импульсных
1200х600
1200х500х
холоднокатаной
холоднокатаного
горячий
##х99
##х900х
##х920
МП20
Штанги
планки
перегородочные
временные
магнитной
##x188
##x1850
калия
знаки
цепной
Подвеса
наборной
эффективным
2x2x1
выносным
нагревательного
двусторонняя
тиксотропная
3x2x1
цинкнаполненная
фиброцементные
дисперсией
3х240мк
##х155
Кондуктометр
грузоподъемностью
доводчиком
метакрилата
полуав
резервное
изоляторы
лестницами
двигателя
шланге
420х330
нейлоновая
вязкости
разъемы
2х4М2
2х4Е3
УТЦ
закрепляемой
##х100х100
1х4М2
1х4М1
САУ
30ч7бк
дюбель
стеновых
коммуникационный
иглопробивной
##х1190х220
ПМК
финишных
финишное
комплектации
4х120мк
негабарит
остря
изливом
термоусаживающиеся
сочлененных
ВАГГ
4х150мк
670х100х110
телефонной
древесностружечных
пиломатериалах
антивандальным
укороченным
СМК
поручни
поручней
ОДАОСП
ШУЭ
овальные
сильфонные
протяжной
200х100х3000
многоцветные
КСПЭВ
никеля
##хваты
НКУ
пристенные
баков
колонну
колоннами
1000х290х230
1000х290х430
2А4А
4x1x1
4x1x0
595х605
ответвляющего
рукохода
насосами
планочный
плафона
ГКД
ГКЛВ
##х190х95
тупиковые
паропроницаемые
нулевой
нулевая
перегрев
##x1320x2780
дизельное
ОКГЦ
тумбовый
пространственной
звукопоглощающая
Ат600
Ат400С
мусороствола
улучшения
метрополитенов
никелированная
гимнастическими
БНТТ
1320х310х100
волнистая
непроход
5x1x0
17с21нж
17с23нж
АД1Н
2УГП
2УВП
2УНП
F137
Б220
Б230
РДС
брекчи
11ч6БК
11ч18бк
вставки
параметрам
690x335
ИПУ
Бачок
БЗ26
импостами
стабилизированным
ГВУ
подкладкой
пароизоляционная
камерой
трамвайный
фосфорнокислый
ОТ350
едкий
паркетные
паркетного
разрезная
разрезки
Крепеж
цельноли
антисептический
КСФ10
##x205x90
неутепленным
##АТИМ
Шарнир
инерционные
четвертью
перепадом
приставные
МШБ
МШК2
##47нж
солом
сверхпр
##x170x505
УГВн
УГНар
595х595х42
##лацетат
3А2А
ванн
коньковая
аргоном
прямоструйный
трехмерно
500х537х46
текстурного
текстурным
бетонируемыми
СНА
титан
титановые
##окамерами
калиткой
19с53нж
19с17нж
19с47нж
переключат
переключатели
бревно
бревна
латексной
латексированный
абразивный
3x1x1
3x1x0
проникания
нишу
концентрат
35Т7
МБР
извещателей
Ст1Гпс
нагнетательные
ЛКПн
592x592
абонентов
Грязевики
катушка
мозаики
129x380x219
1285х205х90
##x1920
ГТП2
ГТП1
текстильным
шестеренная
25х20х25
углекислый
##x1404
36920
звуковой
карбониз
15кч18р
15кч18п1
ASME
оттяжек
оттяжках
соединенной
2500х1200х
неорганическими
веревочная
ОСГ3
СФТК
6х4М2
6х4М1
Ковер
перлитовые
ПСтО
ПСтО10
звукоизоляции
выпускная
200х100х40
шлейфов
шлейфовый
1БФ
785х368х3
малос
ЗВУ
Канал
обезжир
прокалывающие
двухуровневый
контроллеров
карликового
700х500х50
700х500х60
700х500х40
Лестничная
дождеприемный
дождеприемного
Е116
ОЗС
набрызг
перевязочная
32х20х32
содержащая
штуцерное
козырек
2КД
свойства
водоналивной
плитняк
глубокопроникающая
САСУС
дезактиви
криволинейного
БрКМц3
азотистокислый
фунгициды
1хRCA
1хHDMI
ЩУРВ
вилкой
крюком
складной
33а17р
33а603р
33а903р
тонкослойные
адресные
асбестоцементных
4НЭ
Аммонит
пищев
этиловый
ясен
широкий
широких
1190х75х100
экструзионные
плоскостях
ШВПНЭ
цельнолитой
неоткрываемые
рычажный
двускатная
10УЗ
500х500х100
дискретных
445x170x505
глянцевый
щеточный
столиками
пенополиэтиленовый
200х600х200
непропитанная
пневмокамерами
безбалластной
ДПЛ
козырька
дюй
льня
оператора
солемер
фотолюминесцент
20x20x40
##ПКВПтнг
органоминер
15ч14бр
Коуши
Газоана
ЗЩ1
ЦАГИ
ШОВ
Шлакопортландцемент
моторного
прядевых
20х16х20
16кч9п
водоразбор
шпилечный
резервирования
низкоэмиссионными
батарей
червячные
Шахты
1х300мк
Барабан
Грузы
Дверь
ЦАСБл
ЦАСБГ
подпружиненными
окружности
окружающей
бескаркасная
бескаркасных
инъекционных
15кч16нж
15кч16п1
рентгенозащитные
высокоогнеупорные
теплозвукоизоляционной
4х8Е3
ЖКХ
Прижимы
лаванда
пунктов
слюд
припод
150Пк
очищ
пластифицированный
автополива
нейтральный
Клинья
асимметрич
истиранию
Двойной
Ревизии
аглопоритовый
источника
победит
полиизоцианат
подшипниках
полезная
полнопиленые
полутвердые
усадкой
Переключатели
500х136х14
трещиноваты
полукомпенсированной
приклеенным
РМГУ
углекислотный
молниеотводом
полуплощадками
4ПКВПтпнг
Сигнализатор
Сирень
Тележка
Э50А
Э42А
аспирации
войл
вписанной
дуплексных
стульчик
огрунтованные
полуглян
хризотиловый
Проступь
междугородные
мгновенного
прослойки
объединенные
коксовых
Аммиак
40с10б
подсветкой
тиристорные
эвакуационные
монашка
##фталевый
##енератор
бездобавочный
1525x1525
16х2эх0
Ст5Гпс
огнебиозащитный
водораствор
##х275х140
трехпрядная
пескобетон
упрощенные
торцом
индустриальное
нефтяное
негорюч
демпферные
микрофонная
нумерации
Электрообогреватель
##хлорвиниловая
безобжиговая
CAT
SA106
Аноды
Алюминий
Внимание
Веревка
Верхний
Гарнитура
Дробь
Ключ
Латуни
МЭШДЛ
Очиститель
Погружной
Укрытие
ЦИАТИМ
ШЗВ
андез
аммония
больничный
восточная
гомополимер
грозозащитный
заслон
ирис
кишечного
кодирования
лучам
отапливаем
пистолета
себя
фуговочные
хвата
##штырьковый
стружечными
безригельного
объединением
оберточная
12кч11бк
конвекторного
подфорточной
распространения
необработанный
кратковрем
двухупаковочная
двухлинзовый
электросталеплавильных
однорядной
одноосновная
линолеума
пенодиатомитовый
120х228х99
успоко
усовиками
воздухоприточная
красителями
19лс53нж
газополные
газосиликатный
периклазохром
противогриб
380x200x219
380x180x219
Подложка
редуцированный
530х172х84
Геотекстиль
пленкопористой
звсбз
Электроплиты
видеонаблюдения
гальванопокрытием
глинопорошок
СТД527А
ОДАОСПД
плафонами
перегрева
690x335x310
785х368х345
дезактивируемая
Газоанализатор
трещиноватых
296
3ПП
6х1
616
712
8а
8та
865
914
Б1800
Соль
гал
пустотный
сем
сум
якор
##вент
##фрам
##еррос
синяя
10Б
12х12
##ольфрам
смола
30М
80н
801
60х30
площади
244
247
2240
082
659
63с
338
587
487
пористые
ТСН
##ромочный
безнапорная
478
СКМ
берего
920х11
ЗП200
ЗП250
ЗП125
карнизные
1200х1200х
прикромочный
пиломатериалов
ШЛГ
суммарной
междушпальных
звенья
2ДП
выработок
3ПГ
насадки
Графит
суровая
галерей
##ерросили
0п
0К
0x2
0x6
0х200
0x16
1с
1У
1ПП
1x7
1ПКВт
1х4х0
1x2x1
1x55
2е
2ж
2p
2x6
2x50
2х185
2x25
2x16
2x18
3x
3а
3т
3x150
3x120
3x50
3900
3x95
3РС
3ПКВКтЭонг
3РГ
4с
4Р
4U
4x18
4ПКВКтЭонг
4ПКВтпЭнг
5ПО
5ПКВКтнг
5ПКВПтнг
6Ф
6х0
6200
6x4
6x80
6ПКВКтЭнг
7П
7A
770
700х3
700х800
700х1000
700х2х0
8м
8С
8Н
8х1
8х0
8х100
868
8фэ
800х2х0
8P8C
996
916
9200
975
9700
900х1000
Al
Bas
DT
DC
G23
MG
M500
PAL
R9
RW
SM
TN
Vу
x32
±36
АИ
АКБ
АОС
БЭ
БСП
Боя
БК2
Ваз
ВСТ
Вода
Вакуумметр
Ваза
Включить
Гель
Гоф
Газон
ГКП
ГНУ
Д5
Дб
Д20
Дуб
ДВП
Делини
Жг
Жим
Жест
ЗР
ЗН
ЗКВ
ИМ
ИЛ
КЖ
Кры
КВГ
Километр
Лаги
Ми
М0
ММ
Мы
МФ
Мост
М60
Маг
Мука
Моди
НА
НF
Н35
Н11
НПП
Неров
НПО
Н153
Навес
Наполь
ОСТ
Пар
П50
Пак
П12
ППВ
Пести
РЭ
РЕ
Роза
РЭС
Сол
Спр
С70
СКБ
С44
СЭф
Сея
Т25
Т62
ТЭС
Толу
УР
У7
УШ
УКЗ
У19
Ф3
ХК
ХН
Хок
Цвет
Центра
Шпа
ШРП
ЩМП
ЩРП
ЭВ
ЭИ
ацети
басс
баг
биб
бута
бород
брыз
бензи
вал
веш
ваго
гер
дев
дух
днат
данных
жи
жак
затир
иль
ива
ионическая
ингиб
куб
куст
косы
клави
котор
ле
лев
лож
ланд
лома
мэ
мам
мПа
молибде
оф
оде
пам
пая
поль
парк
пень
пала
плави
писсуар
рв
риз
рого
рече
руб
рути
ранд
сч
сыр
сушки
слт
тет
там
того
ухваты
фла
ферм
флиз
худ
целей
шер
шлан
щело
элект
элев
яп
№80
№90
№100
№23
№33
##еек
##еев
##еолит
##гат
##гетический
##лат
##лород
##лолаз
##ила
##ируемый
##рт
##рин
##рными
##оит
##оап
##оопас
##оаминов
##ве
##вни
##ватом
##кл
##кей
##крыва
##кручивающийся
##04
##02
##эти
##мот
##мута
##менной
##ментов
##муника
##местный
##580
##xсторон
##410
##4нж
##2бр
##2x341
##хождения
##бовая
##бути
##блон
##бжение
##барис
##аца
##дов
##дом
##дорож
##довый
##довым
##юра
##йные
##600х800
##6Е3
##6х410
##93
##990
##нки
##нном
##нпропиле
##ненной
##зот
##зад
##зрыв
##ычки
##то
##тная
##тельная
##турой
##3сп
##сн
##сфор
##секционный
##сарный
##смин
##жил
##жущ
##под
##АБл
##центр
##яв
##К4
##ч2бр
##ВК
##ВЕ
##S0
##SL
##ЛГ
##Эп
##ЭBЭнг
##Ш4
##ОМ
##О21
##ИИ
##°C
##×68
##×97
##ова
##овками
##стер
##стная
##стры
##ступа
##стерс
##стротверде
##станав
##ническая
##нирования
##ерси
##етч
##етру
##етил
##олость
##амбовая
##лиот
##омсополимера
##одителя
##асовочные
##енд
##енники
##анка
##анное
##катив
##капс
диамм
нарез
изготов
избир
##ать
##ативного
##опасности
##опонные
##опуском
##ельвет
##ельники
##ельская
##азован
##арные
пряже
пропиле
прораст
##чение
##оксида
##емой
##езде
##ровка
##ровоз
##роврод
стоечные
##откая
##лак
безлот
безвор
##ителе
размер50
##новое
##ководителя
##едки
##едаль
##едений
##оливини
силан
##носторон
##кообр
100М
100x60
100x10
100х30
100х300
100x496
100x296
100x196
100x396
100x20
100х500
100х1000
##ющейся
обз
облад
области
обжим
отбур
##рованном
##ивы
##ивании
выпр
выступа
##екуч
##ронах
##роечных
10х8
1024
10x65
10ПКВКтнг
##евидные
полив
полиров
полированный
полиакри
полиолефинов
12x1
1222
12800
12x2x1
1200х1000
##ходимых
дози
##изоновой
констр
конечных
заколь
запорная
##коммуника
подав
подъезд
##00х80
##00х16
##00х1800
##ожеств
осевым
внутризоновой
трев
##полаг
##фини
##фические
корок
корейская
507
50х7
50х12
50х200
50x496
50х250
50x596
50x72x150
50x46
50x72x250
##205
##204
##2050
##2080
##шенной
перси
первич
переда
перчатки
перхлорвиниловая
типового
распорка
раскладка
257
25x3
2500х3
2500х2
2500х1
25x40
2592
25ГЮ
##оски
20А
20x2
2090
##озитный
неогранич
нежил
поковками
##истые
проек
404
40х6
##ительностью
15x2x0
15х10
1526
1557
15ПО
1500х2100
1500х1300
16x1
1625х150х220
##х1700
##литобетон
00Б
придорож
##рава
##нглик
замковым
замены
окр
оксфор
1000x1
1000x250
1000мм
1000х600
1000х63
1000x550
1000x330
1000x430
кВа
14x2
##80х230
##обетонных
двухв
двухзаходный
двухлопастное
двухотводной
двухщелевой
кати
катион
катодной
сменными
темная
##ъемной
арамид
500x300
500x65
##x135
##x1150
##x128
##x175
##x138
##x144
##x1350
справа
электронные
электропо
ручки
медь
905
90х40
##ерикл
##ноплод
##лополивини
##цованный
30з
30х0
30кч
30x2x1
30x72x150
1310
1380
1330
1317
1300х2100
1325х150х220
##x21
##x265
##x285
##x244
##x2650
##паковые
полимерную
установочная
Короткая
150x100
150х60
150х250
150х90
150х500
150х195
150x72x150
##сичных
ширма
4500х1980х300
400x600
400x65
400x470
200М
200с
200x50
250x400
250х100х
250х125
базовый
##форми
70х50
70x72x150
70x66x150
полом
полной
полами
80С
80А
80х1
80мм
однот
однотарифный
одноотводной
одноэтажных
водосбор
##рышник
60С
60х16
60х240
##чающий
321
327
32000
32x1
повышенная
повышенным
моче
##70бр
местный
300х100х
##аторы
##ающейся
##ливающая
гранитные
лицевая
профилю
110x60
110х80
110х90
30000
300x50
300x100
300x65
клинообраз
опт
опозна
изоляционных
##агон
##агнези
##исперси
353
357
3550
##опрепарат
0338
самор
120Б
120С
120°
120х12
##х340
##х395
##х300х800
переходники
токов
колес
колос
##ционными
террас
##утных
189
1880
1840
18х2
18ч2бр
2714
##рующимся
##ечной
##ластиковая
трехосной
трехстворчатая
95x496
95x396
Смычки
синтетическими
воздухонепроницаем
системный
755
752
75х63
0115
0168
176
173
17нг
17Г1
600x200
600x350
600x450
600x599
гидрат
246
24x1
24x2x1
IP21
##ующее
канатов
##аната
высокорас
высоконапол
цементная
комплектное
##х445
##х400х3000
##х400х350
22ГЮ
##томати
##ованно
19x2x1
19ПКВКтЭЭонг
парковый
парковое
400х4
400х300х
клемма
условных
зажима
76х5
211
2170
##огру
экраны
##ягкая
##устить
##симетрич
Крас
##тывающих
МКМ
максимального
6500х1980х300
160Д
удара
удельного
удельным
дверок
дверью
411
плите
наголов
10800
108х2
вентиляторов
800А
сервер
##x344
##x392
##x362
##x391
##x347
##x385x23
баллон
балочно
125х65
1255х330х70
2000х50
2000мм
фасада
632
638
63х50
изолированной
изолирующие
изолирующих
монтажных
примесь
приварным
5700
57х6
СТУ
СТВК
450х50
450x450
450х1350
активный
аксмин
42U
##12п
##12Е3
##изводительности
КВР
КВСМ
КВЛЦ
373
3750
350x490
350х400х350
СБн
##ошерст
высокопрочная
1200x400
1200x740
##х680
##х675
##х600х220
##x500xН
200х600
200х400х800
200х600х800
333
ЭПС
3000х12
3000х500х
3000х300х
3000х1250
вентиляционными
##рывающийся
видам
секционное
##полье
автоматической
порошкообр
телекоммуника
встроенные
производительностью
полиэфиров
твердость
сухарь
сборное
273х6
273х30
СП150
люков
лючка
состоит
##незитовый
блокировкой
сетками
сетевым
286
гидроизоляционного
КМ3
КМК
##16нж
898
891
##ихся
кровлей
построечных
измеряемых
измеряемый
надув
##х59
##х570
##удерживающий
##аботанном
##x150x2000
очистные
##x635
##x644
##x692
600х300х
700x400
700x700
700x450
##x42
##x49
##x4200
##x431
##x444
##x485x23
500х28
500х450
##ерсивным
постоянным
гидравлических
630х530
630х295х75
удлинительный
удлинителем
удлинительной
решетчатая
##85нж
##85х30
##85x635
##гибридная
557
5500х1980х300
КСС
КСВВ
КСБнг
КСВВнг
КСВЭВ
##низких
ПБ3
бесшовное
325х325
люминесцентная
наклонным
межплит
межколонные
##х1600х2300
гофротруб
брусками
брусьями
##ажей
1020х12
##ательных
1500мм
балконное
##х120х60
##фтный
рулонной
967
##корегули
уголков
1570х230х160
##ласта
##еститель
##х150х65
##х150х3000
резинового
Подкол
Подготов
Подушка
3600х1800
38х105
##пределители
2350
пружины
хриз
хреб
многопутных
##x792
261
267
светодиоды
349
мостах
0567
шестизначный
##x5000
##x570
##x527
##x568
##x544
многослойная
109x72x150
133х7
поперечинами
электрическими
130x25
130x72x150
130x66x150
##х830
магниев
магнезитовый
черноплод
##одержатель
##х70х115х60
колодцы
равносторон
полиуретановом
полиуретановое
сжиж
стеклош
армированием
армированными
464
468
469
торцевым
тораца
ПСБ
коррозионностойких
инсектицид
подвесами
подвесными
##x1005
МКСБ
МКСГ
530х10
750х116х130
тройное
тройниковый
тройниковая
##x200x300
Комплектующие
термоактиви
КНЭ
240х240
фанерными
работой
IP55
52x54
доменного
550х450
550х116х130
5000х19
5000х1350
5000х1050
4000х1600х2300
эластичной
426х45
продольный
литопонные
##ПБбШп
Шплинт
геокомп
двухкомпонентные
ассиметрич
промежуточный
промежуточно
51х51
прокладке
##щика
дисперс
кронштейне
полосой
##кардовым
обшивками
АПР
краям
крафт
##00х360
удлиненные
ограждение
92x96
патронах
ребер
МЛСП
##14нж
посадочный
конусами
шахтного
ленточная
##ециальное
сплошной
игруш
двуосной
двуxсторон
вибра
##х205
##х20х16
скалолаз
промышленные
воздуховоду
воздуховода
орех
Электроблоки
Электропанели
820х11
ПР2
ПРР
опалубочными
##х1280х230
061
292
293
291
оборудованные
картридж
карельская
дымовой
ЛС63
асфальтобетоне
ТЗБГ
IVу
##ляемым
входных
РПУ
МКРТУ
столбе
составов
составной
составным
неразрез
камень
камню
водостока
230х230
320х425
320х380
реверси
реверсивным
377х8
нитки
ниток
добавки
115Н
115х57
115х115х60
115х115х40
запирающей
волны
часов
сдвига
##x94
##x990
##x985x635
##00х165
47x75
механизированной
клеевая
специфические
ССВ
СКФ
полотно
поливинилсуль
тяговый
четырехгран
четырехканальный
микровыключат
##x84
##x87
##x840
расположении
ячейковые
хромосодержащ
хромитоп
маски
световозвращающими
ВТФ
ВТИ
##яющая
послед
599
5950
5960
59x72x150
штангой
##параты
грузового
83х2
теплоноситель
РОА
РОЧ
фильтрующей
##енсер
114х53
49x40
4900х16
##х65х135
КОД
струи
ультрафиолета
лифтового
лифтовой
растворимый
растворителе
сдвоенных
витражей
загазован
газонной
скрепленный
ПКО
рядов
##x3550
натяжные
натяжного
##44бк
рельсовый
кривых
всем
вскрыва
НСБ
штукатурных
несъемной
коммутационные
68x68
автомобильный
модифицированных
нагревателей
Старт
Ставни
отдельных
действующих
зондом
помощ
тканые
конструктивными
стяжкой
лаке
организ
61х4х0
##быстротверде
93А
Распределители
скобами
ламинированным
260А
тавровых
морской
##х30000
200х50х3000
##x496x495
84x5
метизами
жидкок
однопутной
однопутных
парапета
Диски
100х50х3000
165x72x150
165x66x150
900х300
900х200
900х250
900х900х
динасовый
парапетов
Д315
Рулоны
петлей
сливное
заглушка
светофорах
780x600
780x920
780x954
ПТР
2400x750
Котел
3х4М2
3х4М1
стеклянные
прутковым
прутьев
троллейбусные
ЗП100
ЗП150
МЛСУ
морозостойкости
50x50x150
50x50x27
50x50x341
50x50x161
50x50x183
50x50x254
смотровое
восьми
восстанав
##x296x495
буровую
оголовником
водопроводный
герметизирующими
##оцид
Стеклор
##x396x495
91х0
91x296
91x196
91x396
91x96
ПДСО
50x100x341
50x100x161
теплопроизводительности
700х300
700х400
700х150
700х250
700х900
импульсов
серия
устойчивое
штепсельный
##x30x1920
скамеек
химическим
Люстра
##x20x40
дистанционным
27087
270х116х130
1200х600х
710х310х100
нефте
грунтовочная
540х1280х230
силанов
светоотражающими
ПФК
заведений
электротехнического
нефтепродукт
##фланец
##андоап
1000х2100
##епроницаемых
калибр
калиевого
1х6М2
1х6М1
ДН19
Специальное
кладочных
отбойная
расширенной
расширительный
расширяющийся
##37п
Детектор
ВСт3кп
набортным
100x300x405
100x300x510
300х50х3000
узкий
узких
152х2
152x500x780
152x400x710
152x300x640
энергетический
выносной
142x496x495
142x296x495
142x396x495
АЗС
105x63x3000
105x63x2400
105x63x3200
105x63x2600
105x63x3600
105x63x2800
71х71
локальные
антикоррозионные
сторонами
двусторонние
двусторонней
520х900х
VIу
металлоконструкции
30с41п
30с42нж
4ПСт
аккумуляторных
100x100x100
100x100x205
100x100x310
##атывающая
##коростная
132x110
С1TF
разделительной
Конденсатор
Кондуктор
СОМ
СОА
ЦПО
радиаторная
100x400x291
100x400x610
100x400x505
##х595х105
800х300
800х200
800х250
800х900
800х700
800х800х
метакрил
треугольная
ОПС
ОПРСП
активированный
ячеистая
необслуживаемый
необходимых
1140x1154
1140x1374
127х2
Скамейка
КБч
КБУ
##рабатывающая
##жды
толстост
автономные
автономного
УВв
износостойкого
100x500x291
100x500x710
##x455
780x1154
780x1374
РВП
вязки
##Мц9
корундовый
типоразмера
калиброванные
2х4М1
500х80х3000
масляный
30ч6нж
30ч15бр
1140x600
1140x920
1140x954
структурой
ПН2
ПНТУ
КДУ
дюбельным
односкоростная
комплексная
##46x620
земля
37x63x500
37x63x400
37x63x300
скользящий
старогодный
ПМИ
ПМВГ
ПМЛП
пассивной
приемно
кирпиче
370х450
625х325х75
940x1154
940x1374
БПЦ
37x60x2000
37x60x900
37x60x1800
37x60x1200
коммутирующих
ФБП
КФПУ
КФЛЦ
М24x150
изменения
полиамино
задвижек
200x200x391
100x200x410
100x200x305
19265
400х50х3000
ВАК
жарочным
жаростойким
неравнопол
НТ320
антивандальное
правосторонний
Пластик
СМЦ
УКН
подвижный
##x1800x2600
термостатический
АСБлнУ
490х490
коврового
столярными
##х310х165
200х1000
200х100х2000
3х10мк
940x600
940x920
940x954
КЛ00
никелев
упрочнения
##хватыв
1150х116х130
Контрфланец
109x60x2000
109x60x1800
109x60x1200
каучуковая
ригельной
желтые
облегченная
алюмосиликатная
алюмосиликатные
НКК
НКТ
ПГС
ШАР
датчиков
паропроизводительность
кремнийорганических
кремнийорганической
02598
Стеклопластиковая
1000х290х510
1000х290х280
Теплообм
неармированные
быстросхватыв
скамейкой
утолщ
00536
00533
00556
шлифовальная
микрокапс
СЛУ
покрытого
покрытыми
шведской
терморасширяющийся
Насосные
пигментированная
Планки
приклейки
плинтусного
грязи
150х50х3000
штампованно
Опустить
дизельных
150x300x341
150x300x510
ППСРМ
92x496x500
92x296x500
92x196x500
92x396x500
бутылочная
П220
Уплотнение
##х230х175
пространственные
крылья
ШБР
1350х900
150x500x710
150x400x341
150x400x610
112х70х115х60
кранового
терморегулирующий
веществом
разноуровневые
бутилкаучука
Ат500С
Резиновая
ШКР
мусорокамер
марши
F121
ролика
роликовый
техпод
255х255
волнистый
кованая
17с6нж
17с7нж
17с16нж
200х200х60
200х200х600
200х200х40
200х200х400
200х200х200
потребляемый
посадочных
Б2100
РДБК
оксидированный
150х80х3000
11ч38п
11ч44бк
11ч37п
клапанами
сферический
##онитор
коронку
1340x920
вспучивающийся
цементации
ГВВС
ГВЛВ
Лестницы
теплообменных
пароизоляционный
древесноволокнист
410x330
Вишня
Трибуна
каждой
каждая
водяным
термитной
ЗПСп
технологическая
ОТ3сп
паркетная
паркетных
паркетными
разрезным
1580х150х110
углеродные
цельнокомпозит
состоящий
КСФ15
остаточного
##x55x75
неразъемный
орнаментованная
седан
седло
Акв
УП6
УПДК
##дающаяся
водонепроницаемая
МШТШ
Мойки
сверхнизких
сверхбыстротверде
146x45x75
146x45x144
146x45x244
146x45x344
146x45x644
146x45x444
146x45x544
595х595х105
##лацетальный
неметалли
выравнивающего
250x120x138
500х500х3000
500х500х800
500х500х160
интервалом
огнетушащим
руководителя
титана
учебных
защищаемый
калиток
32х25х25
компенсационные
колотым
KMПЭBЭнг
аудиов
европ
начальный
проникающего
параболической
концентратора
МКПпАБпШп
индивидуальный
распоры
35Т6
перильного
Ст1сп
быстрораз
87x54x640
87x54x750
87x54x550
87x54x650
87x54x760
87x54x540
##рельсовая
648x553
648x595x1000
3ВСС3
ДС1
Рамы
светонепроницаемых
конвертах
##x1480
##x1496
##x1944
17нж13нж
17нж6нж
17нж25нж
Пробки
Диффузор
энергосберегающими
620х595х105
биозащит
172х115х60
172х115х40
100х100х60
осадочных
25х20х20
катальная
гипсово
ВКРФ
поддерживающая
Коммута
Командоап
ОГК
ОГЦ
махагон
##99x1054
1270х65х135
2500х1250
неорганических
40х25х40
##х165х110
веревочный
Ст3кп4
Ст3кп2
##лизаторы
дымоходная
ОДОСПДх
телескопическим
475х625
ЗШБ
ЗША
галогенные
110x72x170
110x72x109
110x72x74
110x66x170
110x66x109
110x66x74
высокоадгез
цинкованием
чердаков
ПСтт
дублирующих
260x50x430
охранного
шунгизитобетона
200х100х60
суспензия
##иться
375x375x250
3КН
ЗВ4
РА16
##улированным
##ЛСЦ
##ертка
1230х100х95
1230х675
##x2232
однонаправленные
высокомагнези
дождеприемника
противоскользящими
стыкоперекрывающие
1xHDMI
1xVGA
ВГЦ
НББ
кроссы
регулятором
регуляторами
набух
500х350х25
доломита
фосфатированные
бакелитовой
хлопчатобумажные
265х310х120
2КУ
470х700
Микро
Микровыключат
Сливы
ХСФС
зубьями
##силокс
##ющегося
40х32х40
смывного
Разрядники
двухпутной
ГКЛО
обогащения
ЗКК
##89нж
однопрофильный
45x296x592
45x296x502
300х400х300
300х200х60
300х200х40
300х300х60
пенопласта
оповеститель
Смесители
02272
02273
##x650x180
ПС35П
криволинейный
криволинейные
##x496x880
50x50x235
50x50x263
##x396x780
АЗЕ086
1374x600
1374x954
бревенчатый
реставрационные
1хVGA
Аппараты
Аппаратура
Биопрепарат
Карб
Картридж
Полиэтилен
Ремни
аммиа
вилка
картоном
ящиками
##кивания
крюк
тематическое
250x250x188
складских
складируемый
##х52х138
частотой
термоусадочная
1000х190х180
1000х190х130
насыпью
каменноугольная
2х95мк
4НБ
PVC
ТБП
венчающий
грубошерст
пищ
рессорного
этилс
силоксана
1600х2500
широкая
качающегося
45x196x492
45x596x714
##х370х130
сервисных
цинконапол
влажной
влажных
нитрит
волнообразная
тампонажная
10У2
дискретного
1ДП
Торф
глянцевой
##шафтный
1000х250х310
электропроврод
60x60x60
самовыравнивающееся
удобрений
200х400х600
200х400х400
200х400х200
200х600х600
200х600х400
сухому
состаренного
антистатических
антистатического
настольный
настольной
##x595x2000
адгезионный
пневмопуском
такелажный
высокоэластичный
АОСО
2х120мк
645х330х70
веерные
льна
молочно
оперативного
солемера
диспетч
диспенсер
45x96x332
400x200x90
клещевидным
гравийно
Термопластики
50x100x213
50x100x235
50x100x326
625х625х95
15кч19п
15кч19п1
15кч19п2
органораз
мультигибридная
ЦААБл
змейка
змейки
пульта
слева
слесарный
томпаковые
подстолий
колпачок
колпачки
Коннекторы
722х285х30
манометры
эмульсии
Электросоеди
объектов
червячным
Граница
П330н
4658
Акарицид
Барбарис
Тяга
прутов
1240х295х75
подполий
положении
300х300х3000
300х500х300
шплинты
вентиляторам
600х500х60
##ротруба
торфа
948x553
948x595x1000
50x100x304
эффективный
800х600х204
2А6АП
648x367
кокосовых
100х400х400
рентгенозащитное
высокоогнеупорный
нетоксичных
дезинф
силоксановой
07037
ДАО21
Прижим
пусковой
пускорегули
пункта
релейный
слюды
припасовочные
100х600х600
12зо
456x450
80x80x80
косоуров
110х63х110
перекрест
перекрестный
##х650х230
200х200х800
500х317х36
автопавильона
сальниковыми
амидоаминов
асимметричным
истирающие
1Х4Е3
1Х6Е3
ЗМКР
НлФ
Нащельник
Нащельники
ЭКН
павильонами
фенолополивини
центру
центровая
##бурные
разворот
разворота
разбавления
##олибденовых
испыта
испытывающих
90х75х60
150х600х600
70x54x350
70x54x340
80x54x450
80x54x440
60x54x250
60x54x240
высокоточной
высокотекуч
350x350x445
500х615
малогабаритная
##x599x128
черепными
полотенец
МГНМс
оголовнике
152x150x362
152x150x527
демонстрационный
демонстрационные
ГКТII
ГКТIII
A312M
тактильные
1374x1154
1374x1374
нитроцеллюлозным
500х633х35
500х633х46
240х280х100х60
240х280х100х40
микростеклошариками
микростеклошариков
междупутного
5ПСт
гаражей
полиаминного
подключаемых
полумягкая
самосрабатывающая
коллективная
1735x985x635
термоупроч
термометры
непористым
водоотталкивающая
##х86х60
отверждающихся
диффузным
кондуктометра
БрАМц9
гальванизированным
куполообразная
пассивированной
антенн
грязевики
высокоглиноземистый
16ч6п
ТЭНа
Т10УОП
локомотивная
подвергающихся
одноступенчатые
длинна
2ПС35
2хоп
Вешал
Зубило
мембраной
раковин
сопла
текучести
этиленпропиле
##этано
подливочные
электролитом
каустический
напряженного
45x496x643
45x396x573
250x200x250
однофидерный
##х242х130
вермикулитобетон
трехфазного
шпинелидных
предназнач
машины
500х417х36
##х700х700
зернистость
пигментная
202x200x412
142x146x495
192x196x654
кулачковые
МКПпВБЭп
ОДОСПО12
рычагом
подстольем
25ТСОЭ3
водоразбавляемая
ПХКЦ
648x395x2000
дезинфицирующее
туалетной
многокомпонентный
антиконденсатное
КПВЛ
Сплавы
Усилитель
Штапик
включая
гелиевым
громкоговорящего
мячом
пентафталевый
робот
тюбингов
фонтанов
цистерн
##АКпШп
стирольная
клыковой
полисульфидный
подступенком
триплекс
переработанном
перехватом
алюминированным
двухполотным
Плинты
вертушки
скребком
600x399x1054
наклеивании
1930х730
потолочно
лопатка
600х500х120
межкомнатный
двухдисковым
отверждаемая
пластификаторов
550х550х100
эластичность
коротыши
вращательно
силикатизированной
загрузочный
877x599x128
полуавтомати
негабаритные
брекчиевидные
Крепежная
цельнолитая
МШБЛГ
соломы
карбонизации
малосурьмянистые
обезжиривания
ясеня
фотолюминесцентным
органоминеральное
водоразборный
асимметричное
победитовое
полиизоцианатного
войлочной
водорастворимый
андезитовый
заслонкой
1200х1200х1200
Base
MG20
SMA
±36°
Боярышник
Гофротруба
Делиниатор
Жгут
Жимолость
Жесть
Километровые
Мишень
Модификатор
Н114
Неровность
Напольное
Пестик
Солома
Спрей
Сеянец
ТЭСС
ХНФС
Хоккей
Цветник
Централизаторы
Шпагат
ацетилена
бассей
библиот
бородав
вешний
духовым
жаккардовым
косынки
клавиату
левосторонний
ложка
ландшафтный
мэо
мама
одежды
пользов
палая
рандомсополимера
тетивы
тамбурные
флагов
флизели
художеств
электровоз
элеватора
японская
##оопасных
##блоня
##×97×68
##стерским
диаммоний
избиратель
пряжечный
безлотковый
размер50х1
100x102x291
100x496x400
100x296x400
100x196x400
100x396x400
100x202x291
обладающий
отбурок
выпрями
10x65x100
закольцованный
##полагаемый
50x496x331
50x596x331
персик
2592x1944
неограниченным
нежилых
придорожные
##нгликоля
оксфорд
арамидно
электропоезде
30кч70бр
150х90х60
250х100х250
водосборная
клинообразная
опознав
##исперсионная
воздухонепроницаемая
17Г1С
600x599x1054
гидратная
высокорасполагаемый
наголовник
примесью
аксминстерским
КВСМВ
порошкообразный
надувом
600х300х150
500х450х25
межплиточных
гофротрубы
Подколенники
Подготовиться
130x25x84
черноплодная
торацах
термоактивирующимся
52x54x140
5000х1950
геокомпозитный
ассиметричные
92x96x500
игрушек
скалолазания
реверсии
115х57х60
47x75x100
поливинилсульфона
хромитоперикл
114х53х86х60
4900х1600х2300
загазованности
вскрываемых
помощью
жидкокр
2400x750x900
50x50x276
восстанавливающая
520х900х990
КФПУЦ
Теплообменник
микрокапсулированным
техподполье
255х255х16
древесноволокнистыми
410x330x180
цельнокомпозитным
сверхбыстротвердеющие
146x45x754
биозащитной
Коммутатор
Командоаппараты
1230х675х125
высокомагнезиальный
Микровыключатели
грубошерстный
электропровродки
органоразбав
722х285х306
Акарициды
фенолополивинилацетальный
высокотекучие
этиленпропиленового
877x599x1284
Хоккейная
библиотечный
электровозе
1х19
4т
4АтVТ
513
612
827
9А
985
B500C
Б1500
ЛПП
Л23
РФ
Ти
вольфрам
ее
##±40
##номер
размеров
##еплет
1217
50Ш
20Б
20С
20К
20Ш
исходной
30У
60Б
60АтV
322
352
27П
271
27У
##ничные
Переплет
22П
656
636
885
424
332
холоднодеформи
482
комбинированным
559
367
38х38
238
237
629
измерительная
094
341
равная
514
асфальтовая
монорель
ЛСВ
746
472
транспортерных
598
783
074
072
Полу
6160
ПТО
ТЛВ
ограды
дуговой
междушпального
биокоррози
козырьков
гранулятом
пленкообразующая
блочная
рудничные
ростверков
сумма
Переплеты
холоднодеформированная
монорельсы
биокоррозии
0x0
095
0x4
071
0х300
0x30
1x2
1x150
1x400
1х40
1x18
1х58
1x36
2в
2Х
2x3
2x150
2х7
2x120
2х80
2x40
2х30
2x35
2ПКВКтнг
2x55
2х39
2ПКВтпЭнг
3х
3х3
317
3сп
313
3х8
3КП
4Х
4ПКВ
4x250
4ПКВКтЭЭонг
5е
5Т
5Э
5х3
522
5мм
5ЛВ
6В
6x1
6600
6х2
6x6
6ПКВтнг
6фэ
7Н
725
7100
732
7800
731
7700
7ПКВКтЭЭонг
700х1400
8Д
8х2
8100
8400
822
8x4
824
8x18
8x29
9х0
995
9800
900х2х0
AHD
B35
D2
D150
D250
DSL
E1
EK
EX
F40
F96
F35
F71
F31
F44
Iк
Iн
M350
Py
R38
W1
kN
ke
pl
ze
Ац
А600
А400
А800
АПП
АЭС
Боб
Брон
БМ2
В0
Вал
В95
Вращ
Вагонка
ВФЧ
ГЗ
Город
Греб
ДЛ
ДФ
Дерев
Днищ
ДЛ1
ДЦП
Дюра
Е2
Жер
ЗБ
Зав
ЗВС
ЗАП
Завес
ЗИО
ИГП
Кл
КХ
Кров
К200
Кювет
ЛЦ
ЛХ
Лом
Лат
Лип
ЛЭВ
Леса
Лаки
Ма
М7
МВ
МЧ
Мол
Мор
Моль
Мети
Молок
Мембра
МВО
Монитор
Н4
НМ
НЗ
Ник
НКВ
НРС
Н57
НАП
НМШ
Ор
Пла
Пло
Пут
П800
Пунк
Плата
Писсуар
РБ
РШ
Род
Р60
РСП
РПП
Р24
СЭ
СЕ
Сам
Сал
Сух
Сик
СМС
Сульфат
Содержащ
Топ
ТПБ
ТРВ
ТМК
ТНТ
Тополь
Тисс
УЭ
У11
УСО
У500н
Ф4
Ф1
Фас
Фот
Фарт
ФПП
ФОС
ФМШ
ХП
ХЧ
ХФ
Хлор
ХПЦ
Ц0
Ц2
ЦШ
Циф
ЦМС
ЦВП
Цеолит
Шел
ШКС
ШТТ
ШРН
ШОП
ЭМ
Эфи
ЭКБ
Яблоня
амер
бв
бит
бего
вп
вент
вул
вести
вельвет
гам
губ
гром
граб
гашеная
генератор
дори
делини
золот
иголь
коп
коля
каска
километр
кОМ
лез
лейки
логи
мс
мВ
ман
монта
мыш
моечная
ош
пу
пуч
пенный
рук
рих
реци
роллер
режущ
релейной
рефнет
са
сель
соли
соля
срав
сып
сгор
съемным
сушка
сурик
тю
тов
твер
торм
тоск
у3
упорная
уклад
узлом
улож
ухода
умень
филе
фекальные
ферросили
ход
цикл
черных
чеш
ярус
№50
№18
№12
№45
№16
##елю
##ееся
##гк
##гатор
##уж
##утиле
##ушенной
##л0
##лочных
##ллятор
##иц
##иля
##ичный
##иями
##ирующей
##иловым
##рку
##регулятор
##рги
##оуг
##ван
##вого
##выс
##кви
##клемм
##клет
##кроб
##кВт
##кнуты
##03
##010
##фя
##фина
##фур
##феры
##фоном
##фесси
##эм
##эстер
##мой
##мом
##мен
##мель
##местные
##5х160
##515бр
##4C
##485
##4x1894
##2бк
##200х220
##хтовый
##бю
##блок
##бПнг
##билиз
##брызг
##блочных
##б2бк
##али
##алитные
##ду
##дит
##держ
##дазолинов
##йт
##йно
##йский
##610
##640
##6АП
##БМ
##Сб
##СЦ
##СЛ
##МО
##865
##8п2
##930
##9п2
##ненного
##нтового
##нчатые
##зок
##золь
##ытий
##ьевой
##тО10
##см
##са
##сор
##сит
##ско
##сип
##содержащ
##жного
##ПА
##ПТ
##ПIII
##118
##110П
##74
##79
##720
##7УЗ
##поли
##провод
##пос
##пак
##пур
##пчатая
##пека
##пинелид
##ъез
##А08
##цам
##цати
##яная
##яному
##Iн
##IT
##КИ
##част
##чковый
##чивания
##ч4нж
##чуж
##шаяся
##ВХ
##У2
##УП
##УК2
##НН
##НЫ
##Н10
##ЗПБ
##ЗБМ
##Х19
##ЛТ
##ЛД
##Т0
##ТМ
##ТН
##ЭР
##Д3
##ДЦ
##ДШ1
##О1
##Ол0
##ИК
##FT
##FS1
##×205
##ES1
##ныx
##норас
##нокис
##нооборотный
##над
##нащ
##овом
##овидные
##стные
##стекла
##стака
##льтр
##льными
##никовое
##ерен
##ерти
##ерзания
##етом
##еток
##етник
##оледа
##олнооборотный
##оров
##амми
##листная
##омати
##омолибденовых
##омкнуты
##одный
##одных
##одав
##одъемные
##леем
##леенный
##лесси
##аспадающаяся
##еняющ
##анта
##анент
##анельных
##качивания
диаб
диамитовый
диван
##лястры
назем
нарезка
начал
надвижная
изв
изверж
изогнутый
##атный
##атной
##ативной
##опеди
##стиллятор
##азрыв
##арная
##арки
##арник
##арочный
##аряд
станок
прес
прерыв
##чением
##честой
##оксид
##абля
##цитов
##емкость
##езонное
##езависим
##ровочной
##ровозащищенный
толкатель
толевые
толщину
##меритель
##рая
##нению
##микроб
##ниях
##ассаж
##отвер
##отбор
##отехни
##отверд
##отри
##лал
##лайт
раздвиж
разрядные
разбрызг
разомкнуты
клуб
##ейт
##ити
##итем
##итовые
##ития
##итковые
##остат
##кованный
##едер
##трес
##тифи
##тирующим
##тирного
##обитум
##обоев
##обутиле
##рубная
##руббер
##507нж
##ностроения
##ческому
##ложе
##кона
100000
100х10
100x150
100х250
100х800
100х700
100х200х3000
100х300х3000
100Р1
безопасности°C
обита
откачивания
отложе
##рованно
##есов
##есклет
##есезонное
выч
выда
выдвиж
вызы
выдерж
##альном
##альник
##роката
##елевая
10М
10Г
1010
1070
1017
10500
1022
1016
10x6
10х12
10х75
10кп
10Iн
##евной
полииз
полиминер
полировки
полисилокс
##овыхода
##инное
свеса
свесов
12300
1227
12ПО
1200х2100
##ходу
##изатор
концов
контур
контура
запа
заливки
##ухштырьковый
тепла
##сона
соль
##люмом
подкра
##00х25
##00х11
трубный
##адки
оснащ
внутрик
##егнирования
тренаж
##филам
##фильтр
##ольно
##ольтных
корабля
##ентная
502
50х10
50х16
50АтV
50х300х
##20х30
##шенных
первой
персона
горная
основным
типовой
раскат
2580
25x1
25x2
25х5
2572
##осм
##осяной
20Л
20Э
20x1
20х25
2011
20x40
20кВ
##озаг
##прамитовый
##прегнирования
покрыв
##истом
##истка
##исток
##истем
##истых
##истость
##иставка
прокатной
професси
403
407
40В
40Э
40х10
40х15
1510
15х4
15x5
15х250
1680
1670
1690
1600х1000
16нж10
16х20х16
##х1600
##х128
шихтовый
0095
##учук
прис
пригруз
##равливания
##лапчатая
замерзания
1000х7
1000x300
1000х3000
1000х2000
1000х900
1000х650
крюч
кристал
кристаллический
нержавеющего
14А
1480
1417
1424
14АС
1400х2100
14ПКВКтнг
плотной
##80x1400
##80х1190х220
##вертер
двухцвет
двухзначный
двухраст
двухтрубных
##торная
устоев
темы
минеральное
аромати
500с
500А
50000
500x1
500x2
500x2x0
500x150
500x200x80
##x113
##x1250
##x168
##x123
##x152
электроли
электроконтак
ручные
медлен
повис
9030
90х50
9045
90х12
порог
30Л
30х1
30х5
30x50
30x25
30х15
30Сб
1360
1390
1395
1375
1323
1300х13
##x280
##x2300
##x215
##x295
##x2900
##x221
полимерцементный
полимернапол
полимерсили
150М
15020
150х20
150х600
150х800
150х700
150х1000
150х900
##урпур
##товарник
ширину
400x300
400x122
400x300x250
##нительные
маркировочной
250x300
250х300
250х600
250х800
250х700
250х1000
250х900
250х95х65
##25Н
расходомер
##форная
70Е
70x160
11П
1125
1170
1117
11200
1124
11Б1
резца
резака
резистор
809
807
80Г
80х44
однослойная
одноярусные
вода
водос
водотверд
##30х2000
трубопроводная
огнеупорных
60х20
60х12
60x27
605х195х75
60х23
60х480
окрашенных
окрашенном
фланцы
##олокно
металлизированной
ПВЛ
Свисток
32х5
32х12
32x30
ковра
ковровых
ковроли
кованное
теплоизоляция
##щади
##ВГЭнг
##х2600
##х2200
##х285
##х2400х
##х248
##х284
##70х8
болтовая
местные
300х800
300х900
300х700
300х1000
300х640
##ающее
##чатель
ликви
линиях
профильный
тепловыми
1104
110х60
110х32
110х110
300x3
300x400
300x600
300x1102
Израз
Измеритель
материальное
КЗМ
кабин
изоляция
изоляционный
КЗСВГ
средние
среднер
##184
##189
бескон
беседки
35А
3580x1400
##оприставка
стойкого
031
03А
03ВЕ
самолета
коробка
коробке
120Д
120±30
##х390
##х300х350
контррель
переходниками
##иканка
##вартирного
волокно
соединительных
##ьбы
##умбовый
ускор
сигнальное
сигналами
ними
пенополистирол
растяж
Отраж
Отсос
бетоно
высушенной
тертый
181
18А
18600
2768
2764
цветном
##155
##158
##15А
##ечки
##адистиллятор
шариков
шариками
крышные
крышками
Концовка
трехлопастное
трехзначная
трехместный
трехлапчатая
955
959
95x405x60
956х410
внешняя
Смещ
##дации
системам
системного
753
75х6
75х12
75х32
75x75
шиберы
1780
1760
1715
600x2x0
600x2000
600x300
600x1200
600x140
##ильного
##ещания
стеклопакетов
гидром
гидрок
наклей
экстр
оптическое
24С
##ующей
##ующим
##ующий
связь
##ентицид
термодинами
профилями
канаты
728
723
[...]
